{
  "version": "1.0",
  "truncation": null,
  "padding": null,
  "added_tokens": [
    {
      "id": 0,
      "content": "[UNK]",
      "single_word": false,
      "lstrip": false,
      "rstrip": false,
      "normalized": false,
      "special": true
    }
  ],
  "normalizer": {
    "type": "NFKC"
  },
  "pre_tokenizer": {
    "type": "Metaspace",
    "replacement": "▁",
    "prepend_scheme": "always",
    "split": true
  },
  "post_processor": null,
  "decoder": {
    "type": "Metaspace",
    "replacement": "▁",
    "prepend_scheme": "always",
    "split": true
  },
  "model": {
    "type": "BPE",
    "dropout": null,
    "unk_token": "[UNK]",
    "continuing_subword_prefix": null,
    "end_of_word_suffix": null,
    "fuse_unk": false,
    "byte_fallback": false,
    "ignore_merges": false,
    "vocab": {
      "[UNK]": 0,
      "\n": 1,
      "!": 2,
      "\"": 3,
      "#": 4,
      "$": 5,
      "%": 6,
      "&": 7,
      "'": 8,
      "(": 9,
      ")": 10,
      "*": 11,
      "+": 12,
      ",": 13,
      "-": 14,
      ".": 15,
      "/": 16,
      "0": 17,
      "1": 18,
      "2": 19,
      "3": 20,
      "4": 21,
      "5": 22,
      "6": 23,
      "7": 24,
      "8": 25,
      "9": 26,
      ":": 27,
      ";": 28,
      "<": 29,
      "=": 30,
      ">": 31,
      "?": 32,
      "A": 33,
      "B": 34,
      "C": 35,
      "D": 36,
      "E": 37,
      "F": 38,
      "G": 39,
      "H": 40,
      "I": 41,
      "J": 42,
      "K": 43,
      "L": 44,
      "M": 45,
      "N": 46,
      "O": 47,
      "P": 48,
      "Q": 49,
      "R": 50,
      "S": 51,
      "T": 52,
      "U": 53,
      "V": 54,
      "W": 55,
      "X": 56,
      "Y": 57,
      "Z": 58,
      "[": 59,
      "\\": 60,
      "]": 61,
      "^": 62,
      "_": 63,
      "`": 64,
      "a": 65,
      "b": 66,
      "c": 67,
      "d": 68,
      "e": 69,
      "f": 70,
      "g": 71,
      "h": 72,
      "i": 73,
      "j": 74,
      "k": 75,
      "l": 76,
      "m": 77,
      "n": 78,
      "o": 79,
      "p": 80,
      "q": 81,
      "r": 82,
      "s": 83,
      "t": 84,
      "u": 85,
      "v": 86,
      "w": 87,
      "x": 88,
      "y": 89,
      "z": 90,
      "{": 91,
      "|": 92,
      "}": 93,
      "~": 94,
      "°": 95,
      "·": 96,
      "Ö": 97,
      "ß": 98,
      "á": 99,
      "â": 100,
      "æ": 101,
      "ç": 102,
      "è": 103,
      "é": 104,
      "í": 105,
      "ñ": 106,
      "ö": 107,
      "ü": 108,
      "ā": 109,
      "ī": 110,
      "İ": 111,
      "Ś": 112,
      "ś": 113,
      "ţ": 114,
      "ū": 115,
      "ș": 116,
      "ə": 117,
      "ɦ": 118,
      "ɪ": 119,
      "ɾ": 120,
      "ʊ": 121,
      "ʼ": 122,
      "ˈ": 123,
      "ː": 124,
      "́": 125,
      "ί": 126,
      "α": 127,
      "δ": 128,
      "θ": 129,
      "ν": 130,
      "ο": 131,
      "π": 132,
      "ς": 133,
      "ό": 134,
      "ँ": 135,
      "ं": 136,
      "ः": 137,
      "अ": 138,
      "आ": 139,
      "इ": 140,
      "ई": 141,
      "उ": 142,
      "ऊ": 143,
      "ऋ": 144,
      "ऍ": 145,
      "ए": 146,
      "ऐ": 147,
      "ऑ": 148,
      "ओ": 149,
      "औ": 150,
      "क": 151,
      "ख": 152,
      "ग": 153,
      "घ": 154,
      "ङ": 155,
      "च": 156,
      "छ": 157,
      "ज": 158,
      "झ": 159,
      "ञ": 160,
      "ट": 161,
      "ठ": 162,
      "ड": 163,
      "ढ": 164,
      "ण": 165,
      "त": 166,
      "थ": 167,
      "द": 168,
      "ध": 169,
      "न": 170,
      "प": 171,
      "फ": 172,
      "ब": 173,
      "भ": 174,
      "म": 175,
      "य": 176,
      "र": 177,
      "ल": 178,
      "ळ": 179,
      "व": 180,
      "श": 181,
      "ष": 182,
      "स": 183,
      "ह": 184,
      "़": 185,
      "ा": 186,
      "ि": 187,
      "ी": 188,
      "ु": 189,
      "ू": 190,
      "ृ": 191,
      "े": 192,
      "ै": 193,
      "ॉ": 194,
      "ॊ": 195,
      "ो": 196,
      "ौ": 197,
      "्": 198,
      "।": 199,
      "०": 200,
      "१": 201,
      "२": 202,
      "३": 203,
      "४": 204,
      "५": 205,
      "६": 206,
      "७": 207,
      "८": 208,
      "९": 209,
      "॰": 210,
      "ঁ": 211,
      "ং": 212,
      "ঃ": 213,
      "অ": 214,
      "আ": 215,
      "ই": 216,
      "ঈ": 217,
      "উ": 218,
      "ঊ": 219,
      "ঋ": 220,
      "এ": 221,
      "ঐ": 222,
      "ও": 223,
      "ঔ": 224,
      "ক": 225,
      "খ": 226,
      "গ": 227,
      "ঘ": 228,
      "ঙ": 229,
      "চ": 230,
      "ছ": 231,
      "জ": 232,
      "ঝ": 233,
      "ঞ": 234,
      "ট": 235,
      "ঠ": 236,
      "ড": 237,
      "ঢ": 238,
      "ণ": 239,
      "ত": 240,
      "থ": 241,
      "দ": 242,
      "ধ": 243,
      "ন": 244,
      "প": 245,
      "ফ": 246,
      "ব": 247,
      "ভ": 248,
      "ম": 249,
      "য": 250,
      "র": 251,
      "ল": 252,
      "শ": 253,
      "ষ": 254,
      "স": 255,
      "হ": 256,
      "়": 257,
      "া": 258,
      "ি": 259,
      "ী": 260,
      "ু": 261,
      "ূ": 262,
      "ৃ": 263,
      "ে": 264,
      "ৈ": 265,
      "ো": 266,
      "ৌ": 267,
      "্": 268,
      "ৎ": 269,
      "০": 270,
      "১": 271,
      "২": 272,
      "৩": 273,
      "৪": 274,
      "৫": 275,
      "৬": 276,
      "৭": 277,
      "৮": 278,
      "৯": 279,
      "ం": 280,
      "ః": 281,
      "అ": 282,
      "ఆ": 283,
      "ఇ": 284,
      "ఈ": 285,
      "ఉ": 286,
      "ఋ": 287,
      "ఎ": 288,
      "ఏ": 289,
      "ఐ": 290,
      "ఒ": 291,
      "ఓ": 292,
      "ఔ": 293,
      "క": 294,
      "ఖ": 295,
      "గ": 296,
      "ఘ": 297,
      "చ": 298,
      "ఛ": 299,
      "జ": 300,
      "ఞ": 301,
      "ట": 302,
      "ఠ": 303,
      "డ": 304,
      "ఢ": 305,
      "ణ": 306,
      "త": 307,
      "థ": 308,
      "ద": 309,
      "ధ": 310,
      "న": 311,
      "ప": 312,
      "ఫ": 313,
      "బ": 314,
      "భ": 315,
      "మ": 316,
      "య": 317,
      "ర": 318,
      "ల": 319,
      "ళ": 320,
      "వ": 321,
      "శ": 322,
      "ష": 323,
      "స": 324,
      "హ": 325,
      "ా": 326,
      "ి": 327,
      "ీ": 328,
      "ు": 329,
      "ూ": 330,
      "ృ": 331,
      "ె": 332,
      "ే": 333,
      "ై": 334,
      "ొ": 335,
      "ో": 336,
      "ౌ": 337,
      "్": 338,
      "ṅ": 339,
      "ṇ": 340,
      "Ṛ": 341,
      "ṣ": 342,
      "ṭ": 343,
      "Ἰ": 344,
      "‌": 345,
      "‍": 346,
      "‎": 347,
      "–": 348,
      "—": 349,
      "‘": 350,
      "’": 351,
      "“": 352,
      "”": 353,
      "†": 354,
      "•": 355,
      "′": 356,
      "‹": 357,
      "›": 358,
      "⁡": 359,
      "₹": 360,
      "↑": 361,
      "−": 362,
      "▁": 363,
      "﻿": 364,
      "wi": 365,
      "ki": 366,
      "wiki": 367,
      "di": 368,
      "dia": 369,
      "or": 370,
      "ht": 371,
      "tp": 372,
      ":/": 373,
      "http": 374,
      "://": 375,
      "](": 376,
      "](http": 377,
      "s://": 378,
      "pe": 379,
      "](https://": 380,
      "g/": 381,
      ".or": 382,
      ".org/": 383,
      "pedia": 384,
      ".wiki": 385,
      ".org/wiki": 386,
      ".org/wiki/": 387,
      ".wikipedia": 388,
      ".wikipedia.org/wiki/": 389,
      "▁[": 390,
      "te": 391,
      "▁\"": 392,
      "\")": 393,
      "en": 394,
      "in": 395,
      "an": 396,
      "on": 397,
      "ti": 398,
      "In": 399,
      "ar": 400,
      "hi": 401,
      "al": 402,
      "er": 403,
      "th": 404,
      "20": 405,
      "ার": 406,
      "re": 407,
      "India": 408,
      "](https://en": 409,
      "](https://en.wikipedia.org/wiki/": 410,
      "▁|": 411,
      "ci": 412,
      "es": 413,
      "ार": 414,
      "](https://b": 415,
      "of": 416,
      "](https://hi": 417,
      "](https://hi.wikipedia.org/wiki/": 418,
      "্র": 419,
      "▁क": 420,
      "](https://bn": 421,
      "](https://bn.wikipedia.org/wiki/": 422,
      "tion": 423,
      "য়": 424,
      "▁-": 425,
      "▁(": 426,
      "्र": 427,
      "te_": 428,
      "ভার": 429,
      "ভারত": 430,
      "#ci": 431,
      "#cite_": 432,
      "om": 433,
      "the": 434,
      "is": 435,
      "్ర": 436,
      "भार": 437,
      "भारत": 438,
      "and": 439,
      "](https://te": 440,
      "](https://te.wikipedia.org/wiki/": 441,
      "▁of": 442,
      "্য": 443,
      "ou": 444,
      "▁the": 445,
      "as": 446,
      "▁स": 447,
      "ের": 448,
      "ri": 449,
      "ార": 450,
      "19": 451,
      "no": 452,
      "le": 453,
      "\\_": 454,
      "201": 455,
      "▁India": 456,
      "**": 457,
      "oo": 458,
      "ac": 459,
      "ate": 460,
      "](https://en.wikipedia.org/wiki/India": 461,
      "▁म": 462,
      "id": 463,
      "्य": 464,
      "ve": 465,
      "OT": 466,
      "am": 467,
      "200": 468,
      "-1": 469,
      "li": 470,
      "ation": 471,
      "বি": 472,
      "▁স": 473,
      "at": 474,
      "ent": 475,
      "-0": 476,
      "▁in": 477,
      "ాల": 478,
      "▁C": 479,
      "si": 480,
      "ww": 481,
      "ref": 482,
      "তি": 483,
      "रा": 484,
      "note": 485,
      "▁प": 486,
      "র্": 487,
      "#cite_ref": 488,
      "#cite_note": 489,
      "ge": 490,
      "ন্": 491,
      "▁and": 492,
      "\n\n": 493,
      "](https://bn.wikipedia.org/wiki/ভারত": 494,
      "st": 495,
      "[[": 496,
      "్య": 497,
      "▁p": 498,
      "fi": 499,
      "we": 500,
      "భార": 501,
      "భారత": 502,
      "▁A": 503,
      "దే": 504,
      "#cite_ref-": 505,
      "#cite_note-": 506,
      "com": 507,
      "lin": 508,
      "దేశ": 509,
      "▁প": 510,
      "స్": 511,
      "▁S": 512,
      "ें": 513,
      "ad": 514,
      "ान": 515,
      "et": 516,
      "▁ప": 517,
      "ed": 518,
      "ান": 519,
      "ook": 520,
      "र्": 521,
      "▁के": 522,
      "▁s": 523,
      "lo": 524,
      "edi": 525,
      "](https://hi.wikipedia.org/wiki/भारत": 526,
      "సా": 527,
      "\"),": 528,
      "▁ह": 529,
      "ing": 530,
      "▁c": 531,
      ").": 532,
      "ర్": 533,
      "ক্": 534,
      "▁P": 535,
      "्त": 536,
      "▁t": 537,
      "▁[↑": 538,
      "web": 539,
      "um": 540,
      "ni": 541,
      "red": 542,
      "న్": 543,
      "78": 544,
      "IS": 545,
      "ory": 546,
      "10": 547,
      "=1": 548,
      "ur": 549,
      "▁b": 550,
      "edit": 551,
      "ch": 552,
      "link": 553,
      "ang": 554,
      "action": 555,
      "action=": 556,
      "action=edit": 557,
      "ter": 558,
      "BN": 559,
      "&red": 560,
      "?action=edit": 561,
      "link=1": 562,
      "&redlink=1": 563,
      "?action=edit&redlink=1": 564,
      "ver": 565,
      "ISBN": 566,
      "enti": 567,
      "▁f": 568,
      "ce": 569,
      "ul": 570,
      "স্": 571,
      "he": 572,
      "या": 573,
      "ীয়": 574,
      "िक": 575,
      "ra": 576,
      "identi": 577,
      "ত্র": 578,
      "fier": 579,
      "identifier": 580,
      "us": 581,
      "ist": 582,
      "▁में": 583,
      "▁m": 584,
      "কা": 585,
      "▁**": 586,
      "identifier)": 587,
      "లు": 588,
      "ीय": 589,
      "chi": 590,
      "FO": 591,
      "ro": 592,
      "of_": 593,
      "ons": 594,
      "NOT": 595,
      "OTNOT": 596,
      "FOOTNOT": 597,
      "FOOTNOTE": 598,
      "_of_": 599,
      "రా": 600,
      "▁अ": 601,
      "978": 602,
      "রা": 603,
      "▁|\n": 604,
      "00": 605,
      "▁1": 606,
      "it": 607,
      "▁|\n|": 608,
      "),": 609,
      "াল": 610,
      "21": 611,
      "টি": 612,
      "দ্": 613,
      "▁অ": 614,
      "▁M": 615,
      "భారతదేశ": 616,
      "-0)": 617,
      "cal": 618,
      "w.": 619,
      "our": 620,
      "▁T": 621,
      "ों": 622,
      "▁R": 623,
      "বা": 624,
      ".శ": 625,
      ".శ.": 626,
      "_(": 627,
      "il": 628,
      "లో": 629,
      "సా.శ.": 630,
      "chive": 631,
      "www.": 632,
      "ol": 633,
      "▁ম": 634,
      ".com": 635,
      "वि": 636,
      "pg": 637,
      "▁క": 638,
      "ना": 639,
      "res": 640,
      "▁*": 641,
      "25": 642,
      "india": 643,
      "cial": 644,
      "▁ज": 645,
      "▁২": 646,
      ".\n": 647,
      "age": 648,
      "▁w": 649,
      ".g": 650,
      "्ष": 651,
      "▁201": 652,
      ".com/": 653,
      ".j": 654,
      "un": 655,
      "ाल": 656,
      "త్ర": 657,
      "▁B": 658,
      "_क": 659,
      "23": 660,
      "em": 661,
      "ooks": 662,
      "▁है": 663,
      "ాలు": 664,
      "రి": 665,
      "]](https://en.wikipedia.org/wiki/India": 666,
      "క్": 667,
      "▁द": 668,
      "es/": 669,
      "সা": 670,
      "▁D": 671,
      "ంద": 672,
      "হা": 673,
      "](https://en.wikipedia.org/wiki/India#cite_ref-": 674,
      "]](https://en.wikipedia.org/wiki/India#cite_note-": 675,
      "tic": 676,
      "▁a": 677,
      "ని": 678,
      "त्र": 679,
      "▁to": 680,
      "▁వ": 681,
      "▁\"ভারত": 682,
      "িক": 683,
      "राज": 684,
      "ateg": 685,
      "न्": 686,
      "ेश": 687,
      "দ্ধ": 688,
      "ategory": 689,
      "▁ক": 690,
      "िया": 691,
      "26": 692,
      "ategory:": 693,
      "ty": 694,
      "ক্ষ": 695,
      "ment": 696,
      "·**": 697,
      "▁**·**": 698,
      "▁ত": 699,
      "ay": 700,
      "archive": 701,
      "24": 702,
      "और": 703,
      "IT": 704,
      "ల్": 705,
      "▁উ": 706,
      "▁•": 707,
      "me": 708,
      "భారతదేశం": 709,
      "▁ब": 710,
      "de": 711,
      "▁এ": 712,
      "ER": 713,
      "ंग": 714,
      "angu": 715,
      "▁.": 716,
      "ic": 717,
      "ig": 718,
      "▁भारत": 719,
      "ag": 720,
      "▁की": 721,
      "ভা": 722,
      "ంగ": 723,
      "ly": 724,
      "ারি": 725,
      "ের_": 726,
      "ld": 727,
      "▁प्र": 728,
      "EF": 729,
      "ला": 730,
      "ৃতি": 731,
      "ITER": 732,
      "▁స": 733,
      "▁त": 734,
      "भा": 735,
      "्व": 736,
      "up": 737,
      "ITEREF": 738,
      "11": 739,
      "▁न": 740,
      "archive.org/": 741,
      "▁से": 742,
      "▁প্র": 743,
      "েশ": 744,
      "▁మ": 745,
      ".in": 746,
      "28": 747,
      "▁ব": 748,
      "▁और": 749,
      "▁H": 750,
      "▁19": 751,
      "్రా": 752,
      "▁./": 753,
      "ct": 754,
      "du": 755,
      "▁ও": 756,
      "▁[\"": 757,
      "con": 758,
      "▁ন": 759,
      "▁২০": 760,
      "▁l": 761,
      "▁का": 762,
      "▁E": 763,
      "▁N": 764,
      "web.": 765,
      "তা": 766,
      "▁\"S": 767,
      "ir": 768,
      "oun": 769,
      "▁ভারত": 770,
      "\n-": 771,
      "](https://web.": 772,
      "/http": 773,
      "_स": 774,
      "web/": 775,
      "archive.org/web/": 776,
      "](https://web.archive.org/web/": 777,
      "50": 778,
      "ీయ": 779,
      "▁G": 780,
      "▁India\")": 781,
      "Uni": 782,
      "्रे": 783,
      "▁e": 784,
      "ता": 785,
      "ub": 786,
      "▁জ": 787,
      "op": 788,
      "ండ": 789,
      "्ट": 790,
      "ew": 791,
      "-3": 792,
      "pecial": 793,
      "#C": 794,
      "for": 795,
      "_S": 796,
      "_in": 797,
      "40": 798,
      "#CITEREF": 799,
      ")।": 800,
      "ha": 801,
      "িয়": 802,
      "ন্দ": 803,
      "ourc": 804,
      "্ব": 805,
      "▁আ": 806,
      "▁[↑](https://en.wikipedia.org/wiki/India#cite_ref-": 807,
      "কে": 808,
      "▁হ": 809,
      "జ్య": 810,
      "▁200": 811,
      "▁చ": 812,
      "▁20": 813,
      "দ্ধৃতি": 814,
      "pecial:": 815,
      "িত": 816,
      "umb": 817,
      "\").": 818,
      "-8": 819,
      "30": 820,
      "_India": 821,
      "--": 822,
      "াত": 823,
      "ational": 824,
      "ి.": 825,
      "▁---": 826,
      "▁\"भारत": 827,
      "ary": 828,
      "తా": 829,
      "ము": 830,
      ".jpg": 831,
      "tu": 832,
      "▁(identifier)": 833,
      "_(identifier)": 834,
      "▁(identifier)\")": 835,
      "నా": 836,
      "978-0": 837,
      "▁([": 838,
      "ry": 839,
      "स्त": 840,
      "్ట": 841,
      "\"))": 842,
      "el": 843,
      "ov": 844,
      "The": 845,
      "gi": 846,
      "ষ্": 847,
      "తి": 848,
      "▁व": 849,
      "राज्य": 850,
      "18": 851,
      "লী": 852,
      "্চ": 853,
      "য়ে": 854,
      "outh": 855,
      "](http://": 856,
      "mp": 857,
      "क्ष": 858,
      "ources/": 859,
      "her": 860,
      "ित": 861,
      "s/": 862,
      "29": 863,
      "ারিখ": 864,
      "rom": 865,
      "▁বি": 866,
      "न्द": 867,
      "సి": 868,
      "త్": 869,
      "্যা": 870,
      "ress": 871,
      "anguage": 872,
      "13": 873,
      "মি": 874,
      "-5": 875,
      "ng": 876,
      "▁সং": 877,
      "▁তারিখ": 878,
      "rit": 879,
      "Book": 880,
      "-4": 881,
      "se": 882,
      "orld": 883,
      "Sources/": 884,
      "pecial:Book": 885,
      "pecial:BookSources/": 886,
      "22": 887,
      "প্র": 888,
      "▁শ": 889,
      "17": 890,
      "▁आ": 891,
      "▁on": 892,
      "ak": 893,
      "15": 894,
      "books": 895,
      "षा": 896,
      "_A": 897,
      "ab": 898,
      "पु": 899,
      "ति": 900,
      "▁re": 901,
      "est": 902,
      "▁L": 903,
      "calf": 904,
      "0%": 905,
      "ास": 906,
      ".gov": 907,
      "▁(సా.శ.": 908,
      "লা": 909,
      "ৈলী": 910,
      "199": 911,
      "etcalf": 912,
      "##": 913,
      "14": 914,
      "]](https://bn.wikipedia.org/wiki/ভারত": 915,
      "యా": 916,
      "▁দ": 917,
      "comm": 918,
      ")\n\n": 919,
      "ులు": 920,
      "▁రా": 921,
      ":উ": 922,
      "ber": 923,
      "sia": 924,
      "–సా.శ.": 925,
      "ma": 926,
      "▁J": 927,
      ".in/": 928,
      ":উদ্ধৃতি": 929,
      "▁అ": 930,
      "▁n": 931,
      "err": 932,
      "ট্র": 933,
      "ুটি": 934,
      "▁F": 935,
      "har": 936,
      "per": 937,
      "over": 938,
      "स्": 939,
      "▁\"ভারতের": 940,
      "_P": 941,
      "ঙ্": 942,
      "16": 943,
      "gle": 944,
      "](https://bn.wikipedia.org/wiki/ভারতের_": 945,
      "ount": 946,
      "▁Category:": 947,
      "▁ప్ర": 948,
      "▁\"ISBN": 949,
      "ISBN_(identifier)": 950,
      "versi": 951,
      "ిక": 952,
      "error": 953,
      "ভাষ": 954,
      ".[[": 955,
      "য্য": 956,
      "হায্য": 957,
      "తం": 958,
      "।[[": 959,
      "সাহায্য": 960,
      "▁g": 961,
      "भाषा": 962,
      "▁In": 963,
      "id=": 964,
      "▁or": 965,
      "px": 966,
      "ted": 967,
      "ত্রুটি": 968,
      "27": 969,
      "▁d": 970,
      "](https://en.wikipedia.org/wiki/India#CITEREF": 971,
      "_of_India": 972,
      "मा": 973,
      "লি": 974,
      "▁[আ": 975,
      "▁को": 976,
      "ep": 977,
      "▁[S": 978,
      "था": 979,
      "ৃত": 980,
      "ిన": 981,
      "జ్యం": 982,
      "Har": 983,
      "]](https://hi.wikipedia.org/wiki/भारत": 984,
      "▁by": 985,
      "▁O": 986,
      "णी": 987,
      "media": 988,
      "▁W": 989,
      "htm": 990,
      "oogle": 991,
      ".p": 992,
      "im": 993,
      "री": 994,
      "রি": 995,
      "versity": 996,
      "fn": 997,
      "-7": 998,
      "ची": 999,
      "গ্র": 1000,
      "থা": 1001,
      "జా": 1002,
      "देश": 1003,
      "▁ग": 1004,
      "Metcalf": 1005,
      "ast": 1006,
      "?id=": 1007,
      "ంచ": 1008,
      "కు": 1009,
      "▁for": 1010,
      ".google": 1011,
      ".com/books": 1012,
      ".google.com/books": 1013,
      "▁K": 1014,
      "▁১": 1015,
      "_and": 1016,
      ".google.com/books?id=": 1017,
      "ons/": 1018,
      "ain": 1019,
      "ड़": 1020,
      "AA": 1021,
      "মা": 1022,
      "load": 1023,
      "](https://te.wikipedia.org/wiki/భారతదేశం": 1024,
      "▁पर": 1025,
      "▁from": 1026,
      "▁h": 1027,
      "upload": 1028,
      ".wikimedia": 1029,
      "▁[*": 1030,
      "রে": 1031,
      "সং": 1032,
      "▁उ": 1033,
      "ভাষা": 1034,
      "-9": 1035,
      "E0%": 1036,
      "ను": 1037,
      "పూ": 1038,
      "▁ए": 1039,
      "pedia/": 1040,
      ".org/wikipedia/": 1041,
      "upload.wikimedia": 1042,
      "upload.wikimedia.org/wikipedia/": 1043,
      ".htm": 1044,
      "](https://upload.wikimedia.org/wikipedia/": 1045,
      "ther": 1046,
      "ष्ट": 1047,
      "ाद": 1048,
      "▁p.": 1049,
      "![": 1050,
      "-2": 1051,
      "]](https://en.wikipedia.org/wiki/India#cite_note-FOOTNOTE": 1052,
      "commons/": 1053,
      "▁ar": 1054,
      "thumb": 1055,
      "](https://upload.wikimedia.org/wikipedia/commons/": 1056,
      "do": 1057,
      "শ্র": 1058,
      "ort": 1059,
      "భా": 1060,
      "▁[↑](https://bn.wikipedia.org/wiki/ভারত": 1061,
      "/http://": 1062,
      "with": 1063,
      "▁Indian": 1064,
      "List": 1065,
      "ut": 1066,
      "▁श": 1067,
      "_के": 1068,
      "thumb/": 1069,
      "ণী": 1070,
      "থে": 1071,
      "ప్ర": 1072,
      "না": 1073,
      "](https://upload.wikimedia.org/wikipedia/commons/thumb/": 1074,
      "'s": 1075,
      "ద్": 1076,
      "ింద": 1077,
      "px-": 1078,
      "978-1": 1079,
      "▁[म": 1080,
      "्रेणी": 1081,
      "%E0%": 1082,
      "a_": 1083,
      "hin": 1084,
      "▁is": 1085,
      "_म": 1086,
      "ap": 1087,
      "▁ఉ": 1088,
      "श्रेणी": 1089,
      "conom": 1090,
      "ष्ट्र": 1091,
      "late": 1092,
      "ূল": 1093,
      "ens": 1094,
      "রাজ": 1095,
      "ం:": 1096,
      "eve": 1097,
      "का": 1098,
      "▁থে": 1099,
      "▁सं": 1100,
      "বিশ": 1101,
      "विश": 1102,
      "श्रेणी:": 1103,
      "▁থেকে": 1104,
      "▁be": 1105,
      "ले": 1106,
      "PA": 1107,
      "▁ఆ": 1108,
      "▁\"C": 1109,
      "ने": 1110,
      "▁है।": 1111,
      "](https://books": 1112,
      ".jpg)": 1113,
      "ेत्र": 1114,
      "েষ": 1115,
      "](https://hi.wikipedia.org/wiki/भारत#cite_ref-": 1116,
      "]](https://hi.wikipedia.org/wiki/भारत#cite_note-": 1117,
      "▁[A": 1118,
      "](https://books.google.com/books?id=": 1119,
      "inal": 1120,
      "িল": 1121,
      "_C": 1122,
      "▁Uni": 1123,
      "ot": 1124,
      "प्र": 1125,
      "म्": 1126,
      "সম": 1127,
      "]](https://bn.wikipedia.org/wiki/ভারত#cite_note-": 1128,
      "▁ర": 1129,
      "47": 1130,
      "िल": 1131,
      "যু": 1132,
      "▁২০০": 1133,
      "%E0%A": 1134,
      "p.": 1135,
      "-6": 1136,
      "](https://en.wikipedia.org/wiki/S": 1137,
      ")[[": 1138,
      "మా": 1139,
      "▁సా": 1140,
      "▁[ISBN": 1141,
      "భారతీయ": 1142,
      "la": 1143,
      "errors": 1144,
      "nd": 1145,
      "*.": 1146,
      "వా": 1147,
      "▁The": 1148,
      "gu": 1149,
      "বই": 1150,
      "হি": 1151,
      "nic": 1152,
      "Harv": 1153,
      "_के_": 1154,
      "লে": 1155,
      "্প": 1156,
      "ৎস": 1157,
      "▁इ": 1158,
      "ষ্ট্র": 1159,
      "ঙ্গ": 1160,
      "రు": 1161,
      "শৈলী": 1162,
      "্ত": 1163,
      "्या": 1164,
      "35": 1165,
      "](https://web.archive.org/web/201": 1166,
      "vi": 1167,
      "िय": 1168,
      "কার": 1169,
      "ষয়": 1170,
      "ish": 1171,
      "opul": 1172,
      "কৃত": 1173,
      "ন্ত্র": 1174,
      "_in_India": 1175,
      "ance": 1176,
      "aj": 1177,
      "వి": 1178,
      "ష్ట": 1179,
      "ార్": 1180,
      "pg=": 1181,
      "పూ.": 1182,
      "_M": 1183,
      "हि": 1184,
      "ी](https://hi.wikipedia.org/wiki/": 1185,
      "েণী": 1186,
      "▁[C": 1187,
      "ज़": 1188,
      "শ্রেণী": 1189,
      "%20": 1190,
      "Category:": 1191,
      "క్ష": 1192,
      "s,": 1193,
      "ear": 1194,
      "▁th": 1195,
      "](https://www.": 1196,
      "స్థ": 1197,
      "రిత్ర": 1198,
      "2.": 1199,
      "36": 1200,
      "&pg=": 1201,
      "/0": 1202,
      "सं": 1203,
      "सा": 1204,
      "বিষয়": 1205,
      "ans": 1206,
      "lic": 1207,
      "ensus": 1208,
      "70": 1209,
      "1.": 1210,
      "त्त": 1211,
      "ইভ": 1212,
      "▁र": 1213,
      "র্কা": 1214,
      "বিষয়শ্রেণী": 1215,
      "র্কাইভ": 1216,
      "der": 1217,
      "ru": 1218,
      "tern": 1219,
      "న్న": 1220,
      "রাষ্ট্র": 1221,
      ".jp": 1222,
      "ong": 1223,
      "ages": 1224,
      "_D": 1225,
      "titu": 1226,
      "48": 1227,
      "os": 1228,
      "ana": 1229,
      "ys": 1230,
      "\")\n-": 1231,
      "বিশেষ": 1232,
      "ction": 1233,
      "](https://en.wikipedia.org/wiki/C": 1234,
      "এস": 1235,
      "ড়": 1236,
      "opulation": 1237,
      "%2": 1238,
      "ow": 1239,
      "ates": 1240,
      "&pg=PA": 1241,
      "▁\"M": 1242,
      "-19": 1243,
      "60": 1244,
      ":বই": 1245,
      "get": 1246,
      "বিশেষ:বই": 1247,
      "বিশেষ:বইয়": 1248,
      "ডি": 1249,
      "দেশ": 1250,
      "হের": 1251,
      "र्व": 1252,
      "ীয়_": 1253,
      "38": 1254,
      "-10": 1255,
      "▁pp.": 1256,
      "gh": 1257,
      "ंड": 1258,
      "▁*[": 1259,
      "▁./বিষয়শ্রেণী": 1260,
      "সাহায্য:উদ্ধৃতি": 1261,
      "র্থ": 1262,
      "▁st": 1263,
      "df": 1264,
      "▁[M": 1265,
      "gion": 1266,
      ".jpg/": 1267,
      "िस": 1268,
      "▁as": 1269,
      "umm": 1270,
      "pecial:BookSources/978-0": 1271,
      "overn": 1272,
      "గా": 1273,
      "](S": 1274,
      "राष्ट्र": 1275,
      "sh": 1276,
      "গু": 1277,
      "সি": 1278,
      "temp": 1279,
      "িয়া": 1280,
      "ంట": 1281,
      "కి": 1282,
      "েম": 1283,
      "▁ल": 1284,
      "ori": 1285,
      "tein": 1286,
      "▁Press": 1287,
      "▁তারিখে": 1288,
      "ss": 1289,
      "ence": 1290,
      "ঞ্চ": 1291,
      "iginal": 1292,
      "ন্দ্র": 1293,
      "మ్రా": 1294,
      "ష్ట్ర": 1295,
      "Indian": 1296,
      "▁[↑](https://en.wikipedia.org/wiki/India#cite_ref-FOOTNOTE": 1297,
      "এন": 1298,
      "▁सा": 1299,
      "्षेत्र": 1300,
      "র্কাইভকৃত": 1301,
      "les": 1302,
      "au": 1303,
      "▁I": 1304,
      "ంత": 1305,
      "2011": 1306,
      "istory": 1307,
      "ib": 1308,
      "ia": 1309,
      "चि": 1310,
      "ame": 1311,
      "stan": 1312,
      "av": 1313,
      ")\")": 1314,
      "मन": 1315,
      "ी_": 1316,
      "নী": 1317,
      "পি": 1318,
      "▁`": 1319,
      "▁राज्य": 1320,
      "ার্": 1321,
      "og": 1322,
      "](https://en.wikipedia.org/wiki/M": 1323,
      "_T": 1324,
      "पा": 1325,
      "নি": 1326,
      "ata": 1327,
      "/https://": 1328,
      "श्रेणी:Harv": 1329,
      "పు": 1330,
      "![](https://upload.wikimedia.org/wikipedia/commons/thumb/": 1331,
      "ore": 1332,
      "जा": 1333,
      "ছে": 1334,
      "▁[ম": 1335,
      "▁\"म": 1336,
      "art": 1337,
      "eral": 1338,
      "ারা": 1339,
      "land": 1340,
      "indu": 1341,
      "45": 1342,
      "▁original": 1343,
      "7.": 1344,
      "▁న": 1345,
      "▁de": 1346,
      "▁भाषा": 1347,
      "▁\"B": 1348,
      ".html": 1349,
      "▁University": 1350,
      "ud": 1351,
      "all": 1352,
      "ধান": 1353,
      "▁[B": 1354,
      "▁हैं": 1355,
      "మి": 1356,
      "ాన": 1357,
      "2018": 1358,
      "overnment": 1359,
      "ইএস": 1360,
      "▁य": 1361,
      "▁वि": 1362,
      "](https://en.wikipedia.org/wiki/ISBN_(identifier)": 1363,
      "▁[ISBN](https://en.wikipedia.org/wiki/ISBN_(identifier)": 1364,
      "onstitu": 1365,
      "ai": 1366,
      "▁भ": 1367,
      "▁ই": 1368,
      "](http://www.": 1369,
      "పా": 1370,
      "▁ఇ": 1371,
      "▁త": 1372,
      "భాష": 1373,
      "_s": 1374,
      "emp": 1375,
      "▁\"P": 1376,
      "tim": 1377,
      "▁সংগ্র": 1378,
      "90": 1379,
      "und": 1380,
      "6%": 1381,
      "ूची": 1382,
      "▁[↑](https://bn.wikipedia.org/wiki/ভারত#cite_ref-": 1383,
      "1)": 1384,
      "\")\n\n": 1385,
      "_N": 1386,
      "गर": 1387,
      "▁\"A": 1388,
      "▁সংগ্রহের": 1389,
      "పాల": 1390,
      "లీ": 1391,
      "39": 1392,
      "জাত": 1393,
      "artic": 1394,
      "to": 1395,
      "▁no": 1396,
      "ke": 1397,
      "কি": 1398,
      "ত্ত": 1399,
      "বে": 1400,
      "etri": 1401,
      "▁[↑](https://hi.wikipedia.org/wiki/भारत#cite_ref-": 1402,
      "4.": 1403,
      "▁దేశ": 1404,
      "2006": 1405,
      "స్తా": 1406,
      "_b": 1407,
      "37": 1408,
      "ক্ত": 1409,
      "ile": 1410,
      "▁di": 1411,
      "ess": 1412,
      "▁Asia": 1413,
      "3.": 1414,
      "46": 1415,
      "ेला": 1416,
      "వర్": 1417,
      "ాయ": 1418,
      "▁with": 1419,
      "▁সম": 1420,
      "\"))\n": 1421,
      "*](https://books.google.com/books?id=": 1422,
      "dge": 1423,
      "हा": 1424,
      "াম": 1425,
      "▁ভাষা": 1426,
      "ries": 1427,
      "his": 1428,
      "250": 1429,
      "eved": 1430,
      "ity": 1431,
      "স্ত": 1432,
      "ank": 1433,
      "▁Retri": 1434,
      ".\n-": 1435,
      ".pdf": 1436,
      "▁Retrieved": 1437,
      ".pdf)": 1438,
      "कार": 1439,
      "पर": 1440,
      "পা": 1441,
      "▁कर": 1442,
      "ंग्रे": 1443,
      "▁২০১": 1444,
      ".gov.in/": 1445,
      "language": 1446,
      "మ్రాజ్యం": 1447,
      "_B": 1448,
      "▁–": 1449,
      "ts": 1450,
      "क्त": 1451,
      "िर": 1452,
      "ोल": 1453,
      "▁&": 1454,
      "▁[ভারত": 1455,
      "ations": 1456,
      "ff": 1457,
      "gy": 1458,
      "tar": 1459,
      "_p": 1460,
      "कि": 1461,
      "मी": 1462,
      "টার": 1463,
      "িকা": 1464,
      "ন্ত": 1465,
      "దేశ్": 1466,
      "count": 1467,
      "▁V": 1468,
      "ard": 1469,
      "ism": 1470,
      "%2C": 1471,
      "ইএসবি": 1472,
      "ec": 1473,
      "ex": 1474,
      "80": 1475,
      "ం](https://te.wikipedia.org/wiki/": 1476,
      "▁\"T": 1477,
      "ীন": 1478,
      "ুর": 1479,
      "](https://en.wikipedia.org/wiki/B": 1480,
      "हिन्द": 1481,
      "ঞ্চল": 1482,
      "oli": 1483,
      "/p": 1484,
      "ummit": 1485,
      "ंध": 1486,
      "ेष": 1487,
      "ওয়ে": 1488,
      "ভূ": 1489,
      "▁বা": 1490,
      "](https://hi.wikipedia.org/wiki/म": 1491,
      "তিক": 1492,
      "4)": 1493,
      "ంబ": 1494,
      "టి": 1495,
      "ford": 1496,
      "তে": 1497,
      "ाना": 1498,
      "▁अन": 1499,
      "tics": 1500,
      "56": 1501,
      "ublic": 1502,
      "द्": 1503,
      "से": 1504,
      "ी\")": 1505,
      "ంలో": 1506,
      "্রা": 1507,
      "▁क्षेत्र": 1508,
      "র্ব": 1509,
      "స్తాన్": 1510,
      "3)": 1511,
      "▁[P": 1512,
      "49": 1513,
      "cy": 1514,
      "ধ্য": 1515,
      "als": 1516,
      "](https://en.wikipedia.org/wiki/P": 1517,
      "ন্ড": 1518,
      "र्म": 1519,
      "▁ভারতের": 1520,
      "-p": 1521,
      "rchive": 1522,
      "anguages": 1523,
      "▁language": 1524,
      "12": 1525,
      "QB": 1526,
      "గు": 1527,
      "డు": 1528,
      "నే": 1529,
      "్చ": 1530,
      "omm": 1531,
      "ral": 1532,
      "xford": 1533,
      "धान": 1534,
      "वा": 1535,
      "ोत": 1536,
      "জা": 1537,
      "amb": 1538,
      "%E0%A6%": 1539,
      "ইএসবিএন": 1540,
      "▁[2": 1541,
      "AJ": 1542,
      "Stein": 1543,
      "भि": 1544,
      "श्": 1545,
      "▁উপ": 1546,
      "మూ": 1547,
      "్రీ": 1548,
      "జాత": 1549,
      "rchived": 1550,
      "ash": 1551,
      "▁ex": 1552,
      "QBAJ": 1553,
      "धार": 1554,
      "ृत": 1555,
      "▁গ": 1556,
      "esh": 1557,
      "▁ने": 1558,
      "5.": 1559,
      "ani": 1560,
      "new": 1561,
      "\")*": 1562,
      "▁was": 1563,
      "లా": 1564,
      "्रा": 1565,
      "#cite_ref-1": 1566,
      "#cite_note-1": 1567,
      "স্থা": 1568,
      "ంగా": 1569,
      "_R": 1570,
      "▁\"D": 1571,
      "▁are": 1572,
      "_G": 1573,
      "▁an": 1574,
      "ure": 1575,
      "রাজ্য": 1576,
      "विशेष": 1577,
      "\n\n##": 1578,
      "sv": 1579,
      "డ్": 1580,
      "ిల్": 1581,
      "▁జ": 1582,
      "CS": 1583,
      "sher": 1584,
      "के": 1585,
      "নে": 1586,
      "▁\"E": 1587,
      "র্ম": 1588,
      "মিটার": 1589,
      "लेख": 1590,
      "ওয়েব": 1591,
      "57": 1592,
      "▁(P": 1593,
      "-1)": 1594,
      "ik": 1595,
      "AAQBAJ": 1596,
      "=`": 1597,
      "▁[अ": 1598,
      ",_": 1599,
      ":\\_": 1600,
      "other": 1601,
      "లి": 1602,
      "స్త్ర": 1603,
      "▁it": 1604,
      "8.": 1605,
      "▁१": 1606,
      "ीय_": 1607,
      "ক্ষা": 1608,
      "National": 1609,
      "rad": 1610,
      "tem": 1611,
      "onstitution": 1612,
      "ंद": 1613,
      "ंत्र": 1614,
      "ूल": 1615,
      "ेल": 1616,
      "కా": 1617,
      "ణా": 1618,
      "దక్ష": 1619,
      "ధిక": 1620,
      "▁[1": 1621,
      "▁\"अ": 1622,
      "▁ప్రా": 1623,
      "▁వి": 1624,
      "▁ति": 1625,
      "సియా": 1626,
      "▁एक": 1627,
      "/http://www.": 1628,
      "జాతీయ": 1629,
      ".nic": 1630,
      "cl": 1631,
      "দী": 1632,
      "১৯": 1633,
      "▁[D": 1634,
      "▁[भारत": 1635,
      "ont": 1636,
      "▁पु": 1637,
      "্বর": 1638,
      "েম্বর": 1639,
      "विशेष:": 1640,
      "ark": 1641,
      "2004": 1642,
      "lop": 1643,
      "59": 1644,
      "6.": 1645,
      "fe": 1646,
      "ం\")": 1647,
      "▁\"List": 1648,
      "ult": 1649,
      "▁సం": 1650,
      "▁చరిత్ర": 1651,
      "ोग": 1652,
      "स्तान": 1653,
      "times": 1654,
      "gen": 1655,
      "par": 1656,
      "ati": 1657,
      "2010": 1658,
      "_1": 1659,
      "ll": 1660,
      "िण": 1661,
      "](https://en.wikipedia.org/wiki/A": 1662,
      "▁[আর্কাইভকৃত": 1663,
      "డి": 1664,
      "ers": 1665,
      "sion": 1666,
      "ficial": 1667,
      "ingh": 1668,
      "ింది.": 1669,
      "oc": 1670,
      "ood": 1671,
      "sian": 1672,
      "world": 1673,
      "শা": 1674,
      "▁সর": 1675,
      "ন্ধ": 1676,
      "10.": 1677,
      "▁মূল": 1678,
      "](https://en.wikipedia.org/wiki/E": 1679,
      "conomic": 1680,
      "▁\"G": 1681,
      "2)": 1682,
      "uc": 1683,
      "।\n": 1684,
      "ంధ": 1685,
      "্যারা": 1686,
      "స్త": 1687,
      "▁নি": 1688,
      "▁రాజ్యం": 1689,
      "▁సామ్రాజ్యం": 1690,
      "వర్గ": 1691,
      "దక్షి": 1692,
      "্যারামিটার": 1693,
      "ange": 1694,
      "ated": 1695,
      "120": 1696,
      "aki": 1697,
      "ीप": 1698,
      "০০": 1699,
      "ক্তি": 1700,
      "DF": 1701,
      "▁[978-0": 1702,
      "ten": 1703,
      "](https://en.wikipedia.org/wiki/T": 1704,
      "2009": 1705,
      "List_of_": 1706,
      "lish": 1707,
      "దీ": 1708,
      "ండి": 1709,
      "MetcalfMetcalf": 1710,
      "వర్గం:": 1711,
      "n_": 1712,
      "▁\"स": 1713,
      "▁\"ভারতীয়": 1714,
      "▁प्रदेश": 1715,
      "क्षिण": 1716,
      "\nCategory:": 1717,
      "uni": 1718,
      "▁[G": 1719,
      "qu": 1720,
      "ari": 1721,
      "ven": 1722,
      "गमन": 1723,
      "थि": 1724,
      "বং": 1725,
      "ুন": 1726,
      "োগ": 1727,
      "▁[स": 1728,
      "eng": 1729,
      "co": 1730,
      "తర": 1731,
      "వం": 1732,
      "▁బ": 1733,
      "ine": 1734,
      "▁(PDF": 1735,
      "द्य": 1736,
      "नी": 1737,
      "ी_स": 1738,
      "জি": 1739,
      "](https://bn.wikipedia.org/wiki/ভারতীয়_": 1740,
      "▁whi": 1741,
      "য়েছে": 1742,
      "▁तिथि": 1743,
      "RI": 1744,
      "ding": 1745,
      "▁2011": 1746,
      "43": 1747,
      "out": 1748,
      ".nic.in/": 1749,
      "ँच": 1750,
      "यु": 1751,
      "ून": 1752,
      "ట్": 1753,
      "ిత": 1754,
      "ture": 1755,
      "_E": 1756,
      "port": 1757,
      "riti": 1758,
      "](https://en.wikipedia.org/wiki/D": 1759,
      "](https://web.archive.org/web/20": 1760,
      "DP": 1761,
      "িত্র": 1762,
      "ে_": 1763,
      "▁ख": 1764,
      "▁ফ": 1765,
      "▁উৎস": 1766,
      "▁এক": 1767,
      "▁तिथि:": 1768,
      "IN": 1769,
      "rou": 1770,
      "conomy": 1771,
      "_చ": 1772,
      "iki": 1773,
      "ది": 1774,
      "▁\"మ": 1775,
      "ric": 1776,
      "udd": 1777,
      "AAQBAJ&pg=PA": 1778,
      "9.": 1779,
      "বী": 1780,
      "▁র": 1781,
      "▁at": 1782,
      "indi": 1783,
      "ass": 1784,
      "\\_শৈলী": 1785,
      "amil": 1786,
      "▁भारतीय": 1787,
      "▁জন": 1788,
      ":উদ্ধৃতি\\_শৈলী": 1789,
      "▁./বিষয়শ্রেণী:উদ্ধৃতি\\_শৈলী": 1790,
      "ob": 1791,
      "▁3": 1792,
      "▁199": 1793,
      "..": 1794,
      "जन": 1795,
      "ढ़": 1796,
      "धिक": 1797,
      "ali": 1798,
      "▁अभि": 1799,
      "ালিকা": 1800,
      "▁Re": 1801,
      "▁देश": 1802,
      "▁শৈলী": 1803,
      "▁अभिगमन": 1804,
      "77": 1805,
      "▁ఎ": 1806,
      "▁[మ": 1807,
      "▁(సా.శ.పూ.": 1808,
      "a\")": 1809,
      "▁r": 1810,
      "▁li": 1811,
      "6)": 1812,
      "ah": 1813,
      "धर्म": 1814,
      "्री": 1815,
      "्रोत": 1816,
      "▁সাল": 1817,
      "▁जन": 1818,
      "▁করে": 1819,
      "▁तथा": 1820,
      "▁\"भारतीय": 1821,
      "সমূ": 1822,
      "_and_": 1823,
      "\"](https://web.archive.org/web/201": 1824,
      "-b": 1825,
      "5)": 1826,
      "na": 1827,
      "ती": 1828,
      "त्": 1829,
      "बर": 1830,
      "উৎস": 1831,
      "ন\")": 1832,
      "ভি": 1833,
      "ధ్య": 1834,
      "▁च": 1835,
      "▁గ": 1836,
      "▁శ": 1837,
      "▁\"क": 1838,
      "্রি": 1839,
      "ase": 1840,
      "\n\n[": 1841,
      "ంద్ర": 1842,
      "ంది.": 1843,
      "ire": 1844,
      "s.": 1845,
      "oh": 1846,
      "inist": 1847,
      "ign": 1848,
      "▁History": 1849,
      "elhi": 1850,
      "pecial:BookSources/978-1": 1851,
      "33": 1852,
      "census": 1853,
      "हर": 1854,
      "ूर्व": 1855,
      "्ल": 1856,
      "▁পৃ": 1857,
      "/https://www.": 1858,
      "250px-": 1859,
      "▁which": 1860,
      "vis": 1861,
      "▁India's": 1862,
      "cont": 1863,
      "bot": 1864,
      "hy": 1865,
      "ైన": 1866,
      "ties": 1867,
      "](https://te.wikipedia.org/wiki/మ": 1868,
      "▁పే": 1869,
      "_শৈলী": 1870,
      "वं": 1871,
      "end": 1872,
      "](https://hi.wikipedia.org/wiki/क": 1873,
      "ানা": 1874,
      "स्तक": 1875,
      "पुस्तक": 1876,
      "▁`|": 1877,
      "विशेष:पुस्तक": 1878,
      "▁./বিষয়শ্রেণী:উদ্ধৃতি\\_শৈলী\\_": 1879,
      "्रोत/": 1880,
      "_শৈলী_": 1881,
      "ef": 1882,
      "ost": 1883,
      "▁\"R": 1884,
      "000": 1885,
      "-m": 1886,
      "▁[E": 1887,
      "1998": 1888,
      ".sv": 1889,
      "oi": 1890,
      "मान": 1891,
      "िका": 1892,
      "▁जा": 1893,
      "राष्ट्रीय": 1894,
      "স্তান": 1895,
      "द्ध": 1896,
      "man": 1897,
      "ట్ట": 1898,
      "హింద": 1899,
      "▁భారతదేశం": 1900,
      "▁\"The": 1901,
      "row": 1902,
      "ంగ్": 1903,
      "ద్ధ": 1904,
      "दी": 1905,
      "रकार": 1906,
      "हार": 1907,
      "ধর্ম": 1908,
      "োল": 1909,
      "▁\"ম": 1910,
      "](https://en.wikipedia.org/wiki/R": 1911,
      "](https://hi.wikipedia.org/wiki/स": 1912,
      "](https://bn.wikipedia.org/wiki/ম": 1913,
      "্যব": 1914,
      "▁অন": 1915,
      "पुर": 1916,
      "/c": 1917,
      "▁South": 1918,
      "albot": 1919,
      "](https://en.wikipedia.org/wiki/G": 1920,
      "ament": 1921,
      "87": 1922,
      "প্": 1923,
      "ించ": 1924,
      "▁7": 1925,
      "▁চ": 1926,
      "▁য": 1927,
      "▁ఒ": 1928,
      "▁राज": 1929,
      "▁భాష": 1930,
      "▁[क": 1931,
      "▁[క": 1932,
      "▁\"ब": 1933,
      "▁\"বিশেষ:বইয়": 1934,
      "tive": 1935,
      "](https://bn.wikipedia.org/wiki/বিশেষ:বইয়": 1936,
      "196": 1937,
      "ach": 1938,
      "2008": 1939,
      "ాల్": 1940,
      "স্থ": 1941,
      "▁2014": 1942,
      "ের_উৎস": 1943,
      "▁[আইএসবিএন": 1944,
      "▁has": 1945,
      "विश्व": 1946,
      "▁इस": 1947,
      "▁\"বিশেষ:বইয়ের": 1948,
      "](https://bn.wikipedia.org/wiki/বিশেষ:বইয়ের_উৎস": 1949,
      "▁[আইএসবিএন](https://bn.wikipedia.org/wiki/": 1950,
      "ome": 1951,
      "ridge": 1952,
      "territ": 1953,
      "lopment": 1954,
      "\"](https://www.": 1955,
      "▁[R": 1956,
      "100": 1957,
      "▁ত্রুটি": 1958,
      "▁\"সাহায্য:উদ্ধৃতি": 1959,
      "](https://bn.wikipedia.org/wiki/সাহায্য:উদ্ধৃতি": 1960,
      "▁मेला": 1961,
      "স্ট": 1962,
      "▁এবং": 1963,
      "▁([সাহায্য": 1964,
      "▁বিশ": 1965,
      "ত্রুটি#": 1966,
      "ত্রুটি:\\_": 1967,
      "▁that": 1968,
      "▁./বিষয়শ্রেণী:উদ্ধৃতি\\_শৈলী\\_ত্রুটি:\\_": 1969,
      "_শৈলী_ত্রুটি#": 1970,
      "](https://bn.wikipedia.org/wiki/সাহায্য:উদ্ধৃতি_শৈলী_ত্রুটি#": 1971,
      "▁([সাহায্য](https://bn.wikipedia.org/wiki/সাহায্য:উদ্ধৃতি_শৈলী_ত্রুটি#": 1972,
      "2003": 1973,
      "2007": 1974,
      "Asher": 1975,
      "]](https://te.wikipedia.org/wiki/భారతదేశం": 1976,
      "చ్చ": 1977,
      "జీ": 1978,
      "ేంద్ర": 1979,
      "▁\"క": 1980,
      "hist": 1981,
      "▁pro": 1982,
      "s-": 1983,
      "usi": 1984,
      "गु": 1985,
      "জ্য": 1986,
      "রণ": 1987,
      "▁स्": 1988,
      "nolo": 1989,
      "ack": 1990,
      "रालेख": 1991,
      "india.gov.in/": 1992,
      "হাস": 1993,
      "▁১৯": 1994,
      "▁हैं।": 1995,
      "সমূহ": 1996,
      "\"\n": 1997,
      "ram": 1998,
      "s_": 1999,
      "sland": 2000,
      "▁4": 2001,
      "▁[T": 2002,
      "ligion": 2003,
      "▁\"Special:BookSources/978-0": 2004,
      "](Special:BookSources/978-0": 2005,
      "7)": 2006,
      "ansk": 2007,
      "_ভাষা": 2008,
      "od": 2009,
      "ा_": 2010,
      "िव": 2011,
      "ঞ্": 2012,
      "নৈ": 2013,
      "▁\"प": 2014,
      "arch": 2015,
      "](https://en.wikipedia.org/wiki/List_of_": 2016,
      "▁সা": 2017,
      "▁हु": 2018,
      "_की_स": 2019,
      "▁वर्": 2020,
      "_में": 2021,
      "গুলি": 2022,
      "নৈতিক": 2023,
      "త్య": 2024,
      "బ్": 2025,
      "మీ": 2026,
      "](https://te.wikipedia.org/wiki/ద": 2027,
      "్యా": 2028,
      "రాష్ట్ర": 2029,
      "▁./వర్గం:": 2030,
      "▁[Archived": 2031,
      "ove": 2032,
      "▁[K": 2033,
      ").\n": 2034,
      "ile:": 2035,
      "_অ": 2036,
      "ध्य": 2037,
      "्च": 2038,
      "্ম": 2039,
      "▁[ब": 2040,
      "in-": 2041,
      "](https://hi.wikipedia.org/wiki/अ": 2042,
      "](https://bn.wikipedia.org/wiki/ভারতে_": 2043,
      "र्थ": 2044,
      "hel": 2045,
      "▁\"ভারতে": 2046,
      "स्क": 2047,
      "▁২০০৭": 2048,
      "ंग्रेज़": 2049,
      "akistan": 2050,
      "RICS": 2051,
      "▁পৃ.": 2052,
      "रालेखित": 2053,
      "anskrit": 2054,
      "pend": 2055,
      "World": 2056,
      "e_": 2057,
      "dit": 2058,
      "United": 2059,
      "template": 2060,
      "ambridge": 2061,
      "/artic": 2062,
      "9)": 2063,
      "ज्": 2064,
      "ంక": 2065,
      "ప్": 2066,
      "యు": 2067,
      "\")।": 2068,
      "tical": 2069,
      "তিহাস": 2070,
      "▁হয়": 2071,
      "తంత్ర": 2072,
      "](https://te.wikipedia.org/wiki/భారతదేశం#cite_ref-": 2073,
      "late_": 2074,
      "▁भी": 2075,
      "దక్షిణ": 2076,
      "]](https://te.wikipedia.org/wiki/భారతదేశం#cite_note-": 2077,
      "-s": 2078,
      "ion": 2079,
      "2014": 2080,
      "▁fi": 2081,
      "▁\"N": 2082,
      "yson": 2083,
      "ritish": 2084,
      "_भारत": 2085,
      "ath": 2086,
      "o-": 2087,
      "uk": 2088,
      "थान": 2089,
      "हास": 2090,
      "िट": 2091,
      "िश": 2092,
      "সে": 2093,
      "▁[N": 2094,
      "ury": 2095,
      "age/": 2096,
      "।[[১": 2097,
      ".jpg/250px-": 2098,
      "चित्र": 2099,
      "{{": 2100,
      "▁St": 2101,
      "ashm": 2102,
      "_స": 2103,
      "olo": 2104,
      "shi": 2105,
      "}}": 2106,
      "తము": 2107,
      "వే": 2108,
      "ష్": 2109,
      "ాన్": 2110,
      "▁5": 2111,
      "స్క": 2112,
      "ిల్లీ": 2113,
      "द्र": 2114,
      "फ़": 2115,
      "ुख": 2116,
      "জন": 2117,
      "ায়": 2118,
      "](https://hi.wikipedia.org/wiki/ब": 2119,
      "aste": 2120,
      "rap": 2121,
      "▁18": 2122,
      "illi": 2123,
      "সাম": 2124,
      "ক্ষণ": 2125,
      "`:": 2126,
      "gest": 2127,
      "orth": 2128,
      "\\_S": 2129,
      "}}`:": 2130,
      "8)": 2131,
      "inent": 2132,
      "alth": 2133,
      ".jpg)\n\n": 2134,
      "ust": 2135,
      "शिया": 2136,
      "দি": 2137,
      "যোগ": 2138,
      "lection": 2139,
      "](https://hi.wikipedia.org/wiki/भारत_में": 2140,
      "▁हि": 2141,
      "▁অঞ্চল": 2142,
      "্যাক": 2143,
      "ms": 2144,
      "mer": 2145,
      "జి": 2146,
      "ధాన": 2147,
      "బె": 2148,
      "ారు": 2149,
      "▁కా": 2150,
      "▁2007": 2151,
      "_Asia": 2152,
      "▁రాజ": 2153,
      "▁\"In": 2154,
      "Dw": 2155,
      "File:": 2156,
      "ीन": 2157,
      "টে": 2158,
      "তম": 2159,
      "▁খ": 2160,
      "▁যু": 2161,
      "▁\"H": 2162,
      "ind": 2163,
      "▁सम": 2164,
      "india-": 2165,
      "]](https://bn.wikipedia.org/wiki/ভারত#cite_note-1": 2166,
      "▁[↑](https://bn.wikipedia.org/wiki/ভারত#cite_ref-1": 2167,
      "হিনী": 2168,
      "त्तर": 2169,
      "ত্তর": 2170,
      "ওয়েব্যাক": 2171,
      "ght": 2172,
      "ission": 2173,
      "ous": 2174,
      "matics": 2175,
      "▁its": 2176,
      "MetcalfMetcalf2006": 2177,
      "121": 2178,
      "34": 2179,
      "hand": 2180,
      "oder": 2181,
      "rof": 2182,
      "ta": 2183,
      "मिल": 2184,
      "ुस": 2185,
      "িম": 2186,
      "దు": 2187,
      "మ్": 2188,
      "శ్": 2189,
      "▁U": 2190,
      "](https://te.wikipedia.org/wiki/క": 2191,
      "▁सूची": 2192,
      "ের](https://bn.wikipedia.org/wiki/": 2193,
      "▁স্": 2194,
      "్యవ": 2195,
      "ক্ষি": 2196,
      "▁জাত": 2197,
      "▁দেশ": 2198,
      "_చరిత్ర": 2199,
      "ail": 2200,
      "▁8": 2201,
      "isher": 2202,
      ".gov.in": 2203,
      "Oxford": 2204,
      "les/": 2205,
      "▁\"K": 2206,
      "ames": 2207,
      "▁count": 2208,
      "mpire": 2209,
      "Wiki": 2210,
      "go": 2211,
      "रु": 2212,
      "ूच": 2213,
      "ूर": 2214,
      "গণ": 2215,
      "▁2": 2216,
      "ork": 2217,
      "▁[प": 2218,
      "al_": 2219,
      "2005": 2220,
      "▁পরি": 2221,
      "usin": 2222,
      "auth": 2223,
      "▁ভাষা\")": 2224,
      "▁[আইএসবিএন](https://bn.wikipedia.org/wiki/ISBN_(identifier)": 2225,
      "air": 2226,
      "▁pe": 2227,
      "▁[the": 2228,
      "ves": 2229,
      "ఢిల్లీ": 2230,
      "పంచ": 2231,
      "](File:": 2232,
      "](https://en.wikipedia.org/wiki/N": 2233,
      "ril": 2234,
      "ారి": 2235,
      "▁sub": 2236,
      "▁New": 2237,
      "మూస": 2238,
      "roup": 2239,
      "RC": 2240,
      "Singh": 2241,
      "ope": 2242,
      "कर": 2243,
      "ते": 2244,
      "জ্": 2245,
      "▁सरकार": 2246,
      "দ্বী": 2247,
      "▁মধ্য": 2248,
      "▁Hindu": 2249,
      "do-": 2250,
      "▁./বিষয়শ্রেণী:": 2251,
      "শাস": 2252,
      "help": 2253,
      "ক্ষিণ": 2254,
      "▁জাতীয়": 2255,
      "দ্বীপ": 2256,
      "▁le": 2257,
      "arli": 2258,
      "▁Comm": 2259,
      "ulke": 2260,
      "ree": 2261,
      "emplate": 2262,
      "target": 2263,
      "rary": 2264,
      "पाल": 2265,
      "हु": 2266,
      "ा:": 2267,
      "ैद": 2268,
      "ोक": 2269,
      "চ্চ": 2270,
      "লো": 2271,
      "▁घ": 2272,
      "▁२": 2273,
      "▁26": 2274,
      "▁\"আ": 2275,
      "্যান": 2276,
      "▁cent": 2277,
      "ালয়": 2278,
      "](https://en.wikipedia.org/wiki/India#cite_ref-FOOTNOTE": 2279,
      "▁উদ্ধৃতি": 2280,
      "▁तक": 2281,
      "-521": 2282,
      "doi": 2283,
      "▁২০০৮": 2284,
      "gue": 2285,
      "साँच": 2286,
      "किस्तान": 2287,
      "continent": 2288,
      "্যবস্থা": 2289,
      "▁বিশ্ব": 2290,
      "odi": 2291,
      "వు": 2292,
      "▁te": 2293,
      "dition": 2294,
      "ord": 2295,
      "▁\"భారతీయ": 2296,
      "inistry": 2297,
      "odern": 2298,
      "PP": 2299,
      "isation": 2300,
      "ulture": 2301,
      "evelopment": 2302,
      "_by": 2303,
      "usic": 2304,
      "65": 2305,
      "्ड": 2306,
      "চীন": 2307,
      "বর্": 2308,
      "▁[প": 2309,
      "▁[স": 2310,
      "\\_errors": 2311,
      "▁se": 2312,
      "](https://hi.wikipedia.org/wiki/भारतीय_": 2313,
      "▁অব": 2314,
      "_and_S": 2315,
      "নীতি": 2316,
      "▁সরকার": 2317,
      "জ্ঞ": 2318,
      "C&pg=PA": 2319,
      "val": 2320,
      "▁ha": 2321,
      "▁[978-1": 2322,
      "ere": 2323,
      "no-": 2324,
      "▁languages": 2325,
      "8/": 2326,
      "_L": 2327,
      "_temp": 2328,
      "a/": 2329,
      "kno": 2330,
      "mund": 2331,
      "national": 2332,
      "▁\"Indian": 2333,
      "on-": 2334,
      "alay": 2335,
      "▁An": 2336,
      "othermund": 2337,
      "न\")": 2338,
      "सम": 2339,
      "কৃতি": 2340,
      "జన": 2341,
      "టు": 2342,
      "టె": 2343,
      "▁ডি": 2344,
      "inis": 2345,
      "](https://en.wikipedia.org/wiki/H": 2346,
      "](https://en.wikipedia.org/wiki/In": 2347,
      "▁(২": 2348,
      "\\_and": 2349,
      "র্ক": 2350,
      "ों_की_स": 2351,
      "▁చె": 2352,
      "నాయ": 2353,
      "–సా.శ.పూ.": 2354,
      "▁World": 2355,
      "▁ఆర్": 2356,
      "িল্প": 2357,
      "▁`{{": 2358,
      "పాలిత": 2359,
      "श्चि": 2360,
      "స్త్రం:": 2361,
      "▁ప్రాంత": 2362,
      "ేంద్రపాలిత": 2363,
      "](https://te.wikipedia.org/wiki/దస్త్రం:": 2364,
      "ace": 2365,
      "act": 2366,
      "ho": 2367,
      "▁ad": 2368,
      "▁errors": 2369,
      "india/": 2370,
      "▁([help": 2371,
      "▁errors\"))\n": 2372,
      "hp": 2373,
      "ओं": 2374,
      "गण": 2375,
      "ीं": 2376,
      "ूप": 2377,
      "জানা": 2378,
      "▁৩": 2379,
      "▁[![": 2380,
      "](https://hi.wikipedia.org/wiki/प": 2381,
      "197": 2382,
      "ন্ন": 2383,
      "]](https://hi.wikipedia.org/wiki/भारत#cite_note-FOOTNOTE": 2384,
      "earch": 2385,
      ".;": 2386,
      "62": 2387,
      "IA": 2388,
      "las": 2389,
      "oci": 2390,
      "tation": 2391,
      "▁[L": 2392,
      "any": 2393,
      "omb": 2394,
      "ece": 2395,
      "mar": 2396,
      "ఖ్య": 2397,
      "గో": 2398,
      "తో": 2399,
      "బి": 2400,
      "హి": 2401,
      "▁ri": 2402,
      "▁2021": 2403,
      "స్కృ": 2404,
      "रब": 2405,
      "्स": 2406,
      "ংশ": 2407,
      "ংলা": 2408,
      "▁[H": 2409,
      "▁किया": 2410,
      "ater": 2411,
      "▁পর": 2412,
      "uring": 2413,
      "नाम": 2414,
      "্যান্ড": 2415,
      "মাণ": 2416,
      "হিন্দ": 2417,
      "_के_राज्य": 2418,
      ".html)": 2419,
      "Stein1998": 2420,
      "ंदिर": 2421,
      "▁ত্রুটি\"))\n": 2422,
      "ashmir": 2423,
      "Singh2009": 2424,
      "urope": 2425,
      "▁2019": 2426,
      "\n\n###": 2427,
      "07": 2428,
      "Edit": 2429,
      "Page/": 2430,
      "_F": 2431,
      "cre": 2432,
      "eb": 2433,
      "year": 2434,
      "▁error": 2435,
      "▁template": 2436,
      "\").\n-": 2437,
      "arget": 2438,
      "\\_no-": 2439,
      "▁Sfn": 2440,
      "▁target": 2441,
      "fn_temp": 2442,
      "fn\\_no-": 2443,
      "late_errors": 2444,
      "\\_Sfn\\_no-": 2445,
      "target\\_errors": 2446,
      "_and_Sfn_temp": 2447,
      "\\_and\\_Sfn\\_no-": 2448,
      "EditPage/": 2449,
      "▁error:": 2450,
      "▁target:": 2451,
      "target\\_errors\n": 2452,
      "_and_Sfn_template_errors": 2453,
      "\\_and\\_Sfn\\_no-target\\_errors\n": 2454,
      "*,": 2455,
      "-23": 2456,
      "_प्र": 2457,
      "जी": 2458,
      "दक्षिण": 2459,
      "ष्": 2460,
      "ইন": 2461,
      "ক্র": 2462,
      "গর": 2463,
      "▁রাষ্ট্র": 2464,
      "ক্স": 2465,
      "কাশ": 2466,
      "une": 2467,
      "▁এই": 2468,
      "्वीप": 2469,
      "▁ভারতীয়": 2470,
      "লেখ": 2471,
      "radesh": 2472,
      "▁একটি": 2473,
      "ज्ञ": 2474,
      "জ্ঞান": 2475,
      "_ప": 2476,
      "sp": 2477,
      "హా": 2478,
      "▁ను": 2479,
      "▁జాతీయ": 2480,
      "ాలు\")": 2481,
      "ritan": 2482,
      "%20%20": 2483,
      "్యవస్థ": 2484,
      "51": 2485,
      "ces": 2486,
      "iv": 2487,
      "mber": 2488,
      "ined": 2489,
      "▁CITEREF": 2490,
      "ternational": 2491,
      "05": 2492,
      "gan": 2493,
      "s\")": 2494,
      "ंजा": 2495,
      "ख्या": 2496,
      "वन": 2497,
      "করণ": 2498,
      "টা": 2499,
      "পূ": 2500,
      "োর্": 2501,
      "০-": 2502,
      "▁25": 2503,
      "ারণ": 2504,
      "](https://en.wikipedia.org/wiki/K": 2505,
      "omp": 2506,
      "rib": 2507,
      "aman": 2508,
      "▁cont": 2509,
      "न्न": 2510,
      "েশি": 2511,
      "র্থনৈতিক": 2512,
      "▁खाना": 2513,
      "ों_की_सूची": 2514,
      "ंजाब": 2515,
      "4%": 2516,
      "_m": 2517,
      "data": 2518,
      "mb": 2519,
      "ris": 2520,
      "ority": 2521,
      "emb": 2522,
      "dust": 2523,
      "AARC": 2524,
      "ograp": 2525,
      "1/": 2526,
      "_language": 2527,
      "lan": 2528,
      "pril": 2529,
      "▁were": 2530,
      "_ম": 2531,
      "बसे": 2532,
      "ुल": 2533,
      "চিত্র": 2534,
      "পু": 2535,
      "ীল": 2536,
      "డా": 2537,
      "దా": 2538,
      "బడ": 2539,
      "మే": 2540,
      "రణ": 2541,
      "▁లో": 2542,
      "ेंद्र": 2543,
      "](https://hi.wikipedia.org/wiki/भारत_क": 2544,
      "▁కూ": 2545,
      "ాలు,": 2546,
      "▁কে": 2547,
      "ound": 2548,
      "▁రాష్ట్ర": 2549,
      "▁गया": 2550,
      "కిస్తాన్": 2551,
      "▁राज्यों": 2552,
      "▁भाषा\")": 2553,
      "▁చరిత్ర\")": 2554,
      "1_": 2555,
      "210": 2556,
      "fficial": 2557,
      "entre": 2558,
      "dex": 2559,
      "ritannic": 2560,
      "book": 2561,
      "hat": 2562,
      "eneral": 2563,
      "rip": 2564,
      "entral": 2565,
      "▁**[": 2566,
      "DwAAQBAJ&pg=PA": 2567,
      "1,": 2568,
      "चल": 2569,
      "बंध": 2570,
      "মে": 2571,
      "সেম্বর": 2572,
      "](https://bn.wikipedia.org/wiki/ভারত#cite_ref-": 2573,
      "▁sfn": 2574,
      "▁हो": 2575,
      "ural": 2576,
      "বাংলা": 2577,
      "old": 2578,
      "▁2010": 2579,
      "▁नि": 2580,
      "▁ভারতে": 2581,
      "▁হয়েছে": 2582,
      "न्द्र": 2583,
      "▁[मूल": 2584,
      "্পর্ক": 2585,
      "ियों": 2586,
      "Stein2010": 2587,
      "▁ডিসেম্বর": 2588,
      "▁কেন্দ্র": 2589,
      "58": 2590,
      "bi": 2591,
      "fr": 2592,
      "ne": 2593,
      "on_": 2594,
      "ofindia": 2595,
      ".php": 2596,
      "/A": 2597,
      "330": 2598,
      "ugu": 2599,
      "yn": 2600,
      "▁ఈ": 2601,
      "▁భారత": 2602,
      "▁[In": 2603,
      "▁\"L": 2604,
      "cies": 2605,
      "ley": 2606,
      "త్రి": 2607,
      "ాలు](https://te.wikipedia.org/wiki/": 2608,
      "*।": 2609,
      "ब्": 2610,
      "िन": 2611,
      "পতি": 2612,
      "শি": 2613,
      "▁un": 2614,
      "▁सबसे": 2615,
      "led": 2616,
      "line": 2617,
      "▁Pro": 2618,
      "ालय": 2619,
      "स्था": 2620,
      "चीन": 2621,
      "ভূমি": 2622,
      "%E0%A6%B": 2623,
      "news/": 2624,
      "▁पुरालेखित": 2625,
      "▁সালে": 2626,
      "चित्र:": 2627,
      "▁सूची\")": 2628,
      "▁पुरालेखित।": 2629,
      "Talbot": 2630,
      "a,": 2631,
      "dom": 2632,
      "uj": 2633,
      "lear": 2634,
      "▁Asian": 2635,
      "uly": 2636,
      ".jpg)](File:": 2637,
      "AsherTalbot": 2638,
      "▁10": 2639,
      "2012": 2640,
      "▁India:": 2641,
      "ature": 2642,
      ".gov/": 2643,
      "ystem": 2644,
      ".svg": 2645,
      "44": 2646,
      "_স": 2647,
      "cat": 2648,
      "sc": 2649,
      "जरा": 2650,
      "ेव": 2651,
      "ैन": 2652,
      "বর": 2653,
      "](https://hi.wikipedia.org/wiki/चित्र:": 2654,
      "▁সাম": 2655,
      "বাধ": 2656,
      "ियाँ": 2657,
      "▁বৃ": 2658,
      "](https://web.archive.org/web/200": 2659,
      "কেন্দ্র": 2660,
      "কারী": 2661,
      "क्ति": 2662,
      "ffair": 2663,
      "্রাজ্য": 2664,
      "_క": 2665,
      "తు": 2666,
      "పతి": 2667,
      "▁ని": 2668,
      "▁స్థ": 2669,
      "▁[అ": 2670,
      "▁[ప": 2671,
      "▁\"భారతదేశం": 2672,
      "్రి": 2673,
      "ర్వ": 2674,
      "న్ని": 2675,
      "▁17": 2676,
      "మిళ": 2677,
      "వంశ": 2678,
      "lim": 2679,
      "ctor": 2680,
      "country": 2681,
      ".\"\n": 2682,
      "aw": 2683,
      "ran": 2684,
      "प्त": 2685,
      "ोर": 2686,
      "শ্চ": 2687,
      "▁Y": 2688,
      "▁territ": 2689,
      "▁[उ": 2690,
      "▁প্যারামিটার": 2691,
      "ানি": 2692,
      "▁जिस": 2693,
      "▁प्रा": 2694,
      "स्थान": 2695,
      "imes": 2696,
      "shit": 2697,
      "ुसार": 2698,
      ".n": 2699,
      "sical": 2700,
      "\").[[": 2701,
      "ories": 2702,
      "arliament": 2703,
      "98": 2704,
      "_In": 2705,
      "aper": 2706,
      "pp": 2707,
      "▁v": 2708,
      "▁India,": 2709,
      "▁April": 2710,
      "nglish": 2711,
      "inister": 2712,
      "-in-": 2713,
      "_మ": 2714,
      "_భాష": 2715,
      "rst": 2716,
      "च्च": 2717,
      "ण्ड": 2718,
      "वरी": 2719,
      "সভা": 2720,
      "ఫ్": 2721,
      "▁స్": 2722,
      "▁রাজ্য": 2723,
      "▁[బ": 2724,
      "▁[స": 2725,
      "▁\"F": 2726,
      "▁\"అ": 2727,
      "erv": 2728,
      "cient": 2729,
      "](https://hi.wikipedia.org/wiki/भारत#CITEREF": 2730,
      "న్నాయ": 2731,
      "▁కాల": 2732,
      "▁প্রধান": 2733,
      "_सं": 2734,
      "ులు](https://te.wikipedia.org/wiki/": 2735,
      "সংখ": 2736,
      "▁రై": 2737,
      "▁साथ": 2738,
      "জাতীয়": 2739,
      "హిందూ": 2740,
      "](https://hi.wikipedia.org/wiki/भारत_में_": 2741,
      "usiness": 2742,
      "ritannica": 2743,
      "শ্চিম": 2744,
      ")\n": 2745,
      "-d": 2746,
      "68": 2747,
      "▁India\"": 2748,
      "ople": 2749,
      "engal": 2750,
      "\n\n[![](https://upload.wikimedia.org/wikipedia/commons/thumb/": 2751,
      "Dyson": 2752,
      "_H": 2753,
      "ote": 2754,
      "ugh": 2755,
      "ond": 2756,
      "ligi": 2757,
      "countries": 2758,
      "olitical": 2759,
      "uclear": 2760,
      "illion": 2761,
      "know": 2762,
      ")\n-": 2763,
      "Kulke": 2764,
      "_ও": 2765,
      "आई": 2766,
      "ाम": 2767,
      "উত্তর": 2768,
      "ণি": 2769,
      "প্যারামিটার": 2770,
      "ুট": 2771,
      "▁si": 2772,
      "▁com": 2773,
      "▁था": 2774,
      "▁धर्म": 2775,
      "▁[F": 2776,
      "▁[অ": 2777,
      "▁[ই": 2778,
      "▁\"श्रेणी:Harv": 2779,
      "ese": 2780,
      "](https://hi.wikipedia.org/wiki/श्रेणी:Harv": 2781,
      "▁सि": 2782,
      "\\_প্যারামিটার": 2783,
      "▁সে": 2784,
      "\n\n-": 2785,
      "याल": 2786,
      "▁করা": 2787,
      "्वर": 2788,
      "▁./श्रेणी:Harv": 2789,
      "▁আর্কাইভকৃত": 2790,
      "▁হি": 2791,
      "▁आधार": 2792,
      "▁संघ": 2793,
      "ongress": 2794,
      "ower": 2795,
      "पाकिस्तान": 2796,
      "▁উদ্ধৃতি}}`:": 2797,
      "▁([help](https://hi.wikipedia.org/wiki/श्रेणी:Harv": 2798,
      "_and_Sfn_template_errors?action=edit&redlink=1": 2799,
      "▁./श्रेणी:Harv\\_and\\_Sfn\\_no-target\\_errors\n": 2800,
      "▁([help](https://hi.wikipedia.org/wiki/श्रेणी:Harv_and_Sfn_template_errors?action=edit&redlink=1": 2801,
      "0.": 2802,
      "31": 2803,
      "69": 2804,
      "Rothermund": 2805,
      "ili": 2806,
      "▁[W": 2807,
      "](https://en.wikipedia.org/wiki/L": 2808,
      "ledge": 2809,
      "lob": 2810,
      "▁15": 2811,
      "ourt": 2812,
      "▁region": 2813,
      "-2)": 2814,
      "▁countries": 2815,
      "▁have": 2816,
      ",000": 2817,
      "_the": 2818,
      "_Uni": 2819,
      "fter": 2820,
      "van": 2821,
      "ఆసియా": 2822,
      "ద్ర": 2823,
      "భూ": 2824,
      "మె": 2825,
      "య్య": 2826,
      "ర్య": 2827,
      "▁ల": 2828,
      "▁\"ప": 2829,
      "▁\"బ": 2830,
      "▁\"స": 2831,
      "1947": 2832,
      "▁[↑](https://te.wikipedia.org/wiki/భారతదేశం#cite_ref-": 2833,
      "త్త": 2834,
      "▁అధిక": 2835,
      "▁ప్రదేశ్": 2836,
      "epublic": 2837,
      "ప్రదేశ్": 2838,
      ".jpg)](https://te.wikipedia.org/wiki/దస్త్రం:": 2839,
      "▁నుండి": 2840,
      "న్నాయి.": 2841,
      "-20": 2842,
      "_ব": 2843,
      "lu": 2844,
      "की": 2845,
      "णा": 2846,
      "तंत्र": 2847,
      "्ला": 2848,
      "েল": 2849,
      "োট": 2850,
      "▁রাজ": 2851,
      "▁विश्व": 2852,
      "▁[ক": 2853,
      "▁\"उ": 2854,
      "](https://hi.wikipedia.org/wiki/उ": 2855,
      "्यट": 2856,
      "india.gov.in": 2857,
      "ाली": 2858,
      "ight": 2859,
      "▁আগ": 2860,
      "রেজি": 2861,
      "▁[মূল": 2862,
      "জাতন্ত্র": 2863,
      "श्मी": 2864,
      "▁हिन्द": 2865,
      "%28": 2866,
      "-re": 2867,
      "_%28": 2868,
      "ant": 2869,
      "time": 2870,
      "▁(PDF)": 2871,
      "-26": 2872,
      "7%": 2873,
      "rin": 2874,
      "ved": 2875,
      "▁this": 2876,
      "uman": 2877,
      "map": 2878,
      "tent": 2879,
      "Dyson2018": 2880,
      "2-0)": 2881,
      "67": 2882,
      "_আ": 2883,
      "je": 2884,
      "ंब": 2885,
      "गढ़": 2886,
      "ज्य": 2887,
      "तमिल": 2888,
      "दा": 2889,
      "भी": 2890,
      "वे": 2891,
      "ांग": 2892,
      "ेर": 2893,
      "উপ": 2894,
      "সদ": 2895,
      "ুম": 2896,
      "▁[ব": 2897,
      "ini": 2898,
      "्रिट": 2899,
      "▁अधिक": 2900,
      "বাদ": 2901,
      "প্রা": 2902,
      "तिहास": 2903,
      "▁[ভারতের": 2904,
      "▁१९": 2905,
      "tember": 2906,
      "युक्त": 2907,
      "▁উৎস/0": 2908,
      "](https://bn.wikipedia.org/wiki/বিশেষ:বইয়ের_উৎস/0": 2909,
      "ঞ্জ": 2910,
      "स्कृत": 2911,
      "শাসিত": 2912,
      "▁Commission": 2913,
      "dus": 2914,
      "ణి": 2915,
      "తమిళ": 2916,
      "మైన": 2917,
      "హార": 2918,
      "ోర్": 2919,
      "▁\"ఇ": 2920,
      "▁\"భారత": 2921,
      "argest": 2922,
      "](https://en.wikipedia.org/wiki/F": 2923,
      "](https://te.wikipedia.org/wiki/బ": 2924,
      "▁Ch": 2925,
      "▁cons": 2926,
      "▁మొ": 2927,
      "నాగ": 2928,
      "త్తర": 2929,
      "ులు\")": 2930,
      "aint": 2931,
      "▁[*A": 2932,
      "120px-": 2933,
      "▁[Archived](https://web.archive.org/web/20": 2934,
      "ారు.": 2935,
      "శ్మీ": 2936,
      "మూస:": 2937,
      "KulkeRothermund": 2938,
      "gar": 2939,
      "son": 2940,
      "▁[t": 2941,
      "▁Constitution": 2942,
      "resid": 2943,
      "formatics": 2944,
      "peration": 2945,
      "ameter": 2946,
      "parameter": 2947,
      "history": 2948,
      "2/": 2949,
      "CO": 2950,
      "ck": 2951,
      "ober": 2952,
      "में": 2953,
      "रे": 2954,
      "তালিকা": 2955,
      "পাল": 2956,
      "রিক": 2957,
      "ীত": 2958,
      "ীর": 2959,
      "▁[3": 2960,
      "▁\"ব": 2961,
      "\"):": 2962,
      "য়া": 2963,
      "▁मान": 2964,
      "▁Population": 2965,
      "▁অজানা": 2966,
      "▁কো": 2967,
      "▁তালিকা": 2968,
      "▁बाद": 2969,
      "depend": 2970,
      "्वार": 2971,
      "▁নাম": 2972,
      "িয়ান": 2973,
      ")\n\n##": 2974,
      "harat": 2975,
      "िल्ल": 2976,
      "्राज्य": 2977,
      "times.com/": 2978,
      "▁./বিষয়শ্রেণী:উদ্ধৃতি\\_শৈলী\\_ত্রুটি:\\_অ": 2979,
      "_ও_": 2980,
      "-language": 2981,
      "2_": 2982,
      "Template": 2983,
      "\")\n": 2984,
      "▁En": 2985,
      "view": 2986,
      "ibrary": 2987,
      "330px-": 2988,
      "%29": 2989,
      "-l": 2990,
      "Vi": 2991,
      "_re": 2992,
      "bn": 2993,
      "\")**": 2994,
      "cience": 2995,
      "\\_with": 2996,
      "radition": 2997,
      "▁Oxford": 2998,
      "10.10": 2999,
      "_W": 3000,
      "_c": 3001,
      "_और": 3002,
      "ocial": 3003,
      "एं": 3004,
      "वर्": 3005,
      "शास": 3006,
      "శా": 3007,
      "ైనా": 3008,
      "▁[ఇ": 3009,
      "▁\"ক": 3010,
      "▁\"జ": 3011,
      "▁कार": 3012,
      "](https://bn.wikipedia.org/wiki/ব": 3013,
      "](https://te.wikipedia.org/wiki/ఇ": 3014,
      "](https://te.wikipedia.org/wiki/స": 3015,
      "▁সঙ্গ": 3016,
      "భారత_": 3017,
      "rop": 3018,
      "రాజ": 3019,
      "లో](https://te.wikipedia.org/wiki/": 3020,
      "▁২১": 3021,
      "రిజ": 3022,
      "క్కు": 3023,
      "ండ్": 3024,
      "क्षेत्र": 3025,
      "here": 3026,
      "माण": 3027,
      "eptember": 3028,
      "ड़ा": 3029,
      "▁शास": 3030,
      "म्ब": 3031,
      "▁साम": 3032,
      "▁यह": 3033,
      "কিস্তান": 3034,
      "▁[ভারতীয়": 3035,
      "▁[भारतीय": 3036,
      "▁(২০০": 3037,
      "స్కృతి": 3038,
      "ज्ञान": 3039,
      "dustry": 3040,
      "c=": 3041,
      "cess": 3042,
      "king": 3043,
      "ama": 3044,
      "ling": 3045,
      "▁National": 3046,
      "▁\"Special:BookSources/978-1": 3047,
      "▁July": 3048,
      "](Special:BookSources/978-1": 3049,
      "▁Island": 3050,
      "-40": 3051,
      "4-0)": 3052,
      "han": 3053,
      "rac": 3054,
      "thnolo": 3055,
      "citation": 3056,
      "ayan": 3057,
      "▁Empire": 3058,
      "▁government": 3059,
      "Comb": 3060,
      "ID": 3061,
      "_भाषा": 3062,
      "तर": 3063,
      "ाट": 3064,
      "ংরেজি": 3065,
      "ত্য": 3066,
      "দা": 3067,
      "েস": 3068,
      "▁थ": 3069,
      "▁৪": 3070,
      "▁৫": 3071,
      "▁[[": 3072,
      "▁\"O": 3073,
      "▁\"विशेष:पुस्तक": 3074,
      "](https://hi.wikipedia.org/wiki/ISBN_(identifier)": 3075,
      "](https://hi.wikipedia.org/wiki/विशेष:पुस्तक": 3076,
      "▁स्रोत/": 3077,
      "-17": 3078,
      "▁Chin": 3079,
      "▁पा": 3080,
      "▁Se": 3081,
      "](https://hi.wikipedia.org/wiki/भारत_के_": 3082,
      "urr": 3083,
      "বাহ": 3084,
      "लाई": 3085,
      "▁./श्रेणी:": 3086,
      "▁./Category:": 3087,
      "iron": 3088,
      "_स्रोत/": 3089,
      "িল্": 3090,
      "▁[ISBN](https://hi.wikipedia.org/wiki/ISBN_(identifier)": 3091,
      "_के_आ": 3092,
      "▁लि": 3093,
      ".html)।": 3094,
      "▁Asia\")": 3095,
      "outledge": 3096,
      "साँचा:": 3097,
      "श्चिम": 3098,
      "ांग्ला": 3099,
      "Combined": 3100,
      "](https://hi.wikipedia.org/wiki/विशेष:पुस्तक_स्रोत/": 3101,
      "54": 3102,
      "88": 3103,
      "athe": 3104,
      "hen": 3105,
      "one": 3106,
      "▁pl": 3107,
      "ument": 3108,
      "berg": 3109,
      "doc": 3110,
      "vision": 3111,
      "lobal": 3112,
      "\\_with\\_": 3113,
      "-g": 3114,
      "South": 3115,
      "_at": 3116,
      "ron": 3117,
      "ం?action=edit&redlink=1": 3118,
      "చే": 3119,
      "బా": 3120,
      "▁$": 3121,
      "▁[జ": 3122,
      "anu": 3123,
      "ats": 3124,
      "etail": 3125,
      "▁పా": 3126,
      "low": 3127,
      "▁16": 3128,
      "▁వా": 3129,
      "ండు": 3130,
      "▁చూ": 3131,
      "త్వ": 3132,
      "▁Oct": 3133,
      "ప్రధాన": 3134,
      "▁తే": 3135,
      "-f": 3136,
      "_3": 3137,
      "how": 3138,
      "pib": 3139,
      "ya": 3140,
      "ंप": 3141,
      "मुख": 3142,
      "দক্ষিণ": 3143,
      "ফোর্": 3144,
      "▁9": 3145,
      "▁কা": 3146,
      "▁24": 3147,
      "▁राष्ट्रीय": 3148,
      "▁[J": 3149,
      "▁\"J": 3150,
      "▁\"স": 3151,
      "estern": 3152,
      "্রু": 3153,
      "](https://bn.wikipedia.org/wiki/আ": 3154,
      "▁Pradesh": 3155,
      "▁[↑](https://hi.wikipedia.org/wiki/भारत": 3156,
      "▁*The": 3157,
      "▁जु": 3158,
      "ember": 3159,
      "▁है,": 3160,
      "িকে": 3161,
      "ेश्वर": 3162,
      "▁বৈ": 3163,
      "▁২০২": 3164,
      "ষ্ঠ": 3165,
      "▁সংস্": 3166,
      "▁শিল্প": 3167,
      "▁उप": 3168,
      "যুক্ত": 3169,
      "▁यु": 3170,
      "also": 3171,
      "त्प": 3172,
      "गुजरा": 3173,
      "ूचना": 3174,
      "_प्रदेश": 3175,
      "embly": 3176,
      "▁আর্কাইভকৃত।": 3177,
      "्रिटिश": 3178,
      ".india": 3179,
      ":[": 3180,
      "viron": 3181,
      "](https://doi": 3182,
      "▁[![](https://upload.wikimedia.org/wikipedia/commons/thumb/": 3183,
      "1950": 3184,
      "ool": 3185,
      "▁\"South": 3186,
      "▁2006": 3187,
      "ummit\")": 3188,
      "vironment": 3189,
      "](https://doi.org/": 3190,
      "\"](http://www.": 3191,
      "wart": 3192,
      "zberg": 3193,
      "▁22": 3194,
      "▁year": 3195,
      "index": 3196,
      "ern": 3197,
      "▁Cambridge": 3198,
      "▁par": 3199,
      "▁Ass": 3200,
      "▁ch": 3201,
      "chwart": 3202,
      "▁world": 3203,
      "▁Development": 3204,
      "duc": 3205,
      "umbai": 3206,
      "harma": 3207,
      "_Press": 3208,
      "▁October": 3209,
      "chwartzberg": 3210,
      "_ই": 3211,
      "_पर": 3212,
      "lang": 3213,
      "काल": 3214,
      "बाद": 3215,
      "रक्ष": 3216,
      "वाद": 3217,
      "ाष्ट्र": 3218,
      "ागर": 3219,
      "ोर्": 3220,
      "এফ": 3221,
      "এশ": 3222,
      "চে": 3223,
      "দের": 3224,
      "ধারণ": 3225,
      "পরি": 3226,
      "বল": 3227,
      "ম্": 3228,
      "শন": 3229,
      "েক্ষা": 3230,
      "▁us": 3231,
      "▁[सं": 3232,
      "asia": 3233,
      "[[১": 3234,
      "▁Act": 3235,
      "ক্ট": 3236,
      "िक्ष": 3237,
      "olper": 3238,
      "ক্ষম": 3239,
      "ঙ্ক": 3240,
      "imf": 3241,
      "_मेला": 3242,
      "नेमा": 3243,
      "যুক্তি": 3244,
      "cyc": 3245,
      "धार_पर": 3246,
      "ikshit": 3247,
      "द्योग": 3248,
      "हाराष्ट्र": 3249,
      "▁subcontinent": 3250,
      "▁মধ্যে": 3251,
      "_के_आधार_पर": 3252,
      "olpert": 3253,
      "_के_आधार_पर_भारत": 3254,
      "_సా": 3255,
      "ంప": 3256,
      "కో": 3257,
      "గణ": 3258,
      "దిన": 3259,
      "నై": 3260,
      "రీ": 3261,
      "▁\"చ": 3262,
      "\")*.": 3263,
      "](https://te.wikipedia.org/wiki/జ": 3264,
      "ారం": 3265,
      "files/": 3266,
      "▁క్రీ": 3267,
      "▁2016": 3268,
      "క్‌": 3269,
      "నికి": 3270,
      "ల్ల": 3271,
      "ంగీ": 3272,
      "▁సి": 3273,
      "▁2023": 3274,
      "నాభా": 3275,
      "జాబి": 3276,
      "%2F": 3277,
      "-19-5": 3278,
      "-107": 3279,
      ".jpg/120px-": 3280,
      "%2C_": 3281,
      "▁(PDF).": 3282,
      "▁శా": 3283,
      "▁భాష\")": 3284,
      "బెంగ": 3285,
      "rofile": 3286,
      "lassical": 3287,
      "ographi": 3288,
      "thnologue": 3289,
      "జాబితా": 3290,
      "UN": 3291,
      "detail": 3292,
      "](https://en.wikipedia.org/wiki/J": 3293,
      "▁into": 3294,
      "▁Augu": 3295,
      "edu": 3296,
      "▁system": 3297,
      "term": 3298,
      "▁Metcalf": 3299,
      "▁2024": 3300,
      "1994": 3301,
      "ortal": 3302,
      "](https://en.wikipedia.org/wiki/South": 3303,
      "▁Press.": 3304,
      "uropean": 3305,
      ".indiatimes.com/": 3306,
      "▁August": 3307,
      "3-0)": 3308,
      "NG": 3309,
      "oor": 3310,
      "rd": 3311,
      "tal": 3312,
      "एशिया": 3313,
      "ली": 3314,
      "আই": 3315,
      "তন্ত্র": 3316,
      "োবর": 3317,
      "▁uni": 3318,
      "▁also": 3319,
      "▁\"ই": 3320,
      "ally": 3321,
      "](https://bn.wikipedia.org/wiki/ক": 3322,
      "য়ু": 3323,
      "▁their": 3324,
      "▁स्व": 3325,
      "▁मंदिर": 3326,
      "्यव": 3327,
      "life": 3328,
      "site": 3329,
      "▁con": 3330,
      "বাহিনী": 3331,
      "▁दक्षिण": 3332,
      "ंगा": 3333,
      "umber": 3334,
      "-80": 3335,
      "ষ্ট": 3336,
      "▁June": 3337,
      "▁ইতিহাস": 3338,
      "▁২০১১": 3339,
      "▁language\")": 3340,
      "▁রয়েছে": 3341,
      "▁2014.\n": 3342,
      "ंग्रेज़ी": 3343,
      "▁first": 3344,
      "▁पुरालेखित।.": 3345,
      "বাধীন": 3346,
      "▁আগস্ট": 3347,
      "resident": 3348,
      "▁जुलाई": 3349,
      "_के_आधार_पर_भारत_के_राज्य": 3350,
      "5-0)": 3351,
      "ok": 3352,
      "oin": 3353,
      "wo": 3354,
      "wood": 3355,
      "▁al": 3356,
      "2023": 3357,
      "rime": 3358,
      "ween": 3359,
      "etween": 3360,
      "▁su": 3361,
      "anges": 3362,
      "rah": 3363,
      "▁(identifier)\"):[": 3364,
      "▁during": 3365,
      "_summit": 3366,
      "-c": 3367,
      ".as": 3368,
      "jab": 3369,
      "ned": 3370,
      "▁6": 3371,
      "are": 3372,
      "arat": 3373,
      "2019": 3374,
      "ide": 3375,
      "fic": 3376,
      "▁2018": 3377,
      ".png": 3378,
      "censusindia.gov.in/": 3379,
      "81": 3380,
      "Ar": 3381,
      "[![](https://upload.wikimedia.org/wikipedia/commons/thumb/": 3382,
      "f/": 3383,
      "rans": 3384,
      "तेल": 3385,
      "ीस": 3386,
      "००": 3387,
      "তী": 3388,
      "র্য": 3389,
      "শনা": 3390,
      "చల్": 3391,
      "యన్": 3392,
      "షు": 3393,
      "ూర్": 3394,
      "▁ac": 3395,
      "▁21": 3396,
      "▁नाम": 3397,
      "▁[জ": 3398,
      "▁[చ": 3399,
      "▁[భారత": 3400,
      "▁[భారతీయ": 3401,
      "](https://te.wikipedia.org/wiki/ప": 3402,
      "](https://te.wikipedia.org/wiki/భారతీయ": 3403,
      "ార్ట": 3404,
      "বিজ্ঞান": 3405,
      "ాలయ": 3406,
      "▁Census": 3407,
      "▁पूर्व": 3408,
      "](https://bn.wikipedia.org/wiki/ভারত#CITEREF": 3409,
      "▁population": 3410,
      "▁part": 3411,
      "▁Archived": 3412,
      "ানু": 3413,
      "▁अप": 3414,
      "नाग": 3415,
      "క్క": 3416,
      "▁వ్యవస్థ": 3417,
      "ক্ষে": 3418,
      "ভাগ": 3419,
      "▁প্রা": 3420,
      "▁প্রতি": 3421,
      "▁ము": 3422,
      "▁জুন": 3423,
      "ండో": 3424,
      "-81": 3425,
      "ముంబ": 3426,
      "▁विक": 3427,
      "సిన": 3428,
      "ినల్": 3429,
      "ద్ద": 3430,
      "▁ఉన్న": 3431,
      "▁ఉంది.": 3432,
      "▁रूप": 3433,
      "▁Press\").": 3434,
      "పాకిస్తాన్": 3435,
      "▁[↑](https://hi.wikipedia.org/wiki/भारत#cite_ref-FOOTNOTE": 3436,
      "ক্তকারী": 3437,
      "পাকিস্তান": 3438,
      "ంధీ": 3439,
      "udden": 3440,
      "▁देशों": 3441,
      "▁ఒక": 3442,
      "▁ఒరిజ": 3443,
      "গুলির": 3444,
      "বাংলাদেশ": 3445,
      "వంశం": 3446,
      "▁తేదీ": 3447,
      "শনাক্তকারী": 3448,
      "ార్టీ": 3449,
      "▁ఒరిజినల్": 3450,
      "-le": 3451,
      "123": 3452,
      "53": 3453,
      "rish": 3454,
      "ince": 3455,
      "ill": 3456,
      "▁form": 3457,
      "▁been": 3458,
      "ology": 3459,
      "day": 3460,
      "ich": 3461,
      "tates": 3462,
      "▁wi": 3463,
      "off": 3464,
      "url": 3465,
      "pecial:BookSources/978": 3466,
      "ughal": 3467,
      "▁comp": 3468,
      "4/": 3469,
      "61": 3470,
      "JP": 3471,
      "lad": 3472,
      "ution": 3473,
      "ंक": 3474,
      "टे": 3475,
      "धी": 3476,
      "ोन": 3477,
      "ইল": 3478,
      "দ্য": 3479,
      "ধিক": 3480,
      "ন](https://bn.wikipedia.org/wiki/": 3481,
      "রক্ষণ": 3482,
      "▁ভ": 3483,
      "kim": 3484,
      "▁[০-": 3485,
      "▁\"অ": 3486,
      "India)": 3487,
      "eser": 3488,
      "ार्": 3489,
      "▁कि": 3490,
      "য়ন": 3491,
      "বিধান": 3492,
      "▁September": 3493,
      "ালা": 3494,
      "টিশ": 3495,
      "olk": 3496,
      "▁মে": 3497,
      "▁কর": 3498,
      "ंगाल": 3499,
      "▁तट": 3500,
      "▁न्या": 3501,
      "▁ব্যবস্থা": 3502,
      "▁হল": 3503,
      "▁एवं": 3504,
      "-19-8": 3505,
      "র্থিত": 3506,
      ".jpg/330px-": 3507,
      "ন্তর্": 3508,
      "ohn": 3509,
      "চিত্র:": 3510,
      "श्मीर": 3511,
      "▁Commissioner": 3512,
      "्यवस्था": 3513,
      "censusindia.gov.in/2011": 3514,
      "4-7": 3515,
      "5_": 3516,
      "91": 3517,
      "ute": 3518,
      "India_": 3519,
      "andhi": 3520,
      "andard": 3521,
      "2017": 3522,
      "▁India.": 3523,
      "idd": 3524,
      "amp": 3525,
      "2000": 3526,
      "adu": 3527,
      "ed.": 3528,
      "logo": 3529,
      "chnolo": 3530,
      "_of_the": 3531,
      "eport": 3532,
      "▁K.": 3533,
      "hism": 3534,
      "ft": 3535,
      "has": 3536,
      "olic": 3537,
      "జ్": 3538,
      "వరి": 3539,
      "శ్చ": 3540,
      "ిన్న": 3541,
      "ెల": 3542,
      "▁per": 3543,
      "wing": 3544,
      "▁\"భారతదేశ": 3545,
      "్రె": 3546,
      "190": 3547,
      "00)": 3548,
      "unjab": 3549,
      "నిస్తాన్": 3550,
      "▁మధ్య": 3551,
      "](https://te.wikipedia.org/wiki/భారతదేశంలో": 3552,
      "▁ఉన్నాయి.": 3553,
      "స్థాన్": 3554,
      "▁not": 3555,
      "▁పేజీ": 3556,
      "మ్మూ": 3557,
      "ecember": 3558,
      "▁\"భారతదేశంలో": 3559,
      "▁చూసిన": 3560,
      "▁తేదీ:": 3561,
      "olicy": 3562,
      "శ్చి": 3563,
      "▁పేజీని": 3564,
      "-এ": 3565,
      "CE": 3566,
      "Island": 3567,
      "_ign": 3568,
      "eg": 3569,
      "iver": 3570,
      "oast": 3571,
      "ल\")": 3572,
      "सद": 3573,
      "।\n\n": 3574,
      "কারি": 3575,
      "বন্ধ": 3576,
      "মন": 3577,
      "লচ্চ": 3578,
      "হু": 3579,
      "েলা": 3580,
      "▁ড": 3581,
      "ored": 3582,
      "▁[न": 3583,
      "▁\"द": 3584,
      "▁\"প": 3585,
      "ার্চ": 3586,
      "▁|\n\n": 3587,
      "▁केंद्र": 3588,
      "▁(১৯": 3589,
      "বিত": 3590,
      "्तर": 3591,
      "▁between": 3592,
      "▁মেশি": 3593,
      "भाग": 3594,
      "form": 3595,
      "লাই": 3596,
      "সংস্": 3597,
      "সমর্থিত": 3598,
      "%E0%A4%": 3599,
      "संख्या": 3600,
      "articles": 3601,
      "▁अनुसार": 3602,
      "%E0%A6%A": 3603,
      "▁উপেক্ষা": 3604,
      "▁নির্": 3605,
      "lishing": 3606,
      "▁प्रदेश\")": 3607,
      "▁উৎস/": 3608,
      "্রিটিশ": 3609,
      "](https://bn.wikipedia.org/wiki/বিশেষ:বইয়ের_উৎস/": 3610,
      "▁([সাহায্য](https://bn.wikipedia.org/wiki/সাহায্য:উদ্ধৃতি_শৈলী_ত্রুটি#parameter": 3611,
      "▁स्थ": 3612,
      "পূর্ব": 3613,
      "AsherTalbot2008": 3614,
      "▁./বিষয়শ্রেণী:উদ্ধৃতি\\_শৈলী\\_ত্রুটি:\\_অসমর্থিত": 3615,
      "_ignored": 3616,
      "লচ্চিত্র": 3617,
      "▁([সাহায্য](https://bn.wikipedia.org/wiki/সাহায্য:উদ্ধৃতি_শৈলী_ত্রুটি#parameter_ignored": 3618,
      "▁./বিষয়শ্রেণী:উদ্ধৃতি\\_শৈলী\\_ত্রুটি:\\_অসমর্থিত\\_প্যারামিটার": 3619,
      "\"](http://": 3620,
      "41": 3621,
      "uis": 3622,
      "▁k": 3623,
      "▁en": 3624,
      "▁es": 3625,
      "▁28": 3626,
      "anglad": 3627,
      "▁1950": 3628,
      "▁[\"C": 3629,
      "ake": 3630,
      "/article": 3631,
      "how/": 3632,
      "angladesh": 3633,
      "-B": 3634,
      "-25": 3635,
      "6/": 3636,
      "73": 3637,
      "99": 3638,
      "_d": 3639,
      "mu": 3640,
      "▁but": 3641,
      "▁more": 3642,
      "versity_Press": 3643,
      "gency": 3644,
      "/auth": 3645,
      "_ভারত": 3646,
      "_সম": 3647,
      "cms": 3648,
      "ii": 3649,
      "ies": 3650,
      "ton": 3651,
      "एँ": 3652,
      "एस": 3653,
      "खा": 3654,
      "गो": 3655,
      "चे": 3656,
      "लि": 3657,
      "सी": 3658,
      "ैक": 3659,
      "ोड़": 3660,
      "ণা": 3661,
      "দিল্": 3662,
      "বেশ": 3663,
      "রু": 3664,
      "হিত": 3665,
      "৯৭": 3666,
      "▁[প্র": 3667,
      "▁[हिन्द": 3668,
      "\");": 3669,
      "ार्ट": 3670,
      "](https://bn.wikipedia.org/wiki/চিত্র:": 3671,
      "▁India\"),": 3672,
      "▁मूल": 3673,
      "att": 3674,
      "विधान": 3675,
      "▁जो": 3676,
      "▁ab": 3677,
      "▁बहु": 3678,
      "▁এর": 3679,
      "▁सेना": 3680,
      "ন্দোল": 3681,
      "মিল": 3682,
      "▁শতা": 3683,
      "able": 3684,
      "ड़ी": 3685,
      "म्बर": 3686,
      "▁भू": 3687,
      "▁ইউ": 3688,
      "▁সম্পর্ক": 3689,
      "धिकार": 3690,
      "কাশ্ম": 3691,
      "्यटन": 3692,
      "হিত্য": 3693,
      "/S": 3694,
      "ban": 3695,
      "eh": 3696,
      "uri": 3697,
      "షన్": 3698,
      "హ్": 3699,
      "ెలు": 3700,
      "▁ru": 3701,
      "▁[I": 3702,
      "arb": 3703,
      "omen": 3704,
      "](https://te.wikipedia.org/wiki/అ": 3705,
      "raven": 3706,
      "ross": 3707,
      "ourn": 3708,
      "▁Times": 3709,
      "olly": 3710,
      "రియా": 3711,
      "▁Di": 3712,
      "▁మార్": 3713,
      "ప్రపంచ": 3714,
      "▁bec": 3715,
      ".jpg)\n-": 3716,
      "avid": 3717,
      "▁\"Doi": 3718,
      "▁సంస్కృతి": 3719,
      "దీవ": 3720,
      "oi_(identifier)": 3721,
      "▁century": 3722,
      "ollywood": 3723,
      ".fr": 3724,
      "55": 3725,
      "6-0)": 3726,
      "79": 3727,
      "ae": 3728,
      "c.": 3729,
      "rm": 3730,
      "▁[e": 3731,
      "tex": 3732,
      "eration": 3733,
      "▁(*": 3734,
      "ouse": 3735,
      "lig": 3736,
      "▁Th": 3737,
      "▁2012": 3738,
      "▁[\"India": 3739,
      "▁English": 3740,
      "chnology": 3741,
      "119": 3742,
      "5/": 3743,
      "CN": 3744,
      "En": 3745,
      "_t": 3746,
      "lm": 3747,
      "तिक": 3748,
      "दू": 3749,
      "भू": 3750,
      "श्री": 3751,
      "ीत": 3752,
      "ील": 3753,
      "গত": 3754,
      "চার": 3755,
      "টেম": 3756,
      "ত্": 3757,
      "থ্য": 3758,
      "পে": 3759,
      "▁'": 3760,
      "▁we": 3761,
      "▁27": 3762,
      "▁\"W": 3763,
      "ar,": 3764,
      "](https://bn.wikipedia.org/wiki/প": 3765,
      "](https://bn.wikipedia.org/wiki/স": 3766,
      "2001": 3767,
      "lib": 3768,
      "বিক": 3769,
      "▁পা": 3770,
      "terature": 3771,
      "▁অর্থনৈতিক": 3772,
      "ource": 3773,
      "▁মা": 3774,
      "नाथ": 3775,
      "_क्षेत्र": 3776,
      "▁বর্": 3777,
      "fore": 3778,
      "▁2009": 3779,
      "▁2020": 3780,
      "▁गण": 3781,
      "▁एशिया": 3782,
      ".jpg)](https://hi.wikipedia.org/wiki/चित्र:": 3783,
      "%E0%A7%": 3784,
      "▁state": 3785,
      "জাতীয়_": 3786,
      "▁अन्य": 3787,
      "\")*,": 3788,
      "▁[আর্কাইভকৃত](https://web.archive.org/web/201": 3789,
      "প্লে": 3790,
      "known": 3791,
      "ুটবল": 3792,
      "गुजरात": 3793,
      "টেমপ্লে": 3794,
      "\"](https://": 3795,
      "-India": 3796,
      "-to": 3797,
      "32": 3798,
      "5–": 3799,
      "64": 3800,
      "ions": 3801,
      "oth": 3802,
      "ymb": 3803,
      "▁23": 3804,
      "▁all": 3805,
      "orther": 3806,
      "▁[v": 3807,
      "▁Sh": 3808,
      "rits": 3809,
      "▁[*The": 3810,
      "Template:": 3811,
      "orthern": 3812,
      "-21": 3813,
      "Qu": 3814,
      "back": 3815,
      "fric": 3816,
      "pr": 3817,
      "▁other": 3818,
      "encies": 3819,
      "iss": 3820,
      "ing\\_": 3821,
      "ublishing": 3822,
      "Harle": 3823,
      "apit": 3824,
      "ovement": 3825,
      "iddle": 3826,
      "0)": 3827,
      "93": 3828,
      "Fisher": 3829,
      "Hindi": 3830,
      "adi": 3831,
      "britannica": 3832,
      "अन": 3833,
      "जय": 3834,
      "टक": 3835,
      "पी": 3836,
      "पति": 3837,
      "मह": 3838,
      "रो": 3839,
      "ेस": 3840,
      "তার": 3841,
      "পাত": 3842,
      "মান": 3843,
      "ম্প": 3844,
      "মন্ত্র": 3845,
      "ం\"),": 3846,
      "ంత్రి": 3847,
      "ఆఫ్": 3848,
      "కత": 3849,
      "కై": 3850,
      "క్య": 3851,
      "దాయ": 3852,
      "రే": 3853,
      "లంక": 3854,
      "వీ": 3855,
      "శ్రీ": 3856,
      "షి": 3857,
      "సు": 3858,
      "▁ड": 3859,
      "▁फ": 3860,
      "▁ఏ": 3861,
      "▁[द": 3862,
      "▁[సి": 3863,
      "▁[Metcalf": 3864,
      "tel": 3865,
      "](https://bn.wikipedia.org/wiki/ই": 3866,
      "য়ারি": 3867,
      "▁(পি": 3868,
      "](https://te.wikipedia.org/wiki/చ": 3869,
      "2016": 3870,
      "స్సా": 3871,
      "▁పరి": 3872,
      "▁పార్టీ": 3873,
      "edition": 3874,
      "న్‌": 3875,
      "▁music": 3876,
      "▁కు": 3877,
      "▁December": 3878,
      "▁వచ్చ": 3879,
      "▁ক্র": 3880,
      "िया\")": 3881,
      "archive.org/detail": 3882,
      "েশন": 3883,
      "▁Hindi": 3884,
      "িয়ে": 3885,
      "▁2003": 3886,
      "ముద్ర": 3887,
      "books.google.com/books?id=": 3888,
      "▁For": 3889,
      "▁dance": 3890,
      "▁है।\n\n": 3891,
      "म्म": 3892,
      "గాంధీ": 3893,
      "ी_भाषा": 3894,
      "ার্কি": 3895,
      "emple": 3896,
      "हिन्दी": 3897,
      "నేపాల": 3898,
      "জাতিক": 3899,
      "rick": 3900,
      "▁పేరు": 3901,
      "वंश": 3902,
      "▁जाता": 3903,
      "హిందీ": 3904,
      "▁वर्ष": 3905,
      "ैदान": 3906,
      "▁చెయ్య": 3907,
      "হিন্দি": 3908,
      "লেখা": 3909,
      "▁కూడా": 3910,
      ".php?": 3911,
      "ffairs": 3912,
      "तंत्रता": 3913,
      "वेब": 3914,
      "▁साम्राज्य": 3915,
      "द्योगिक": 3916,
      "ంగీతం": 3917,
      "ক্ষেত্র": 3918,
      "ముంబై": 3919,
      "శ్చిమ": 3920,
      "▁మార్గ": 3921,
      "Fisher2018": 3922,
      "britannica.com/": 3923,
      "archive.org/details/": 3924,
      "ার্কিন": 3925,
      "▁చెయ్యబడ": 3926,
      "&s": 3927,
      "-28": 3928,
      "/d": 3929,
      "2,": 3930,
      "7/": 3931,
      "va": 3932,
      "▁over": 3933,
      "ped": 3934,
      ".org": 3935,
      "▁[Indian": 3936,
      "2024": 3937,
      "religion": 3938,
      "come": 3939,
      "rab": 3940,
      "istan": 3941,
      "▁2017": 3942,
      "cture": 3943,
      "▁[Stein": 3944,
      ".svg/": 3945,
      "ganisation": 3946,
      ".svg.png": 3947,
      "_University_Press": 3948,
      "anuary": 3949,
      "langoff": 3950,
      "_K": 3951,
      "_11": 3952,
      "imp": 3953,
      "min": 3954,
      "pur": 3955,
      "ving": 3956,
      "tionary": 3957,
      "▁Congress": 3958,
      "ed/": 3959,
      "change": 3960,
      "▁May": 3961,
      "▁who": 3962,
      "garh": 3963,
      "▁years": 3964,
      "az": 3965,
      "oy": 3966,
      "tary": 3967,
      "ttar": 3968,
      "पे": 3969,
      "मंत्र": 3970,
      "रवरी": 3971,
      "िज़": 3972,
      "ेट": 3973,
      "গা": 3974,
      "ছিল": 3975,
      "দ্র": 3976,
      "প্ত": 3977,
      "ুল": 3978,
      "্ড": 3979,
      "▁comm": 3980,
      "▁ধর্ম": 3981,
      "▁[इ": 3982,
      "▁[पु": 3983,
      "▁\"I": 3984,
      "▁\"इ": 3985,
      "ann": 3986,
      "ারী": 3987,
      "reme": 3988,
      "esearch": 3989,
      "ভারত)": 3990,
      "▁official": 3991,
      "](https://en.wikipedia.org/wiki/Indian_": 3992,
      "▁मु": 3993,
      "107": 3994,
      "স্তা": 3995,
      "▁1,": 3996,
      "▁1.": 3997,
      "বাস": 3998,
      "विज्ञान": 3999,
      "ाला": 4000,
      "ticles": 4001,
      "▁after": 4002,
      "▁East": 4003,
      "তামিল": 4004,
      "▁January": 4005,
      "]](https://hi.wikipedia.org/wiki/भारत#cite_note-1": 4006,
      "ड़े": 4007,
      "▁उत्तर": 4008,
      "▁২০০৯": 4009,
      "রাষ্ট্রপতি": 4010,
      "olitics": 4011,
      "নেপাল": 4012,
      "द्यान": 4013,
      "र्थिक": 4014,
      "▁হয়।": 4015,
      "▁যুদ্ধ": 4016,
      "▁समय": 4017,
      "ক্সফোর্": 4018,
      "ompany": 4019,
      "▁বৃহ": 4020,
      "यालय": 4021,
      "▁তালিকা\")": 4022,
      "▁[↑](https://hi.wikipedia.org/wiki/भारत#cite_ref-1": 4023,
      "ক্টোবর": 4024,
      "বাধীনতা": 4025,
      "censusindia.gov.in/2011census": 4026,
      "ক্সফোর্ড": 4027,
      "/P": 4028,
      "/s": 4029,
      "71": 4030,
      "86": 4031,
      "89": 4032,
      "8-0)": 4033,
      "ite": 4034,
      "ug": 4035,
      "▁30": 4036,
      "atu": 4037,
      "-00": 4038,
      "emoc": 4039,
      "cts": 4040,
      "▁Government": 4041,
      "▁states": 4042,
      "ustral": 4043,
      "ymbol": 4044,
      "-of": 4045,
      "500": 4046,
      "BC": 4047,
      "IM": 4048,
      "_V": 4049,
      "_వ": 4050,
      "ealth": 4051,
      "hol": 4052,
      "ls": 4053,
      "lam": 4054,
      "por": 4055,
      "గర": 4056,
      "టక": 4057,
      "టా": 4058,
      "దార": 4059,
      "నీ": 4060,
      "రో": 4061,
      "సభ": 4062,
      "ెద్ద": 4063,
      "▁\"సి": 4064,
      "tig": 4065,
      "](https://en.wikipedia.org/wiki/W": 4066,
      "](https://te.wikipedia.org/wiki/భారత_": 4067,
      "fice": 4068,
      "▁పు": 4069,
      "▁classical": 4070,
      "▁Pe": 4071,
      "uslim": 4072,
      "రాజ్య": 4073,
      "▁13": 4074,
      "▁కేంద్రపాలిత": 4075,
      "agar": 4076,
      "▁మా": 4077,
      "▁[\"The": 4078,
      "▁చే": 4079,
      "ము\")": 4080,
      "త్స": 4081,
      "abad": 4082,
      "▁రాజ్య": 4083,
      "▁national": 4084,
      "hindu": 4085,
      "_Centre": 4086,
      "వాతంత్ర": 4087,
      "▁దేశాల": 4088,
      "లాదేశ్": 4089,
      "స్తు": 4090,
      "▁సామ్రాజ్యం](https://te.wikipedia.org/wiki/": 4091,
      "ంగ్లాదేశ్": 4092,
      "▁భాషలు": 4093,
      "_ప్రా": 4094,
      "్రిటి": 4095,
      "▁అధికార": 4096,
      "ూర్పు": 4097,
      "కైవు": 4098,
      "-india": 4099,
      "TR": 4100,
      "_n": 4101,
      "_প্র": 4102,
      "gram": 4103,
      "mil": 4104,
      "nam": 4105,
      "pl": 4106,
      "डी": 4107,
      "डु": 4108,
      "णि": 4109,
      "त्य": 4110,
      "धु": 4111,
      "लोक": 4112,
      "ণ্ড": 4113,
      "বন": 4114,
      "ভর": 4115,
      "শীল": 4116,
      "েখ": 4117,
      "▁छ": 4118,
      "▁ভূ": 4119,
      "http://": 4120,
      "▁\"न": 4121,
      "▁\"सं": 4122,
      "\").\n": 4123,
      "arri": 4124,
      "araj": 4125,
      "alley": 4126,
      "](https://bn.wikipedia.org/wiki/অ": 4127,
      "▁मा": 4128,
      "ন্ট": 4129,
      "▁sh": 4130,
      "edic": 4131,
      "▁two": 4132,
      "▁অক্টোবর": 4133,
      "▁মহা": 4134,
      "नाव": 4135,
      "▁द्वार": 4136,
      "ের_তালিকা": 4137,
      "▁প্রযুক্তি": 4138,
      "content": 4139,
      "▁ভারত\")": 4140,
      "▁2004": 4141,
      "माज": 4142,
      "▁থেকে](http://www.": 4143,
      "ी](https://hi.wikipedia.org/wiki/अ": 4144,
      "ড়া": 4145,
      "key": 4146,
      "सेना": 4147,
      "জাতি": 4148,
      "▁चु": 4149,
      "▁हुई": 4150,
      "▁২০০৭।": 4151,
      "লোক": 4152,
      "্যান্য": 4153,
      "शासित": 4154,
      "त्पाद": 4155,
      "ক্ষমতা": 4156,
      "ournal": 4157,
      "%7": 4158,
      "94": 4159,
      "_J": 4160,
      "lag": 4161,
      "y,": 4162,
      "anth": 4163,
      "-14": 4164,
      "▁spe": 4165,
      "▁most": 4166,
      "onso": 4167,
      "▁Talbot": 4168,
      "26)": 4169,
      "▁Nations": 4170,
      "hindi": 4171,
      "obb": 4172,
      "▁[Archived](https://web.archive.org/web/201": 4173,
      "▁territories": 4174,
      "countries_by": 4175,
      "\".": 4176,
      "545": 4177,
      "EX": 4178,
      "gl": 4179,
      "ian": 4180,
      "ning": 4181,
      "▁0.": 4182,
      "ors": 4183,
      "▁[O": 4184,
      "theast": 4185,
      "▁tradition": 4186,
      "_South": 4187,
      "▁Union": 4188,
      "leshow/": 4189,
      ".html).": 4190,
      "clu": 4191,
      "/articleshow/": 4192,
      "meric": 4193,
      ",[[": 4194,
      "-78": 4195,
      "7,": 4196,
      "II": 4197,
      "K:": 4198,
      "_O": 4199,
      "_ब": 4200,
      "_ন": 4201,
      "mi": 4202,
      "ईसा": 4203,
      "कल": 4204,
      "खाना": 4205,
      "तु": 4206,
      "नगर": 4207,
      "ल्": 4208,
      "ोम": 4209,
      "গোল": 4210,
      "জে": 4211,
      "জার্": 4212,
      "ডিয়া": 4213,
      "ভেম্বর": 4214,
      "মহা": 4215,
      "লু": 4216,
      "১-": 4217,
      "১৭": 4218,
      "▁ऊ": 4219,
      "▁গ্র": 4220,
      "▁time": 4221,
      "pear": 4222,
      "city": 4223,
      "](https://hi.wikipedia.org/wiki/इ": 4224,
      "ased": 4225,
      "▁सु": 4226,
      "](https://en.wikipedia.org/wiki/Indian": 4227,
      "atus": 4228,
      "र्दू": 4229,
      "▁अग": 4230,
      "ালি": 4231,
      "▁दिया": 4232,
      "▁बढ़": 4233,
      "▁এশ": 4234,
      "▁নভেম্বর": 4235,
      "▁election": 4236,
      "িয়ার": 4237,
      "্বে": 4238,
      "_Indian": 4239,
      "▁Language": 4240,
      "▁[South": 4241,
      "সংঘ": 4242,
      ".htm)।": 4243,
      ".jpg)](https://bn.wikipedia.org/wiki/চিত্র:": 4244,
      "_Delhi": 4245,
      "র্থনীতি": 4246,
      "राष्ट्रपति": 4247,
      "_New": 4248,
      "ত্তম": 4249,
      "ext": 4250,
      "▁বাহিনী": 4251,
      "▁[2](https://en.wikipedia.org/wiki/India#cite_ref-FOOTNOTE": 4252,
      "्रां": 4253,
      "National_In": 4254,
      "▁[1](https://en.wikipedia.org/wiki/India#cite_ref-FOOTNOTE": 4255,
      "endra": 4256,
      "▁हुआ": 4257,
      "▁২০০৭।\n": 4258,
      "हासागर": 4259,
      "फ़रवरी": 4260,
      "Wikipedia": 4261,
      "▁বিশ্বের": 4262,
      "মাণু": 4263,
      "হিন্দু": 4264,
      "ष्ण": 4265,
      "▁সাম্রাজ্য": 4266,
      "ंबई": 4267,
      "▁लिए": 4268,
      "▁विकास": 4269,
      "ন্তর্জাতিক": 4270,
      "▁./বিষয়শ্রেণী:উদ্ধৃতি\\_শৈলী\\_ত্রুটি:\\_অসমর্থিত\\_প্যারামিটার\n": 4271,
      "দিল্লি": 4272,
      "মন্ত্রী": 4273,
      "Hindu": 4274,
      "a.": 4275,
      "eth": 4276,
      "ration": 4277,
      "ze": 4278,
      "ంజా": 4279,
      "గి": 4280,
      "టీ": 4281,
      "టాన్": 4282,
      "ది.": 4283,
      "మంత్రి": 4284,
      "లను": 4285,
      "వె": 4286,
      "వరణ": 4287,
      "హదార": 4288,
      "ూచ": 4289,
      "▁హ": 4290,
      "▁భారతదేశ": 4291,
      "▁res": 4292,
      "onwe": 4293,
      "ering": 4294,
      "్రమ": 4295,
      "భారతదేశ_": 4296,
      "▁Republic": 4297,
      "olle": 4298,
      "▁కొ": 4299,
      "▁వ్యా": 4300,
      "ics": 4301,
      "▁మత": 4302,
      "▁మతము": 4303,
      "తావరణ": 4304,
      "నాడు": 4305,
      "ell": 4306,
      "▁religi": 4307,
      "▁[*India": 4308,
      ".htm)": 4309,
      "▁ఇతర": 4310,
      "ాయి": 4311,
      "rade": 4312,
      "ణాసియా": 4313,
      "/cb": 4314,
      "టెడ్": 4315,
      "▁ఆర్కైవు": 4316,
      "▁York": 4317,
      "▁రైలు": 4318,
      "ondon": 4319,
      "భూటాన్": 4320,
      "_సామ్రాజ్యం": 4321,
      "ed.).": 4322,
      "వాతంత్ర్య": 4323,
      "onwealth": 4324,
      ".uk": 4325,
      "110": 4326,
      "3_": 4327,
      "7-0)": 4328,
      "NC": 4329,
      "cent": 4330,
      "gni": 4331,
      "lations": 4332,
      "t-": 4333,
      "▁—": 4334,
      "▁ro": 4335,
      "ones": 4336,
      "▁Sanskrit": 4337,
      "eds.": 4338,
      "rain": 4339,
      "▁March": 4340,
      "▁1947": 4341,
      "aksh": 4342,
      "ndaman": 4343,
      "CS1": 4344,
      "inistry_of_": 4345,
      "formatics_Centre": 4346,
      "▁2006](https://en.wikipedia.org/wiki/India#CITEREF": 4347,
      "ographic": 4348,
      ".aspx": 4349,
      "▁became": 4350,
      "National_Informatics_Centre": 4351,
      ".bn": 4352,
      "129": 4353,
      "4–": 4354,
      "72": 4355,
      "hd": 4356,
      "ks": 4357,
      "ose": 4358,
      "rar": 4359,
      "tro": 4360,
      "vol": 4361,
      "क्स": 4362,
      "न](https://hi.wikipedia.org/wiki/": 4363,
      "योग": 4364,
      "वै": 4365,
      "स्ट": 4366,
      "ूर्": 4367,
      "ृति": 4368,
      "কো": 4369,
      "চি": 4370,
      "টান": 4371,
      "দে": 4372,
      "পুর": 4373,
      "ফি": 4374,
      "বস": 4375,
      "ব্": 4376,
      "ভৌ": 4377,
      "ভ্য": 4378,
      "▁j": 4379,
      "▁ঘ": 4380,
      "▁ধ": 4381,
      "▁up": 4382,
      "▁[आ": 4383,
      "▁[ज": 4384,
      "▁\"आ": 4385,
      "▁\"हिन्द": 4386,
      "ारी": 4387,
      "ार्च": 4388,
      "ভারতীয়": 4389,
      "2015": 4390,
      "ন্স": 4391,
      "▁পর্ব": 4392,
      "▁Plate": 4393,
      "▁Pakistan": 4394,
      "স্ট্র": 4395,
      "िक्": 4396,
      "istrar": 4397,
      "▁Min": 4398,
      "_(ভারত)": 4399,
      "▁जून": 4400,
      "▁दे": 4401,
      "▁दिस": 4402,
      "राजस्थान": 4403,
      "দ্ধি": 4404,
      "▁...": 4405,
      "▁প্রস্তা": 4406,
      "▁নদী": 4407,
      "▁জু": 4408,
      "ources": 4409,
      "▁one": 4410,
      "ঙ্কা": 4411,
      "▁had": 4412,
      "শ্রীল": 4413,
      "नेपाल": 4414,
      "त्तरा": 4415,
      "ডিএফ": 4416,
      "সিন্ধ": 4417,
      "▁It": 4418,
      "जाति": 4419,
      "erala": 4420,
      "ুরু": 4421,
      "▁क्षेत्र\")": 4422,
      "धानमंत्र": 4423,
      "▁গা": 4424,
      "्रीका": 4425,
      "▁অন্যান্য": 4426,
      "_অঞ্চল": 4427,
      "ologi": 4428,
      "actbook": 4429,
      "गणना": 4430,
      "▁खाना\")": 4431,
      "▁निर्": 4432,
      "माणु": 4433,
      "JPG": 4434,
      "কাশ্মীর": 4435,
      "▁(পিডিএফ": 4436,
      "म्मू": 4437,
      "▁বৃহত্তম": 4438,
      "▁दिसम्बर": 4439,
      "শ্রীলঙ্কা": 4440,
      "/D": 4441,
      "1–": 4442,
      "EO": 4443,
      "LA": 4444,
      "Uttar": 4445,
      "Wolpert": 4446,
      "WEO": 4447,
      "m.nic.in/": 4448,
      "ncl": 4449,
      "alore": 4450,
      "astern": 4451,
      "access": 4452,
      "-111": 4453,
      "atak": 4454,
      "▁Ac": 4455,
      "ade": 4456,
      "chin": 4457,
      "angalore": 4458,
      "ters": 4459,
      "cean": 4460,
      "▁Budd": 4461,
      "▁BCE": 4462,
      "ayback": 4463,
      "duction": 4464,
      "▁northern": 4465,
      "▁War": 4466,
      "onstituent": 4467,
      "▁[2](https://en.wikipedia.org/wiki/India#cite_ref-": 4468,
      "▁[1](https://en.wikipedia.org/wiki/India#cite_ref-": 4469,
      "rowth": 4470,
      "▁2010](https://en.wikipedia.org/wiki/India#CITEREF": 4471,
      "ervation": 4472,
      "nclm.nic.in/": 4473,
      "1-0)": 4474,
      "76": 4475,
      "_en": 4476,
      "med": 4477,
      "tb": 4478,
      "dis": 4479,
      "order": 4480,
      "ise": 4481,
      "riod": 4482,
      "-16": 4483,
      "▁Ar": 4484,
      "ety": 4485,
      "vers": 4486,
      "▁2013": 4487,
      "▁Delhi": 4488,
      "24)": 4489,
      "▁2022": 4490,
      "1997": 4491,
      "ountry": 4492,
      "▁than": 4493,
      "\")\n\n[![](https://upload.wikimedia.org/wikipedia/commons/thumb/": 4494,
      "ultural": 4495,
      "...": 4496,
      "\"](https://web.archive.org/web/20160": 4497,
      "visions": 4498,
      "ujarat": 4499,
      "ehru": 4500,
      "IMF": 4501,
      "52": 4502,
      "?url": 4503,
      "_f": 4504,
      "_प": 4505,
      "a-": 4506,
      "pa": 4507,
      "rg": 4508,
      "s.[[": 4509,
      "war": 4510,
      "टी": 4511,
      "द्वीप": 4512,
      "वी": 4513,
      "हीं": 4514,
      "िज": 4515,
      "िन्": 4516,
      "ैल": 4517,
      "ैंड": 4518,
      "গো": 4519,
      "ধি": 4520,
      "বার": 4521,
      "৫]](https://bn.wikipedia.org/wiki/ভারত#cite_note-": 4522,
      "ం.": 4523,
      "ంశ": 4524,
      "ఆర్": 4525,
      "ఉత్తర": 4526,
      "ఒడి": 4527,
      "కీయ": 4528,
      "గలు": 4529,
      "చు": 4530,
      "జరా": 4531,
      "తూర్పు": 4532,
      "భు": 4533,
      "మన్": 4534,
      "యి": 4535,
      "లస": 4536,
      "ీన": 4537,
      "ేక": 4538,
      "▁৬": 4539,
      "▁৭": 4540,
      "▁డ": 4541,
      "▁টা": 4542,
      "▁జాబితా": 4543,
      "▁फ़रवरी": 4544,
      "▁[ন": 4545,
      "▁[భారతదేశ": 4546,
      "](https://hi.wikipedia.org/wiki/सं": 4547,
      "ough": 4548,
      "achin": 4549,
      "▁मार्च": 4550,
      "्यता": 4551,
      "▁पह": 4552,
      "▁पार्ट": 4553,
      "▁পূ": 4554,
      "▁పట్ట": 4555,
      "र्स": 4556,
      "र्जा": 4557,
      "local": 4558,
      "](https://hi.wikipedia.org/wiki/भारतीय": 4559,
      "ర్\")": 4560,
      "▁Public": 4561,
      "webcitation": 4562,
      "▁**జాతీయ": 4563,
      "ালত": 4564,
      "বায়ু": 4565,
      "▁মার্চ": 4566,
      "23)": 4567,
      "সাই": 4568,
      "▁ag": 4569,
      "నిక": 4570,
      "त्रि": 4571,
      "▁बना": 4572,
      "ంగ్రె": 4573,
      "▁సభ": 4574,
      "upreme": 4575,
      "▁ব্যা": 4576,
      "▁হয়ে": 4577,
      "తాబ్": 4578,
      "gions": 4579,
      "▁वा": 4580,
      "প্রদেশ": 4581,
      "▁শা": 4582,
      "▁ప్రపంచ": 4583,
      "▁ప్రభు": 4584,
      "ৃত্য": 4585,
      "▁संविधान": 4586,
      "▁ఆసియా": 4587,
      "र्वत": 4588,
      "ंडिया": 4589,
      "িয়া\")": 4590,
      "మ్రాజ్య": 4591,
      "पात": 4592,
      "নির্": 4593,
      "904-7": 4594,
      "ंग्रेस": 4595,
      "గుజరా": 4596,
      "▁গণ": 4597,
      "▁সরকারি": 4598,
      "▁సామ్రాజ్యం\")": 4599,
      "▁সালের": 4600,
      "▁অনু": 4601,
      "త్యేక": 4602,
      "రాష్ట్రపతి": 4603,
      "स्कृति": 4604,
      "ప్ప": 4605,
      "▁States": 4606,
      "সাম্রাজ্য": 4607,
      "▁కాశ్మీ": 4608,
      "▁రాజవంశం": 4609,
      "-521-80": 4610,
      "▁చెంద": 4611,
      "▁ఆర్ధిక": 4612,
      "crease": 4613,
      "%20%20%20%20": 4614,
      "▁స్థాన": 4615,
      "▁हिन्दी": 4616,
      "తమిళనాడు": 4617,
      "KulkeRothermund2004": 4618,
      "▁शासन": 4619,
      "▁थी": 4620,
      "ప్రధానమంత్రి": 4621,
      "িকেট": 4622,
      "గణతంత్ర": 4623,
      "▁క్రీడ": 4624,
      "▁শতাংশ": 4625,
      "ఆఫ్ఘ": 4626,
      "శ్రీలంక": 4627,
      "షియా": 4628,
      "న్‌ఫ": 4629,
      "నేపాల్": 4630,
      "वेबैक": 4631,
      "▁చెయ్యబడింది.": 4632,
      "▁द्वारा": 4633,
      "?url=": 4634,
      "webcitation.org/": 4635,
      "తాబ్ద": 4636,
      "-521-80904-7": 4637,
      "/b": 4638,
      "6–": 4639,
      "74": 4640,
      "829": 4641,
      "_st": 4642,
      "bank": 4643,
      "crip": 4644,
      "e/": 4645,
      "kar": 4646,
      "ogue": 4647,
      "yle": 4648,
      "▁29": 4649,
      "arly": 4650,
      "etary": 4651,
      "loy": 4652,
      "rol": 4653,
      "▁Modern": 4654,
      "cond": 4655,
      "▁2008": 4656,
      "_Indian_": 4657,
      "1996": 4658,
      "india-gl": 4659,
      "india-glance": 4660,
      ".world": 4661,
      "/ark": 4662,
      "Con": 4663,
      "Main": 4664,
      "Sharma": 4665,
      "business": 4666,
      "can": 4667,
      "f.fr": 4668,
      "osi": 4669,
      "▁ther": 4670,
      ":/121": 4671,
      "er,": 4672,
      "](https://en.wikipedia.org/wiki/The": 4673,
      "ised": 4674,
      "▁summit\")": 4675,
      "▁co": 4676,
      "▁caste": 4677,
      "▁Economic": 4678,
      "▁2025": 4679,
      "_Asian": 4680,
      "▁group": 4681,
      "▁general": 4682,
      "ternal": 4683,
      "48/cb": 4684,
      "▁\"Economy": 4685,
      "](https://en.wikipedia.org/wiki/Economy": 4686,
      "ivil": 4687,
      ")\n\n###": 4688,
      "▁Act,": 4689,
      "NGDP": 4690,
      "▁such": 4691,
      ".svg.png)": 4692,
      "National_Informatics_Centre2005": 4693,
      ".bnf.fr": 4694,
      "/ark:/121": 4695,
      ".bnf.fr/ark:/121": 4696,
      ".bnf.fr/ark:/12148/cb": 4697,
      "-S": 4698,
      "-২": 4699,
      "83": 4700,
      "9-0)": 4701,
      "_न": 4702,
      "_বি": 4703,
      "`|": 4704,
      "af": 4705,
      "ele": 4706,
      "lor": 4707,
      "p?": 4708,
      "press": 4709,
      "thi": 4710,
      "ंट": 4711,
      "खंड": 4712,
      "खण्ड": 4713,
      "गोल": 4714,
      "धि": 4715,
      "रू": 4716,
      "रेल": 4717,
      "व्यवस्था": 4718,
      "शीन": 4719,
      "ुरु": 4720,
      "ुंबई": 4721,
      "ौर": 4722,
      "ौद्ध": 4723,
      "ौद्योगिक": 4724,
      "ংগ্র": 4725,
      "ইকি": 4726,
      "চিত": 4727,
      "নিক": 4728,
      "লার": 4729,
      "১৪": 4730,
      "৬]](https://bn.wikipedia.org/wiki/ভারত#cite_note-": 4731,
      "৮-": 4732,
      "▁ref": 4733,
      "▁या": 4734,
      "than": 4735,
      "▁(ভারত": 4736,
      "▁(1,": 4737,
      "▁(`|": 4738,
      "्रम": 4739,
      "▁संग": 4740,
      "▁India*": 4741,
      "▁मैदान": 4742,
      "▁Centre": 4743,
      "▁sp": 4744,
      "chool": 4745,
      "▁अरब": 4746,
      "▁14": 4747,
      "नाडु": 4748,
      "▁जल": 4749,
      ".com/news/": 4750,
      "▁दर": 4751,
      "সাগর": 4752,
      "▁Data": 4753,
      "ভাবে": 4754,
      "▁प्रति": 4755,
      "▁নে": 4756,
      "▁land": 4757,
      "ताब्": 4758,
      "स्त्र": 4759,
      "▁বিচার": 4760,
      "search": 4761,
      "पुरी": 4762,
      "▁দি": 4763,
      "মাজ": 4764,
      "-90": 4765,
      "নাম": 4766,
      "hina": 4767,
      "](https://hi.wikipedia.org/wiki/भारत#cite_ref-FOOTNOTE": 4768,
      "▁इतिहास": 4769,
      "ruary": 4770,
      "-108": 4771,
      "▁हैं,": 4772,
      "_sug": 4773,
      "पर्यटन": 4774,
      "किम": 4775,
      "timesofindia": 4776,
      "दीव": 4777,
      "▁इसके": 4778,
      ".jpg)\n\n[": 4779,
      "do-A": 4780,
      "पालिका": 4781,
      "▁घाट": 4782,
      "ebruary": 4783,
      "সংখ্যা": 4784,
      "▁सिनेमा": 4785,
      "▁সঙ্গে": 4786,
      "िक्षा": 4787,
      "তীক": 4788,
      "বিত)": 4789,
      "▁([সাহায্য](https://bn.wikipedia.org/wiki/সাহায্য:উদ্ধৃতি_শৈলী_ত্রুটি#parameter_ignored_sug": 4790,
      "िक्किम": 4791,
      "▁প্রস্তাবিত)": 4792,
      "?url=http://": 4793,
      "timesofindia.indiatimes.com/": 4794,
      "▁([সাহায্য](https://bn.wikipedia.org/wiki/সাহায্য:উদ্ধৃতি_শৈলী_ত্রুটি#parameter_ignored_suggest": 4795,
      ".ni": 4796,
      "/files/": 4797,
      "1]](https://en.wikipedia.org/wiki/India#cite_note-FOOTNOTE": 4798,
      "84": 4799,
      "ges": 4800,
      "mon": 4801,
      "pt": 4802,
      "rganisation": 4803,
      "wal": 4804,
      "▁[India": 4805,
      "▁[doi": 4806,
      "enth": 4807,
      "arna": 4808,
      "arendra": 4809,
      "errit": 4810,
      "](https://en.wikipedia.org/wiki/O": 4811,
      "omin": 4812,
      "omas": 4813,
      "issi": 4814,
      "right": 4815,
      "ooperation": 4816,
      "ammu": 4817,
      "▁south": 4818,
      "umar": 4819,
      "chite": 4820,
      "▁R.": 4821,
      "_(India)": 4822,
      "▁Bank": 4823,
      "▁BRICS": 4824,
      "▁British": 4825,
      "230": 4826,
      "ages/": 4827,
      "-317": 4828,
      "_Sh": 4829,
      "▁Press](https://en.wikipedia.org/wiki/": 4830,
      "general": 4831,
      "](https://en.wikipedia.org/wiki/Doi_(identifier)": 4832,
      "](https://doi.org/10.10": 4833,
      "Articles": 4834,
      "▁there": 4835,
      "▁[doi](https://en.wikipedia.org/wiki/Doi_(identifier)": 4836,
      "-C": 4837,
      "-29": 4838,
      "1-0": 4839,
      "220": 4840,
      "C).": 4841,
      "New": 4842,
      "Report": 4843,
      "_ప్రదేశ్": 4844,
      "ahar": 4845,
      "ffice": 4846,
      "yan": 4847,
      "ం,": 4848,
      "ఉప": 4849,
      "కొ": 4850,
      "కేంద్రపాలిత": 4851,
      "జె": 4852,
      "ఢ్": 4853,
      "నాల": 4854,
      "లే": 4855,
      "ళు": 4856,
      "ౌద్ధ": 4857,
      "▁భా": 4858,
      "▁[వి": 4859,
      "hild": 4860,
      "ergy": 4861,
      "cise": 4862,
      "ాలీ": 4863,
      "▁Con": 4864,
      "▁Soci": 4865,
      "ర్చ": 4866,
      "▁million": 4867,
      "0000": 4868,
      "▁Tamil": 4869,
      "▁2015": 4870,
      "ung": 4871,
      "ాలు?action=edit&redlink=1": 4872,
      "def": 4873,
      "igh": 4874,
      "▁later": 4875,
      "▁General": 4876,
      "–సా.శ.18": 4877,
      "▁అత్య": 4878,
      "▁number": 4879,
      "▁Official": 4880,
      "imalay": 4881,
      "▁Kashmir": 4882,
      "▁ఆధ": 4883,
      "మాఖ్య": 4884,
      "వాణా": 4885,
      "_Development": 4886,
      "ంటి": 4887,
      "డ్డ": 4888,
      "▁జనాభా": 4889,
      "దక్షిణాసియా": 4890,
      "▁3,": 4891,
      "▁గల": 4892,
      "▁భారతదేశంలో": 4893,
      "ంగ్లీ": 4894,
      "యునై": 4895,
      "athak": 4896,
      "ష్ణ": 4897,
      "_చరిత్ర?action=edit&redlink=1": 4898,
      "▁period": 4899,
      "▁రాష్ట్రాలు,": 4900,
      "_మతము": 4901,
      "▁మొద": 4902,
      "-language\\_": 4903,
      "ymbols": 4904,
      "యునైటెడ్": 4905,
      "-অ": 4906,
      "-22": 4907,
      "124": 4908,
      "3/": 4909,
      "Craven": 4910,
      "Taj": 4911,
      "UCN": 4912,
      "_প": 4913,
      "aut": 4914,
      "fer": 4915,
      "jpg": 4916,
      "slam": 4917,
      "udi": 4918,
      "yayan": 4919,
      "रण": 4920,
      "लिस": 4921,
      "वार": 4922,
      "वीं": 4923,
      "शक": 4924,
      "स](https://hi.wikipedia.org/wiki/": 4925,
      "सभा": 4926,
      "ां": 4927,
      "ाप": 4928,
      "ांध": 4929,
      "ोष": 4930,
      "०१": 4931,
      "কূল": 4932,
      "টক": 4933,
      "টেম্বর": 4934,
      "দালত": 4935,
      "নিয়": 4936,
      "মার": 4937,
      "মূল": 4938,
      "রব": 4939,
      "রো": 4940,
      "ল্": 4941,
      "ুদ্ধ": 4942,
      "১২": 4943,
      "▁/": 4944,
      "▁ध": 4945,
      "▁hi": 4946,
      "dian": 4947,
      "](https://archive.org/details/": 4948,
      "▁[বি": 4949,
      "▁\"জ": 4950,
      "\")[[": 4951,
      "ale": 4952,
      "al_P": 4953,
      "ার্ব": 4954,
      "](https://en.wikipedia.org/wiki/I": 4955,
      "▁(2018": 4956,
      "▁(eds.": 4957,
      "thehindu": 4958,
      "राठ": 4959,
      "র্ত": 4960,
      "etra": 4961,
      "ান\")": 4962,
      "्ता:": 4963,
      "▁modern": 4964,
      "কাপ": 4965,
      "21)": 4966,
      "ilk": 4967,
      "25)": 4968,
      "▁दृ": 4969,
      "▁दो": 4970,
      "ticle": 4971,
      "িকি": 4972,
      "▁উল্": 4973,
      "▁प्रमुख": 4974,
      "118": 4975,
      "▁GDP": 4976,
      "▁আন্দোল": 4977,
      "রিজার্": 4978,
      "থাইল": 4979,
      "সংযোগ": 4980,
      "বিশ্ব": 4981,
      "िये": 4982,
      "▁रह": 4983,
      "osp": 4984,
      "ড়ি": 4985,
      "▁लग": 4986,
      "orities": 4987,
      "avy": 4988,
      "▁deve": 4989,
      "▁disp": 4990,
      "ন্তর": 4991,
      "ृत्य": 4992,
      "ultan": 4993,
      "▁[আর্কাইভকৃত](https://web.archive.org/web/20": 4994,
      "ूनिव": 4995,
      "প্টেম্বর": 4996,
      "ovember": 4997,
      "▁স্থা": 4998,
      "ूरो": 4999,
      "](https://hi.wikipedia.org/wiki/भारत_की_": 5000,
      "](https://hi.wikipedia.org/wiki/भारत_का_": 5001,
      "কেন্দ্রশাসিত": 5002,
      "_संघ": 5003,
      "উত্তর-": 5004,
      "▁সেপ্টেম্বর": 5005,
      "ject": 5006,
      "ainting": 5007,
      "িয়ানমার": 5008,
      "atsyayan": 5009,
      "▁সংস্কৃতি": 5010,
      "▁युद्ध": 5011,
      "▁Assembly": 5012,
      "तेलु": 5013,
      "▁न्यायालय": 5014,
      "धिकारिक": 5015,
      "text": 5016,
      "Harle1994": 5017,
      "ricket": 5018,
      "▁[पुरालेखित": 5019,
      "gramme": 5020,
      "_South_Asia": 5021,
      "▁अगस्त": 5022,
      "▁জুলাই": 5023,
      "সিন্ধু": 5024,
      "धानमंत्री": 5025,
      "ংগ্রেস": 5026,
      "▁(ভারত)\")": 5027,
      "chitecture": 5028,
      "Craven1997": 5029,
      "রিজার্ভ": 5030,
      "থাইল্যান্ড": 5031,
      "-n": 5032,
      "-india-": 5033,
      ".e": 5034,
      "9,": 5035,
      "HA": 5036,
      "IB": 5037,
      "Pakistan": 5038,
      "dlife": 5039,
      "minist": 5040,
      "natak": 5041,
      "ras": 5042,
      "stitu": 5043,
      "zation": 5044,
      "▁he": 5045,
      "pee": 5046,
      "ins": 5047,
      "reat": 5048,
      "rim": 5049,
      "-07": 5050,
      "▁Affairs": 5051,
      "ederal": 5052,
      "▁since": 5053,
      "lopedia": 5054,
      "▁Per": 5055,
      "ildlife": 5056,
      "resent": 5057,
      "▁[\"A": 5058,
      "407": 5059,
      "170": 5060,
      "▁February": 5061,
      "osed": 5062,
      "▁*[The": 5063,
      "▁Press,": 5064,
      "ynas": 5065,
      "▁under": 5066,
      "catal": 5067,
      "document": 5068,
      "cyclopedia": 5069,
      "formation": 5070,
      "▁estim": 5071,
      "Wolpert2003": 5072,
      "erritory": 5073,
      "-logo": 5074,
      ".IN": 5075,
      "125": 5076,
      "63": 5077,
      "75": 5078,
      "ES": 5079,
      "LO": 5080,
      "Pages": 5081,
      "_4": 5082,
      "_Island": 5083,
      "cor": 5084,
      "ph": 5085,
      "ue": 5086,
      "vatsyayan": 5087,
      "▁am": 5088,
      "▁emp": 5089,
      "▁[United": 5090,
      "arge": 5091,
      "acy": 5092,
      "lia": 5093,
      "\n\nMain": 5094,
      "▁Publishing": 5095,
      "ussia": 5096,
      "emon": 5097,
      "ictionary": 5098,
      "28)": 5099,
      "ubcontinent": 5100,
      "-3)": 5101,
      "▁2005": 5102,
      "akh": 5103,
      "▁name": 5104,
      "orical": 5105,
      "ankar": 5106,
      "_BRICS": 5107,
      "/profile": 5108,
      "ikh": 5109,
      "MetcalfMetcalf2012": 5110,
      "▁right": 5111,
      "▁Environment": 5112,
      "-lord": 5113,
      "▁union": 5114,
      "rishn": 5115,
      "pecial:BookSources/978-81": 5116,
      "WEO.IN": 5117,
      "IMFWEO.IN": 5118,
      "vatsyayan-lord": 5119,
      "-प": 5120,
      "122": 5121,
      "2–": 5122,
      "7_": 5123,
      "Re": 5124,
      "_अ": 5125,
      "_ए": 5126,
      "_উ": 5127,
      "ced": 5128,
      "cted": 5129,
      "ns": 5130,
      "t,": 5131,
      "ंका": 5132,
      "कट": 5133,
      "गंगा": 5134,
      "देव": 5135,
      "भो": 5136,
      "मेर": 5137,
      "ल](https://hi.wikipedia.org/wiki/": 5138,
      "लंका": 5139,
      "हैद": 5140,
      "िला": 5141,
      "ीमा": 5142,
      "ूह": 5143,
      "्म": 5144,
      "আইএসবিএন": 5145,
      "কল": 5146,
      "থম": 5147,
      "দু": 5148,
      "রকার": 5149,
      "লব": 5150,
      "শাল": 5151,
      "শক্তি": 5152,
      "শিল্প": 5153,
      "৪]](https://bn.wikipedia.org/wiki/ভারত#cite_note-": 5154,
      "▁ट": 5155,
      "▁2.": 5156,
      "▁[ओ": 5157,
      "▁\"[": 5158,
      "▁\"ओ": 5159,
      "▁\"ন": 5160,
      "tition": 5161,
      "](https://hi.wikipedia.org/wiki/आ": 5162,
      "ould": 5163,
      "1970": 5164,
      "lem": 5165,
      "\\_আ": 5166,
      "राबाद": 5167,
      "adhy": 5168,
      "ाने": 5169,
      "र्ना": 5170,
      "স্ত্র": 5171,
      "rative": 5172,
      "▁me": 5173,
      "▁अप्र": 5174,
      "003": 5175,
      "ilg": 5176,
      "_का_": 5177,
      "ক্ষর": 5178,
      "▁नी": 5179,
      "▁long": 5180,
      "প্রজাতন্ত্র": 5181,
      "▁Li": 5182,
      "1990": 5183,
      "▁১১": 5184,
      "▁संबंध": 5185,
      "म्प": 5186,
      "हिमा": 5187,
      "त्तीस": 5188,
      "र्वो": 5189,
      "▁भाषाओं": 5190,
      "বেক্ষণ": 5191,
      "▁करने": 5192,
      "िरपे": 5193,
      "ffer": 5194,
      "ন্ডিয়া": 5195,
      "-pro": 5196,
      "वायु": 5197,
      "▁[2](https://bn.wikipedia.org/wiki/ভারত#cite_ref-": 5198,
      "▁[1](https://bn.wikipedia.org/wiki/ভারত#cite_ref-": 5199,
      "occ": 5200,
      "▁নিবন্ধ": 5201,
      "ीपी": 5202,
      "IND": 5203,
      "ভিন্ন": 5204,
      "▁অন্য": 5205,
      "▁मेला\")": 5206,
      "▁हुए": 5207,
      "তমালা": 5208,
      "▁যুগ": 5209,
      "MetcalfMetcalf2006),": 5210,
      "earch/": 5211,
      "62-2": 5212,
      "05-8": 5213,
      "on_territ": 5214,
      "▁territory": 5215,
      "भीम": 5216,
      "िल्ली": 5217,
      "▁कार्य": 5218,
      "▁play": 5219,
      "-107-111": 5220,
      "-19-8829": 5221,
      "▁[हिन्दी](https://hi.wikipedia.org/wiki/": 5222,
      "▁गणराज्य": 5223,
      "ভৌম": 5224,
      "ার্বভৌম": 5225,
      "▁উল্লেখ": 5226,
      "हैदराबाद": 5227,
      "र्नाटक": 5228,
      "िरपेक्ष": 5229,
      "-107-11162-2": 5230,
      "-19-882905-8": 5231,
      "/index": 5232,
      "9/": 5233,
      ":EditPage/": 5234,
      "Ludden": 5235,
      "_న": 5236,
      "ave": 5237,
      "aus": 5238,
      "c/c": 5239,
      "fgh": 5240,
      "page": 5241,
      "vid": 5242,
      "ఖండ": 5243,
      "టిక": 5244,
      "డే": 5245,
      "ద్య": 5246,
      "మార్": 5247,
      "మాలయ": 5248,
      "లలో": 5249,
      "లకు": 5250,
      "ళ్": 5251,
      "వ](https://te.wikipedia.org/wiki/": 5252,
      "ానికి": 5253,
      "ాళు": 5254,
      "ీర్": 5255,
      "▁భ": 5256,
      "▁యు": 5257,
      "pect": 5258,
      "▁[978": 5259,
      "▁\"వి": 5260,
      "anor": 5261,
      "tis": 5262,
      "20)": 5263,
      "them": 5264,
      "\\_articles": 5265,
      "2013": 5266,
      "ాలో": 5267,
      "స్వ": 5268,
      "స్లా": 5269,
      "▁పాల": 5270,
      "▁some": 5271,
      "న్\")": 5272,
      "ura": 5273,
      "chedu": 5274,
      "▁mathe": 5275,
      "ollin": 5276,
      "▁కార": 5277,
      "▁కలి": 5278,
      "ాలు\n\n": 5279,
      "రిహ": 5280,
      "రికత": 5281,
      "క్నాల": 5282,
      "నిమా": 5283,
      "▁సంగీతం": 5284,
      "▁చి": 5285,
      "\"));": 5286,
      "ులు\"),": 5287,
      "–సా.శ.13": 5288,
      "▁అయ": 5289,
      "▁From": 5290,
      "▁ప్రధాన": 5291,
      "ప్రదాయ": 5292,
      "ప్రత్యేక": 5293,
      "ద్వీ": 5294,
      "▁ఉప": 5295,
      "▁రె": 5296,
      "న్నడ": 5297,
      "owland": 5298,
      "ంటు": 5299,
      "ia\")": 5300,
      "artment": 5301,
      "▁original](https://": 5302,
      "▁దేశంలో": 5303,
      "ాయి.": 5304,
      "▁\"Template": 5305,
      "కాశ్మీ": 5306,
      "llchin": 5307,
      "ంధు": 5308,
      "వర్గం:Harv": 5309,
      "qual": 5310,
      "▁2011.\n-": 5311,
      "▁Reg": 5312,
      "ahal": 5313,
      "ద్ధం": 5314,
      "ద్ధి": 5315,
      "ాల్దీవ": 5316,
      "చ్చే": 5317,
      "india.gov.in/india-glance": 5318,
      "దక్షిణ_": 5319,
      "▁కాంగ్రె": 5320,
      "టెక్నాల": 5321,
      "హిమాలయ": 5322,
      "▁2019.": 5323,
      "limate": 5324,
      "▁లే": 5325,
      "త్తరా": 5326,
      "నాగరికత": 5327,
      "dependence": 5328,
      "క్కువ": 5329,
      "asia/": 5330,
      "క్‌సభ": 5331,
      "▁శాస్త్ర": 5332,
      "▁2018](https://en.wikipedia.org/wiki/India#CITEREF": 5333,
      "-lead": 5334,
      "hasha": 5335,
      "ెలుగు": 5336,
      "▁వచ్చింది.": 5337,
      "_ప్రాంత": 5338,
      ".aspx?": 5339,
      "](https://en.wikipedia.org/wiki/Economy_of_": 5340,
      "ర్చ:": 5341,
      ":EditPage/మూస:": 5342,
      "fghan": 5343,
      "ాళుక్య": 5344,
      "ప్రత్యేక:EditPage/మూస:": 5345,
      "టెక్నాలజీ": 5346,
      "*)": 5347,
      "2).": 5348,
      "3TR": 5349,
      "85": 5350,
      "B0%": 5351,
      "NA": 5352,
      "_14": 5353,
      "each": 5354,
      "languages": 5355,
      "oa": 5356,
      "uil": 5357,
      "west": 5358,
      "▁\"India": 5359,
      "▁\"United": 5360,
      "inf": 5361,
      "oni": 5362,
      "cia": 5363,
      "ominal": 5364,
      "▁they": 5365,
      "as,": 5366,
      "\\_(": 5367,
      "ams": 5368,
      "ata_": 5369,
      "▁Chand": 5370,
      "▁S.": 5371,
      "los": 5372,
      "inguis": 5373,
      "▁mi": 5374,
      "onservation": 5375,
      "-0)\n": 5376,
      "ains": 5377,
      "▁status": 5378,
      "▁original](https://www.": 5379,
      "▁area": 5380,
      "▁1998": 5381,
      "▁2021.": 5382,
      "olkata": 5383,
      "library": 5384,
      "ynasty": 5385,
      "3TRt": 5386,
      "\"](https://web.archive.org/web/200": 5387,
      "127": 5388,
      "2]](https://en.wikipedia.org/wiki/India#cite_note-FOOTNOTE": 5389,
      "42": 5390,
      "Dikshit": 5391,
      "European": 5392,
      "MID": 5393,
      "Oj": 5394,
      "PK:": 5395,
      "Schwartzberg": 5396,
      "_এ": 5397,
      "_13": 5398,
      "_সাম্রাজ্য": 5399,
      "cul": 5400,
      "dones": 5401,
      "uth": 5402,
      "ंह": 5403,
      "गल": 5404,
      "झार": 5405,
      "डिया": 5406,
      "तट": 5407,
      "निक": 5408,
      "पान": 5409,
      "मालय": 5410,
      "हन": 5411,
      "हरी": 5412,
      "ाय": 5413,
      "िस्तान": 5414,
      "िहार": 5415,
      "উইকি": 5416,
      "জরা": 5417,
      "দ্রা": 5418,
      "দারী": 5419,
      "রপে": 5420,
      "লিত": 5421,
      "াবেক্ষণ": 5422,
      "েয়": 5423,
      "৫৬": 5424,
      "৯৮": 5425,
      "▁ऑ": 5426,
      "▁ci": 5427,
      "▁দ্": 5428,
      "▁লা": 5429,
      "▁राष्ट्र": 5430,
      "▁लेख": 5431,
      "▁imp": 5432,
      "orest": 5433,
      "▁[च": 5434,
      "▁[সং": 5435,
      "read": 5436,
      "](https://hi.wikipedia.org/wiki/ओ": 5437,
      "▁कुल": 5438,
      "rial": 5439,
      "\\_রাষ্ট্র": 5440,
      "\\_টেমপ্লে": 5441,
      "atter": 5442,
      "▁industry": 5443,
      "তিরি": 5444,
      "ানে": 5445,
      "र्ष": 5446,
      "▁केन्द्र": 5447,
      "▁sup": 5448,
      "▁ही": 5449,
      "▁होत": 5450,
      "ingdom": 5451,
      "ISO": 5452,
      "raj": 5453,
      "identifiers": 5454,
      "▁many": 5455,
      "▁**জাতীয়": 5456,
      "▁M.": 5457,
      "▁Mon": 5458,
      "▁war": 5459,
      "▁है।[[": 5460,
      "▁total": 5461,
      "ियां": 5462,
      "▁बन": 5463,
      "▁बा": 5464,
      "icon": 5465,
      "▁नद": 5466,
      "▁नहीं": 5467,
      "▁से](http://www.": 5468,
      "28.": 5469,
      "▁large": 5470,
      "তান্ত্র": 5471,
      "irst": 5472,
      "▁India\").": 5473,
      "▁জয়": 5474,
      "▁হার": 5475,
      "▁वार": 5476,
      "▁সংস্থা": 5477,
      "▁শক্তি": 5478,
      "पुरा": 5479,
      "स्ला": 5480,
      "ast_Asia": 5481,
      "▁उद्यान": 5482,
      "utra": 5483,
      "▁शताब्": 5484,
      "▁रहा": 5485,
      "-19-9": 5486,
      "পিডিয়া": 5487,
      "▁depend": 5488,
      "▁২০১৯": 5489,
      "विशेष:EditPage/": 5490,
      "▁জন্য": 5491,
      "▁করে।": 5492,
      "▁চলচ্চিত্র": 5493,
      "▁ত্রুটি\"));": 5494,
      "▁मेला](https://hi.wikipedia.org/wiki/": 5495,
      "▁people": 5496,
      "श्चिमी": 5497,
      "गणराज्य": 5498,
      "ন্নয়ন": 5499,
      "▁কেন্দ্রশাসিত": 5500,
      "▁বৃদ্ধি": 5501,
      "▁प्राप्त": 5502,
      "ণিজ্য": 5503,
      "▁সঙ্গীত": 5504,
      "▁स्रोत/978-0": 5505,
      "▁स्रोत/978-1": 5506,
      "](https://hi.wikipedia.org/wiki/विशेष:पुस्तक_स्रोत/978-0": 5507,
      "](https://hi.wikipedia.org/wiki/विशेष:पुस्तक_स्रोत/978-1": 5508,
      "▁ইতিহাস\")": 5509,
      "_সম্পর্ক": 5510,
      "▁भूम": 5511,
      "▁সম্পর্ক\")": 5512,
      "▁rule": 5513,
      "▁चुनाव": 5514,
      "মহাদেশ": 5515,
      "▁সাম্রাজ্য\")": 5516,
      "webcitation.org/6": 5517,
      "रेलू": 5518,
      "▁(eds.).": 5519,
      "▁স্থাপ": 5520,
      "Pages\\_": 5521,
      "▁among": 5522,
      "र्वोच्च": 5523,
      "fghanistan": 5524,
      "DikshitSchwartzberg": 5525,
      "দারীকরণ": 5526,
      "রপেক্ষ": 5527,
      "তিরিক্ত": 5528,
      "তান্ত্রিক": 5529,
      "विशेष:EditPage/साँचा:": 5530,
      "DikshitSchwartzberg2023": 5531,
      "\"[[": 5532,
      "130": 5533,
      ";\n": 5534,
      "Home": 5535,
      "SN": 5536,
      "_map": 5537,
      "avi": 5538,
      "bb": 5539,
      "ey": 5540,
      "public": 5541,
      "rdu": 5542,
      "yy": 5543,
      "▁50": 5544,
      "▁her": 5545,
      "orce": 5546,
      "▁[4": 5547,
      "▁\"National": 5548,
      "ances": 5549,
      "aranth": 5550,
      "203": 5551,
      "rid": 5552,
      "1960": 5553,
      "vel": 5554,
      "▁CE": 5555,
      "sig": 5556,
      "\n\n|": 5557,
      "ada": 5558,
      "▁Pp.": 5559,
      "urton": 5560,
      "cher": 5561,
      "teracy": 5562,
      "▁maj": 5563,
      "▁Raj": 5564,
      "▁2011.": 5565,
      "ments": 5566,
      "-30": 5567,
      "hap": 5568,
      "▁London": 5569,
      "indus": 5570,
      "-19-56": 5571,
      "-to-": 5572,
      "emocrac": 5573,
      "hdr": 5574,
      "\"](https://books.google.com/books?id=": 5575,
      ",NGDP": 5576,
      "/g": 5577,
      "DD": 5578,
      "Special:": 5579,
      "Search/": 5580,
      "_e": 5581,
      "_10": 5582,
      "_24": 5583,
      "_for": 5584,
      "aul": 5585,
      "hang": 5586,
      "pub": 5587,
      "way": 5588,
      "▁em": 5589,
      "▁end": 5590,
      "▁term": 5591,
      "▁Qu": 5592,
      "win": 5593,
      "▁[m": 5594,
      "▁[s": 5595,
      "ered": 5596,
      "▁inclu": 5597,
      "str": 5598,
      "▁Afric": 5599,
      "▁Science": 5600,
      "ulti": 5601,
      "▁member": 5602,
      "▁Be": 5603,
      "▁economic": 5604,
      "_Summit": 5605,
      "_in_South_Asia": 5606,
      "40px-": 5607,
      "ryan": 5608,
      "main": 5609,
      "▁Wiki": 5610,
      "▁[Asher": 5611,
      "\")\n\n##": 5612,
      "_pro": 5613,
      "/pdf": 5614,
      "arket": 5615,
      "engali": 5616,
      "ineering": 5617,
      "▁2021.\n": 5618,
      "▁Islands": 5619,
      "apita": 5620,
      "ological": 5621,
      "ast_Asia_Summit": 5622,
      "Special:Search/": 5623,
      "-H": 5624,
      "-विज्ञान": 5625,
      ".పూ.": 5626,
      "/national": 5627,
      "140": 5628,
      "34)": 5629,
      "4-108": 5630,
      "82": 5631,
      "Kashmir": 5632,
      "_0": 5633,
      "_आ": 5634,
      "_उ": 5635,
      "_व": 5636,
      "_देश": 5637,
      "_যু": 5638,
      "ao": 5639,
      "eign": 5640,
      "ical": 5641,
      "owe": 5642,
      "ple": 5643,
      "pic": 5644,
      "ंच": 5645,
      "ईरा": 5646,
      "छत्तीस": 5647,
      "त्व": 5648,
      "फल": 5649,
      "फ्रीका": 5650,
      "लग": 5651,
      "लयाल": 5652,
      "स\")": 5653,
      "सून": 5654,
      "िंध": 5655,
      "ीच": 5656,
      "१९": 5657,
      "ওয়": 5658,
      "খ্রি": 5659,
      "নো": 5660,
      "নের": 5661,
      "বৈ": 5662,
      "বঙ্গ": 5663,
      "ল\")": 5664,
      "লবায়ু": 5665,
      "সূ": 5666,
      "ীতি": 5667,
      "০.": 5668,
      "২]](https://bn.wikipedia.org/wiki/ভারত#cite_note-": 5669,
      "৮]](https://bn.wikipedia.org/wiki/ভারত#cite_note-": 5670,
      "ంతం": 5671,
      "ఆగ": 5672,
      "కళ": 5673,
      "ఖండ్": 5674,
      "గం": 5675,
      "గ్": 5676,
      "గిన": 5677,
      "గఢ్": 5678,
      "జో": 5679,
      "ట్ర": 5680,
      "తెలుగు": 5681,
      "ద్రా": 5682,
      "పద": 5683,
      "భి": 5684,
      "యో": 5685,
      "లక్ష": 5686,
      "వర": 5687,
      "శో": 5688,
      "షా": 5689,
      "హు": 5690,
      "హార్": 5691,
      "హాయ": 5692,
      "ాష్ట్ర": 5693,
      "ీక": 5694,
      "ీహార్": 5695,
      "ుల": 5696,
      "ుల్": 5697,
      "ోల్": 5698,
      "ోత్స": 5699,
      "ౌర్య": 5700,
      "▁রা": 5701,
      "▁occ": 5702,
      "▁[హ": 5703,
      "▁[সা": 5704,
      "▁[৯৭": 5705,
      "tered": 5706,
      "teenth": 5707,
      "▁\"च": 5708,
      "▁\"ल": 5709,
      "▁\"హ": 5710,
      "▁\"ఢిల్లీ": 5711,
      "enni": 5712,
      "ার\\_": 5713,
      "ারমাণ": 5714,
      "estic": 5715,
      "](https://hi.wikipedia.org/wiki/च": 5716,
      "▁कई": 5717,
      "▁कश्मीर": 5718,
      "](https://bn.wikipedia.org/wiki/ন": 5719,
      "▁(শনাক্তকারী": 5720,
      "్రూ": 5721,
      "](https://te.wikipedia.org/wiki/సి": 5722,
      "▁सद": 5723,
      "▁सैन": 5724,
      "▁मुख": 5725,
      "-06": 5726,
      "ాలా": 5727,
      "ాలలో": 5728,
      "▁C.": 5729,
      "▁पर्वत": 5730,
      "్యం": 5731,
      "▁Schwartzberg": 5732,
      "ర్ణా": 5733,
      "ర్మే": 5734,
      "স্বাধীনতা": 5735,
      "లు\")": 5736,
      "▁12": 5737,
      "▁Research": 5738,
      "_(শনাক্তকারী": 5739,
      "లోక్‌సభ": 5740,
      "▁মু": 5741,
      "वित": 5742,
      "_का": 5743,
      "▁दि": 5744,
      "ంది": 5745,
      "▁వంశ": 5746,
      "▁তার": 5747,
      "▁উত্তর": 5748,
      "▁बीच": 5749,
      "▁से](http://": 5750,
      "▁বছ": 5751,
      "duct": 5752,
      "▁না": 5753,
      "ताज": 5754,
      "ండర్": 5755,
      "ha2014": 5756,
      "ন্দো": 5757,
      "umbers": 5758,
      "क्षा": 5759,
      "न्दिर": 5760,
      "త్మా": 5761,
      "▁आधिकारिक": 5762,
      "▁John": 5763,
      "▁అతి": 5764,
      "स्थ": 5765,
      "ికి": 5766,
      "লিং": 5767,
      "▁गु": 5768,
      "মাই": 5769,
      "▁उत्पाद": 5770,
      "ाद्वीप": 5771,
      "ద్దు": 5772,
      "_मंदिर": 5773,
      "▁संस्कृति": 5774,
      "लेट": 5775,
      "प्रा": 5776,
      "▁రహదార": 5777,
      "మాచల్": 5778,
      "▁సామ్రాజ్య": 5779,
      "▁इन": 5780,
      "రువా": 5781,
      "రుణా": 5782,
      "న్నో": 5783,
      "िस्ट": 5784,
      "গুজরা": 5785,
      "ার্ক": 5786,
      "మిజో": 5787,
      "▁ఇది": 5788,
      "2006),": 5789,
      "▁সময়": 5790,
      "▁ভাষায়": 5791,
      "পাঞ্": 5792,
      "▁करोड़": 5793,
      "▁अनु": 5794,
      "%E0%A6%9": 5795,
      "▁జరి": 5796,
      "केर": 5797,
      "▁[अंग्रेज़": 5798,
      "onstitutional": 5799,
      "▁విస్త": 5800,
      "union_territ": 5801,
      "▁ফে": 5802,
      "▁ফুটবল": 5803,
      "riculture": 5804,
      "▁rate": 5805,
      "▁जनगणना": 5806,
      "▁శతాబ్ద": 5807,
      "ట్టు": 5808,
      "▁राजनी": 5809,
      "স্থান": 5810,
      "স্থিত": 5811,
      "▁\"पंजाब": 5812,
      "రాష్ట్రాలు": 5813,
      "र्थव्यवस्था": 5814,
      "వేద": 5815,
      "ায়ী": 5816,
      "সামরিক": 5817,
      "▁రాజకీయ": 5818,
      "▁country": 5819,
      "▁[पंजाब": 5820,
      "करण": 5821,
      "odiversity": 5822,
      "▁`{{বই": 5823,
      "▁ప్రాంతాలు": 5824,
      "హిమాచల్": 5825,
      "074-108": 5826,
      "ক্রয়": 5827,
      "హాత్మా": 5828,
      "পূর্": 5829,
      "▁होता": 5830,
      "ब्ब": 5831,
      "▁সামরিক": 5832,
      "▁जिसमें": 5833,
      "শ্চিমবঙ্গ": 5834,
      "ণিপুর": 5835,
      "▁ప్రదేశ్\")": 5836,
      "హారాష్ట్ర": 5837,
      "శాస్త్ర": 5838,
      "▁कारण": 5839,
      "రాజస్థాన్": 5840,
      "▁వాతావరణ": 5841,
      "ोर्ड": 5842,
      "_मेला?action=edit&redlink=1": 5843,
      "దినోత్స": 5844,
      "బెంగాలీ": 5845,
      "యన్మార్": 5846,
      "ানুয়ারি": 5847,
      "▁ముఖ్య": 5848,
      "সংস্কৃত": 5849,
      "गोआ": 5850,
      "श्रीलंका": 5851,
      "%E0%A7%87": 5852,
      "লোকসভা": 5853,
      "-78074-108": 5854,
      "ంజాబ్": 5855,
      "▁వ్యాస": 5856,
      "र्सिट": 5857,
      "గుజరాత్": 5858,
      "ఆఫ్ఘనిస్తాన్": 5859,
      "న్‌ఫర్మే": 5860,
      "ूनिवर्सिट": 5861,
      "వ](https://te.wikipedia.org/wiki/List_of_": 5862,
      "రిహద్దు": 5863,
      "చ్చేరి": 5864,
      "inguistic": 5865,
      "3TRtDwAAQBAJ&pg=PA": 5866,
      "emocracy": 5867,
      "▁[৯৭৮-": 5868,
      "ারমাণবিক": 5869,
      "▁(শনাক্তকারী)\")": 5870,
      "ర్ణాటక": 5871,
      "_(শনাক্তকারী)": 5872,
      "రుణాచల్": 5873,
      "পাঞ্জা": 5874,
      "▁[अंग्रेज़ी](https://hi.wikipedia.org/wiki/अ": 5875,
      "-78074-108-6": 5876,
      "న్‌ఫర్మేషన్": 5877,
      "/C": 5878,
      "66": 5879,
      "Asia": 5880,
      "JI": 5881,
      "Pro": 5882,
      "RL": 5883,
      "Spear": 5884,
      "_17": 5885,
      "if": 5886,
      "ihar": 5887,
      "ji": 5888,
      "jan": 5889,
      "k:": 5890,
      "ront": 5891,
      "shar": 5892,
      "tle": 5893,
      "ua": 5894,
      "work": 5895,
      "▁ra": 5896,
      "▁[National": 5897,
      "▁\"Oxford": 5898,
      "inance": 5899,
      "ancy": 5900,
      "tici": 5901,
      "2021": 5902,
      "reed": 5903,
      "es,": 5904,
      "tions": 5905,
      "rief": 5906,
      "▁India*](https://books.google.com/books?id=": 5907,
      "-15": 5908,
      "▁inf": 5909,
      "#cite_ref-10": 5910,
      "#cite_note-10": 5911,
      "weep": 5912,
      "linkim": 5913,
      "adweep": 5914,
      "▁social": 5915,
      "inger": 5916,
      "▁minister": 5917,
      "itz": 5918,
      "▁De": 5919,
      "▁1960": 5920,
      "▁Nadu": 5921,
      "pecial:EditPage/": 5922,
      "174": 5923,
      "▁J.": 5924,
      "▁north": 5925,
      "160": 5926,
      "166": 5927,
      ".[[3": 5928,
      "epartment": 5929,
      "ainism": 5930,
      "▁article": 5931,
      "apan": 5932,
      "induism": 5933,
      "olden": 5934,
      "▁used": 5935,
      "▁(identifier)\"):[10.10": 5936,
      "ligence": 5937,
      "ritsch": 5938,
      "telligence": 5939,
      "ed/linkim": 5940,
      "EXT": 5941,
      "akshadweep": 5942,
      "nclm.nic.in/shar": 5943,
      "do-Aryan": 5944,
      "Pages\\_us": 5945,
      "Spear1990": 5946,
      "pecial:EditPage/Template:": 5947,
      "ed/linkimages/": 5948,
      "nclm.nic.in/shared/linkimages/": 5949,
      "-r": 5950,
      "1-4": 5951,
      "219": 5952,
      "2nd": 5953,
      "QAAQBAJ&pg=PA": 5954,
      "_g": 5955,
      "cbi": 5956,
      "nominal": 5957,
      "▁x": 5958,
      "▁history": 5959,
      "▁[Oxford": 5960,
      "an,": 5961,
      "arnatak": 5962,
      "rect": 5963,
      "the-": 5964,
      "ries/": 5965,
      "am,": 5966,
      "ations/": 5967,
      "▁At": 5968,
      "urn": 5969,
      "road": 5970,
      "217": 5971,
      "▁Minister": 5972,
      "india.com/": 5973,
      "▁Bengal": 5974,
      "▁app": 5975,
      "upta": 5976,
      "▁[\"P": 5977,
      "▁Fund": 5978,
      "_Temple": 5979,
      "countries/": 5980,
      "▁Valley": 5981,
      "ikkim": 5982,
      "▁[Dikshit": 5983,
      "▁2,": 5984,
      "▁left": 5985,
      ".nlm": 5986,
      "cyclop": 5987,
      "rgani": 5988,
      ".nih": 5989,
      "▁Society": 5990,
      "cbi.nlm": 5991,
      "nominal)": 5992,
      "cbi.nlm.nih": 5993,
      "-with": 5994,
      "3]](https://en.wikipedia.org/wiki/India#cite_note-FOOTNOTE": 5995,
      "Census": 5996,
      "Collin": 5997,
      "IL": 5998,
      "MC": 5999,
      "Ministry_of_": 6000,
      "Se": 6001,
      "a)": 6002,
      "ds": 6003,
      "iri": 6004,
      "lé": 6005,
      "mal": 6006,
      "ui": 6007,
      "ym": 6008,
      "जम्मू": 6009,
      "पि": 6010,
      "भ्यता": 6011,
      "मो": 6012,
      "लों": 6013,
      "शा": 6014,
      "िख": 6015,
      "िम": 6016,
      "ीगढ़": 6017,
      "ॉक": 6018,
      "আর": 6019,
      "এল": 6020,
      "ঘল": 6021,
      "জয়": 6022,
      "ডার": 6023,
      "তথ্য": 6024,
      "ফ্র": 6025,
      "বহ": 6026,
      "ম\")": 6027,
      "যায়ী": 6028,
      "সলা": 6029,
      "াক": 6030,
      "াড়া": 6031,
      "িতা": 6032,
      "৩]](https://bn.wikipedia.org/wiki/ভারত#cite_note-": 6033,
      "৫০": 6034,
      "৫১": 6035,
      "৭]](https://bn.wikipedia.org/wiki/ভারত#cite_note-": 6036,
      "–4": 6037,
      "▁ओ": 6038,
      "▁ঐ": 6039,
      "▁থা": 6040,
      "▁দ্বীপ": 6041,
      "oral": 6042,
      "▁[চ": 6043,
      "▁[वि": 6044,
      "▁[सा": 6045,
      "▁[ওয়েব্যাক": 6046,
      "▁\"V": 6047,
      "▁\"ग": 6048,
      "▁\"বি": 6049,
      "▁\"ওয়েব্যাক": 6050,
      "ensi": 6051,
      "anc": 6052,
      "](https://en.wikipedia.org/wiki/V": 6053,
      "ess/": 6054,
      "](https://hi.wikipedia.org/wiki/ल": 6055,
      "▁कु": 6056,
      "](https://bn.wikipedia.org/wiki/বি": 6057,
      "](https://bn.wikipedia.org/wiki/ওয়েব্যাক": 6058,
      "য়ো": 6059,
      "▁सूचना": 6060,
      "rig": 6061,
      "leg": 6062,
      "lect": 6063,
      "\\_অ": 6064,
      "\\_ওয়েব্যাক": 6065,
      "\\_সংযোগ": 6066,
      "▁मध्य": 6067,
      "▁महासागर": 6068,
      "বিদ্য": 6069,
      "▁সহ": 6070,
      "▁সি": 6071,
      "▁incre": 6072,
      "▁Arab": 6073,
      "▁পাত": 6074,
      "▁SAARC": 6075,
      "ानव": 6076,
      "educ": 6077,
      "र्ज": 6078,
      "▁ser": 6079,
      "ing_": 6080,
      "urban": 6081,
      "▁both": 6082,
      "verse": 6083,
      "ists": 6084,
      "কাল": 6085,
      "কাধিক": 6086,
      "▁*India": 6087,
      "▁जी": 6088,
      "ालदीव": 6089,
      "▁B.": 6090,
      "▁दशक": 6091,
      "ेशन": 6092,
      "ेशिया": 6093,
      "mentin-": 6094,
      "▁প্রজাতন্ত্র": 6095,
      "▁প্রথম": 6096,
      "▁largest": 6097,
      "_in_New": 6098,
      "▁2026": 6099,
      "elang": 6100,
      "क्षर": 6101,
      "▁সংসদ": 6102,
      "▁সংবিধান": 6103,
      "▁শি": 6104,
      "षाण": 6105,
      "_Ass": 6106,
      "abha": 6107,
      "▁দক্ষিণ": 6108,
      "▁দেখ": 6109,
      "▁art": 6110,
      "▁शक्ति": 6111,
      "▁शिक्षा": 6112,
      "काश": 6113,
      "র্কাইভ\\_টেমপ্লে": 6114,
      "ড়ে": 6115,
      "ंडीगढ़": 6116,
      "সিটি": 6117,
      "▁लोग": 6118,
      "▁তারিখে\n": 6119,
      "1):": 6120,
      "▁क्षेत्रीय": 6121,
      "▁গঠ": 6122,
      "_GDP": 6123,
      "নে](https://bn.wikipedia.org/wiki/ওয়েব্যাক": 6124,
      "ওয়েব\\_আ": 6125,
      "=`-এ": 6126,
      "▁पुरा": 6127,
      "atis": 6128,
      "▁[আর্কাইভকৃত](https://web.archive.org/web/": 6129,
      "▁[আর্কাইভকৃত](https://www.": 6130,
      "ন্ধী": 6131,
      "▁ফলে": 6132,
      "जनसंख्या": 6133,
      "▁जनसंख्या": 6134,
      "সমূহ\")": 6135,
      "▁সাহিত্য": 6136,
      "▁वर्ग": 6137,
      "টে\\_ওয়েব্যাক": 6138,
      "▁\"History": 6139,
      "▁দেশের": 6140,
      "usiness/": 6141,
      "▁./বিষয়শ্রেণী:ওয়েব\\_আ": 6142,
      "](https://en.wikipedia.org/wiki/History": 6143,
      "]](https://hi.wikipedia.org/wiki/भारत#cite_note-FOOTNOTEStein1998": 6144,
      "]](https://hi.wikipedia.org/wiki/भारत#cite_note-FOOTNOTESingh2009": 6145,
      "েশিন": 6146,
      "ography": 6147,
      "_মেশিন": 6148,
      "চিত্র্য": 6149,
      "arliamentary": 6150,
      "সংখ্যান": 6151,
      "▁হিন্দ": 6152,
      "▁\"Official": 6153,
      "मुख्य": 6154,
      "](https://doi.org/10.": 6155,
      "▁world's": 6156,
      "▁ব্যবস্থা\")": 6157,
      "▁মেশিন\")": 6158,
      "▁মেশিনে](https://bn.wikipedia.org/wiki/ওয়েব্যাক": 6159,
      "▁स्थित": 6160,
      "ম্পানি": 6161,
      "Wikipedia\\_articles": 6162,
      "▁2006](https://en.wikipedia.org/wiki/India#CITEREFMetcalfMetcalf2006),": 6163,
      "त्तराखण्ड": 6164,
      "▁(পিডিএফ)।": 6165,
      "achine": 6166,
      "?url=http://www.": 6167,
      "▁[पुरालेखित](https://web.archive.org/web/201": 6168,
      "▁अप्रैल": 6169,
      "हिमाचल": 6170,
      "▁लेख:": 6171,
      "▁शताब्दी": 6172,
      "webcitation.org/6174": 6173,
      "ক্রয়ক্ষমতা": 6174,
      "▁article:": 6175,
      "lémentin-": 6176,
      "education": 6177,
      "_in_New_Delhi": 6178,
      "র্কাইভ\\_টেমপ্লেটে\\_ওয়েব্যাক": 6179,
      "▁./বিষয়শ্রেণী:ওয়েব\\_আর্কাইভ\\_টেমপ্লেটে\\_ওয়েব্যাক": 6180,
      "▁মেশিনে](https://bn.wikipedia.org/wiki/ওয়েব্যাক_মেশিন": 6181,
      "lémentin-Oj": 6182,
      "▁./বিষয়শ্রেণী:ওয়েব\\_আর্কাইভ\\_টেমপ্লেটে\\_ওয়েব্যাক\\_সংযোগ": 6183,
      "*](http://": 6184,
      "-and": 6185,
      "300": 6186,
      "TO": 6187,
      "_un": 6188,
      "hal": 6189,
      "i,": 6190,
      "lisher": 6191,
      "ox": 6192,
      "s18": 6193,
      "xchange": 6194,
      "https://": 6195,
      "▁[V": 6196,
      "tice": 6197,
      "ara": 6198,
      "208": 6199,
      "esti": 6200,
      "▁power": 6201,
      "10)": 6202,
      "214": 6203,
      "▁David": 6204,
      "50)": 6205,
      "▁Gu": 6206,
      "▁Linguistic": 6207,
      ")\n\n[": 6208,
      "rust": 6209,
      "48)": 6210,
      "oreign": 6211,
      "ative": 6212,
      "ockey": 6213,
      "-230": 6214,
      "_at_the": 6215,
      "ollege": 6216,
      "CS1\\_": 6217,
      "quality": 6218,
      "-t": 6219,
      "-st": 6220,
      "1200": 6221,
      "6]](https://en.wikipedia.org/wiki/India#cite_note-": 6222,
      "6]](https://en.wikipedia.org/wiki/India#cite_note-FOOTNOTE": 6223,
      "Congress": 6224,
      "Robb": 6225,
      "UT": 6226,
      "ael": 6227,
      "lack": 6228,
      "os/": 6229,
      "ser": 6230,
      "sur": 6231,
      "vent": 6232,
      "ంతి": 6233,
      "కాల": 6234,
      "కారం": 6235,
      "ఖ్": 6236,
      "గంగా": 6237,
      "టో": 6238,
      "డిన": 6239,
      "తీ": 6240,
      "ధి": 6241,
      "ధించ": 6242,
      "నల్": 6243,
      "మన": 6244,
      "మర": 6245,
      "ర్యా": 6246,
      "లం": 6247,
      "లతో": 6248,
      "లమె": 6249,
      "ీస్": 6250,
      "ూప": 6251,
      "ూరు": 6252,
      "ెనీ": 6253,
      "ౌక": 6254,
      "▁ద": 6255,
      "▁ఫ": 6256,
      "▁out": 6257,
      "▁దక్షిణ": 6258,
      "▁హిందూ": 6259,
      "▁గాంధీ": 6260,
      "disp": 6261,
      "▁[భారతదేశం": 6262,
      "▁[ఢిల్లీ": 6263,
      "hief": 6264,
      "hird": 6265,
      "▁(India": 6266,
      "asing": 6267,
      "ారస": 6268,
      "\\_identifiers": 6269,
      "ాలను": 6270,
      "▁Company": 6271,
      "state": 6272,
      "స్](https://te.wikipedia.org/wiki/": 6273,
      "▁Summit\")": 6274,
      "▁పెద్ద": 6275,
      "ర్లు": 6276,
      "▁trans": 6277,
      "urch": 6278,
      "ravi": 6279,
      "00–సా.శ.పూ.": 6280,
      "▁D.": 6281,
      "▁వే": 6282,
      "ict": 6283,
      "ounci": 6284,
      "▁Gandhi": 6285,
      "▁India\")\n\n": 6286,
      "త్తం": 6287,
      "akhand": 6288,
      "▁(సా.శ.13": 6289,
      "▁(సా.శ.15": 6290,
      "▁అనే": 6291,
      "▁ప్రజ": 6292,
      "తం\")": 6293,
      "▁Informatics": 6294,
      "27)": 6295,
      "epal": 6296,
      "ంచి": 6297,
      "▁began": 6298,
      "▁ఆఫ్": 6299,
      "▁సాం": 6300,
      "viol": 6301,
      "ార్లమె": 6302,
      "కిస్థాన్": 6303,
      "ibet": 6304,
      "▁నే": 6305,
      "▁నగర": 6306,
      "▁దేశం": 6307,
      "టిబె": 6308,
      "-population": 6309,
      "్రీ.పూ.": 6310,
      "ండియా": 6311,
      "code": 6312,
      "uddhism": 6313,
      "▁ఎక్కువ": 6314,
      "▁ఎన్నో": 6315,
      "_and_depend": 6316,
      "▁./వర్గం:Wikipedia\\_articles": 6317,
      "_సం": 6318,
      "Oxford_University_Press": 6319,
      "8/8": 6320,
      "టుంబ": 6321,
      "Stein2010),": 6322,
      "▁భారత్": 6323,
      "ote:": 6324,
      "ility": 6325,
      "మెరి": 6326,
      "▁మొత్తం": 6327,
      "▁Empire\")": 6328,
      "బాద్": 6329,
      "ducation": 6330,
      "ంపెనీ": 6331,
      "ichael": 6332,
      "హ్మ": 6333,
      "▁ఏర్": 6334,
      "atures": 6335,
      "ustralia": 6336,
      "్రిటిషు": 6337,
      "▁York:": 6338,
      "▁2010](https://en.wikipedia.org/wiki/India#CITEREFStein2010),": 6339,
      "▁Press](https://en.wikipedia.org/wiki/Oxford_University_Press": 6340,
      "yanmar": 6341,
      "▁అత్యధిక": 6342,
      "▁high": 6343,
      "etrag": 6344,
      "ultanate": 6345,
      "ministrative": 6346,
      "ీర్ణ": 6347,
      "దక్షిణ_ఆసియా": 6348,
      "\\_(en": 6349,
      "▁Quote:": 6350,
      "reedom": 6351,
      "Pages\\_using\\_": 6352,
      "Spear199024": 6353,
      "-e": 6354,
      "-24": 6355,
      ".ac": 6356,
      "/hindi": 6357,
      "540": 6358,
      "D%E0%A6%B": 6359,
      "Library": 6360,
      "St": 6361,
      "_2": 6362,
      "_9": 6363,
      "_राज": 6364,
      "_2004": 6365,
      "ate_": 6366,
      "aury": 6367,
      "eval": 6368,
      "ime": 6369,
      "को": 6370,
      "गत": 6371,
      "गू": 6372,
      "तृत": 6373,
      "म\")": 6374,
      "वल": 6375,
      "श्य": 6376,
      "षय": 6377,
      "हरा": 6378,
      "हित": 6379,
      "िनेमा": 6380,
      "ी.": 6381,
      "ृद्ध": 6382,
      "ेघ": 6383,
      "ক্রা": 6384,
      "খণ্ড": 6385,
      "ট:": 6386,
      "ত্ব": 6387,
      "ভে": 6388,
      "র_": 6389,
      "লকা": 6390,
      "স\")": 6391,
      "স্য": 6392,
      "হ্য": 6393,
      "ীমা": 6394,
      "োষ": 6395,
      "্প্র": 6396,
      "্সিটি": 6397,
      "১৫": 6398,
      "২০": 6399,
      "–10": 6400,
      "▁,": 6401,
      "▁:": 6402,
      "▁·": 6403,
      "▁৮": 6404,
      "▁হা": 6405,
      "▁his": 6406,
      "▁edition": 6407,
      "▁লেখা": 6408,
      "▁ক্ষেত্র": 6409,
      "▁ed.).": 6410,
      "▁[ग": 6411,
      "▁\"तमिल": 6412,
      "ties/": 6413,
      "thnic": 6414,
      "2025": 6415,
      "ভার্সিটি": 6416,
      "भारत)": 6417,
      "▁सक": 6418,
      "्यों": 6419,
      "▁সু": 6420,
      "তিহ্য": 6421,
      "\n\nমূল": 6422,
      "\n\nमुख्य": 6423,
      "▁Al": 6424,
      "edieval": 6425,
      "umeration": 6426,
      "ISSN": 6427,
      "105": 6428,
      "ull": 6429,
      "▁movement": 6430,
      "▁made": 6431,
      "▁अव": 6432,
      "ালদ্বীপ": 6433,
      "▁অর্থনীতি": 6434,
      "▁মান": 6435,
      "▁মন্ত্র": 6436,
      ".\n13": 6437,
      "সাধারণ": 6438,
      "▁কংগ্রেস": 6439,
      "26.": 6440,
      "aylor": 6441,
      "▁উৎ": 6442,
      "▁এটি": 6443,
      "▁प्रेस": 6444,
      "▁प्रौद्योगिक": 6445,
      "्वतंत्रता": 6446,
      "▁H.": 6447,
      "▁Europe": 6448,
      "তা\")": 6449,
      "▁Ge": 6450,
      "▁economy": 6451,
      "▁জানুয়ারি": 6452,
      "_in_M": 6453,
      "ন্দাম": 6454,
      "▁আন্তর্জাতিক": 6455,
      "▁আদালত": 6456,
      "▁व्य": 6457,
      "▁বিস্ত": 6458,
      "▁সংরক্ষণ": 6459,
      "179": 6460,
      "▁report": 6461,
      "▁দশ": 6462,
      "▁দু": 6463,
      "overty": 6464,
      "asting": 6465,
      "▁১৭": 6466,
      "রেখ": 6467,
      "▁शु": 6468,
      "▁संसद": 6469,
      "▁United": 6470,
      "হিম": 6471,
      "ियार": 6472,
      "_Mahal": 6473,
      "ডিও": 6474,
      "ডিপি": 6475,
      "দেশিক": 6476,
      "▁[Ministry": 6477,
      "▁लोक": 6478,
      "▁राज्य\")": 6479,
      "নিভার্সিটি": 6480,
      "ছে।": 6481,
      "ত্ত্ব": 6482,
      "বেঙ্গ": 6483,
      "हाय": 6484,
      "परमाणु": 6485,
      "ोलन": 6486,
      "ুরো": 6487,
      "ेली": 6488,
      "▁1994": 6489,
      "▁`|access": 6490,
      "▁जाती": 6491,
      "rown": 6492,
      "প্লব": 6493,
      "▁যদি": 6494,
      "▁राजवंश": 6495,
      "▁स्था": 6496,
      "▁स्थान": 6497,
      "▁১৯৯": 6498,
      "arch_2004": 6499,
      "▁সাধারণ": 6500,
      "ज्ज": 6501,
      "যোগ্য": 6502,
      "▁খেলা": 6503,
      "▁`{{citation": 6504,
      "▁পরী": 6505,
      "▁পরমাণু": 6506,
      "পুঞ্জ": 6507,
      "শিক্ষা": 6508,
      "▁प्राचीन": 6509,
      "▁था।": 6510,
      "▁धर्म\")": 6511,
      "_ব্যবস্থা": 6512,
      "প্রাচীন": 6513,
      "urrent": 6514,
      "ांग्लादेश": 6515,
      "▁কাপ": 6516,
      "্রুপ": 6517,
      "sites/": 6518,
      "▁প্রাচীন": 6519,
      "▁নির্বা": 6520,
      "महाद्वीप": 6521,
      ".svg/40px-": 6522,
      "জাতিসংঘ": 6523,
      "onsoon": 6524,
      "Hindustan": 6525,
      "▁পর্বতমালা": 6526,
      "▁Minorities": 6527,
      "▁पहले": 6528,
      "▁শাস": 6529,
      "bank.org/": 6530,
      "Taj_Mahal": 6531,
      "উত্তর-পূর্ব": 6532,
      "▁[हिन्दी](https://hi.wikipedia.org/wiki/हिन्दी": 6533,
      "▁Registrar": 6534,
      "▁चुनावों": 6535,
      "▁सैन्य": 6536,
      "▁বছর": 6537,
      "বহন": 6538,
      "_in_March_2004": 6539,
      "ন্দামান": 6540,
      "▁`{{citation}}`:": 6541,
      "Taj_Mahal_in_March_2004": 6542,
      "-on-": 6543,
      "313": 6544,
      "Vu": 6545,
      "ZVu": 6546,
      "_a_": 6547,
      "aha": 6548,
      "cog": 6549,
      "dar": 6550,
      "ker": 6551,
      "kZVu": 6552,
      "lass": 6553,
      "n-": 6554,
      "ren": 6555,
      "ward": 6556,
      "dives": 6557,
      "](Category:": 6558,
      "▁[19": 6559,
      "tes": 6560,
      "arrow": 6561,
      "aldives": 6562,
      "2022": 6563,
      "rel": 6564,
      "istic": 6565,
      "19.": 6566,
      "-135": 6567,
      "lion": 6568,
      "▁prime": 6569,
      "▁sur": 6570,
      "loc": 6571,
      "lowing": 6572,
      "▁billion": 6573,
      "links": 6574,
      "ver,": 6575,
      "agari": 6576,
      "▁Health": 6577,
      "-415": 6578,
      "▁relations": 6579,
      "▁Languages": 6580,
      "▁non-": 6581,
      "harm": 6582,
      "▁dom": 6583,
      "▁Ocean": 6584,
      "▁\"Category:": 6585,
      "otals": 6586,
      "law": 6587,
      "%20A": 6588,
      "overnment_of_India": 6589,
      "article": 6590,
      "/population": 6591,
      "ommonwealth": 6592,
      "_East_Asia_Summit": 6593,
      "rough": 6594,
      "▁life": 6595,
      "](https://en.wikipedia.org/wiki/List_of_countries_by": 6596,
      "reek": 6597,
      "▁second": 6598,
      "▁control": 6599,
      "AARC_summit": 6600,
      "vanagari": 6601,
      "maputra": 6602,
      "rahmaputra": 6603,
      "esert": 6604,
      "Report.pdf)": 6605,
      "cording": 6606,
      "pectancy": 6607,
      "rganization": 6608,
      "▁(India)\")": 6609,
      "etraglia": 6610,
      "-an": 6611,
      "Ethnologue": 6612,
      "IUCN": 6613,
      "S.": 6614,
      "_19": 6615,
      "ault": 6616,
      "ek": 6617,
      "gra": 6618,
      "iodiversity": 6619,
      "m2": 6620,
      "o.": 6621,
      "tain": 6622,
      "ortheast": 6623,
      "▁[c": 6624,
      "engu": 6625,
      "inem": 6626,
      "▁them": 6627,
      "lief": 6628,
      "▁Ad": 6629,
      "lingu": 6630,
      "▁Sec": 6631,
      "ett": 6632,
      "▁summit": 6633,
      "▁11": 6634,
      "▁western": 6635,
      "238": 6636,
      "267": 6637,
      "ly,": 6638,
      "▁Himalay": 6639,
      "22-9": 6640,
      "▁new": 6641,
      "imach": 6642,
      "384": 6643,
      "ummer": 6644,
      "ssam": 6645,
      "aries": 6646,
      "ship": 6647,
      "cat.org/": 6648,
      "imf.org/": 6649,
      "fication": 6650,
      "langoff-1": 6651,
      "uthority": 6652,
      "enguin": 6653,
      "%)": 6654,
      "-M": 6655,
      ".\"": 6656,
      "324": 6657,
      "318": 6658,
      "314": 6659,
      "5%": 6660,
      ":**": 6661,
      "Gua": 6662,
      "Jgo": 6663,
      "Raj": 6664,
      "Rowland": 6665,
      "Sanskrit": 6666,
      "Zva": 6667,
      "_घ": 6668,
      "_द": 6669,
      "_16": 6670,
      "bhasha": 6671,
      "d/": 6672,
      "ew.": 6673,
      "evanagari": 6674,
      "hl": 6675,
      "hmed": 6676,
      "most": 6677,
      "nai": 6678,
      "operation": 6679,
      "s_of_India": 6680,
      "ंत": 6681,
      "अभि": 6682,
      "क्": 6683,
      "खन": 6684,
      "गान": 6685,
      "ग्व": 6686,
      "च्": 6687,
      "जं": 6688,
      "टान": 6689,
      "थिल": 6690,
      "दार": 6691,
      "फोर्ड": 6692,
      "ब्ल": 6693,
      "बेट": 6694,
      "भु": 6695,
      "मु": 6696,
      "यत": 6697,
      "यर": 6698,
      "रत": 6699,
      "वास": 6700,
      "ेड": 6701,
      "ैंक": 6702,
      "ैथिल": 6703,
      "ॉल": 6704,
      "ॉंग्रेस": 6705,
      "ोस": 6706,
      "ौसेना": 6707,
      "१८": 6708,
      "२००": 6709,
      "উরি": 6710,
      "খ্য": 6711,
      "খ্যা": 6712,
      "ছাড়া": 6713,
      "থর": 6714,
      "থান": 6715,
      "ভুট": 6716,
      "ম্ম": 6717,
      "রক্ষ": 6718,
      "ষি": 6719,
      "সু": 6720,
      "ুঘল": 6721,
      "ৃষ্": 6722,
      "েন": 6723,
      "োদী": 6724,
      "োশা": 6725,
      "ৌর": 6726,
      "ৌদ্ধ": 6727,
      "▁6.": 6728,
      "▁ईसा": 6729,
      "din": 6730,
      "pen": 6731,
      "](https://id": 6732,
      "▁[p": 6733,
      "▁[ड": 6734,
      "▁[ल": 6735,
      "▁[दक्षिण": 6736,
      "▁[पाकिस्तान": 6737,
      "▁\"दक्षिण": 6738,
      "▁\"पाकिस्तान": 6739,
      "\")\"": 6740,
      "en/": 6741,
      "cis": 6742,
      "](https://hi.wikipedia.org/wiki/न": 6743,
      "](https://hi.wikipedia.org/wiki/पाकिस्तान": 6744,
      "্যুরো": 6745,
      "asht": 6746,
      "▁साल": 6747,
      "েরি": 6748,
      "lease": 6749,
      "\\_of": 6750,
      "▁मो": 6751,
      "▁मौ": 6752,
      "▁সর্": 6753,
      "▁স্ব": 6754,
      "entury": 6755,
      "তিতে": 6756,
      "राम": 6757,
      "[[14": 6758,
      "lock": 6759,
      "](https://hi.wikipedia.org/wiki/भारत_के": 6760,
      "▁Pl": 6761,
      "78.": 6762,
      "▁found": 6763,
      "rote": 6764,
      "FOOTNOTENational_Informatics_Centre2005": 6765,
      "itage": 6766,
      "▁Territory": 6767,
      "▁Routledge": 6768,
      "▁River": 6769,
      "▁*C": 6770,
      "_की_": 6771,
      "23.": 6772,
      "সাবে": 6773,
      "▁তথ্য": 6774,
      "▁উদ্": 6775,
      "▁এপ্র": 6776,
      "▁এছাড়া": 6777,
      "ंगाना": 6778,
      "▁भारत\")": 6779,
      "▁প্রতীক": 6780,
      "▁1965": 6781,
      "▁[\"H": 6782,
      "▁নৃত্য": 6783,
      "তাজ": 6784,
      "তাকা": 6785,
      "force": 6786,
      "hak": 6787,
      "িয়ন্ত্র": 6788,
      "্বই": 6789,
      "135": 6790,
      "▁आर्थिक": 6791,
      "▁দল": 6792,
      "ট্রফি": 6793,
      "▁Indus": 6794,
      "](https://en.wikipedia.org/wiki/India#CITEREFB": 6795,
      "-76": 6796,
      "▁১৩": 6797,
      "ड़ियाँ": 6798,
      "রেন্দ্র": 6799,
      "▁उन": 6800,
      "নাবাহিনী": 6801,
      "काता": 6802,
      "lative": 6803,
      "্পা": 6804,
      "▁इंडिया": 6805,
      "ঙ্গীত": 6806,
      "ी](https://hi.wikipedia.org/wiki/द": 6807,
      "ंडोन": 6808,
      "2011religion": 6809,
      "▁राज्यक्षेत्र": 6810,
      "ারাঠ": 6811,
      "▁विस्त": 6812,
      "▁विदेश": 6813,
      "▁disc": 6814,
      "পাদ": 6815,
      "ंग्रेजी": 6816,
      "ोलकाता": 6817,
      "exis": 6818,
      "ंध्र": 6819,
      "▁বাণিজ্য": 6820,
      "তেলু": 6821,
      "▁अन्त": 6822,
      "▁क्षेत्रों": 6823,
      "▁नेतृत": 6824,
      "केन्द्र": 6825,
      "▁\"अंग्रेज़ी": 6826,
      "১৯-": 6827,
      "▁[Dyson": 6828,
      "▁देश\")": 6829,
      "▁जनवरी": 6830,
      "हरिया": 6831,
      "ूर्वी": 6832,
      "पुरम": 6833,
      "▁मेला\"),": 6834,
      "ंग्रेज़ी_भाषा": 6835,
      "-symbols": 6836,
      "िशा": 6837,
      "▁State": 6838,
      "যোগিতা": 6839,
      "টেলি": 6840,
      "▁যুক্ত": 6841,
      "▁দেশে": 6842,
      "▁२०१": 6843,
      "▁tex": 6844,
      "▁অবস্থিত": 6845,
      "समिया": 6846,
      "▁`{{ওয়েব": 6847,
      "ज्ञाप": 6848,
      "न्नई": 6849,
      "बंधन": 6850,
      "শিখ": 6851,
      "▁पुरालेखित।,": 6852,
      "▁হিসাবে": 6853,
      "ilitary": 6854,
      "ুম্বই": 6855,
      "▁मानसून": 6856,
      "_और_संघ": 6857,
      "hennai": 6858,
      "যুক্তরাষ্ট্র": 6859,
      "▁युग": 6860,
      "_ইতিহাস": 6861,
      "रक्षा": 6862,
      "वादी": 6863,
      "পরিসংখ্যান": 6864,
      "ম্‌": 6865,
      "▁स्वतंत्रता": 6866,
      "_के_आधार_पर_भारत_के_राज्यों_की_सूची": 6867,
      "▁(identifier)\"):[10.": 6868,
      "तेलंगाना": 6869,
      "illenni": 6870,
      "▁করতে": 6871,
      "चेन्नई": 6872,
      "▁बहुत": 6873,
      "पीठ": 6874,
      "ভরশীল": 6875,
      "क्सफोर्ड": 6876,
      "▁\"हिन्दी\")": 6877,
      "▁निर्माण": 6878,
      "त्रिपुरा": 6879,
      "month": 6880,
      "issile": 6881,
      "িকিউরি": 6882,
      "কেন্দ্রশাসিত_অঞ্চল": 6883,
      "तेलुगू": 6884,
      "_Islands": 6885,
      "भीमबेट": 6886,
      "▁উল্লেখযোগ্য": 6887,
      "donesia": 6888,
      "झारखंड": 6889,
      "াবেক্ষণ:": 6890,
      "rajbhasha": 6891,
      "Home_A": 6892,
      "/national-symbols": 6893,
      "छत्तीसगढ़": 6894,
      "िंधु": 6895,
      "খ্রিস্ট": 6896,
      "▁मुख्य": 6897,
      "ब्बत": 6898,
      "▁[अंग्रेज़ी](https://hi.wikipedia.org/wiki/अंग्रेज़ी_भाषा": 6899,
      "JIJgo": 6900,
      "Census2011religion": 6901,
      "▁ओर": 6902,
      "▁कुछ": 6903,
      "_GDP_(": 6904,
      "▁যদিও": 6905,
      "GuaJIJgo": 6906,
      "Rowland1970": 6907,
      "ZvaGuaJIJgo": 6908,
      "अभिज्ञाप": 6909,
      "च्छ": 6910,
      "ম্মু": 6911,
      "োশাক": 6912,
      "▁এপ্রিল": 6913,
      "তেলুগু": 6914,
      "িকিউরিটি": 6915,
      "भीमबेटका": 6916,
      "अभिज्ञापक": 6917,
      "-D": 6918,
      "-li": 6919,
      "/F": 6920,
      "0/0": 6921,
      "Clémentin-Oj": 6922,
      "_7": 6923,
      "_18": 6924,
      "_జాబితా": 6925,
      "ather": 6926,
      "ఆంధ": 6927,
      "కీ": 6928,
      "కాలు": 6929,
      "క్రమ": 6930,
      "గర్": 6931,
      "డో": 6932,
      "థి": 6933,
      "నె": 6934,
      "నాలు": 6935,
      "పించ": 6936,
      "బడ్డ": 6937,
      "భర": 6938,
      "మహ": 6939,
      "మై": 6940,
      "యన": 6941,
      "రంగ": 6942,
      "లయా": 6943,
      "వార": 6944,
      "శీ": 6945,
      "షనల్": 6946,
      "స్య": 6947,
      "ృద్ధి": 6948,
      "ెంగ": 6949,
      "ేర": 6950,
      "▁దా": 6951,
      "▁నాగరికత": 6952,
      "▁టెక్నాలజీ": 6953,
      "alli": 6954,
      "erman": 6955,
      "2020": 6956,
      "▁(1):": 6957,
      "్రై": 6958,
      "్రప్రదేశ్": 6959,
      "](https://te.wikipedia.org/wiki/ఢిల్లీ": 6960,
      "\\_cont": 6961,
      "\\_country": 6962,
      "ootb": 6963,
      "atar": 6964,
      "\n\nభారతదేశం": 6965,
      "ficient": 6966,
      "దేశం": 6967,
      "దేశాల": 6968,
      "దేశాలు": 6969,
      "స్\")": 6970,
      "▁sq": 6971,
      "ర్‌": 6972,
      "▁P.": 6973,
      "angam": 6974,
      "▁far": 6975,
      "లు?action=edit&redlink=1": 6976,
      "రాఠ": 6977,
      "▁కి": 6978,
      "▁కో": 6979,
      "▁work": 6980,
      "క్టో": 6981,
      "నియా": 6982,
      "▁వర్": 6983,
      "▁వారస": 6984,
      "ల్వే": 6985,
      "ager": 6986,
      "▁సరిహద్దు": 6987,
      "▁మన": 6988,
      "▁మూ": 6989,
      "ండమా": 6990,
      "▁2007.": 6991,
      "▁చిన్న": 6992,
      "-89": 6993,
      "తాన": 6994,
      "ముఖ": 6995,
      "త్వం": 6996,
      "▁Law": 6997,
      "▁(సా.శ.14": 6998,
      "ులు,": 6999,
      "–సా.శ.15": 7000,
      "ountries": 7001,
      "▁ప్రతి": 7002,
      "▁ప్రస్తు": 7003,
      "▁ప్రకారం": 7004,
      "▁ప్రముఖ": 7005,
      "▁International": 7006,
      "▁Increase": 7007,
      "▁[Singh": 7008,
      "ంచిన": 7009,
      "కుడు": 7010,
      "నుమ": 7011,
      "▁రో": 7012,
      "▁రంగ": 7013,
      "▁రవాణా": 7014,
      "▁సాధించ": 7015,
      "ష్టు": 7016,
      "gional": 7017,
      "ంతో": 7018,
      "▁తరువా": 7019,
      "_Nadu": 7020,
      "పాలన": 7021,
      "_population": 7022,
      "eck": 7023,
      "ం](https://te.wikipedia.org/wiki/భారతీయ": 7024,
      "ublications/": 7025,
      "గుర్": 7026,
      "నేషనల్": 7027,
      "▁\"En": 7028,
      ",_కేంద్రపాలిత": 7029,
      "▁ప్రాంతం": 7030,
      "▁రాజ్యం](https://te.wikipedia.org/wiki/": 7031,
      "వందే": 7032,
      "▁బా": 7033,
      "▁బహు": 7034,
      "▁బెంగ": 7035,
      "amil_Nadu": 7036,
      "obox": 7037,
      "amental": 7038,
      "1967": 7039,
      "ాల్లో": 7040,
      "శ్వా": 7041,
      "ారిటీ": 7042,
      "▁ప్రాంతాలు\")": 7043,
      "గోళ": 7044,
      "బడిన": 7045,
      "తున్న": 7046,
      "న్నిక": 7047,
      "▁స్వాతంత్ర్య": 7048,
      "▁కాలంలో": 7049,
      "jection": 7050,
      "ంపి": 7051,
      "బెంగాల్": 7052,
      "oint": 7053,
      "f/f": 7054,
      "4/4": 7055,
      "ెలవు": 7056,
      "](https://te.wikipedia.org/wiki/భారతదేశంలో_": 7057,
      "▁km2": 7058,
      "rmy": 7059,
      "▁అధికారిక": 7060,
      "▁religious": 7061,
      ".uk/": 7062,
      "actbook/": 7063,
      "ఆర్ధిక": 7064,
      "▁పట్టణ": 7065,
      "▁కాశ్మీరు": 7066,
      "ంగ్లీషు": 7067,
      "-22)": 7068,
      "▁అయిన": 7069,
      "▁రెండు": 7070,
      "ాల్దీవులు": 7071,
      "infobox": 7072,
      "cia.gov/": 7073,
      "ట్రో": 7074,
      "ుల్తాన": 7075,
      "రాష్ట్రాలు,_కేంద్రపాలిత": 7076,
      "▁వ్యాసం:": 7077,
      "ార్లమెంట": 7078,
      "▁./వర్గం:Wikipedia\\_articles\\_with\\_": 7079,
      "▁ఏర్ప": 7080,
      "Clémentin-Ojha2014": 7081,
      "ఆంధ్రప్రదేశ్": 7082,
      "లయాళ": 7083,
      "\\_contain": 7084,
      "ootball": 7085,
      "రాష్ట్రాలు,_కేంద్రపాలిత_ప్రాంత": 7086,
      "\"](https://web.archive.org/web/20": 7087,
      "#P": 7088,
      "/?": 7089,
      "0&": 7090,
      "528": 7091,
      "58)": 7092,
      "6).": 7093,
      "RO": 7094,
      "_15": 7095,
      "_43": 7096,
      "b)": 7097,
      "ez": 7098,
      "eld": 7099,
      "i-": 7100,
      "lurton": 7101,
      "mit": 7102,
      "udu": 7103,
      "voy": 7104,
      "yam": 7105,
      "▁°": 7106,
      "▁urban": 7107,
      "ender": 7108,
      "onom": 7109,
      "arg": 7110,
      "20.": 7111,
      "report": 7112,
      "](https://en.wikipedia.org/wiki/United": 7113,
      "acts": 7114,
      "idy": 7115,
      "vey": 7116,
      "stru": 7117,
      "▁pre": 7118,
      "▁painting": 7119,
      ".jpe": 7120,
      "240": 7121,
      "icob": 7122,
      "▁November": 7123,
      "50th": 7124,
      "▁eastern": 7125,
      "sey": 7126,
      "akes": 7127,
      "ability": 7128,
      "▁Lank": 7129,
      ".gov.": 7130,
      "▁Kingdom": 7131,
      "AAJ": 7132,
      "▁house": 7133,
      "489": 7134,
      "own": 7135,
      "▁[↑](https://en.wikipedia.org/wiki/India#cite_ref-FOOTNOTEMetcalfMetcalf2006": 7136,
      "▁Vol": 7137,
      "▁exp": 7138,
      "anipur": 7139,
      "feb": 7140,
      "_128": 7141,
      "que": 7142,
      "▁\"Re": 7143,
      "](https://en.wikipedia.org/wiki/Re": 7144,
      "▁\"Indo-": 7145,
      "PPP": 7146,
      "▁sector": 7147,
      "](https://en.wikipedia.org/wiki/Indo-": 7148,
      "▁contrib": 7149,
      "risti": 7150,
      "▁Programme": 7151,
      "Dyson2018),": 7152,
      "-largest": 7153,
      "ernet": 7154,
      "▁2024.": 7155,
      "](https://en.wikipedia.org/wiki/South_Asian": 7156,
      "▁along": 7157,
      "▁wide": 7158,
      "tiger": 7159,
      "place": 7160,
      "%7C": 7161,
      "%7c": 7162,
      "ksai": 7163,
      "volution": 7164,
      "▁Plateau": 7165,
      "Uttarakhand": 7166,
      "_Indian_general": 7167,
      "▁employ": 7168,
      "cherry": 7169,
      "_election": 7170,
      "▁Wikidata": 7171,
      "▁influ": 7172,
      "kZVuDwAAQBAJ&pg=PA": 7173,
      "illennium": 7174,
      "ZvaGuaJIJgoC&pg=PA": 7175,
      "uducherry": 7176,
      "_Indian_general_election": 7177,
      "*),": 7178,
      "-ব": 7179,
      ".JPG": 7180,
      "3,": 7181,
      "AG": 7182,
      "E_": 7183,
      "NI": 7184,
      "\\*": 7185,
      "_इ": 7186,
      "_श": 7187,
      "_26": 7188,
      "_धर्म": 7189,
      "_languages": 7190,
      "casting": 7191,
      "fos": 7192,
      "hra": 7193,
      "mrits": 7194,
      "ode": 7195,
      "zer": 7196,
      "ँची": 7197,
      "अंग्रेज़ी": 7198,
      "उप": 7199,
      "एन": 7200,
      "टना": 7201,
      "तन": 7202,
      "द्वार": 7203,
      "पार": 7204,
      "भग": 7205,
      "मरी": 7206,
      "रि": 7207,
      "स्व": 7208,
      "ेद": 7209,
      "ोला": 7210,
      "ঁচ": 7211,
      "অর্থনৈতিক": 7212,
      "ইংরেজি": 7213,
      "উড": 7214,
      "কগণ": 7215,
      "খালি": 7216,
      "গানি": 7217,
      "তু": 7218,
      "তত্ত্ব": 7219,
      "পর": 7220,
      "ফুটবল": 7221,
      "ফগানি": 7222,
      "ব্য": 7223,
      "যা": 7224,
      "লিক": 7225,
      "ষদ": 7226,
      "হর": 7227,
      "াট": 7228,
      "১১": 7229,
      "১]](https://bn.wikipedia.org/wiki/ভারত#cite_note-": 7230,
      "৩৪": 7231,
      "৪৭": 7232,
      "৬৫": 7233,
      "▁औ": 7234,
      "▁ল": 7235,
      "▁भा": 7236,
      "▁ले": 7237,
      "▁भाग": 7238,
      "▁রিজার্ভ": 7239,
      "orne": 7240,
      "people": 7241,
      "▁[य": 7242,
      "▁[ह": 7243,
      "▁[জাতীয়": 7244,
      "▁\"U": 7245,
      "▁\"य": 7246,
      "▁\"চ": 7247,
      "▁\"দক্ষিণ": 7248,
      "Infos": 7249,
      "hili": 7250,
      "ales": 7251,
      "](https://hi.wikipedia.org/wiki/दक्षिण": 7252,
      "](https://hi.wikipedia.org/wiki/तमिल": 7253,
      "▁काल": 7254,
      "▁कॉंग्रेस": 7255,
      "्रय": 7256,
      "भारतीय": 7257,
      "anda": 7258,
      "asu": 7259,
      "▁सभा": 7260,
      "▁सित": 7261,
      "▁समाज": 7262,
      "19)": 7263,
      "acmil": 7264,
      "▁मई": 7265,
      "▁मन": 7266,
      "▁मह": 7267,
      "▁मिल": 7268,
      "▁मशीन": 7269,
      "liament": 7270,
      "ন্ট্র": 7271,
      "](https://bn.wikipedia.org/wiki/ভারত#": 7272,
      "ेंगल": 7273,
      "ান](https://bn.wikipedia.org/wiki/": 7274,
      "र्ध": 7275,
      "](https://hi.wikipedia.org/wiki/भारत_के_राज्य": 7276,
      "▁culture": 7277,
      "ক্লো": 7278,
      "▁Policy": 7279,
      "्तु": 7280,
      "=1&": 7281,
      "▁border": 7282,
      "ular": 7283,
      "স্টি": 7284,
      "স্মাই": 7285,
      "▁में,": 7286,
      "▁अभ": 7287,
      "▁অভি": 7288,
      "▁Rothermund": 7289,
      "_(भारत)": 7290,
      "▁মোট": 7291,
      "▁जब": 7292,
      ".\n10": 7293,
      "▁2014.": 7294,
      "▁द्वीप": 7295,
      "িকী": 7296,
      "িকার": 7297,
      "260": 7298,
      "type": 7299,
      "▁উন্নয়ন": 7300,
      "iger": 7301,
      "▁नव": 7302,
      "▁নয়": 7303,
      "_से": 7304,
      "_साम": 7305,
      "opal": 7306,
      "িত্": 7307,
      "tures": 7308,
      "▁व्या": 7309,
      "▁বিজ্ঞান": 7310,
      "-459": 7311,
      "প্রিয়": 7312,
      "aks": 7313,
      "153": 7314,
      "▁Library": 7315,
      "](https://bn.wikipedia.org/wiki/ভারতের_জাতীয়_": 7316,
      "।[[২": 7317,
      "।[[৫": 7318,
      "।[[৭": 7319,
      "থাপি": 7320,
      "▁गई": 7321,
      "▁১৬": 7322,
      "ड़िया": 7323,
      "▁शहर": 7324,
      "নায়": 7325,
      "▁[मध्य": 7326,
      "]](https://hi.wikipedia.org/wiki/भारत#cite_note-pib": 7327,
      "म्भ": 7328,
      "47)": 7329,
      "_के_अन": 7330,
      "ঙ্গা": 7331,
      "संधान": 7332,
      "त्तरी": 7333,
      "▁लिये": 7334,
      "ার্টি": 7335,
      "নিরপেক্ষ": 7336,
      "▁\"British": 7337,
      "▁यूनिवर्सिट": 7338,
      "▁সমভূমি": 7339,
      "▁উপকূল": 7340,
      "▁ext": 7341,
      "ureau": 7342,
      "parliament": 7343,
      "ports": 7344,
      "▁জনসংখ্যা": 7345,
      "▁জনপ্রিয়": 7346,
      "▁जनजाति": 7347,
      "efficient": 7348,
      "▁যা": 7349,
      "▁राजधान": 7350,
      "▁[আইএসবিএন](https://bn.wikipedia.org/wiki/আইএসবিএন": 7351,
      "▁produc": 7352,
      "india.gov.in/kno": 7353,
      "।[[১০": 7354,
      "rofil": 7355,
      "▁US": 7356,
      "रुणा": 7357,
      "শাসনিক": 7358,
      "▁\"আইএসবিএন": 7359,
      "▁২০০৮।": 7360,
      "▁২০০৮।\n": 7361,
      "alayal": 7362,
      "▁addition": 7363,
      "জানা\\_প্যারামিটার": 7364,
      "▁৩১": 7365,
      "ন্নড়": 7366,
      "ociation": 7367,
      "▁পর্য": 7368,
      "ক্রিকেট": 7369,
      "ক্সচে": 7370,
      "_সরকার": 7371,
      "ffairs_": 7372,
      "▁হিসে": 7373,
      "1947)": 7374,
      "-4020": 7375,
      "pib.nic.in/": 7376,
      "ोर्ट": 7377,
      "thnologue.com/": 7378,
      "%E0%A4%B": 7379,
      "pringer": 7380,
      "▁साम्राज्य\")": 7381,
      "▁People": 7382,
      "धुनिक": 7383,
      "troduction": 7384,
      "ूर्ण": 7385,
      "▁দিবস": 7386,
      "Articles\\_contain": 7387,
      "▁(2018),": 7388,
      "osphere": 7389,
      "adhya": 7390,
      "windia": 7391,
      "_देशों_की_सूची": 7392,
      "ताजमह": 7393,
      "%E0%A6%9F": 7394,
      "roadcasting": 7395,
      "क्षरता": 7396,
      "▁./বিষয়শ্রেণী:ওয়েব\\_আর্কাইভ\\_টেমপ্লেটে\\_ওয়েব্যাক\\_সংযোগ\n": 7397,
      "▁ক্ষেত্রে": 7398,
      "▁स्थाप": 7399,
      "▁[पाकिस्तान](https://hi.wikipedia.org/wiki/पाकिस्तान": 7400,
      "িয়ন্ত্রণ": 7401,
      "ফগানিস্তান": 7402,
      "যাত্র": 7403,
      "Infosys": 7404,
      "acmillan": 7405,
      "ेंगलुरु": 7406,
      "স্মাইলিং": 7407,
      "_साम्राज्य": 7408,
      "_के_अनुसार": 7409,
      "▁यूनिवर्सिटी": 7410,
      "▁[আইএসবিএন](https://bn.wikipedia.org/wiki/আইএসবিএন_(শনাক্তকারী)": 7411,
      "india.gov.in/knowindia": 7412,
      "ক্সচেঞ্জ": 7413,
      "338": 7414,
      "7]](https://en.wikipedia.org/wiki/India#cite_note-FOOTNOTE": 7415,
      "C)": 7416,
      "LM": 7417,
      "PE": 7418,
      "SAARC_summit": 7419,
      "_30": 7420,
      "fli": 7421,
      "fun": 7422,
      "ggle": 7423,
      "lal": 7424,
      "oard": 7425,
      "round": 7426,
      "sci": 7427,
      "top": 7428,
      "▁im": 7429,
      "](https://catal": 7430,
      "en,": 7431,
      "enter": 7432,
      "ency": 7433,
      "on,": 7434,
      "arth": 7435,
      "arty": 7436,
      "alt": 7437,
      "alit": 7438,
      "asi": 7439,
      "▁India*.": 7440,
      "▁India](https://en.wikipedia.org/wiki/G": 7441,
      "▁Central": 7442,
      "▁Court": 7443,
      "sive": 7444,
      "ing-in-": 7445,
      "▁class": 7446,
      "▁President": 7447,
      "chol": 7448,
      "very": 7449,
      "raz": 7450,
      "216": 7451,
      "▁*A": 7452,
      "253": 7453,
      "▁women": 7454,
      "emale": 7455,
      "▁Nehru": 7456,
      "_industry": 7457,
      "▁2001": 7458,
      "aryana": 7459,
      "▁only": 7460,
      "▁regions": 7461,
      "▁near": 7462,
      "overeign": 7463,
      "▁gre": 7464,
      "▁forest": 7465,
      "-98": 7466,
      "ots": 7467,
      "709": 7468,
      "aves": 7469,
      "▁original](http://www.": 7470,
      "emplate_": 7471,
      "iley": 7472,
      "ecu": 7473,
      "external": 7474,
      "_Re": 7475,
      "](https://en.wikipedia.org/wiki/En": 7476,
      "▁[Government": 7477,
      "_Empire": 7478,
      "](https://en.wikipedia.org/wiki/List_of_SAARC_summit": 7479,
      "ashmiri": 7480,
      "▁Hinduism": 7481,
      "▁technology": 7482,
      "▁[![A": 7483,
      "](https://web.archive.org/web/20090": 7484,
      "awahar": 7485,
      "countries_and_depend": 7486,
      "kingdom": 7487,
      "▁Chinese": 7488,
      "eserve": 7489,
      "_of_the_": 7490,
      "encies_by": 7491,
      "britannica.com/place": 7492,
      "NCLM": 7493,
      "cript": 7494,
      "▁groups": 7495,
      "▁dispute": 7496,
      "▁Persian": 7497,
      "▁estimate": 7498,
      "_BRICS_summit": 7499,
      "MetcalfMetcalf2012-26": 7500,
      "rishnan": 7501,
      "PK:14": 7502,
      "▁dependencies": 7503,
      "Provision": 7504,
      "nclm.nic.in/shared/linkimages/NCLM": 7505,
      "▁summits\")": 7506,
      "\\_of\\_": 7507,
      "icobar": 7508,
      "50thReport.pdf)": 7509,
      "ristian": 7510,
      "ernet.in/": 7511,
      "](https://en.wikipedia.org/wiki/List_of_SAARC_summits": 7512,
      "awaharlal": 7513,
      "countries_and_dependencies_by": 7514,
      "nclm.nic.in/shared/linkimages/NCLM50thReport.pdf)": 7515,
      "*[": 7516,
      "-F": 7517,
      "623": 7518,
      "CIA": 7519,
      "Language": 7520,
      "cover": 7521,
      "ctive": 7522,
      "dy": 7523,
      "kb": 7524,
      "men": 7525,
      "su": 7526,
      "▁hist": 7527,
      "▁known": 7528,
      "▁[World": 7529,
      "rest": 7530,
      "▁(2014": 7531,
      "ouch": 7532,
      "▁India\"](https://web.archive.org/web/201": 7533,
      "▁Comp": 7534,
      "www": 7535,
      "ediff": 7536,
      "\"),[[": 7537,
      "ume": 7538,
      "▁Muslim": 7539,
      "▁Dictionary": 7540,
      "agen": 7541,
      "agore": 7542,
      "▁Nat": 7543,
      "_in_": 7544,
      "405": 7545,
      "18)": 7546,
      "s/p": 7547,
      "▁religion": 7548,
      "▁numbers": 7549,
      "▁human": 7550,
      "a_d": 7551,
      "opular": 7552,
      "orities/": 7553,
      "▁def": 7554,
      "▁[British": 7555,
      "undarb": 7556,
      "times.indiatimes.com/": 7557,
      "▁\"Government": 7558,
      "co.uk/": 7559,
      "▁literature": 7560,
      "▁[Kulke": 7561,
      "34238": 7562,
      "_Lank": 7563,
      "1971": 7564,
      "view/": 7565,
      "▁See": 7566,
      "docs/": 7567,
      "ographical": 7568,
      "rishna": 7569,
      "▁composed": 7570,
      "cms)": 7571,
      "urity": 7572,
      "ligned": 7573,
      "11934238": 7574,
      "default": 7575,
      "arnataka": 7576,
      "undarbans": 7577,
      "11934238p": 7578,
      "%3": 7579,
      "%),": 7580,
      "-T": 7581,
      "-১": 7582,
      ".৮": 7583,
      ".](https://upload.wikimedia.org/wikipedia/commons/thumb/": 7584,
      ".\")\n\n": 7585,
      "2)[[": 7586,
      "4,": 7587,
      "4).": 7588,
      "4]](https://en.wikipedia.org/wiki/India#cite_note-": 7589,
      "5]](https://en.wikipedia.org/wiki/India#cite_note-FOOTNOTE": 7590,
      "5.pdf)": 7591,
      "66)": 7592,
      "AS": 7593,
      "At": 7594,
      "Bharat": 7595,
      "Bangalore": 7596,
      "Chennai": 7597,
      "EB": 7598,
      "F)": 7599,
      "PO": 7600,
      "Suk": 7601,
      "_&": 7602,
      "_ক": 7603,
      "_চ": 7604,
      "_राज्य": 7605,
      "_সং": 7606,
      "_వి": 7607,
      "_রাষ্ট্র": 7608,
      "_dom": 7609,
      "_एशिया": 7610,
      "_కాశ్మీ": 7611,
      "aci": 7612,
      "ait": 7613,
      "ading": 7614,
      "a-b": 7615,
      "equality": 7616,
      "ham": 7617,
      "lood": 7618,
      "mir": 7619,
      "ncient": 7620,
      "sources": 7621,
      "uted": 7622,
      "ंतर": 7623,
      "ईल": 7624,
      "ख्य": 7625,
      "घर": 7626,
      "चें": 7627,
      "तम": 7628,
      "तुल": 7629,
      "थियार": 7630,
      "फा": 7631,
      "बा": 7632,
      "मर": 7633,
      "मार": 7634,
      "वेश": 7635,
      "वैद": 7636,
      "शन": 7637,
      "िबंध": 7638,
      "ृष": 7639,
      "ृष्ण": 7640,
      "ोट": 7641,
      "्लेट": 7642,
      "ংহ": 7643,
      "ইতিহাস": 7644,
      "এম": 7645,
      "চক": 7646,
      "ছু": 7647,
      "জার": 7648,
      "থি": 7649,
      "ধু": 7650,
      "ন্য": 7651,
      "পার": 7652,
      "ব্রু": 7653,
      "রান": 7654,
      "সহ": 7655,
      "স](https://bn.wikipedia.org/wiki/": 7656,
      "হো": 7657,
      "ীণ": 7658,
      "ীব": 7659,
      "০]](https://bn.wikipedia.org/wiki/ভারত#cite_note-": 7660,
      "১৮": 7661,
      "২৬": 7662,
      "৩-": 7663,
      "৪.": 7664,
      "৪)।": 7665,
      "৫৯": 7666,
      "ంస్కృ": 7667,
      "ఉత్తరా": 7668,
      "ఖో": 7669,
      "ఘాలయ": 7670,
      "చ్": 7671,
      "టై": 7672,
      "టర్": 7673,
      "డమ్": 7674,
      "డఖ్": 7675,
      "ణే": 7676,
      "ణంగా": 7677,
      "తే": 7678,
      "తెల": 7679,
      "దరంగ": 7680,
      "నో": 7681,
      "నంద": 7682,
      "బర్": 7683,
      "బార్": 7684,
      "యె": 7685,
      "రె": 7686,
      "లడఖ్": 7687,
      "ళా": 7688,
      "ళి": 7689,
      "శు": 7690,
      "హించ": 7691,
      "ుకు": 7692,
      "ెన్న": 7693,
      "ెట్రో": 7694,
      "ేతి": 7695,
      "ేఘాలయ": 7696,
      "ైనిక": 7697,
      "ొగలు": 7698,
      "ోళ": 7699,
      "‌కా": 7700,
      "‌మహ": 7701,
      "▁५": 7702,
      "▁৯": 7703,
      "▁ఐ": 7704,
      "▁ఖ": 7705,
      "▁web": 7706,
      "▁ला": 7707,
      "▁–సా.శ.": 7708,
      "▁భారతీయ": 7709,
      "▁36": 7710,
      "▁কাশ্মীর": 7711,
      "▁దినోత్స": 7712,
      "kid": 7713,
      "▁[f": 7714,
      "▁[উ": 7715,
      "▁[प्र": 7716,
      "▁[రాష్ట్ర": 7717,
      "▁[జన": 7718,
      "▁[గో": 7719,
      "▁[तमिल": 7720,
      "▁[गुजरात": 7721,
      "▁\"ड": 7722,
      "▁\"ह": 7723,
      "▁\"పా": 7724,
      "▁\"జన": 7725,
      "▁\"గో": 7726,
      "▁\"మూస:": 7727,
      "ines": 7728,
      "anat": 7729,
      "anchi": 7730,
      "arlo": 7731,
      "aland": 7732,
      "eric": 7733,
      "th_BRICS_summit": 7734,
      "release": 7735,
      "India_G": 7736,
      "ारो": 7737,
      "ारम्भ": 7738,
      "](https://hi.wikipedia.org/wiki/ग": 7739,
      "](https://hi.wikipedia.org/wiki/द": 7740,
      "▁कम": 7741,
      "▁किन": 7742,
      "](https://bn.wikipedia.org/wiki/দক্ষিণ": 7743,
      "▁(c": 7744,
      "्रह": 7745,
      "ভারতের": 7746,
      "](https://te.wikipedia.org/wiki/B": 7747,
      "](https://te.wikipedia.org/wiki/G": 7748,
      "](https://te.wikipedia.org/wiki/భారతదేశ": 7749,
      "](https://te.wikipedia.org/wiki/గో": 7750,
      "](https://te.wikipedia.org/wiki/మూస:": 7751,
      "outheast": 7752,
      "asp?": 7753,
      "▁सह": 7754,
      "▁स्तर": 7755,
      "▁सभ्यता": 7756,
      "েরল": 7757,
      "ారస్వ": 7758,
      "\\_क": 7759,
      "\\_ভাষ": 7760,
      "id=1": 7761,
      "বিদ": 7762,
      "atal": 7763,
      "ating": 7764,
      "atab": 7765,
      "ాలె": 7766,
      "▁Civil": 7767,
      "geoh": 7768,
      "states": 7769,
      "linkid": 7770,
      "స్ట": 7771,
      "స్వాతంత్ర్య": 7772,
      "ेंस": 7773,
      "etry": 7774,
      "▁పర": 7775,
      "▁పండు": 7776,
      "र्ट": 7777,
      "loth": 7778,
      "▁caus": 7779,
      "▁Punjab": 7780,
      "्त्र": 7781,
      "▁tree": 7782,
      "109": 7783,
      "▁four": 7784,
      "rak": 7785,
      "istorical": 7786,
      "▁maint": 7787,
      "లు](https://te.wikipedia.org/wiki/": 7788,
      "_of_S": 7789,
      "_of_2011": 7790,
      "రాన్": 7791,
      "రాస్య": 7792,
      "▁अमेर": 7793,
      "▁अलग": 7794,
      "▁अर्थव्यवस्था": 7795,
      "▁14.": 7796,
      "ালম": 7797,
      "ালুরু": 7798,
      "▁অধ": 7799,
      "▁অ্যান্ড": 7800,
      "▁অধিক": 7801,
      "▁This": 7802,
      "ollu": 7803,
      "oloni": 7804,
      "▁মার্কিন": 7805,
      "वियत": 7806,
      "▁కే": 7807,
      "▁కోర్": 7808,
      "▁जिन": 7809,
      ".\n11": 7810,
      "▁when": 7811,
      "▁2012.": 7812,
      "ाले": 7813,
      "ालैंड": 7814,
      "త్రిక": 7815,
      "▁B.;": 7816,
      "▁Bharat": 7817,
      "emic": 7818,
      "emographic": 7819,
      "క్స్": 7820,
      "క్కి": 7821,
      "▁देव": 7822,
      "▁दोन": 7823,
      "]](https://en.wikipedia.org/wiki/India#cite_note-Combined": 7824,
      "▁వె": 7825,
      "▁వంట": 7826,
      "न्ध": 7827,
      "▁কর্ত": 7828,
      "269,": 7829,
      "▁উদারীকরণ": 7830,
      "▁बंगाल": 7831,
      "▁बड़े": 7832,
      "▁একাধিক": 7833,
      "ంగో": 7834,
      "▁प्रधानमंत्री": 7835,
      "▁సముద్ర": 7836,
      "▁సూచ": 7837,
      "▁సౌక": 7838,
      "भाजन": 7839,
      "117": 7840,
      "▁सेवा": 7841,
      "287,": 7842,
      "్రామ": 7843,
      "▁[\"G": 7844,
      "▁काम": 7845,
      "oples": 7846,
      "ండా": 7847,
      "ండీ": 7848,
      "ండ్య": 7849,
      ")।\n": 7850,
      "▁আইন": 7851,
      "-85": 7852,
      "తాజ్": 7853,
      "నాథ": 7854,
      "elp": 7855,
      "▁व्यवस्था": 7856,
      "▁বিভিন্ন": 7857,
      "సింది.": 7858,
      "త్వా": 7859,
      "মিশন": 7860,
      "-53": 7861,
      "17.": 7862,
      "▁आक": 7863,
      "▁आद": 7864,
      "15/": 7865,
      "_Act": 7866,
      "▁(సా.శ.17": 7867,
      "▁(సా.శ.16": 7868,
      "1993": 7869,
      ")\n\nThe": 7870,
      "ులు?action=edit&redlink=1": 7871,
      "▁అభి": 7872,
      "_Paper": 7873,
      "▁ప్రజా": 7874,
      ".[[4": 7875,
      "తం?action=edit&redlink=1": 7876,
      "।[[৮": 7877,
      "▁des": 7878,
      "লিশ": 7879,
      "-7mar": 7880,
      "▁১৮": 7881,
      "▁परि": 7882,
      "▁hum": 7883,
      "పూర్": 7884,
      "▁शा": 7885,
      "ప్రిల్": 7886,
      "%E0%B0%": 7887,
      "a_E": 7888,
      "▁ఉంట": 7889,
      "▁ఉత్తర": 7890,
      "রাজনীতি": 7891,
      "▁संस्थान": 7892,
      "▁থেকে](http://": 7893,
      "](https://hi.wikipedia.org/wiki/भारत#cite_ref-pib": 7894,
      "](https://hi.wikipedia.org/wiki/भारत#cite_ref-langoff": 7895,
      "]](https://hi.wikipedia.org/wiki/भारत#cite_note-langoff-1": 7896,
      "](https://books.google.com/books?id=3TRtDwAAQBAJ&pg=PA": 7897,
      "-691": 7898,
      "-674": 7899,
      "▁సామా": 7900,
      "వాద": 7901,
      "via": 7902,
      "ियन": 7903,
      "ishing": 7904,
      "విధ": 7905,
      "ార్ఖండ్": 7906,
      "ी](https://hi.wikipedia.org/wiki/म": 7907,
      "క్షరాస్య": 7908,
      "▁these": 7909,
      "संबर": 7910,
      "सां": 7911,
      "त्ति": 7912,
      "▁रक्षा": 7913,
      "_Data_": 7914,
      "opulation_T": 7915,
      "হেরু": 7916,
      "▁Press](https://en.wikipedia.org/wiki/C": 7917,
      "▁[↑](https://en.wikipedia.org/wiki/India#cite_ref-FOOTNOTEB": 7918,
      "ibcode": 7919,
      "পিপি": 7920,
      "নিবন্ধ": 7921,
      "పుర": 7922,
      "जापान": 7923,
      "▁\"मध्य": 7924,
      "▁నడి": 7925,
      "▁dec": 7926,
      "▁ইন": 7927,
      "▁ఇండియా": 7928,
      "हाँ": 7929,
      "স্তর": 7930,
      "▁২০১৩": 7931,
      "ोली": 7932,
      "gypt": 7933,
      "ুরস্": 7934,
      "](https://hi.wikipedia.org/wiki/मध्य": 7935,
      "49-2": 7936,
      "▁language\"),": 7937,
      "గుప్": 7938,
      "డుకు": 7939,
      "నేషియా": 7940,
      "ommission": 7941,
      "▁উপমহাদেশ": 7942,
      "ంగాణ": 7943,
      "_Gandhi": 7944,
      "▁జన": 7945,
      "ikhism": 7946,
      "లియా": 7947,
      "ক্ষাদ্বীপ": 7948,
      "▁ప్రాచ": 7949,
      "▁విభ": 7950,
      "▁వివిధ": 7951,
      "▁సంఘ": 7952,
      "_1_of_2011": 7953,
      "120]](https://hi.wikipedia.org/wiki/भारत#cite_note-langoff-1": 7954,
      "ండిచ్చేరి": 7955,
      "द्यालय": 7956,
      "্যবহ": 7957,
      "జీరియా": 7958,
      "गुप्त": 7959,
      "/articles/": 7960,
      "ంకేతి": 7961,
      "వేలీ": 7962,
      "▁অঞ্চলের": 7963,
      "টেক": 7964,
      "▁subject": 7965,
      "arliest": 7966,
      "ালয়ালম": 7967,
      "বর্তী": 7968,
      "▁languages\")": 7969,
      "a/a": 7970,
      "national-language": 7971,
      "alaysia": 7972,
      "কৃতিক": 7973,
      "](https://hi.wikipedia.org/wiki/पंजाब": 7974,
      "](https://hi.wikipedia.org/wiki/पश्चिम": 7975,
      "బియా": 7976,
      "Stein1998),": 7977,
      "Singh2009),": 7978,
      "_Force": 7979,
      "▁CITEREFStein1998": 7980,
      "▁CITEREFSingh2009": 7981,
      "ों_की_सूची?action=edit&redlink=1": 7982,
      "డామన్": 7983,
      "▁రాష్ట్రపతి": 7984,
      "hattis": 7985,
      "▁निभा": 7986,
      "▁কেন্দ্রীয়": 7987,
      "త్రిపుర": 7988,
      "_కాల": 7989,
      "rancis": 7990,
      ".net": 7991,
      "](https://hi.wikipedia.org/wiki/भारत#CITEREFStein1998),": 7992,
      "](https://hi.wikipedia.org/wiki/भारत#CITEREFSingh2009),": 7993,
      "▁প্রধানমন্ত্রী": 7994,
      "▁రైల్వే": 7995,
      "య్యూ": 7996,
      "త్తీస్": 7997,
      "▁ప్రదేశ్](https://te.wikipedia.org/wiki/": 7998,
      "▁রাজনৈতিক": 7999,
      "ighth": 8000,
      "నాగాలా": 8001,
      "KulkeRothermund200": 8002,
      "View.": 8003,
      "▁\"జమ్మూ": 8004,
      "▁Islands\")": 8005,
      "▁थे": 8006,
      "▁पाकिस्तान": 8007,
      "▁పాకిస్తాన్": 8008,
      "▁২০২১": 8009,
      "▁সংস্করণ": 8010,
      "▁उपमहाद्वीप": 8011,
      "যুক্তরাজ্য": 8012,
      "▁change": 8013,
      "कालीन": 8014,
      "కోవ": 8015,
      "కోబార్": 8016,
      "](https://te.wikipedia.org/wiki/జమ్మూ": 8017,
      "ల్లవ": 8018,
      "▁मंदिर\")": 8019,
      "नागालैंड": 8020,
      "धीरे": 8021,
      "▁ডলার": 8022,
      "▁|\n\nCategory:": 8023,
      "▁(১৯৯": 8024,
      "uisine": 8025,
      "রুভূমি": 8026,
      "▁ইউনিয়": 8027,
      "▁Thomas": 8028,
      "▁2009](https://hi.wikipedia.org/wiki/भारत#CITEREFSingh2009),": 8029,
      "%E0%A7%8": 8030,
      "টেমপ্লেট:": 8031,
      "-India.pdf)": 8032,
      "रोहर": 8033,
      "రేబియా": 8034,
      "▁वर्षों": 8035,
      "టాక్": 8036,
      "▁మాత్ర": 8037,
      "్రిటిష్": 8038,
      "_নদী": 8039,
      "వెను": 8040,
      "ూచి": 8041,
      "భారతదేశ_రాష్ట్రాలు,_కేంద్రపాలిత_ప్రాంత": 8042,
      "ব্দ": 8043,
      "▁देख": 8044,
      "disha": 8045,
      "▁पार्टी": 8046,
      "▁পূর্ব": 8047,
      "ప్పటిక": 8048,
      "▁(1,269,": 8049,
      "▁सिनेमा\"),": 8050,
      "arnatic": 8051,
      "లేషియా": 8052,
      "▁3,287,": 8053,
      "▁మొదల": 8054,
      "-language\\_sources": 8055,
      "ांति": 8056,
      "ांधी": 8057,
      "রোপ": 8058,
      "al_Population_T": 8059,
      "▁दृश्य": 8060,
      "▁development": 8061,
      "থাইল্যান্ড–": 8062,
      "▁name:": 8063,
      "ద్యు": 8064,
      "▁చిత్ర": 8065,
      "ద్వీప్": 8066,
      "▁ఉపఖండ": 8067,
      "ంటుంది.": 8068,
      "▁దేశంలోని": 8069,
      "▁కాంగ్రెసు": 8070,
      "▁1998](https://hi.wikipedia.org/wiki/भारत#CITEREFStein1998),": 8071,
      "\\_রাষ্ট্র\nCategory:": 8072,
      "▁होती": 8073,
      "▁भूमिका": 8074,
      "Special:Search/ভারত": 8075,
      "ఆగష్టు": 8076,
      "లక్షద్వీప్": 8077,
      "హాయం:": 8078,
      "ీకరణ": 8079,
      "ోల్‌కా": 8080,
      "▁दिसंबर": 8081,
      "प्राचीन": 8082,
      "మిజోరా": 8083,
      "▁ফেব্রু": 8084,
      "Ministry_of_Home_A": 8085,
      "▁ঐতিহ্য": 8086,
      "বিদ্যালয়": 8087,
      "▁[আর্কাইভকৃত](https://web.archive.org/web/2008": 8088,
      "▁[আর্কাইভকৃত](https://www.webcitation.org/6174": 8089,
      "](https://en.wikipedia.org/wiki/History_of_": 8090,
      "ర్యానా": 8091,
      "▁[ఢిల్లీ](https://te.wikipedia.org/wiki/ఢిల్లీ": 8092,
      "ravidian": 8093,
      "ouncil": 8094,
      "టిబెట్": 8095,
      "మెరికా": 8096,
      "हित्य": 8097,
      "ेघालय": 8098,
      "ক্রান্ত": 8099,
      "লকাতা": 8100,
      "▁পরীক্ষা": 8101,
      "cogni": 8102,
      "otals_Paper": 8103,
      "hmedabad": 8104,
      "▁\"पाकिस्तान\")": 8105,
      "▁नेतृत्व": 8106,
      "బడ్డీ": 8107,
      "ేరళ": 8108,
      "్రైస్త": 8109,
      "ండమాన్": 8110,
      "ెలవుదిన": 8111,
      "িত্তিতে": 8112,
      "থাপিছু": 8113,
      "rofiles/": 8114,
      "रुणाचल": 8115,
      "ffairs_1960": 8116,
      "Provisional_Population_T": 8117,
      "चेंज": 8118,
      "वैदिक": 8119,
      "िबंधीय": 8120,
      "తెలంగాణ": 8121,
      "ెన్నై": 8122,
      "‌మహల్": 8123,
      "geohack": 8124,
      "తాజ్‌మహల్": 8125,
      "-7mar2011": 8126,
      "](https://hi.wikipedia.org/wiki/भारत#cite_ref-langoff_128": 8127,
      "క్షరాస్యత": 8128,
      "_1_of_2011_India": 8129,
      "120]](https://hi.wikipedia.org/wiki/भारत#cite_note-langoff-128)": 8130,
      "నాగాలాండ్": 8131,
      "](https://te.wikipedia.org/wiki/జమ్మూ_కాశ్మీ": 8132,
      "ోల్‌కాతా": 8133,
      "▁ফেব্রুয়ারি": 8134,
      "Ministry_of_Home_Affairs_1960": 8135,
      "otals_Paper_1_of_2011_India": 8136,
      "Provisional_Population_Totals_Paper_1_of_2011_India": 8137,
      "\n14": 8138,
      "-50": 8139,
      ".0": 8140,
      ".und": 8141,
      "/IND": 8142,
      "2%": 8143,
      "2-1": 8144,
      "2-4": 8145,
      "3–": 8146,
      "4_": 8147,
      "51)": 8148,
      "92": 8149,
      "DR": 8150,
      "Mumbai": 8151,
      "_v": 8152,
      "_on": 8153,
      "_38": 8154,
      "_2011": 8155,
      "e,": 8156,
      "eub": 8157,
      "economic": 8158,
      "iz": 8159,
      "iti": 8160,
      "minis": 8161,
      "p.org/": 8162,
      "t:": 8163,
      "▁z": 8164,
      "dik": 8165,
      "](https://data": 8166,
      "▁\"19": 8167,
      "arayan": 8168,
      "▁(a)": 8169,
      "▁(b)": 8170,
      "\\_template": 8171,
      "amap": 8172,
      "▁prom": 8173,
      "▁Americ": 8174,
      "comp": 8175,
      "▁Stu": 8176,
      "▁Portal": 8177,
      "108": 8178,
      "▁marri": 8179,
      "▁Man": 8180,
      ".\n15": 8181,
      "ices": 8182,
      "ublisher": 8183,
      "-37": 8184,
      "-349": 8185,
      "▁2000": 8186,
      "1857": 8187,
      "_Air": 8188,
      "▁ne": 8189,
      "vice": 8190,
      "7080": 8191,
      "▁differ": 8192,
      "vention": 8193,
      "▁News": 8194,
      "IAF": 8195,
      "▁use": 8196,
      "/auth/": 8197,
      "attle": 8198,
      "▁shall": 8199,
      "ogue.bnf.fr/ark:/12148/cb": 8200,
      ".worldbank.org/": 8201,
      ".worldcat.org/": 8202,
      "ilgrim": 8203,
      "anorama": 8204,
      "▁mi)": 8205,
      "hapter": 8206,
      "hdr.und": 8207,
      "owever,": 8208,
      "\\_(en)\n": 8209,
      "sites/default": 8210,
      "euborne": 8211,
      "ministered": 8212,
      "hdr.undp.org/": 8213,
      "sites/default/files/": 8214,
      ")[": 8215,
      ")\"),": 8216,
      ".t": 8217,
      "/t": 8218,
      "2]](https://en.wikipedia.org/wiki/India#cite_note-": 8219,
      "350": 8220,
      "32)": 8221,
      ":IN": 8222,
      "Allchin": 8223,
      "Aligned": 8224,
      "CA": 8225,
      "Front": 8226,
      "IF": 8227,
      "Kolkata": 8228,
      "Petraglia": 8229,
      "_with": 8230,
      "_term": 8231,
      "ax": 8232,
      "atp": 8233,
      "dq": 8234,
      "eu": 8235,
      "pture": 8236,
      "rance": 8237,
      "tate": 8238,
      "ually": 8239,
      "y=": 8240,
      "–24": 8241,
      "▁gi": 8242,
      "▁low": 8243,
      "digarh": 8244,
      "orn": 8245,
      "](Template:": 8246,
      "ene": 8247,
      "inan": 8248,
      "alak": 8249,
      "cir": 8250,
      "es.": 8251,
      "ashi": 8252,
      "▁India](https://en.wikipedia.org/wiki/C": 8253,
      "-01": 8254,
      "▁Cooperation": 8255,
      "adra": 8256,
      "adras": 8257,
      "▁can": 8258,
      "▁Park": 8259,
      "▁fam": 8260,
      "_of_Congress": 8261,
      "21.": 8262,
      "▁Mana": 8263,
      "▁Machine": 8264,
      "▁Michael": 8265,
      "▁*P": 8266,
      "2542": 8267,
      "▁Day": 8268,
      "▁Dance": 8269,
      "▁Dec": 8270,
      "▁ago": 8271,
      "▁Har": 8272,
      "▁Her": 8273,
      "▁1962": 8274,
      "▁[\"T": 8275,
      "irth": 8276,
      "▁Gana": 8277,
      "▁Games": 8278,
      "pecially": 8279,
      "hai": 8280,
      "elated": 8281,
      "29)": 8282,
      "138": 8283,
      "-59": 8284,
      "22.": 8285,
      "1991": 8286,
      ")\n\n-": 8287,
      "_Pro": 8288,
      "▁growth": 8289,
      "▁around": 8290,
      "▁through": 8291,
      "ruggle": 8292,
      "▁\"Mughal": 8293,
      "ummary": 8294,
      "lands": 8295,
      "▁Asia:": 8296,
      "▁within": 8297,
      "▁V.": 8298,
      "](https://en.wikipedia.org/wiki/British": 8299,
      "/page/": 8300,
      ".nic.in": 8301,
      "▁[978-0-521": 8302,
      "1962": 8303,
      "Asher2006": 8304,
      "AsherAsher2006": 8305,
      "on-Aligned": 8306,
      "IAEXT": 8307,
      "▁river": 8308,
      "ripura": 8309,
      "ofindia.nic.in/": 8310,
      "▁[*An": 8311,
      "handigarh": 8312,
      "ortal:": 8313,
      "▁|\n\n|": 8314,
      "▁especially": 8315,
      "▁Division": 8316,
      "▁Buddhist": 8317,
      "_from": 8318,
      "▁Publications": 8319,
      "Sharma1950": 8320,
      "▁mathema": 8321,
      "▁\"Template:": 8322,
      "▁2018](https://en.wikipedia.org/wiki/India#CITEREFDyson2018),": 8323,
      "bbc.": 8324,
      "▁emer": 8325,
      "▁increased": 8326,
      "violence": 8327,
      "▁Minorities,": 8328,
      "▁widely": 8329,
      "mritsar": 8330,
      "▁US$": 8331,
      "▁(2014).": 8332,
      "a_Empire": 8333,
      "PetragliaAllchin": 8334,
      "2542-5": 8335,
      "-se": 8336,
      "/G": 8337,
      "/L": 8338,
      "/)।": 8339,
      "/india/": 8340,
      "01": 8341,
      "223": 8342,
      "3-8": 8343,
      "534": 8344,
      "8+": 8345,
      "9-6": 8346,
      ";[[": 8347,
      "C&": 8348,
      "John": 8349,
      "KI": 8350,
      "Karanth": 8351,
      "Official": 8352,
      "Political": 8353,
      "US": 8354,
      "_-": 8355,
      "_di": 8356,
      "_ex": 8357,
      "_তালিকা": 8358,
      "_শিল্প": 8359,
      "ca": 8360,
      "constitution": 8361,
      "des": 8362,
      "denti": 8363,
      "d/d": 8364,
      "ead": 8365,
      "gAAQBAJ&pg=PA": 8366,
      "ij": 8367,
      "tandard": 8368,
      "zon": 8369,
      "अरब": 8370,
      "इन": 8371,
      "ईद": 8372,
      "ऍथ": 8373,
      "ऑक्सफोर्ड": 8374,
      "कणी": 8375,
      "ख़": 8376,
      "गध": 8377,
      "जल": 8378,
      "जपा": 8379,
      "जपुरी": 8380,
      "जिस्ट": 8381,
      "ताल": 8382,
      "थम": 8383,
      "थल": 8384,
      "दल": 8385,
      "दान": 8386,
      "नोल": 8387,
      "न्तर": 8388,
      "फ्रां": 8389,
      "बी": 8390,
      "बू": 8391,
      "बार": 8392,
      "मत": 8393,
      "मृत": 8394,
      "यपुर": 8395,
      "रस": 8396,
      "ल्ल": 8397,
      "शत": 8398,
      "शोक": 8399,
      "हम": 8400,
      "हें": 8401,
      "ाक": 8402,
      "ुरा": 8403,
      "ुस्तान": 8404,
      "ुम्ब": 8405,
      "ूबर": 8406,
      "ेक": 8407,
      "ॉग": 8408,
      "५७": 8409,
      "উট": 8410,
      "ওড়ি": 8411,
      "কক্ষ": 8412,
      "কলা": 8413,
      "কশাল": 8414,
      "ঘাট": 8415,
      "চ্": 8416,
      "জনে": 8417,
      "ট্": 8418,
      "দ্যান": 8419,
      "দিকে": 8420,
      "ধা": 8421,
      "নার": 8422,
      "ফ্রা": 8423,
      "বু": 8424,
      "ব্যবস্থা": 8425,
      "মু": 8426,
      "ময়": 8427,
      "মিয়ানমার": 8428,
      "রবী": 8429,
      "রমাণু": 8430,
      "সল": 8431,
      "হারা": 8432,
      "ী_": 8433,
      "ুক্তি": 8434,
      "ৃষি": 8435,
      "ে।": 8436,
      "ৈন": 8437,
      "োহ": 8438,
      "ৌর্য": 8439,
      "ৌলিক": 8440,
      "২৮": 8441,
      "৬৬": 8442,
      "▁रा": 8443,
      "▁ना": 8444,
      "▁গু": 8445,
      "▁![](https://upload.wikimedia.org/wikipedia/commons/thumb/": 8446,
      "▁46": 8447,
      "▁old": 8448,
      ".org/w": 8449,
      "▁[U": 8450,
      "▁[श": 8451,
      "▁[राज्य": 8452,
      "▁[রাজ্য": 8453,
      "▁\"साँच": 8454,
      "▁\"साँचा:": 8455,
      "International": 8456,
      "official": 8457,
      "](https://hi.wikipedia.org/wiki/हिन्द": 8458,
      "](https://hi.wikipedia.org/wiki/साँच": 8459,
      "](https://hi.wikipedia.org/wiki/साँचा:": 8460,
      "্রপ্রদেশ": 8461,
      "](https://bn.wikipedia.org/wiki/D": 8462,
      "য়লা": 8463,
      "▁(ম": 8464,
      "▁(भारत": 8465,
      "▁(2nd": 8466,
      "्रार": 8467,
      "andy": 8468,
      "্যার": 8469,
      "▁सूच": 8470,
      "▁सीमा": 8471,
      "1956": 8472,
      "\\_নাম": 8473,
      "\\_নিবন্ধ": 8474,
      "ate=`": 8475,
      "▁मन्दिर": 8476,
      "्यूरो": 8477,
      "amy": 8478,
      "▁সদ": 8479,
      "-08": 8480,
      "रात": 8481,
      "▁पड़": 8482,
      "▁प्लेट": 8483,
      "র্ণা": 8484,
      "ন্তি": 8485,
      "](https://bn.wikipedia.org/wiki/ভারত_সরকার": 8486,
      "▁plate": 8487,
      "first": 8488,
      "▁All": 8489,
      "▁পশ্চিম": 8490,
      "ानगर": 8491,
      "ets": 8492,
      "▁हाला": 8493,
      "▁हथियार": 8494,
      "um_": 8495,
      "uran": 8496,
      "uris": 8497,
      "urry": 8498,
      "याधी": 8499,
      "िकी": 8500,
      "ोंकणी": 8501,
      "▁Report": 8502,
      "result": 8503,
      "▁ज़": 8504,
      "▁২৫": 8505,
      "ालर": 8506,
      "▁Britannica": 8507,
      "হায়": 8508,
      "न्स": 8509,
      "▁बार": 8510,
      "▁बने": 8511,
      "▁बड़ा": 8512,
      "▁प्रस": 8513,
      "भाष": 8514,
      "upt": 8515,
      "▁नौसेना": 8516,
      "▁প্রচ": 8517,
      "▁বুদ্ধ": 8518,
      "▁Home": 8519,
      "▁নিক": 8520,
      "▁নীতি": 8521,
      "▁N.": 8522,
      "ird": 8523,
      "_सा": 8524,
      "▁জলবায়ু": 8525,
      "्टॉक": 8526,
      "▁আন": 8527,
      "▁আয়": 8528,
      "▁হতে": 8529,
      "elugu": 8530,
      "▁वृद्ध": 8531,
      "क्षण": 8532,
      "क्षद्वीप": 8533,
      "▁বিভাগ": 8534,
      "▁বিপ্লব": 8535,
      "মিজ": 8536,
      "▁आन्द": 8537,
      "15)": 8538,
      "_Ar": 8539,
      "तिब्बत": 8540,
      "লাক্ষাদ্বীপ": 8541,
      "▁দা": 8542,
      "](https://bn.wikipedia.org/wiki/ভারতের_প্র": 8543,
      "](https://bn.wikipedia.org/wiki/ভারতের_রাজ্য": 8544,
      "।[[৬": 8545,
      "▁Institu": 8546,
      "▁dynasty": 8547,
      "লিউড": 8548,
      "थाईल": 8549,
      "]](https://hi.wikipedia.org/wiki/भारत#cite_note-10": 8550,
      "▁On": 8551,
      "री](https://hi.wikipedia.org/wiki/": 8552,
      "▁गठ": 8553,
      "▁১০": 8554,
      "সংসদ": 8555,
      "E0%A": 8556,
      "নাড়": 8557,
      "▁[महाराष्ट्र": 8558,
      "a_1": 8559,
      "a_C": 8560,
      "कांक": 8561,
      "যুগ": 8562,
      "ndhra": 8563,
      "ঙ্গেয়": 8564,
      "ियान": 8565,
      "_Modi": 8566,
      "हिमालय": 8567,
      "ড়ো": 8568,
      "ंडमान": 8569,
      "▁लिया": 8570,
      "ঞ্চা": 8571,
      "ঞ্চলে": 8572,
      "এনসাই": 8573,
      "▁सागर": 8574,
      "▁\"महाराष्ट्र": 8575,
      "▁विज्ञान": 8576,
      "▁ইংরেজি": 8577,
      "▁ইন্ডিয়া": 8578,
      "हाब": 8579,
      "परेशन": 8580,
      "পাতা": 8581,
      "▁करना": 8582,
      "▁करता": 8583,
      "ंग्रेज": 8584,
      "▁২০১৬": 8585,
      "▁২০১৮": 8586,
      "मीरात": 8587,
      "/publications/": 8588,
      "ভূটান": 8589,
      "▁বায়ু": 8590,
      "](https://hi.wikipedia.org/wiki/महाराष्ट्र": 8591,
      "র্বো": 8592,
      "▁[2](https://hi.wikipedia.org/wiki/भारत#cite_ref-FOOTNOTE": 8593,
      "র্মসূ": 8594,
      "onstitution_of_India": 8595,
      "▁[1](https://hi.wikipedia.org/wiki/भारत#cite_ref-FOOTNOTE": 8596,
      "ন্ধ্রপ্রদেশ": 8597,
      "▁করেছে": 8598,
      "▁चार": 8599,
      "্রিটান": 8600,
      "राष्ट्रीय_स": 8601,
      "हारजिस्ट": 8602,
      "▁চাল": 8603,
      "▁বিশেষ": 8604,
      "▁১৯৮": 8605,
      "ा_वार": 8606,
      "िवस": 8607,
      "▁वर्षा": 8608,
      "_অব": 8609,
      "_भारतीय_": 8610,
      "▁[New": 8611,
      "ায়।": 8612,
      "▁2007](https://bn.wikipedia.org/wiki/ভারত#": 8613,
      "tate_": 8614,
      "▁স্বা": 8615,
      "▁স্বাধীনতা": 8616,
      "গণতন্ত্র": 8617,
      "▁घरेलू": 8618,
      "▁বিশ্বকাপ": 8619,
      "বর্ষ": 8620,
      "▁সরকারের": 8621,
      "▁Anth": 8622,
      "समूह": 8623,
      "▁(২০": 8624,
      "](https://hi.wikipedia.org/wiki/पूर्व": 8625,
      "▁2019.\n": 8626,
      "ष्ठ": 8627,
      "▁রাষ্ট্রপতি": 8628,
      "न्नड़": 8629,
      "▁भाषा\")[[": 8630,
      "2103": 8631,
      "shit),": 8632,
      "-date=`": 8633,
      "ligious": 8634,
      "आईएस": 8635,
      "▁था,": 8636,
      "▁./श्रेणी:Harv\\_and\\_Sfn\\_no-target\\_errors\n8": 8637,
      "श्मीरी": 8638,
      "_আন্দোল": 8639,
      "दाख": 8640,
      "ेर-": 8641,
      "য়াদিল্লি": 8642,
      "▁কোটি": 8643,
      "▁কোম্পানি": 8644,
      "▁शासित": 8645,
      "ंपन": 8646,
      "ंपरा": 8647,
      "▁[↑](https://hi.wikipedia.org/wiki/भारत#cite_ref-10": 8648,
      "▁বৈদেশিক": 8649,
      "ষ্ঠী": 8650,
      "▁শিল্প\")": 8651,
      "त्पत्ति": 8652,
      "_ইউ": 8653,
      "এশিয়া": 8654,
      "এশিয়ার": 8655,
      ".asp?": 8656,
      "▁अपने": 8657,
      "6124": 8658,
      "ार्कट": 8659,
      "▁করুন": 8660,
      "▁तटीय": 8661,
      "▁ডে": 8662,
      "लिंग": 8663,
      "▁about": 8664,
      "▁ইউনিভার্সিটি": 8665,
      "भूटान": 8666,
      "जयपुर": 8667,
      "जयनगर": 8668,
      "▁ক্রিকেট": 8669,
      "िज़ोर": 8670,
      "দ্রোহ": 8671,
      "তামিলনাড়": 8672,
      "णिपुर": 8673,
      "णिपुरी": 8674,
      "लोकसभा": 8675,
      "शासित_प्रदेश": 8676,
      "onsoon_": 8677,
      "▁सुरक्षा": 8678,
      "▁এশিয়ার": 8679,
      "्रांति": 8680,
      "▁টাকা": 8681,
      "▁পূর্": 8682,
      "पातकाल": 8683,
      "▁অনুযায়ী": 8684,
      "_न्या": 8685,
      "धिराज्य": 8686,
      "▁जलवायु": 8687,
      "▁घाटी": 8688,
      "▁लगभग": 8689,
      "ूरोप": 8690,
      "भोजपुरी": 8691,
      "▁নিবন্ধ:": 8692,
      "uilding": 8693,
      "▁वार्ता:": 8694,
      "स्लाम": 8695,
      "▁স্থাপত্য": 8696,
      "▁London:": 8697,
      "_যুদ্ধ": 8698,
      "लयालम": 8699,
      "নোর": 8700,
      "▁सदस": 8701,
      "▁राजनीतिक": 8702,
      "▁[पंजाब](https://hi.wikipedia.org/wiki/पंजाब": 8703,
      "ণিপুরী": 8704,
      "পাঞ্জাব": 8705,
      "সলাম": 8706,
      "▁থাকে": 8707,
      "▁দ্বীপপুঞ্জ": 8708,
      "▁শিক্ষা": 8709,
      "▁দেখা": 8710,
      "▁হিন্দু": 8711,
      "_राजवंश": 8712,
      "ীমান্ত": 8713,
      "▁দশক": 8714,
      "▁দুই": 8715,
      "▁शुरू": 8716,
      "হিমালয়": 8717,
      "বেঙ্গালুরু": 8718,
      "loc.gov/": 8719,
      "▁domestic": 8720,
      "inema": 8721,
      "imf.org/external": 8722,
      "खनऊ": 8723,
      "্পাদ": 8724,
      "ারাঠি": 8725,
      "हरियाणा": 8726,
      "▁যুক্তরাষ্ট্র": 8727,
      "ক্লোপিডিয়া": 8728,
      "নায়ক": 8729,
      "▁হিসেবে": 8730,
      "तुल्य": 8731,
      "फाएं": 8732,
      "ृषि": 8733,
      "\\_ভাষার\\_": 8734,
      "▁दोनों": 8735,
      "▁निभाई": 8736,
      "dikshit),": 8737,
      "ऍथनोल": 8738,
      "ुम्बई": 8739,
      "জনেস": 8740,
      "ট্ট": 8741,
      "রবীন্দ্র": 8742,
      "হারাষ্ট্র": 8743,
      "▁\"साँचा": 8744,
      "](https://hi.wikipedia.org/wiki/साँचा_वार": 8745,
      "▁(भारत)\")": 8746,
      "র্ণাটক": 8747,
      "याधीश": 8748,
      "▁वृद्धि": 8749,
      "▁[महाराष्ट्र](https://hi.wikipedia.org/wiki/महाराष्ट्र": 8750,
      "এনসাইক্লোপিডিয়া": 8751,
      "▁\"महाराष्ट्र\")": 8752,
      "্রিটানিকা": 8753,
      "हारजिस्ट्रार": 8754,
      "▁2007](https://bn.wikipedia.org/wiki/ভারত#dikshit),": 8755,
      "_আন্দোলন": 8756,
      "ार्कटिका": 8757,
      "ऍथनोलॉग": 8758,
      "](https://hi.wikipedia.org/wiki/साँचा_वार्ता:": 8759,
      ".edu": 8760,
      "/)": 8761,
      "050": 8762,
      "2-0": 8763,
      "2%29": 8764,
      "2-India.pdf)": 8765,
      "4]](https://en.wikipedia.org/wiki/India#cite_note-FOOTNOTE": 8766,
      "41)": 8767,
      "7C": 8768,
      "80%": 8769,
      "History": 8770,
      "HDR": 8771,
      "MAAJ": 8772,
      "States": 8773,
      "Tab": 8774,
      "YS": 8775,
      "_h": 8776,
      "_2024": 8777,
      "baki": 8778,
      "business/": 8779,
      "caste": 8780,
      "hut": 8781,
      "ka": 8782,
      "khand": 8783,
      "mj": 8784,
      "more": 8785,
      "s:": 8786,
      "ses": 8787,
      "utical": 8788,
      "wana": 8789,
      "▁X": 8790,
      "▁40": 8791,
      "orship": 8792,
      "▁\"World": 8793,
      "\")-": 8794,
      "ences": 8795,
      "arl": 8796,
      "artition": 8797,
      "ala": 8798,
      "eri": 8799,
      "](https://en.wikipedia.org/wiki/World": 8800,
      "▁(in": 8801,
      "▁(ed.).": 8802,
      "ising": 8803,
      "isni": 8804,
      "islative": 8805,
      "ouli": 8806,
      "ason": 8807,
      "asian": 8808,
      "ately": 8809,
      "ve-": 8810,
      "-138": 8811,
      "lima": 8812,
      "liance": 8813,
      "atri": 8814,
      "atna": 8815,
      "-05": 8816,
      "▁pri": 8817,
      "▁political": 8818,
      "▁Asher": 8819,
      "▁Social": 8820,
      "▁census": 8821,
      "▁coast": 8822,
      "▁capita": 8823,
      "urasian": 8824,
      "ango": 8825,
      "raw": 8826,
      "rati": 8827,
      "00%20A": 8828,
      "ourbaki": 8829,
      "▁Te": 8830,
      "▁Ram": 8831,
      "iland": 8832,
      "ilber": 8833,
      "oln": 8834,
      "▁*2011": 8835,
      "unle": 8836,
      "▁By": 8837,
      "24.": 8838,
      "ldlife": 8839,
      "116": 8840,
      "▁[\"In": 8841,
      "▁[\"World": 8842,
      "▁Economy": 8843,
      "▁Nuclear": 8844,
      "▁\"Sanskrit": 8845,
      "▁\"Special:BookSources/978-81": 8846,
      "▁ele": 8847,
      "▁early": 8848,
      "ubram": 8849,
      "opland": 8850,
      "-345": 8851,
      "forest": 8852,
      "406]](https://en.wikipedia.org/wiki/India#cite_note-": 8853,
      "▁List": 8854,
      "harkhand": 8855,
      "▁gen": 8856,
      "▁Of": 8857,
      "html": 8858,
      "AAMAAJ": 8859,
      "▁[*M": 8860,
      "-2_Data_": 8861,
      "▁before": 8862,
      "▁\"Ch": 8863,
      "▁\"Cambridge": 8864,
      "ndl": 8865,
      "▁[Cambridge": 8866,
      "%202-India.pdf)": 8867,
      "](https://en.wikipedia.org/wiki/Ch": 8868,
      "](Special:BookSources/978-81": 8869,
      "▁[↑](https://en.wikipedia.org/wiki/India#cite_ref-FOOTNOTEStein2010": 8870,
      "▁Its": 8871,
      "stani": 8872,
      "ogg": 8873,
      "_subcontinent": 8874,
      "undamental": 8875,
      "37545": 8876,
      "arden": 8877,
      "%2C_India": 8878,
      "▁\"Tamil": 8879,
      "world-": 8880,
      "aking": 8881,
      "amily": 8882,
      "▁range": 8883,
      "2007),": 8884,
      "s-d": 8885,
      "ramouli": 8886,
      "ambridge_University_Press": 8887,
      "o-operation": 8888,
      "▁2007](https://en.wikipedia.org/wiki/India#CITEREF": 8889,
      "les/00%20A": 8890,
      "aceutical": 8891,
      "amanuj": 8892,
      "/A-2_Data_": 8893,
      "▁vill": 8894,
      "_War": 8895,
      "UNHDR": 8896,
      "ichell": 8897,
      "cms).": 8898,
      "▁2020.": 8899,
      "censusindia.gov.in/2011census/P": 8900,
      "censusindia.gov.in/2011census/population": 8901,
      "-of-india-": 8902,
      "hola": 8903,
      "/articleshow/5": 8904,
      "_enumeration": 8905,
      "...]": 8906,
      "▁[India](https://en.wikipedia.org/wiki/India": 8907,
      "Pakistani": 8908,
      "vatsyayan-lord-4": 8909,
      "vatsyayan-lord_43": 8910,
      "/index.php?": 8911,
      "▁[978-81": 8912,
      "cheduled": 8913,
      "india.gov.in/india-glance/profile": 8914,
      "culpture": 8915,
      "_map_of_India": 8916,
      "▁including": 8917,
      "▁Before": 8918,
      "_Assembly": 8919,
      "harmaceutical": 8920,
      "](https://id.": 8921,
      "13537545": 8922,
      "11934238p)": 8923,
      "rakash": 8924,
      "olonial": 8925,
      "▁Press](https://en.wikipedia.org/wiki/Cambridge_University_Press": 8926,
      "CA/A-2_Data_": 8927,
      "inancial": 8928,
      "Tables/00%20A": 8929,
      "hutan": 8930,
      "▁Asher,": 8931,
      "406]](https://en.wikipedia.org/wiki/India#cite_note-vatsyayan-lord-4": 8932,
      "censusindia.gov.in/2011census/PCA/A-2_Data_": 8933,
      "censusindia.gov.in/2011census/population_enumeration": 8934,
      "Tables/00%20A%202-India.pdf)": 8935,
      "censusindia.gov.in/2011census/PCA/A-2_Data_Tables/00%20A%202-India.pdf)": 8936,
      "&c": 8937,
      ")\"))": 8938,
      "*](https://archive.org/details/": 8939,
      "-II": 8940,
      "1-8": 8941,
      "221": 8942,
      "400": 8943,
      "53)": 8944,
      "Central": 8945,
      "Constituent": 8946,
      "Rv": 8947,
      "Republic": 8948,
      "Web": 8949,
      "_అ": 8950,
      "_ఎ": 8951,
      "_ర": 8952,
      "_యు": 8953,
      "_రాజ": 8954,
      "_శాస్త్ర": 8955,
      "a=": 8956,
      "br": 8957,
      "find": 8958,
      "ix": 8959,
      "iosphere": 8960,
      "s#": 8961,
      "ual": 8962,
      "vin": 8963,
      "var": 8964,
      "xpress": 8965,
      "ఒలి": 8966,
      "కూ": 8967,
      "క్ర": 8968,
      "గే": 8969,
      "గ్ర": 8970,
      "గతి": 8971,
      "జు": 8972,
      "ఞాన": 8973,
      "టం": 8974,
      "టన్": 8975,
      "పో": 8976,
      "పచ్చ": 8977,
      "మ్య": 8978,
      "యి.": 8979,
      "యాలో": 8980,
      "లె": 8981,
      "వై": 8982,
      "వ్": 8983,
      "వత్స": 8984,
      "వృద్ధి": 8985,
      "శ్రమ": 8986,
      "సీ": 8987,
      "స్రా": 8988,
      "హక": 8989,
[...]
