<unk>	0
▁ప	-0
్ర	-1
ార	-2
లు	-3
▁స	-4
▁క	-5
లో	-6
▁వ	-7
్య	-8
▁మ	-9
▁భ	-10
న్	-11
ది	-12
దే	-13
ిం	-14
దేశ	-15
ాల	-16
▁ర	-17
ిక	-18
ర్	-19
స్	-20
ారత	-21
▁ప్ర	-22
▁భారత	-23
▁అ	-24
న్న	-25
▁क	-26
ాలు	-27
==	-28
గా	-29
▁t	-30
▁ఉ	-31
▁स	-32
ని	-33
▁జ	-34
an	-35
he	-36
ాయ	-37
క్	-38
ాత	-39
्य	-40
in	-41
▁==	-42
ार	-43
▁చ	-44
దేశం	-45
ాన	-46
्र	-47
కు	-48
్ట	-49
▁प	-50
ను	-51
్వ	-52
▁म	-53
ండ	-54
ిన	-55
▁ఇ	-56
ీయ	-57
▁ह	-58
▁the	-59
on	-60
▁1	-61
తి	-62
ించ	-63
er	-64
స్త	-65
▁ఆ	-66
ంది	-67
▁भ	-68
ంత	-69
ద్	-70
ల్	-71
▁త	-72
ులు	-73
▁రా	-74
ంగ	-75
రి	-76
re	-77
రు	-78
▁న	-79
▁బ	-80
ింది	-81
▁व	-82
▁ద	-83
di	-84
▁a	-85
▁o	-86
ంట	-87
ాయి	-88
▁I	-89
ము	-90
▁వి	-91
st	-92
en	-93
्या	-94
ుత	-95
ైన	-96
▁గ	-97
ంలో	-98
▁భారతదేశం	-99
▁अ	-100
▁సం	-101
al	-102
వి	-103
ూడ	-104
▁के	-105
▁In	-106
at	-107
▁ఎ	-108
▁శ	-109
ारत	-110
▁(	-111
ed	-112
ంగా	-113
క్ష	-114
ధిక	-115
र्	-116
▁भारत	-117
▁आ	-118
▁c	-119
and	-120
ారు	-121
▁ఉన్న	-122
టి	-123
ిత	-124
ात	-125
ें	-126
▁of	-127
ar	-128
ార్	-129
it	-130
▁w	-131
పు	-132
్చ	-133
▁సా	-134
▁Indi	-135
▁in	-136
▁19	-137
▁s	-138
▁ज	-139
▁न	-140
▁and	-141
or	-142
▁ब	-143
▁హ	-144
ష్ట	-145
▁2	-146
00	-147
▁में	-148
िक	-149
▁కూడ	-150
▁द	-151
या	-152
▁b	-153
త్	-154
▁దేశ	-155
▁ప్రా	-156
ion	-157
▁===	-158
es	-159
▁p	-160
▁ఈ	-161
▁ల	-162
చ్చ	-163
ట్ట	-164
స్థ	-165
▁है	-166
▁జాత	-167
▁దేశం	-168
ान	-169
▁m	-170
▁र	-171
▁प्र	-172
▁f	-173
ic	-174
ంచ	-175
యా	-176
్ల	-177
▁ఒ	-178
▁రాజ	-179
▁భారతీయ	-180
▁त	-181
తర	-182
▁భా	-183
▁రై	-184
▁India	-185
्त	-186
లి	-187
ాబ	-188
్రీ	-189
▁ని	-190
▁మొ	-191
ష్ట్ర	-192
is	-193
ाल	-194
ing	-195
ంద	-196
ద్ధ	-197
ల్ల	-198
ికి	-199
్రి	-200
▁పే	-201
▁లో	-202
▁స్	-203
▁రాష్ట్ర	-204
as	-205
నే	-206
ాక	-207
ఖ్య	-208
ద్ద	-209
మైన	-210
ర్వ	-211
్యవ	-212
▁అధిక	-213
▁జాతీయ	-214
▁భారతదేశ	-215
ro	-216
డి	-217
ణా	-218
నా	-219
ent	-220
ండి	-221
ింద	-222
▁ము	-223
▁స్థ	-224
▁l	-225
ाज	-226
ों	-227
తో	-228
పా	-229
వా	-230
ుల	-231
▁ఒక	-232
▁ఉంది	-233
▁ఉన్నాయి	-234
▁ग	-235
డు	-236
డ్	-237
భా	-238
మా	-239
▁e	-240
▁ఏ	-241
ధ్య	-242
ాన్	-243
▁కా	-244
న్ని	-245
▁ఎన్న	-246
▁మార్	-247
▁భారతదేశంలో	-248
ां	-249
▁औ	-250
▁का	-251
ीय	-252
ou	-253
▁और	-254
▁C	-255
టు	-256
ట్	-257
తం	-258
రా	-259
ధాన	-260
ెండ	-261
్రమ	-262
ిన్న	-263
▁స్వ	-264
▁వచ్చ	-265
▁హింద	-266
్యవస్థ	-267
▁మార్గ	-268
▁श	-269
▁T	-270
▁इ	-271
्ष	-272
हे	-273
▁to	-274
ంబ	-275
ారం	-276
ాల్	-277
్యం	-278
్రా	-279
▁కో	-280
▁చె	-281
ంత్ర	-282
ానికి	-283
▁కూడా	-284
▁उ	-285
▁ल	-286
▁की	-287
▁आहे	-288
ित	-289
le	-290
గు	-291
పంచ	-292
స్క	-293
▁మత	-294
▁శా	-295
క్షి	-296
▁పార	-297
▁పేరు	-298
▁రైలు	-299
▁ప్రధాన	-300
▁ప్రపంచ	-301
▁ప్రాంత	-302
om	-303
ly	-304
▁h	-305
▁re	-306
▁d	-307
▁सं	-308
ाम	-309
्व	-310
ास	-311
ప్	-312
సి	-313
ాద	-314
ుక	-315
త్వ	-316
ర్య	-317
్టీ	-318
్రం	-319
▁కు	-320
▁కే	-321
▁చే	-322
▁సభ	-323
క్కు	-324
ాలలో	-325
ిస్త	-326
ున్న	-327
▁క్రీ	-328
▁మధ్య	-329
▁దక్షి	-330
▁రాజ్య	-331
▁అధికార	-332
▁పార్టీ	-333
▁వ్యవస్థ	-334
ना	-335
▁वि	-336
ाच	-337
▁B	-338
िया	-339
ur	-340
था	-341
▁A	-342
▁से	-343
ने	-344
th	-345
ct	-346
ంప	-347
రణ	-348
▁n	-349
త్య	-350
భుత	-351
▁అయ	-352
▁ఆర్	-353
▁ఇతర	-354
▁కాల	-355
▁జనా	-356
▁పరి	-357
▁భాష	-358
▁మొద	-359
క్కువ	-360
భుత్వ	-361
▁ప్రజ	-362
▁హిందూ	-363
ించింది	-364
▁దేశంలో	-365
▁ప్రభుత్వ	-366
▁g	-367
ील	-368
ेश	-369
्ट	-370
▁The	-371
il	-372
మీ	-373
ష్	-374
ీన	-375
దాయ	-376
▁పు	-377
▁సి	-378
స్కృ	-379
ెద్ద	-380
ించిన	-381
▁రెండ	-382
▁స్థాన	-383
▁వచ్చింది	-384
ंत	-385
▁य	-386
ले	-387
▁पर	-388
ver	-389
▁च	-390
▁राज	-391
▁ए	-392
क्ष	-393
ri	-394
ol	-395
ra	-396
),	-397
ంక	-398
గర	-399
ావ	-400
▁ట	-401
▁య	-402
క్క	-403
త్ర	-404
పాల	-405
ప్ప	-406
రిగ	-407
రువ	-408
ుకు	-409
్రె	-410
▁కొ	-411
▁ను	-412
ంద్ర	-413
నాలు	-414
ాలను	-415
ిల్ల	-416
ుంది	-417
▁అతి	-418
▁ఉంట	-419
▁ఉత్	-420
▁ద్వ	-421
రువాత	-422
▁అయిన	-423
▁పట్ట	-424
▁క్రీడ	-425
▁జనాభా	-426
▁తరువాత	-427
▁మార్గాలు	-428
▁S	-429
स्	-430
▁be	-431
ला	-432
▁–	-433
▁कर	-434
▁20	-435
▁को	-436
ul	-437
र्व	-438
▁भारतीय	-439
ation	-440
ता	-441
▁P	-442
▁हो	-443
ली	-444
▁१	-445
am	-446
గం	-447
గ్	-448
దు	-449
బడ	-450
మి	-451
రో	-452
ాహ	-453
ౌక	-454
కీయ	-455
ర్ణ	-456
ాబ్	-457
ుకో	-458
ెలు	-459
▁బహ	-460
▁మహ	-461
▁వే	-462
ందిన	-463
వాణా	-464
▁అనే	-465
▁ఇది	-466
▁ఏర్	-467
▁కలి	-468
▁పాక	-469
▁పాల	-470
▁వంట	-471
▁సంగ	-472
▁సాధ	-473
ంగ్రె	-474
స్తుత	-475
్రదాయ	-476
▁జరిగ	-477
▁ఎన్నో	-478
▁పెద్ద	-479
▁భారత్	-480
▁ముఖ్య	-481
▁రవాణా	-482
▁ఎక్కువ	-483
▁కేంద్ర	-484
▁దక్షిణ	-485
▁కాంగ్రె	-486
ाष	-487
ve	-488
ch	-489
ंग	-490
ce	-491
▁7	-492
न्	-493
▁8	-494
▁M	-495
ut	-496
िय	-497
000	-498
▁is	-499
ाव	-500
▁या	-501
▁हैं	-502
ist	-503
▁by	-504
▁ने	-505
▁Indian	-506
గి	-507
దం	-508
ధి	-509
మే	-510
మ్	-511
సు	-512
ిమ	-513
ండు	-514
కాల	-515
టిక	-516
డిప	-517
పతి	-518
రిహ	-519
లలో	-520
ల్ప	-521
ారి	-522
ిక్	-523
▁ఉప	-524
▁గల	-525
▁జన	-526
▁పర	-527
▁వె	-528
ంగ్ల	-529
క్రమ	-530
ద్ధి	-531
సియా	-532
ించి	-533
▁కార	-534
▁మాత	-535
▁సిం	-536
ండియా	-537
ాల్లో	-538
ిల్లీ	-539
▁అత్య	-540
▁ఏర్ప	-541
▁సంగీ	-542
▁సరిహ	-543
▁సిని	-544
▁ఉత్తర	-545
▁చిన్న	-546
▁దేశాల	-547
▁ప్రతి	-548
▁ప్రాచ	-549
▁శాస్త	-550
▁ఆర్ధిక	-551
▁ఇండియా	-552
▁కాలంలో	-553
▁రాజకీయ	-554
▁సంస్కృ	-555
▁అత్యధిక	-556
▁సరిహద్ద	-557
▁ప్రస్తుత	-558
से	-559
▁on	-560
ून	-561
कार	-562
▁सम	-563
ती	-564
us	-565
ast	-566
ge	-567
im	-568
un	-569
ad	-570
ig	-571
▁"	-572
ति	-573
ाद	-574
▁th	-575
▁एक	-576
ाग	-577
र्म	-578
ow	-579
ड़	-580
च्या	-581
id	-582
ते	-583
ही	-584
ంధ	-585
కొ	-586
ణి	-587
తా	-588
యో	-589
రం	-590
వల	-591
హద	-592
ాట	-593
ెల	-594
▁—	-595
ంతో	-596
గలు	-597
జ్య	-598
డ్డ	-599
తిక	-600
ముఖ	-601
లకు	-602
ల్వ	-603
విధ	-604
స్ల	-605
ెంగ	-606
▁ఆధ	-607
▁పత	-608
▁పా	-609
▁పూ	-610
▁పో	-611
▁మన	-612
▁వా	-613
కాలు	-614
ాత్ర	-615
ిత్ర	-616
▁బహు	-617
▁మూడ	-618
▁రహద	-619
▁సమా	-620
▁సామ	-621
▁సౌక	-622
తంత్ర	-623
సింది	-624
ారులు	-625
▁నడిప	-626
▁బెంగ	-627
▁బ్రి	-628
▁మొదల	-629
▁సింధ	-630
ఢిల్లీ	-631
ప్పటిక	-632
▁పట్టణ	-633
▁రెండు	-634
▁వివిధ	-635
▁ప్రముఖ	-636
▁దేశంలోని	-637
▁ప్రాంతాలు	-638
▁రాష్ట్రపతి	-639
▁రాష్ట్రాలు	-640
चे	-641
▁197	-642
ith	-643
▁for	-644
ir	-645
ीन	-646
▁E	-647
स्त	-648
▁200	-649
et	-650
द्	-651
ध्य	-652
50	-653
री	-654
▁ध	-655
▁सा	-656
▁स्	-657
▁4	-658
ment	-659
िम	-660
ate	-661
ort	-662
ाण	-663
▁r	-664
▁199	-665
▁con	-666
▁जात	-667
▁with	-668
ies	-669
▁was	-670
ुर	-671
द्र	-672
▁mo	-673
▁194	-674
..	-675
em	-676
दी	-677
▁as	-678
res	-679
▁su	-680
▁wh	-681
,000	-682
ec	-683
ld	-684
కి	-685
చే	-686
టం	-687
టీ	-688
దర	-689
నీ	-690
బ్	-691
భి	-692
ళం	-693
వడ	-694
వు	-695
షు	-696
ామ	-697
ూప	-698
▁D	-699
▁ఐ	-700
▁ఖ	-701
▁ఫ	-702
ang	-703
నుక	-704
మంత	-705
ముద	-706
మ్య	-707
రణం	-708
ర్ష	-709
లతో	-710
లను	-711
ళ్ల	-712
వత్	-713
స్య	-714
ితా	-715
్యా	-716
▁st	-717
▁గా	-718
▁తన	-719
▁నే	-720
▁భూ	-721
▁యు	-722
▁రో	-723
▁వల	-724
▁శత	-725
▁సమ	-726
▁సు	-727
కారం	-728
ట్లు	-729
త్తం	-730
ర్వహ	-731
ల్వే	-732
వచ్చ	-733
స్వా	-734
ాతావ	-735
ాలకు	-736
ాలతో	-737
ించే	-738
ీర్ణ	-739
▁అను	-740
▁అభి	-741
▁చరి	-742
▁చేయ	-743
▁చైన	-744
▁జాబ	-745
▁తమి	-746
▁నగర	-747
▁విశ	-748
▁సార	-749
ాన్ని	-750
ాబ్దం	-751
▁అనేక	-752
▁ఒకటి	-753
▁కోర్	-754
▁పండు	-755
▁పద్ధ	-756
▁పరిశ	-757
▁పేర్	-758
▁వెబ్	-759
▁సర్వ	-760
ాతంత్ర	-761
▁కూడిన	-762
▁నుండి	-763
▁మొదటి	-764
▁వాతావ	-765
▁సంఖ్య	-766
▁ఉంటాయి	-767
▁చరిత్ర	-768
▁జరిగిన	-769
▁జాబితా	-770
▁నిర్వహ	-771
▁మొత్తం	-772
▁రైల్వే	-773
▁సౌకర్య	-774
▁ప్రాచీన	-775
▁శతాబ్దం	-776
▁అధికారిక	-777
▁ఎక్కువగా	-778
▁రహదారులు	-779
▁వాతావరణం	-780
▁కాంగ్రెసు	-781
▁ప్రపంచంలో	-782
▁ప్రస్తుతం	-783
▁స్వాతంత్ర	-784
▁భారతదేశానికి	-785
ची	-786
ेत	-787
▁H	-788
▁वर्	-789
ong	-790
rom	-791
▁नि	-792
ay	-793
du	-794
ain	-795
▁अस	-796
▁201	-797
).	-798
ृत	-799
ter	-800
▁अन	-801
▁it	-802
▁देश	-803
नी	-804
वि	-805
धिक	-806
▁ex	-807
ical	-808
0%	-809
op	-810
के	-811
▁W	-812
est	-813
her	-814
त्त	-815
द्ध	-816
▁di	-817
▁इस	-818
▁मु	-819
▁तथा	-820
▁राज्य	-821
ry	-822
िल	-823
oun	-824
ंत्र	-825
्ट्र	-826
▁an	-827
▁हु	-828
चा	-829
िण	-830
▁G	-831
ial	-832
▁or	-833
▁१९	-834
▁196	-835
ab	-836
▁भी	-837
▁आहेत	-838
ाष्ट्र	-839
oo	-840
se	-841
वा	-842
हा	-843
గో	-844
డే	-845
దా	-846
పూ	-847
ఫ్	-848
మన	-849
మూ	-850
మె	-851
మై	-852
రత	-853
రీ	-854
వృ	-855
వే	-856
ాఖ	-857
ీప	-858
ూచ	-859
ెహ	-860
ోద	-861
ోర	-862
▁ఘ	-863
ich	-864
ంగం	-865
ంచి	-866
ంటే	-867
ఖండ	-868
ట్ల	-869
థిక	-870
న్మ	-871
ర్గ	-872
ర్జ	-873
శ్చ	-874
ాద్	-875
ాయక	-876
ారస	-877
ాలీ	-878
ికత	-879
ెట్	-880
ైగా	-881
▁అవ	-882
▁ఇవ	-883
▁గు	-884
▁నా	-885
▁పొ	-886
▁మే	-887
▁లే	-888
▁వహ	-889
▁వై	-890
▁సై	-891
కుంట	-892
గంగా	-893
టిలో	-894
టుంబ	-895
డ్డు	-896
ణంగా	-897
తులు	-898
దేశ్	-899
మాలు	-900
ములో	-901
యాలు	-902
రాలు	-903
ర్తి	-904
ల్లో	-905
వత్స	-906
స్యత	-907
ిస్థ	-908
్యాయ	-909
▁has	-910
▁साम	-911
▁అని	-912
▁ఆఫ్	-913
▁క్య	-914
▁విభ	-915
▁సంక	-916
▁సంఘ	-917
▁సంప	-918
▁సాం	-919
క్షరా	-920
నిస్త	-921
పాలిత	-922
మైనది	-923
ళ్లను	-924
విస్త	-925
శ్చిమ	-926
ాబాద్	-927
ాస్వా	-928
ిత్రక	-929
ుకోవడ	-930
్యులు	-931
▁from	-932
▁ఆధార	-933
▁చెంద	-934
▁పాక్	-935
▁పైగా	-936
▁ముంబ	-937
▁మూడు	-938
▁రకాల	-939
▁లక్ష	-940
▁లోక్	-941
▁వంటి	-942
▁వారస	-943
▁సాంప	-944
ణాసియా	-945
దినాలు	-946
న్నాయి	-947
మంత్రి	-948
వృద్ధి	-949
ుతున్న	-950
▁ఆక్రమ	-951
▁కలిగి	-952
▁కార్య	-953
▁ద్వీప	-954
▁న్యాయ	-955
▁పాత్ర	-956
▁పుట్ట	-957
▁భాషలు	-958
▁విస్త	-959
▁సర్వీ	-960
ప్పటికీ	-961
ిస్తాన్	-962
ిస్థాన్	-963
▁ఆర్థిక	-964
▁కుటుంబ	-965
▁కొన్ని	-966
▁చెందిన	-967
▁ఢిల్లీ	-968
▁పశ్చిమ	-969
▁బ్రిటి	-970
▁మాత్రం	-971
▁రోడ్డు	-972
▁వచ్చిన	-973
▁సంగీతం	-974
▁సంవత్స	-975
▁సామ్రా	-976
▁సినిమా	-977
ాస్వామ్య	-978
▁ఉన్నారు	-979
▁దేశాలలో	-980
▁నడిపించ	-981
▁పరిశ్రమ	-982
▁ప్రకారం	-983
▁బెంగాలీ	-984
▁వారసత్వ	-985
క్షరాస్యత	-986
▁దక్షిణాన	-987
▁రాజ్యాలు	-988
▁శాస్త్రం	-989
▁సంప్రదాయ	-990
▁సంస్కృతి	-991
▁సరిహద్దు	-992
▁స్వతంత్ర	-993
▁అభివృద్ధి	-994
▁ప్రభుత్వం	-995
▁భారతదేశపు	-996
▁రాష్ట్రాల	-997
▁సాంప్రదాయ	-998
▁పాకిస్తాన్	-999
▁పాకిస్థాన్	-1000
▁కేంద్రపాలిత	-1001
▁ప్రధానమంత్రి	-1002
▁భారతదేశంలోని	-1003
gh	-1004
iv	-1005
िस	-1006
्यां	-1007
▁1947	-1008
▁घ	-1009
▁झ	-1010
▁18	-1011
▁सर	-1012
▁हि	-1013
ts	-1014
um	-1015
▁3	-1016
der	-1017
ill	-1018
देश	-1019
▁26	-1020
▁पू	-1021
5,	-1022
▁F	-1023
▁N	-1024
धान	-1025
ions	-1026
हु	-1027
▁हे	-1028
क्षिण	-1029
▁which	-1030
1,	-1031
ive	-1032
▁un	-1033
ातील	-1034
ाच्या	-1035
▁दक्षिण	-1036
ac	-1037
ud	-1038
रा	-1039
ity	-1040
▁202	-1041
▁are	-1042
ंध	-1043
का	-1044
सा	-1045
्च	-1046
con	-1047
ाला	-1048
▁10	-1049
port	-1050
ंड	-1051
मु	-1052
▁२	-1053
ure	-1054
ाली	-1055
▁ar	-1056
orld	-1057
▁par	-1058
▁धर्म	-1059
42	-1060
og	-1061
ष्	-1062
ोक	-1063
▁5	-1064
ult	-1065
ाने	-1066
▁at	-1067
ag	-1068
ak	-1069
ूप	-1070
ers	-1071
rit	-1072
▁मह	-1073
ध्ये	-1074
्यात	-1075
▁किया	-1076
li	-1077
ot	-1078
ोग	-1079
▁ख	-1080
प्र	-1081
स्क	-1082
▁inc	-1083
▁बहु	-1084
▁वर्ष	-1085
▁भारतात	-1086
17	-1087
pe	-1088
कि	-1089
की	-1090
रे	-1091
▁6	-1092
ere	-1093
र्थ	-1094
ount	-1095
over	-1096
▁its	-1097
▁भाष	-1098
▁स्व	-1099
▁सरकार	-1100
1-	-1101
9-	-1102
BN	-1103
त्	-1104
గణ	-1105
జి	-1106
జ్	-1107
తీ	-1108
దన	-1109
పడ	-1110
పై	-1111
మొ	-1112
యం	-1113
రే	-1114
లీ	-1115
లే	-1116
ళి	-1117
ళ్	-1118
వె	-1119
శ్	-1120
సీ	-1121
హ్	-1122
ాస	-1123
ిప	-1124
ియ	-1125
ీక	-1126
ీఠ	-1127
ోత	-1128
▁డ	-1129
SBN	-1130
act	-1131
ందు	-1132
ంధీ	-1133
ంపె	-1134
ంబూ	-1135
గిన	-1136
గువ	-1137
గోళ	-1138
టర్	-1139
తుల	-1140
త్త	-1141
దటి	-1142
ద్య	-1143
నది	-1144
నలో	-1145
బంధ	-1146
మతి	-1147
మాన	-1148
మేన	-1149
రుష	-1150
ర్చ	-1151
ర్త	-1152
ర్మ	-1153
లంప	-1154
లిచ	-1155
ళ్ళ	-1156
వలం	-1157
ష్ణ	-1158
ాగా	-1159
ాతో	-1160
ాత్	-1161
ాదా	-1162
ారా	-1163
ాలా	-1164
ికా	-1165
ినీ	-1166
ుకొ	-1167
ుతో	-1168
ుత్	-1169
ూరు	-1170
ోర్	-1171
్లా	-1172
▁al	-1173
▁तक	-1174
▁ఆహ	-1175
▁కథ	-1176
▁కల	-1177
▁కి	-1178
▁గణ	-1179
▁చి	-1180
▁టె	-1181
▁టై	-1182
▁తి	-1183
▁దీ	-1184
▁పద	-1185
▁భౌ	-1186
▁మీ	-1187
▁మై	-1188
▁మౌ	-1189
▁వీ	-1190
▁సహ	-1191
▁హై	-1192
ल्या	-1193
కులు	-1194
క్తి	-1195
క్షం	-1196
టులు	-1197
ద్ధం	-1198
నులు	-1199
న్నడ	-1200
పాదన	-1201
బడిన	-1202
బడ్డ	-1203
భాగం	-1204
భారత	-1205
రుపు	-1206
వులు	-1207
శ్మీ	-1208
సులు	-1209
ారంభ	-1210
ాలనే	-1211
ిమాల	-1212
ెట్ట	-1213
ెలవు	-1214
్యాప	-1215
్రీయ	-1216
▁com	-1217
▁ఇవి	-1218
▁ఉండ	-1219
▁ఒకే	-1220
▁కుల	-1221
▁చార	-1222
▁పంచ	-1223
▁పీఠ	-1224
▁రంగ	-1225
▁శాఖ	-1226
▁సూచ	-1227
▁సైన	-1228
ంగ్లా	-1229
ంపెనీ	-1230
గరికత	-1231
ట్టమొ	-1232
ణిజ్య	-1233
నుకటి	-1234
యింది	-1235
వచ్చు	-1236
విధ్య	-1237
స్థాన	-1238
స్లామ	-1239
ాదాపు	-1240
ారిగా	-1241
ాలుగు	-1242
ాలెండ	-1243
ుకుంట	-1244
ెలుగు	-1245
▁1950	-1246
▁ఆఫ్ఘ	-1247
▁కల్ప	-1248
▁కింద	-1249
▁చాలా	-1250
▁జంబూ	-1251
▁జనగణ	-1252
▁జన్మ	-1253
▁పర్య	-1254
▁పార్	-1255
▁బహుళ	-1256
▁భాగం	-1257
▁మంది	-1258
▁రాజు	-1259
▁లేదా	-1260
▁వర్గ	-1261
▁శ్రీ	-1262
▁సముద	-1263
▁సైటు	-1264
బడింది	-1265
ుతుంది	-1266
▁ఇంగ్ల	-1267
▁ఉపఖండ	-1268
▁కన్నడ	-1269
▁కలిసి	-1270
▁కేవలం	-1271
▁గాంధీ	-1272
▁గుర్త	-1273
▁జరుపు	-1274
▁తమిళం	-1275
▁నిర్మ	-1276
▁నుంచి	-1277
▁పరంగా	-1278
▁పురుష	-1279
▁ప్రజల	-1280
▁భిన్న	-1281
▁మతాలు	-1282
▁ముంబై	-1283
▁విద్య	-1284
▁వ్యాప	-1285
▁శెలవు	-1286
▁సంగీత	-1287
▁సంబంధ	-1288
▁సింధు	-1289
▁హిందీ	-1290
▁హిమాల	-1291
వెనుకటి	-1292
స్కృతిక	-1293
ాలెండర్	-1294
ిస్తారు	-1295
▁ఇస్లామ	-1296
▁ఎన్నిక	-1297
▁ఒకటిగా	-1298
▁కంపెనీ	-1299
▁కాశ్మీ	-1300
▁కూడుకు	-1301
▁తక్కువ	-1302
▁తెలుగు	-1303
▁దాదాపు	-1304
▁దేశంగా	-1305
▁ద్వారా	-1306
▁నగరాలు	-1307
▁నాలుగు	-1308
▁పతకాలు	-1309
▁పద్ధతి	-1310
▁పరిపాల	-1311
▁పేర్కొ	-1312
▁పొందిన	-1313
▁బంగ్లా	-1314
▁మనదేశం	-1315
▁మొదలైన	-1316
▁రాజ్యా	-1317
▁వీటిలో	-1318
▁వేగంగా	-1319
▁సమాఖ్య	-1320
▁సాధించ	-1321
ట్టమొదటి	-1322
నిస్తాన్	-1323
విస్తారు	-1324
▁ఉంటుంది	-1325
▁ఏర్పడ్డ	-1326
▁కారణంగా	-1327
▁క్రీడలు	-1328
▁చేసింది	-1329
▁తరువాతి	-1330
▁నాగరికత	-1331
▁నిర్వహణ	-1332
▁పండుగలు	-1333
▁ప్రారంభ	-1334
▁రైళ్లను	-1335
▁వాణిజ్య	-1336
▁విభిన్న	-1337
▁వైవిధ్య	-1338
▁సంకీర్ణ	-1339
▁చారిత్రక	-1340
▁దేశానికి	-1341
▁పట్టణాలు	-1342
▁ముఖ్యమైన	-1343
▁సినిమాలు	-1344
▁స్థానంలో	-1345
▁కార్యక్రమ	-1346
▁పరిశ్రమలు	-1347
▁ప్రతిపాదన	-1348
▁వ్యవస్థలో	-1349
▁శాస్త్రీయ	-1350
▁సర్వీసులు	-1351
▁హిందూదేశం	-1352
▁క్యాలెండర్	-1353
▁బంగ్లాదేశ్	-1354
▁మొట్టమొదటి	-1355
▁సాంస్కృతిక	-1356
▁ఇస్లామాబాద్	-1357
▁దక్షిణాసియా	-1358
▁సంప్రదాయాలు	-1359
▁సాంప్రదాయిక	-1360
▁స్వాతంత్ర్య	-1361
▁ప్రజాస్వామ్య	-1362
oc	-1363
▁v	-1364
▁ट	-1365
end	-1366
्रे	-1367
▁पा	-1368
▁मो	-1369
angu	-1370
▁क्ष	-1371
▁राष्ट्र	-1372
पू	-1373
िश	-1374
ary	-1375
▁12	-1376
ेत्र	-1377
▁were	-1378
▁क्षेत्र	-1379
4%	-1380
up	-1381
ाप	-1382
ans	-1383
ook	-1384
▁de	-1385
▁जन	-1386
ated	-1387
▁स्थ	-1388
os	-1389
तात	-1390
▁साथ	-1391
▁सर्व	-1392
ountry	-1393
0.	-1394
कर	-1395
▁V	-1396
▁फ	-1397
ष्ट	-1398
ार्	-1399
ाज्य	-1400
▁cent	-1401
▁पूर्व	-1402
▁संस्क	-1403
3.	-1404
fi	-1405
ant	-1406
ine	-1407
ारी	-1408
▁था	-1409
▁दो	-1410
▁सि	-1411
arge	-1412
त्तर	-1413
▁मान	-1414
▁अधिक	-1415
2,	-1416
3,	-1417
el	-1418
ळे	-1419
िन	-1420
▁थ	-1421
ism	-1422
▁यह	-1423
▁लोक	-1424
▁भाषा	-1425
.2	-1426
ंद	-1427
ओं	-1428
ear	-1429
▁As	-1430
▁भू	-1431
▁गया	-1432
▁विश	-1433
▁शास	-1434
overn	-1435
mp	-1436
मी	-1437
▁L	-1438
ous	-1439
क्त	-1440
▁ch	-1441
▁ही	-1442
ages	-1443
fter	-1444
▁int	-1445
▁pro	-1446
▁कार	-1447
▁बाद	-1448
▁cont	-1449
ढ़	-1450
दा	-1451
िव	-1452
▁R	-1453
▁U	-1454
नेक	-1455
िका	-1456
outh	-1457
▁Hin	-1458
▁Pro	-1459
▁जिस	-1460
conom	-1461
म्	-1462
वी	-1463
हर	-1464
ुस	-1465
००	-1466
age	-1467
ame	-1468
ass	-1469
our	-1470
थाप	-1471
बसे	-1472
ाले	-1473
▁उप	-1474
▁वा	-1475
▁वे	-1476
ally	-1477
▁185	-1478
▁1991	-1479
▁अनेक	-1480
▁सबसे	-1481
▁हिन्	-1482
overnment	-1483
56	-1484
CE	-1485
av	-1486
जी	-1487
ैन	-1488
▁k	-1489
low	-1490
ख्य	-1491
जात	-1492
बंध	-1493
▁se	-1494
▁अप	-1495
▁पु	-1496
ance	-1497
ाचीन	-1498
▁bec	-1499
uring	-1500
▁2003	-1501
▁part	-1502
▁साम्र	-1503
",	-1504
-0	-1505
46	-1506
पट	-1507
ीप	-1508
ोल	-1509
4%,	-1510
ish	-1511
त्य	-1512
द्य	-1513
मान	-1514
ांत	-1515
िल्	-1516
्यव	-1517
▁29	-1518
▁लि	-1519
actb	-1520
ress	-1521
▁mar	-1522
▁1977	-1523
▁form	-1524
▁into	-1525
▁Factb	-1526
▁econom	-1527
▁प्राचीन	-1528
▁Factbook	-1529
▁भारताच्या	-1530
-7	-1531
IA	-1532
aj	-1533
ap	-1534
fe	-1535
भा	-1536
ैद	-1537
ంజ	-1538
కూ	-1539
కృ	-1540
చయ	-1541
జీ	-1542
టా	-1543
దీ	-1544
నం	-1545
నక	-1546
పం	-1547
బా	-1548
భవ	-1549
భూ	-1550
మద	-1551
మల	-1552
యమ	-1553
లబ	-1554
లా	-1555
శీ	-1556
సన	-1557
సా	-1558
సే	-1559
ాధ	-1560
ిర	-1561
ిళ	-1562
ుగ	-1563
ూల	-1564
ెట	-1565
ేక	-1566
ేచ	-1567
ోధ	-1568
ౌర	-1569
▁=	-1570
▁ओ	-1571
▁ఓ	-1572
▁థ	-1573
▁ధ	-1574
%),	-1575
5-0	-1576
59-	-1577
any	-1578
dit	-1579
ern	-1580
ore	-1581
ugh	-1582
ంకే	-1583
ంటి	-1584
ండా	-1585
ండో	-1586
ండ్	-1587
కుల	-1588
క్ట	-1589
క్య	-1590
జిక	-1591
జిత	-1592
టన్	-1593
టలు	-1594
డైన	-1595
ఢాక	-1596
తను	-1597
దగా	-1598
దిన	-1599
నలు	-1600
నాథ	-1601
నిక	-1602
నిజ	-1603
నుమ	-1604
పరి	-1605
పావ	-1606
పుక	-1607
పుణ	-1608
పుత	-1609
ప్ర	-1610
బడత	-1611
భరత	-1612
భాష	-1613
భూమ	-1614
మెర	-1615
యోగ	-1616
యోజ	-1617
రాజ	-1618
ర్థ	-1619
ర్శ	-1620
లంక	-1621
లమె	-1622
లయా	-1623
లాహ	-1624
లోయ	-1625
ళలు	-1626
వతం	-1627
వరి	-1628
వార	-1629
విం	-1630
వైన	-1631
శాఖ	-1632
శాన	-1633
శ్ర	-1634
సాయ	-1635
స్ర	-1636
ాంబ	-1637
ాకీ	-1638
ాతం	-1639
ాతా	-1640
ాతి	-1641
ాదు	-1642
ానీ	-1643
ాను	-1644
ాయు	-1645
ితి	-1646
ియా	-1647
ీషు	-1648
ుక్	-1649
ుల్	-1650
ూపా	-1651
ూర్	-1652
ెర్	-1653
ెస్	-1654
ేజి	-1655
్రై	-1656
్రో	-1657
▁7/	-1658
▁Ch	-1659
▁le	-1660
▁ते	-1661
▁हा	-1662
▁అణ	-1663
▁అహ	-1664
▁ఎడ	-1665
▁ఎల	-1666
▁ఏక	-1667
▁ఏప	-1668
▁కృ	-1669
▁గత	-1670
▁జల	-1671
▁జో	-1672
▁తె	-1673
▁తే	-1674
▁నె	-1675
▁ఫల	-1676
▁బౌ	-1677
▁మర	-1678
▁మా	-1679
▁రి	-1680
▁లా	-1681
▁లె	-1682
▁వం	-1683
▁శి	-1684
0%),	-1685
file	-1686
olog	-1687
ंद्र	-1688
ంచిన	-1689
క్కన	-1690
గుబా	-1691
చయిత	-1692
చ్చే	-1693
జ్యం	-1694
టాన్	-1695
డివి	-1696
ఢాకా	-1697
తంగా	-1698
త్యం	-1699
త్రీ	-1700
థాలు	-1701
దరంగ	-1702
దుగా	-1703
దులు	-1704
దేశీ	-1705
న్నీ	-1706
న్నై	-1707
పడిన	-1708
పాటు	-1709
పాడు	-1710
పాల్	-1711
ప్రీ	-1712
భాతో	-1713
మారు	-1714
ములు	-1715
మ్మూ	-1716
రిగా	-1717
రేడు	-1718
రోపా	-1719
ర్లు	-1720
ర్షణ	-1721
లుగా	-1722
లేదు	-1723
లోమీ	-1724
వల్ల	-1725
వాదం	-1726
స్ట్	-1727
ాతీయ	-1728
ాదరణ	-1729
ాదాయ	-1730
ారాల	-1731
ార్త	-1732
ాహార	-1733
ింగ్	-1734
ికలు	-1735
ీకరణ	-1736
ీక్ష	-1737
ులకు	-1738
ులను	-1739
ూనది	-1740
ెలకొ	-1741
ెలుచ	-1742
ెహ్ర	-1743
ోదావ	-1744
ోరల్	-1745
ౌకిక	-1746
్రతీ	-1747
్రమే	-1748
్రామ	-1749
్రివ	-1750
▁(0.	-1751
▁CIA	-1752
▁reg	-1753
▁नाम	-1754
▁అంట	-1755
▁అంత	-1756
▁అవి	-1757
▁ఇటీ	-1758
▁కలు	-1759
▁గంగ	-1760
▁గమన	-1761
▁చవి	-1762
▁చూడ	-1763
▁దాట	-1764
▁పలు	-1765
▁పవి	-1766
▁ప్ల	-1767
▁బంగ	-1768
▁భాగ	-1769
▁మరో	-1770
▁మాట	-1771
▁మాన	-1772
▁రూప	-1773
▁లకు	-1774
▁వలన	-1775
▁వలస	-1776
▁వాద	-1777
▁వాహ	-1778
▁విధ	-1779
▁విష	-1780
▁వేద	-1781
▁వేల	-1782
▁వ్య	-1783
ంకెలు	-1784
కుంటూ	-1785
క్కను	-1786
గినది	-1787
గోళిక	-1788
ట్లకు	-1789
తరాలు	-1790
తులతో	-1791
త్రిక	-1792
నుమలు	-1793
పెద్ద	-1794
ప్పుక	-1795
ప్రీం	-1796
బడ్డీ	-1797
మాజిక	-1798
ముఖ్య	-1799
మేనని	-1800
యమించ	-1801
రిస్త	-1802
లమెంట	-1803
లయాళం	-1804
శాన్య	-1805
స్కరణ	-1806
స్లిం	-1807
స్వతం	-1808
ాత్మా	-1809
ాబాదు	-1810
ాబ్ది	-1811
ాయాలు	-1812
ార్క్	-1813
ాసముద	-1814
ుకొని	-1815
ూపాంత	-1816
ూర్పు	-1817
ెట్రో	-1818
్రిల్	-1819
్లాడే	-1820
▁2011	-1821
▁ISBN	-1822
▁होता	-1823
▁అప్ప	-1824
▁అమెర	-1825
▁ఇండో	-1826
▁ఇక్క	-1827
▁ఇవిక	-1828
▁ఐక్య	-1829
▁ఒలంప	-1830
▁కంటే	-1831
▁కనుక	-1832
▁కళలు	-1833
▁కాతా	-1834
▁కూడి	-1835
▁కోల్	-1836
▁క్రి	-1837
▁ఖనిజ	-1838
▁చిరు	-1839
▁చైనా	-1840
▁జనతా	-1841
▁జాతి	-1842
▁టైటి	-1843
▁తత్వ	-1844
▁తమిళ	-1845
▁తర్వ	-1846
▁తిరు	-1847
▁నాయక	-1848
▁పతాక	-1849
▁పదవి	-1850
▁పర్వ	-1851
▁పల్ల	-1852
▁భాగా	-1853
▁భాషా	-1854
▁మహిళ	-1855
▁ముడి	-1856
▁వాయు	-1857
▁విలు	-1858
▁వ్యవ	-1859
▁శాసన	-1860
▁సభను	-1861
▁సభ్య	-1862
▁సమరం	-1863
▁సమాజ	-1864
▁సిక్	-1865
▁హాకీ	-1866
▁హైదర	-1867
illion	-1868
ంకేతిక	-1869
ంటున్న	-1870
ందింది	-1871
గుబాటు	-1872
టర్లకు	-1873
త్రీలు	-1874
త్వంలో	-1875
దేశాలు	-1876
పుణులు	-1877
బడతారు	-1878
ర్తిగా	-1879
ర్థ్యం	-1880
లాహోర్	-1881
వచ్చని	-1882
సిద్ధి	-1883
స్తులు	-1884
ావరాలు	-1885
ించారు	-1886
ుకోవడం	-1887
ోయింది	-1888
▁स्थाप	-1889
▁అన్ని	-1890
▁అయినా	-1891
▁ఆసియా	-1892
▁ఆహారం	-1893
▁ఈస్ట్	-1894
▁ఉండటం	-1895
▁ఉపయోగ	-1896
▁ఎలక్ట	-1897
▁ఏర్పడ	-1898
▁ఐరోపా	-1899
▁గెలుచ	-1900
▁గోదావ	-1901
▁చదరంగ	-1902
▁జనగణన	-1903
▁జనవరి	-1904
▁జమ్మూ	-1905
▁జరిగే	-1906
▁దేశపు	-1907
▁నెలకొ	-1908
▁పక్కన	-1909
▁పూర్వ	-1910
▁బౌద్ధ	-1911
▁భక్తి	-1912
▁మంత్ర	-1913
▁మీదగా	-1914
▁మొగలు	-1915
▁మౌర్య	-1916
▁రకాలు	-1917
▁రచయిత	-1918
▁రెండవ	-1919
▁రెండో	-1920
▁లౌకిక	-1921
▁విమాన	-1922
▁విశ్వ	-1923
▁వెల్ల	-1924
▁సహస్ర	-1925
▁సార్వ	-1926
▁సైనిక	-1927
కుంటారు	-1928
ర్జాతీయ	-1929
వుతుంది	-1930
వ్యవస్థ	-1931
ాదాయంలో	-1932
▁प्रदेश	-1933
▁ఇతరదేశ	-1934
▁ఈశాన్య	-1935
▁కనుమలు	-1936
▁కబడ్డీ	-1937
▁కాపాడు	-1938
▁కిందకు	-1939
▁కిలోమీ	-1940
▁కులాలు	-1941
▁కోర్టు	-1942
▁క్రీడా	-1943
▁చూడండి	-1944
▁చెన్నై	-1945
▁చైనాను	-1946
▁జాతులు	-1947
▁తూర్పు	-1948
▁నిడివి	-1949
▁నేపాల్	-1950
▁పరీక్ష	-1951
▁పవిత్ర	-1952
▁పాలనలో	-1953
▁పీఠభూమ	-1954
▁పుట్టి	-1955
▁పేర్లు	-1956
▁ప్రజలు	-1957
▁ప్రతిప	-1958
▁ప్రత్య	-1959
▁ప్రదేశ	-1960
▁ప్రయోజ	-1961
▁బంగారు	-1962
▁బ్రిటీ	-1963
▁భాషలను	-1964
▁భూటాన్	-1965
▁భూభాగం	-1966
▁మలయాళం	-1967
▁రూపాంత	-1968
▁విదేశీ	-1969
▁స్థానం	-1970
▁హిమాలయ	-1971
ాసముద్రం	-1972
ిస్తున్న	-1973
▁Country	-1974
▁Profile	-1975
▁అధికారం	-1976
▁అమెరికా	-1977
▁ఉత్తరాన	-1978
▁ఎన్నుకో	-1979
▁ఏప్రిల్	-1980
▁ఒలంపిక్	-1981
▁ఖనిజాలు	-1982
▁గణతంత్ర	-1983
▁చెందాయి	-1984
▁చెప్పుక	-1985
▁జనాభాతో	-1986
▁నియమించ	-1987
▁పరిపాలన	-1988
▁భౌగోళిక	-1989
▁మహాత్మా	-1990
▁మాత్రమే	-1991
▁ముస్లిం	-1992
▁విషయాలు	-1993
▁వ్యాపార	-1994
▁సంవత్సర	-1995
▁సంస్కరణ	-1996
▁సభ్యులు	-1997
▁సామాజిక	-1998
▁సుప్రీం	-1999
ప్పటికినీ	-2000
ించినట్లు	-2001
▁అతిపెద్ద	-2002
▁ఆధారపడిన	-2003
▁ఇంగ్లీషు	-2004
▁కూడుకుని	-2005
▁కూడుకొని	-2006
▁కోర్టులు	-2007
▁క్రీడలలో	-2008
▁నిపుణులు	-2009
▁పశ్చిమాన	-2010
▁పూర్తిగా	-2011
▁ప్రజాదరణ	-2012
▁ప్రాంతీయ	-2013
▁బ్రిటిషు	-2014
▁బ్రిటిష్	-2015
▁భాగాన్ని	-2016
▁మాట్లాడే	-2017
▁ముఖ్యంగా	-2018
▁మొదలైనవి	-2019
▁రాజ్యంగా	-2020
▁విద్యుత్	-2021
▁సముద్రతీ	-2022
▁సాంకేతిక	-2023
▁సాధించిన	-2024
▁సారస్వతం	-2025
▁సింధూనది	-2026
▁స్త్రీలు	-2027
▁హిందూస్త	-2028
▁ఎన్నుకుంట	-2029
▁ఎలక్టోరల్	-2030
▁కాంగ్రెస్	-2031
▁పర్యాయాలు	-2032
▁పార్లమెంట	-2033
▁పాలించారు	-2034
▁ప్రసిద్ధి	-2035
▁రాజ్యాంగం	-2036
▁రైల్వేశాఖ	-2037
▁విస్తీర్ణ	-2038
▁వ్యవస్థకు	-2039
▁సామర్థ్యం	-2040
▁సామ్రాజ్య	-2041
▁సౌకర్యాలు	-2042
▁స్థానాలను	-2043
▁స్థావరాలు	-2044
▁అంతర్జాతీయ	-2045
▁అక్షరాస్యత	-2046
▁ఎన్నికల్లో	-2047
▁ఏర్పడ్డాయి	-2048
▁చెందుతున్న	-2049
▁తిరుగుబాటు	-2050
▁ప్రపంచములో	-2051
▁ప్రారంభించ	-2052
▁భావిస్తారు	-2053
▁మహాసముద్రం	-2054
▁రాజ్యాలుగా	-2055
▁సరిహద్దుగా	-2056
▁సహస్రాబ్ది	-2057
▁సామ్రాజ్యం	-2058
▁సార్వత్రిక	-2059
▁సౌకర్యాలలో	-2060
▁కాపాడుకుంటూ	-2061
▁గెలుచుకోవడం	-2062
▁ప్రతిపాదనకు	-2063
▁ప్రపంచంలోని	-2064
▁ప్రాంతాల్లో	-2065
▁శెలవుదినాలు	-2066
▁ఆఫ్ఘనిస్తాన్	-2067
▁కార్యక్రమాలు	-2068
▁కిలోమీటర్లకు	-2069
▁జరుపుకుంటారు	-2070
▁న్యాయవ్యవస్థ	-2071
▁సూచించినట్లు	-2072
▁స్వాతంత్ర్యం	-2073
▁ఎన్నుకోబడతారు	-2074
▁నిర్వహించింది	-2075
▁ప్రభుత్వాన్ని	-2076
uc	-2077
▁,	-2078
▁J	-2079
माण	-2080
ाचे	-2081
्रि	-2082
▁ad	-2083
▁cl	-2084
▁pl	-2085
▁बन	-2086
ates	-2087
stit	-2088
ख्या	-2089
ित्र	-2090
▁rel	-2091
▁sub	-2092
▁पुर	-2093
▁शिक	-2094
ंग्रे	-2095
▁large	-2096
▁उत्तर	-2097
▁centur	-2098
cc	-2099
hi	-2100
ia	-2101
me	-2102
ंप	-2103
िळ	-2104
ेख	-2105
्ह	-2106
▁y	-2107
▁ड	-2108
ber	-2109
ंतर	-2110
श्च	-2111
▁CE	-2112
▁यु	-2113
▁per	-2114
▁pop	-2115
▁भाग	-2116
▁रूप	-2117
inist	-2118
ution	-2119
मध्ये	-2120
anguages	-2121
pp	-2122
so	-2123
क्	-2124
ठी	-2125
दल	-2126
वर	-2127
▁9	-2128
▁K	-2129
▁ई	-2130
ack	-2131
mer	-2132
र्ण	-2133
विध	-2134
हित	-2135
▁Ma	-2136
▁sp	-2137
▁जो	-2138
▁ये	-2139
ence	-2140
ener	-2141
lect	-2142
reas	-2143
त्या	-2144
▁काळ	-2145
▁पार	-2146
▁विश्व	-2147
▁संस्कृ	-2148
▁government	-2149
od	-2150
qu	-2151
ंब	-2152
णा	-2153
ेक	-2154
ire	-2155
lud	-2156
काल	-2157
ष्ठ	-2158
reat	-2159
ther	-2160
शिया	-2161
ियों	-2162
▁dec	-2163
▁pri	-2164
▁tra	-2165
▁द्व	-2166
श्चिम	-2167
स्तान	-2168
ित्रपट	-2169
▁popul	-2170
▁world	-2171
▁निर्म	-2172
▁मुख्य	-2173
▁विविध	-2174
▁प्रकार	-2175
▁चित्रपट	-2176
5.	-2177
मा	-2178
शी	-2179
ाट	-2180
ीत	-2181
–2	-2182
▁-	-2183
ave	-2184
ces	-2185
ign	-2186
ome	-2187
yst	-2188
्री	-2189
▁ag	-2190
▁co	-2191
▁आध	-2192
▁गण	-2193
▁गे	-2194
irst	-2195
ृष्ट	-2196
्रिट	-2197
▁Ind	-2198
▁gro	-2199
▁इंड	-2200
्यवस्	-2201
▁comp	-2202
▁year	-2203
▁मध्य	-2204
▁Hindu	-2205
▁World	-2206
▁first	-2207
▁ब्रिट	-2208
▁शिक्ष	-2209
▁साहित	-2210
▁स्थान	-2211
%.	-2212
pt	-2213
यु	-2214
सद	-2215
all	-2216
ian	-2217
red	-2218
ड़ा	-2219
ाची	-2220
▁15	-2221
▁17	-2222
▁sh	-2223
▁आण	-2224
▁कु	-2225
▁चु	-2226
▁पह	-2227
dern	-2228
ived	-2229
ुसार	-2230
▁art	-2231
▁end	-2232
▁हिम	-2233
▁हुआ	-2234
▁हुई	-2235
ystem	-2236
▁शासन	-2237
▁1947,	-2238
▁includ	-2239
▁केंद्र	-2240
▁ब्रिटिश	-2241
▁साम्राज्य	-2242
we	-2243
तर	-2244
वं	-2245
ाय	-2246
▁छ	-2247
erv	-2248
gan	-2249
ide	-2250
igh	-2251
oth	-2252
मुख	-2253
में	-2254
ाचा	-2255
ालय	-2256
▁Ar	-2257
▁li	-2258
used	-2259
ाप्त	-2260
▁res	-2261
nolog	-2262
ंत्री	-2263
▁over	-2264
▁जाता	-2265
▁त्या	-2266
▁became	-2267
▁during	-2268
▁system	-2269
▁प्रमुख	-2270
stitution	-2271
7,	-2272
ew	-2273
सी	-2274
▁O	-2275
ced	-2276
har	-2277
ral	-2278
दार	-2279
रिक	-2280
र्ज	-2281
शास	-2282
ारा	-2283
िन्	-2284
ोड़	-2285
▁16	-2286
▁ri	-2287
▁अम	-2288
▁कि	-2289
▁तर	-2290
▁पद	-2291
ajor	-2292
क्षा	-2293
▁but	-2294
▁had	-2295
▁असे	-2296
▁नाव	-2297
▁विक	-2298
mpire	-2299
▁also	-2300
▁been	-2301
▁have	-2302
▁most	-2303
▁दिया	-2304
▁पाकि	-2305
▁बहुत	-2306
▁होते	-2307
estern	-2308
▁1965,	-2309
▁elect	-2310
ational	-2311
्यवस्था	-2312
▁पश्चिम	-2313
▁पाकिस्तान	-2314
.5	-2315
3%	-2316
8.	-2317
dh	-2318
ff	-2319
ru	-2320
ue	-2321
णी	-2322
ब्	-2323
ुप	-2324
▁ऑ	-2325
ics	-2326
ric	-2327
क्र	-2328
तिह	-2329
नाव	-2330
स्ल	-2331
हीं	-2332
▁22	-2333
▁50	-2334
▁me	-2335
▁अर	-2336
▁थी	-2337
ural	-2338
▁क्र	-2339
▁बढ़	-2340
▁म्ह	-2341
ional	-2342
तिहास	-2343
▁1962	-2344
▁1971	-2345
▁cons	-2346
▁more	-2347
▁अर्थ	-2348
▁झाले	-2349
▁व्या	-2350
▁relig	-2351
ongress	-2352
▁राज्यों	-2353
-1	-2354
30	-2355
9%	-2356
ub	-2357
णे	-2358
पा	-2359
सं	-2360
▁५	-2361
ens	-2362
ord	-2363
तिश	-2364
त्र	-2365
धील	-2366
र्ष	-2367
वाद	-2368
ांध	-2369
िला	-2370
ुरू	-2371
▁30	-2372
▁pe	-2373
▁te	-2374
▁tw	-2375
▁अभ	-2376
▁आज	-2377
▁बा	-2378
▁सु	-2379
ough	-2380
ower	-2381
vers	-2382
ऱ्या	-2383
▁lat	-2384
▁num	-2385
▁pol	-2386
▁उत्	-2387
▁मोठ	-2388
▁लिए	-2389
▁समय	-2390
▁सैन	-2391
तंत्र	-2392
▁such	-2393
▁that	-2394
▁अन्य	-2395
▁काही	-2396
▁म्हण	-2397
▁संसद	-2398
▁होती	-2399
▁South	-2400
▁after	-2401
▁class	-2402
▁gener	-2403
▁years	-2404
▁minist	-2405
▁modern	-2406
▁tradit	-2407
▁इतिहास	-2408
▁शिक्षण	-2409
▁हिन्दी	-2410
▁century	-2411
▁increas	-2412
▁million	-2413
▁राष्ट्रीय	-2414
".	-2415
,5	-2416
2.	-2417
40	-2418
ty	-2419
बर	-2420
लग	-2421
ल्	-2422
िर	-2423
ूर	-2424
ोष	-2425
als	-2426
fic	-2427
ite	-2428
per	-2429
tin	-2430
▁25	-2431
▁ca	-2432
▁he	-2433
▁im	-2434
▁दश	-2435
▁लग	-2436
back	-2437
mong	-2438
orth	-2439
ures	-2440
ार्थ	-2441
▁198	-2442
▁dis	-2443
▁inf	-2444
▁two	-2445
▁देख	-2446
▁बंग	-2447
▁संग	-2448
▁संघ	-2449
र्थिक	-2450
▁Arch	-2451
▁both	-2452
▁long	-2453
▁prime	-2454
▁report	-2455
▁आर्थिक	-2456
▁Congress	-2457
10	-2458
26	-2459
ds	-2460
ph	-2461
डी	-2462
ुन	-2463
ेव	-2464
्न	-2465
▁)	-2466
93,	-2467
ban	-2468
les	-2469
lic	-2470
ory	-2471
ren	-2472
ड़ी	-2473
स्थ	-2474
स्व	-2475
हार	-2476
ामु	-2477
िये	-2478
▁40	-2479
▁Un	-2480
▁sc	-2481
▁नद	-2482
▁बी	-2483
aste	-2484
ween	-2485
जाती	-2486
मुळे	-2487
–200	-2488
▁100	-2489
▁40%	-2490
▁BCE	-2491
▁soc	-2492
▁आणि	-2493
▁टक्	-2494
▁दोन	-2495
▁बना	-2496
▁मिळ	-2497
▁रहा	-2498
▁विभ	-2499
istan	-2500
rough	-2501
urban	-2502
द्योग	-2503
पूर्व	-2504
विधान	-2505
▁1974	-2506
▁1998	-2507
▁2014	-2508
▁2022	-2509
▁Asia	-2510
▁करने	-2511
▁जाते	-2512
ayback	-2513
ulture	-2514
▁major	-2515
▁under	-2516
▁देशों	-2517
▁इंडिया	-2518
▁हिमालय	-2519
▁प्रजाती	-2520
▁साहित्य	-2521
▁Archived	-2522
▁संस्कृती	-2523
▁Languages	-2524
):	-2525
16	-2526
23	-2527
72	-2528
BC	-2529
PI	-2530
ep	-2531
पे	-2532
वळ	-2533
▁ऊ	-2534
...	-2535
01,	-2536
3.8	-2537
8.7	-2538
900	-2539
hed	-2540
mon	-2541
und	-2542
vel	-2543
च्च	-2544
पास	-2545
मार	-2546
योग	-2547
र्त	-2548
सेच	-2549
ावर	-2550
्तर	-2551
▁SI	-2552
▁कई	-2553
▁जग	-2554
▁तम	-2555
▁बौ	-2556
▁सह	-2557
▁सो	-2558
,517	-2559
ince	-2560
lear	-2561
uddh	-2562
्त्र	-2563
▁BBC	-2564
▁not	-2565
▁who	-2566
▁गंग	-2567
▁भूम	-2568
▁यां	-2569
▁हुए	-2570
93,42	-2571
ament	-2572
chine	-2573
ण्यात	-2574
पूर्ण	-2575
▁1000	-2576
▁1857	-2577
▁1948	-2578
▁1956	-2579
▁1996	-2580
▁2004	-2581
▁7000	-2582
▁Brit	-2583
▁grow	-2584
▁this	-2585
▁इसके	-2586
▁कारण	-2587
▁तसेच	-2588
▁दिल्	-2589
▁नहीं	-2590
▁पर्व	-2591
▁सिंध	-2592
uclear	-2593
▁1975,	-2594
▁7,517	-2595
▁9,000	-2596
▁Buddh	-2597
▁caste	-2598
▁langu	-2599
▁their	-2600
▁urban	-2601
▁अर्थव	-2602
▁एशिया	-2603
▁चुनाव	-2604
▁युद्ध	-2605
▁विस्त	-2606
isation	-2607
▁Empire	-2608
▁अंग्रे	-2609
▁अनुसार	-2610
▁100,000	-2611
▁British	-2612
▁Machine	-2613
▁Wayback	-2614
▁संविधान	-2615
▁language	-2616
▁minister	-2617
▁population	-2618
టక	-2619
హే	-2620
ాళ	-2621
0-1	-2622
1-8	-2623
16;	-2624
17;	-2625
2,1	-2626
263	-2627
3,0	-2628
5,7	-2629
CEE	-2630
PIN	-2631
ype	-2632
तृत	-2633
पती	-2634
रूप	-2635
र्य	-2636
ండయ	-2637
ంబి	-2638
ఉదా	-2639
కృత	-2640
క్న	-2641
గర్	-2642
గిప	-2643
గిల	-2644
గ్గ	-2645
టచే	-2646
టాట	-2647
తామ	-2648
దాన	-2649
దేమ	-2650
ధిగ	-2651
ధిప	-2652
ననీ	-2653
నలబ	-2654
పోత	-2655
బియ	-2656
మహే	-2657
మాయ	-2658
మూల	-2659
మేష	-2660
మైత	-2661
మ్మ	-2662
యర్	-2663
యిన	-2664
యోర	-2665
రవే	-2666
రాయ	-2667
రేబ	-2668
లపై	-2669
ళాఖ	-2670
వడం	-2671
వరీ	-2672
శీత	-2673
సాగ	-2674
సాల	-2675
సాహ	-2676
హర్	-2677
హాస	-2678
ాఖప	-2679
ాగో	-2680
ాటక	-2681
ాతథ	-2682
ాలె	-2683
ాలే	-2684
ిలే	-2685
ీకర	-2686
ుపూ	-2687
ువు	-2688
ోకు	-2689
ోతూ	-2690
ోధు	-2691
ౌళి	-2692
్ట్	-2693
్వత	-2694
▁62	-2695
▁HZ	-2696
▁అల	-2697
▁ఓడ	-2698
▁డబ	-2699
రబ	-2700
ంకా	-2701
ండమ	-2702
క్ర	-2703
జిన	-2704
డమ్	-2705
డ్చ	-2706
డ్మ	-2707
భ్య	-2708
ర్ఘ	-2709
లోచ	-2710
హ్మ	-2711
ాహక	-2712
ిపే	-2713
ెనే	-2714
ెన్	-2715
ైలీ	-2716
ొర్	-2717
్యమ	-2718
▁కర	-2719
▁జై	-2720
▁యథ	-2721
▁యో	-2722
▁రవ	-2723
▁రీ	-2724
▁రు	-2725
▁లఘ	-2726
▁లు	-2727
▁వజ	-2728
▁వన	-2729
▁వు	-2730
▁సర	-2731
▁సల	-2732
▁సే	-2733
-740	-2734
.23%	-2735
3.72	-2736
421-	-2737
5-07	-2738
59-2	-2739
6%),	-2740
9-56	-2741
ISBN	-2742
ैदान	-2743
ैदिक	-2744
ంజాబ	-2745
ండర్	-2746
ందరో	-2747
కల్ప	-2748
కాలం	-2749
కెట్	-2750
కోర్	-2751
క్కట	-2752
క్కొ	-2753
క్రవ	-2754
గరలో	-2755
గ్భా	-2756
చనలో	-2757
జెట్	-2758
ట్టూ	-2759
ట్నం	-2760
డాలు	-2761
ణాటక	-2762
ణాలు	-2763
ణిపు	-2764
తామర	-2765
త్తల	-2766
త్రి	-2767
థిక్	-2768
దండా	-2769
దర్శ	-2770
దాయం	-2771
దికి	-2772
దుర్	-2773
ద్భవ	-2774
ద్రా	-2775
ధిగమ	-2776
ధిలో	-2777
నంద్	-2778
నలలో	-2779
నసాగ	-2780
నాడు	-2781
నాథ్	-2782
నిధి	-2783
న్నం	-2784
న్నత	-2785
న్లీ	-2786
పాధి	-2787
పాలి	-2788
పావో	-2789
పిక్	-2790
పుతూ	-2791
ఫిక్	-2792
ఫ్ట్	-2793
బెట్	-2794
భరతవ	-2795
భరతు	-2796
భాషా	-2797
మదీయ	-2798
మలము	-2799
डे	-2800
ృహ	-2801
ైల	-2802
46)	-2803
सभा	-2804
గృహ	-2805
ఛాయ	-2806
టండ	-2807
ద్ర	-2808
పలి	-2809
మిత	-2810
రము	-2811
రలో	-2812
ర్ద	-2813
శైల	-2814
ేజీ	-2815
్టే	-2816
▁जल	-2817
▁తు	-2818
క్యం	-2819
దరిక	-2820
దాయక	-2821
నికి	-2822
మికత	-2823
మితి	-2824
మైతే	-2825
మ్మద	-2826
యన్మ	-2827
యుక్	-2828
రతనా	-2829
రతాయ	-2830
రవిం	-2831
రాటం	-2832
రామన	-2833
రిగే	-2834
రుగా	-2835
ర్గం	-2836
ర్తా	-2837
ర్దూ	-2838
ర్షం	-2839
లమాన	-2840
లియం	-2841
లోచన	-2842
లోను	-2843
ల్గి	-2844
ళూరు	-2845
ళ్ళు	-2846
వలను	-2847
వహర్	-2848
వింప	-2849
శాతం	-2850
శోకు	-2851
ష్పం	-2852
సాయం	-2853
సీలు	-2854
సును	-2855
సెస్	-2856
సేతర	-2857
స్సా	-2858
స్సీ	-2859
ాతరం	-2860
ాతియ	-2861
ాధిన	-2862
ాయపడ	-2863
ాలని	-2864
ాలపై	-2865
ాలిక	-2866
ాలోయ	-2867
ాళుక	-2868
ిగిల	-2869
ితాబ	-2870
ిపిత	-2871
ిపూడ	-2872
ిరంగ	-2873
ిలిచ	-2874
ీనోద	-2875
ుకొన	-2876
ుగపు	-2877
ుగల్	-2878
ుడైన	-2879
ెబియ	-2880
ెలిచ	-2881
ేననీ	-2882
ొమ్మ	-2883
ొర్స	-2884
ోధనా	-2885
ోధుమ	-2886
్ఛాయ	-2887
్టేట	-2888
్రాం	-2889
్రైవ	-2890
▁(5.	-2891
▁0-1	-2892
▁165	-2893
▁25%	-2894
▁32,	-2895
▁81-	-2896
▁CEE	-2897
▁Eth	-2898
▁bet	-2899
मू	-2900
టో	-2901
ణే	-2902
యూ	-2903
ాప	-2904
ిస	-2905
ేత	-2906
▁ఋ	-2907
ఘిక	-2908
ణుల	-2909
ధాల	-2910
నిప	-2911
శాల	-2912
ాపక	-2913
్యప	-2914
▁ఋత	-2915
▁నూ	-2916
▁నో	-2917
▁వర	-2918
ట్యం	-2919
తిని	-2920
ర్భవ	-2921
స్తు	-2922
ామని	-2923
ిసభా	-2924
▁hum	-2925
▁दशक	-2926
▁निव	-2927
▁येथ	-2928
▁१९९	-2929
▁అణు	-2930
▁అది	-2931
▁అమల	-2932
▁ఆగ్	-2933
▁ఆణి	-2934
▁ఆవి	-2935
▁ఇము	-2936
▁ఋతు	-2937
▁ఏకై	-2938
▁ఐదు	-2939
▁ఒడి	-2940
▁కథక	-2941
▁కథన	-2942
▁కర్	-2943
▁కలక	-2944
▁కూచ	-2945
▁గౌర	-2946
▁చూప	-2947
▁చేత	-2948
▁తగ్	-2949
▁తదు	-2950
▁తేల	-2951
▁థాన	-2952
▁దగ్	-2953
▁నూట	-2954
▁నెమ	-2955
▁నోబ	-2956
▁పంప	-2957
▁పటం	-2958
▁పతక	-2959
▁పది	-2960
▁పరో	-2961
▁పాద	-2962
▁పోష	-2963
▁పౌర	-2964
▁ఫర్	-2965
▁ఫలం	-2966
▁మంజ	-2967
▁మరె	-2968
▁మహా	-2969
▁మెహ	-2970
▁రవీ	-2971
▁లఘు	-2972
▁లాభ	-2973
▁వంశ	-2974
▁వరు	-2975
▁వూప	-2976
▁సమయ	-2977
▁సరఫ	-2978
...).	-2979
1-8-7	-2980
3.80%	-2981
30%),	-2982
36%),	-2983
421-5	-2984
5,7%.	-2985
90046	-2986
ially	-2987
ంగ్లే	-2988
ంజాబీ	-2989
ంటిపే	-2990
ండ్లు	-2991
ంతువు	-2992
ందులో	-2993
ంద్రీ	-2994
కల్పం	-2995
కాలతో	-2996
కాహార	-2997
కుండా	-2998
కుడైన	-2999
ఒక	-3000
థమ	-3001
నై	-3002
పర	-3003
యి	-3004
లస	-3005
షం	-3006
హా	-3007
ూర	-3008
87,	-3009
గలి	-3010
జన్	-3011
జ్ఞ	-3012
తాన	-3013
నైట	-3014
ముచ	-3015
రూప	-3016
ర్ధ	-3017
ేషం	-3018
ైపు	-3019
▁up	-3020
▁అధ	-3021
▁ఆగ	-3022
▁ఘన	-3023
▁చు	-3024
▁పస	-3025
▁మధ	-3026
▁హొ	-3027
నైటె	-3028
పులి	-3029
మాది	-3030
రూపం	-3031
ళులు	-3032
వారి	-3033
వైపు	-3034
ాకర్	-3035
ార్థ	-3036
ాశ్ర	-3037
ూరత్	-3038
్రిచ	-3039
▁ఆలస	-3040
▁ఘనత	-3041
▁జాన	-3042
▁డాల	-3043
▁భిం	-3044
▁విఫ	-3045
కృష్ట	-3046
క్షమై	-3047
క్షరబ	-3048
గలుపు	-3049
గుమతి	-3050
గ్నలు	-3051
గ్భాగ	-3052
చిత్ర	-3053
జితమై	-3054
జిస్ల	-3055
జ్ఞాన	-3056
టాటస్	-3057
టీలలో	-3058
టెహ్ర	-3059
ట్లలో	-3060
డుంబి	-3061
డుస్త	-3062
డ్మిం	-3063
తాధిప	-3064
తాలతో	-3065
తోష్ణ	-3066
త్తాక	-3067
దరికం	-3068
దిగువ	-3069
దిర్చ	-3070
దేశపు	-3071
దేశిక	-3072
న్నది	-3073
పతులు	-3074
పరంగా	-3075
పాండి	-3076
పుత్ర	-3077
పెట్ట	-3078
ప్తుల	-3079
భారతం	-3080
మహేష్	-3081
మార్త	-3082
ముచిత	-3083
ములకు	-3084
మేననీ	-3085
మేషన్	-3086
రమైతే	-3087
రాజయం	-3088
రాజ్య	-3089
రామనవ	-3090
రాయల్	-3091
రించే	-3092
ర్గర్	-3093
లంకార	-3094
లమానం	-3095
లలోను	-3096
లాగృహ	-3097
ల్తాన	-3098
ళవింప	-3099
पु	-3100
డత	-3101
డవ	-3102
ణం	-3103
పవ	-3104
ైర	-3105
ంతై	-3106
డిగ	-3107
ణిక	-3108
రకు	-3109
వంత	-3110
ినహ	-3111
ీలు	-3112
ేయం	-3113
▁ra	-3114
▁చీ	-3115
▁ఫు	-3116
▁రే	-3117
▁వృ	-3118
▁శక	-3119
జిత్	-3120
పాలీ	-3121
వుని	-3122
ాదిన	-3123
ులచే	-3124
ోంది	-3125
▁ear	-3126
▁అవస	-3127
▁ఏడవ	-3128
▁చీర	-3129
▁బడత	-3130
▁మూల	-3131
1,01,	-3132
ణికుల	-3133
దీర్ఘ	-3134
నలబైర	-3135
నాథన్	-3136
బెట్క	-3137
మాయణం	-3138
రలోనే	-3139
ళికలు	-3140
వరాలు	-3141
వస్తు	-3142
వారంట	-3143
వైనది	-3144
శాల్య	-3145
ష్కుల	-3146
సమితి	-3147
సాకర్	-3148
స్త్ర	-3149
స్థలు	-3150
ాగోర్	-3151
ానెట్	-3152
ాబ్డే	-3153
ాయకుల	-3154
ాయిడ్	-3155
ాయీలు	-3156
ారాలు	-3157
ాల్దీ	-3158
ింసాయ	-3159
ికాలో	-3160
ితాబు	-3161
ినహాయ	-3162
ినాయక	-3163
ినీతి	-3164
ిపూడి	-3165
ిలేట్	-3166
ిల్లా	-3167
ురాలు	-3168
ుళూరు	-3169
ెందరో	-3170
ెట్టు	-3171
ెన్సీ	-3172
ెర్టి	-3173
ెల్లో	-3174
ెహ్రూ	-3175
ైట్లు	-3176
ైనెర్	-3177
ోత్రి	-3178
ోన్నత	-3179
ోళులు	-3180
్రహ్మ	-3181
్రాలు	-3182
్రెడ్	-3183
్లామ్	-3184
–2004	-3185
▁(8.7	-3186
▁1250	-3187
▁1652	-3188
▁1853	-3189
▁2023	-3190
▁546)	-3191
▁82,1	-3192
▁many	-3193
▁nort	-3194
▁serv	-3195
▁जाती	-3196
▁అంటే	-3197
▁అఖండ	-3198
▁అణ్వ	-3199
చీ	-3200
ఠీ	-3201
పద	-3202
శక	-3203
ువ	-3204
▁.	-3205
ఇదే	-3206
పస్	-3207
రోః	-3208
సగా	-3209
సిన	-3210
▁తర	-3211
▁తా	-3212
▁దు	-3213
▁బి	-3214
త్వం	-3215
యులు	-3216
రాచీ	-3217
రాఠీ	-3218
స్లో	-3219
ాధీన	-3220
ువుల	-3221
ైపోత	-3222
▁खास	-3223
▁ఆనా	-3224
కృతమై	-3225
టులకు	-3226
తిహాస	-3227
మతిని	-3228
మైనదే	-3229
ాధీనం	-3230
ార్యం	-3231
ికులు	-3232
ీకారం	-3233
ీనికి	-3234
్రావి	-3235
▁అధీన	-3236
▁అనుస	-3237
▁అరేబ	-3238
▁అల్ప	-3239
▁అవతర	-3240
▁ఆటలు	-3241
▁ఆధీన	-3242
▁ఇంకా	-3243
▁ఇటీవ	-3244
▁ఇతను	-3245
▁ఇయర్	-3246
▁ఇవ్వ	-3247
▁ఉండు	-3248
▁ఉపరా	-3249
▁ఉష్ణ	-3250
▁ఎంతో	-3251
▁ఏకైక	-3252
▁ఏళ్ళ	-3253
▁ఒకటో	-3254
▁ఓటర్	-3255
▁కథక్	-3256
▁కనిప	-3257
▁కలదు	-3258
▁కలుగ	-3259
▁కాగా	-3260
▁కానీ	-3261
▁కిమీ	-3262
▁కొంక	-3263
▁కొద్	-3264
▁క్రై	-3265
▁ఖగోళ	-3266
▁ఖర్చ	-3267
▁గంగా	-3268
▁గణిత	-3269
▁గుత్	-3270
▁గేయం	-3271
▁గ్రీ	-3272
▁ఘట్ట	-3273
▁చవిచ	-3274
▁చిహ్	-3275
▁చేయట	-3276
▁చేయడ	-3277
▁చేసే	-3278
▁జోన్	-3279
▁జౌళి	-3280
▁టెలి	-3281
▁ట్రా	-3282
▁ఢాకా	-3283
▁తలంప	-3284
▁తాజ్	-3285
▁తురు	-3286
▁తెలి	-3287
▁థార్	-3288
▁దండయ	-3289
▁దక్ష	-3290
▁దర్శ	-3291
▁దీని	-3292
▁ద్వై	-3293
▁నియో	-3294
▁నిలబ	-3295
▁నివా	-3296
▁పంచె	-3297
▁పతకం	-3298
▁పాండ	-3299
కళ	-3300
ఖో	-3301
నూ	-3302
బల	-3303
రూ	-3304
▁&	-3305
▁ఔ	-3306
eng	-3307
టమూ	-3308
హిత	-3309
ాము	-3310
ును	-3311
▁An	-3312
▁हव	-3313
▁ఒల	-3314
▁జీ	-3315
imal	-3316
ందరూ	-3317
కుంత	-3318
నియా	-3319
యంతో	-3320
శ్వత	-3321
ాంబే	-3322
▁Con	-3323
▁అహ్	-3324
▁ఔట్	-3325
▁కమీ	-3326
▁మౌఖ	-3327
▁రోడ	-3328
కుంతల	-3329
గతిని	-3330
పావళి	-3331
బల్యం	-3332
మైనవి	-3333
ల్పకళ	-3334
ుల్స్	-3335
▁ఒలిం	-3336
▁గేజి	-3337
▁జీవి	-3338
▁పచ్చ	-3339
▁పాటు	-3340
▁పాలన	-3341
▁పోలో	-3342
▁ఫలిత	-3343
▁బాగా	-3344
▁బుక్	-3345
▁బ్యా	-3346
▁భంగం	-3347
▁మంచి	-3348
▁మనమే	-3349
▁మనోర	-3350
▁మసాల	-3351
▁మహల్	-3352
▁మాతృ	-3353
▁మానం	-3354
▁మామి	-3355
▁మూడవ	-3356
▁మూడే	-3357
▁యుగం	-3358
▁రంగం	-3359
▁రూపొ	-3360
▁లభ్య	-3361
▁లియా	-3362
▁లేని	-3363
▁లోపం	-3364
▁వర్ణ	-3365
▁వర్ష	-3366
▁వల్ల	-3367
▁వాటి	-3368
▁వాణా	-3369
▁వాదన	-3370
▁వారి	-3371
▁వాహన	-3372
▁విధి	-3373
▁విఫల	-3374
▁విశి	-3375
▁వుంట	-3376
▁వెలు	-3377
▁వేర్	-3378
▁శైలీ	-3379
▁సంగమ	-3380
▁సంఘం	-3381
▁సంధి	-3382
▁సమశీ	-3383
▁సమాచ	-3384
▁సలహా	-3385
▁సల్వ	-3386
▁సైతం	-3387
▁సౌకర	-3388
▁హస్త	-3389
▁హొలీ	-3390
.23%).	-3391
2359-2	-3392
87,263	-3393
ations	-3394
contin	-3395
lowing	-3396
मंत्री	-3397
ంగాళాఖ	-3398
ంత్రివ	-3399
ef	-3400
ंज	-3401
तो	-3402
बी	-3403
ణద	-3404
షే	-3405
సం	-3406
ిశ	-3407
▁^	-3408
हरी	-3409
ारे	-3410
డ్య	-3411
శలో	-3412
షేధ	-3413
హపు	-3414
ోత్	-3415
▁ఎమ	-3416
ारिक	-3417
చులు	-3418
త్తా	-3419
ద్దం	-3420
న్నో	-3421
వార్	-3422
శీతల	-3423
షేధం	-3424
ాలేక	-3425
ిత్వ	-3426
ెండా	-3427
▁142	-3428
▁త్వ	-3429
▁పరమ	-3430
▁సేవ	-3431
చింది	-3432
జెండా	-3433
యుక్త	-3434
▁1010	-3435
▁83,0	-3436
▁ఉంటూ	-3437
▁కోసం	-3438
▁తంలో	-3439
▁తేది	-3440
▁దశలో	-3441
▁దాటే	-3442
▁పేస్	-3443
▁రక్ష	-3444
▁లాల్	-3445
ically	-3446
ఆంగ్లే	-3447
కాలంలో	-3448
క్తిగా	-3449
క్తులు	-3450
ఖ్యాతి	-3451
గిల్లీ	-3452
గువారు	-3453
గ్గులు	-3454
గ్భాగే	-3455
చారాలు	-3456
చ్చేరి	-3457
జినెస్	-3458
టండ్రా	-3459
టికంటే	-3460
డిగించ	-3461
డ్చుకు	-3462
డ్జెట్	-3463
ణాదికి	-3464
దానంతో	-3465
దుర్కొ	-3466
ద్ధలతో	-3467
ద్రాసు	-3468
ధానులు	-3469
ధ్యాత్	-3470
నవచ్చు	-3471
నాడుకు	-3472
నామాలు	-3473
నికికి	-3474
నేరేడు	-3475
నేసియా	-3476
నైటెడ్	-3477
పరిమిత	-3478
పవనాలు	-3479
ప్పించ	-3480
బెట్కా	-3481
బ్రెడ్	-3482
భరతుడు	-3483
మారుడు	-3484
మార్తె	-3485
మీదుగా	-3486
ముత్యం	-3487
యూదులు	-3488
యోరారి	-3489
రచింది	-3490
రతాయని	-3491
రమేనని	-3492
రాజకీయ	-3493
రిగాయి	-3494
రిస్తూ	-3495
రుదుగా	-3496
ర్జాలు	-3497
ర్వాహక	-3498
ర్వోత్	-3499
AL	-3500
ree	-3501
ంగల	-3502
రద్	-3503
ెల్	-3504
▁ఆడ	-3505
▁ఖో	-3506
▁తల	-3507
▁దస	-3508
▁నృ	-3509
▁పట	-3510
ఇస్త	-3511
ణించ	-3512
నర్వ	-3513
ల్లు	-3514
వంటి	-3515
ాయతి	-3516
ేచర్	-3517
ొట్ట	-3518
▁(17	-3519
▁PAL	-3520
▁ter	-3521
▁ఆతి	-3522
▁ఆయా	-3523
▁ఇను	-3524
▁ఇన్	-3525
▁కాయ	-3526
▁ఘోర	-3527
▁తలల	-3528
▁బండ	-3529
▁మార	-3530
▁సవా	-3531
ction	-3532
ండమస్	-3533
త్వాన	-3534
యావత్	-3535
▁అంది	-3536
▁ఇంది	-3537
▁ఉండి	-3538
▁తారత	-3539
▁దసరా	-3540
▁వర్ధ	-3541
▁శరద్	-3542
▁సైనా	-3543
టువంటి	-3544
త్వంగల	-3545
న్నారు	-3546
లనుండి	-3547
లిథిక్	-3548
లెందరో	-3549
ల్లయిన	-3550
ళవింపబ	-3551
వంతమైన	-3552
వారంటో	-3553
వేగంగా	-3554
వేత్తల	-3555
వైపులా	-3556
శైలస్య	-3557
శోకుడు	-3558
ష్ట్యా	-3559
సత్తాక	-3560
సారిగా	-3561
సాహంగా	-3562
సుకోవడ	-3563
సైట్లు	-3564
స్థితి	-3565
స్సామీ	-3566
ాంబుల్	-3567
ాకాహార	-3568
ారణంగా	-3569
ారుమూల	-3570
ారులను	-3571
ార్పస్	-3572
ించుకు	-3573
ించేది	-3574
ికేననీ	-3575
ిగిలిన	-3576
ిత్రకళ	-3577
ియనులు	-3578
ిల్లిన	-3579
ిశ్రామ	-3580
ీకరణలో	-3581
ుతోంది	-3582
ున్నది	-3583
ువులైన	-3584
ూసింది	-3585
ెండుకో	-3586
ెబియస్	-3587
ెలిచిన	-3588
ేచ్ఛాయ	-3589
ైనందిన	-3590
ొట్టెల	-3591
ోడుంబి	-3592
ోవచ్చు	-3593
్యప్రా	-3594
్యమంలో	-3595
్రాండ్	-3596
్రాంతి	-3597
్రావిడ	-3598
్రైవరు	-3599
థి	-3600
9%)	-3601
ari	-3602
జపా	-3603
ఢవి	-3604
నవి	-3605
మున	-3606
రమే	-3607
ితే	-3608
ితో	-3609
ుతూ	-3610
▁BS	-3611
▁आप	-3612
▁గీ	-3613
▁దృ	-3614
▁పడ	-3615
▁శ్	-3616
తంలో	-3617
థిలి	-3618
మురు	-3619
సాలు	-3620
▁ఒరి	-3621
▁కంట	-3622
▁చిత	-3623
▁జైన	-3624
▁నెహ	-3625
ంతంగా	-3626
ంలోని	-3627
క్షిక	-3628
గునవి	-3629
ర్యము	-3630
స్టలు	-3631
ాయిలో	-3632
ిన్నె	-3633
ుతాయి	-3634
▁land	-3635
▁ఎగువ	-3636
▁ఎల్ల	-3637
▁కృష్	-3638
▁గీతం	-3639
▁థానే	-3640
▁బ్రా	-3641
▁మేనక	-3642
▁యమున	-3643
▁రంగా	-3644
▁శ్లో	-3645
క్షంగా	-3646
గిన్నె	-3647
ఢవిల్ల	-3648
దిభాగం	-3649
మ్యాలు	-3650
ర్షణను	-3651
ామిత్ర	-3652
ుర్యము	-3653
▁(3.72	-3654
▁1-740	-3655
▁7/16;	-3656
▁7/17;	-3657
▁dance	-3658
▁north	-3659
▁south	-3660
▁टक्के	-3661
▁बौद्ध	-3662
▁संबंध	-3663
▁स्थित	-3664
▁అందరూ	-3665
▁అద్దం	-3666
▁అధిగమ	-3667
▁అన్నం	-3668
▁అయితే	-3669
▁అరవిం	-3670
▁ఆగష్ట	-3671
▁ఆగ్నే	-3672
▁ఆదాయం	-3673
▁ఆనంద్	-3674
▁ఆనాది	-3675
▁ఆఫ్ఘా	-3676
▁ఆలోచన	-3677
▁ఇక్కడ	-3678
▁ఇచ్చే	-3679
▁ఇటీవల	-3680
▁ఇనుము	-3681
▁ఉండగా	-3682
▁ఉద్భవ	-3683
▁ఉపాధి	-3684
▁ఉర్దూ	-3685
▁ఎడారి	-3686
▁ఎమర్జ	-3687
▁ఒకేఒక	-3688
▁ఒక్కొ	-3689
▁ఒరియా	-3690
▁కథకళి	-3691
▁కమలము	-3692
▁కమీజ్	-3693
▁కరంతై	-3694
▁కరాచీ	-3695
▁కల్గి	-3696
▁కల్పే	-3697
▁కింగ్	-3698
▁కిందట	-3699
out	-3700
ంచే	-3701
▁2%	-3702
▁जी	-3703
....	-3704
ास्त	-3705
ష్టి	-3706
ాలజీ	-3707
ింపు	-3708
్లను	-3709
▁230	-3710
▁ఏటా	-3711
▁నిర	-3712
▁లలో	-3713
anges	-3714
ంకాగా	-3715
ందుగా	-3716
క్కలు	-3717
నిచ్చ	-3718
మంతటా	-3719
రోధాల	-3720
ిరమైన	-3721
ృతంగా	-3722
▁Type	-3723
▁न्या	-3724
▁కట్ట	-3725
▁కష్ట	-3726
▁చట్ట	-3727
స్థానం	-3728
▁began	-3729
▁करोड़	-3730
▁मैदान	-3731
▁కావడం	-3732
▁కుడ్య	-3733
▁కొత్త	-3734
▁కోట్ల	-3735
▁కోల్ప	-3736
▁క్యార	-3737
▁గణితం	-3738
▁గనులు	-3739
▁గోధుమ	-3740
▁గ్రామ	-3741
▁చక్రవ	-3742
▁చట్టం	-3743
▁చమురు	-3744
▁చవితి	-3745
▁చాళుక	-3746
▁జవహర్	-3747
▁జానపద	-3748
▁టెక్న	-3749
▁టైగర్	-3750
▁త్రివ	-3751
▁దాటిన	-3752
▁దిగువ	-3753
▁దేశము	-3754
▁నదులు	-3755
▁నిలిచ	-3756
▁నివార	-3757
▁నున్న	-3758
▁నృత్య	-3759
▁నెమలి	-3760
▁నెరవే	-3761
▁నెహ్వ	-3762
▁పంపిన	-3763
▁పటంలో	-3764
▁పతాకం	-3765
▁పదార్	-3766
▁పస్రి	-3767
▁పాలకు	-3768
▁పిలిచ	-3769
▁పోర్చ	-3770
▁ప్రథమ	-3771
▁ప్రమా	-3772
▁ప్రయా	-3773
▁ప్రాయ	-3774
▁బాంబే	-3775
▁బొమ్మ	-3776
▁భరతనా	-3777
▁భాజపా	-3778
▁భారతం	-3779
▁భూపతి	-3780
▁భౌతిక	-3781
▁మణిపు	-3782
▁మధ్యల	-3783
▁మధ్యవ	-3784
▁మనోరమ	-3785
▁మయన్మ	-3786
▁మహిళల	-3787
▁మహిళా	-3788
▁ముద్ర	-3789
▁మేనకల	-3790
▁మేరకు	-3791
▁మేరోః	-3792
▁మౌఖిక	-3793
▁యథాతథ	-3794
▁యాత్ర	-3795
▁యావత్	-3796
▁యుద్ధ	-3797
▁రంగాల	-3798
▁రక్షణ	-3799
.20	-3800
ూడా	-3801
▁డి	-3802
मधील	-3803
ందని	-3804
కునే	-3805
ునిక	-3806
▁rec	-3807
▁काल	-3808
▁ఆవల	-3809
▁ఇదే	-3810
▁ఏడు	-3811
▁ఫ్ర	-3812
▁మతం	-3813
▁లోయ	-3814
▁వరి	-3815
క్కటే	-3816
మంత్ర	-3817
హారాల	-3818
ాన్స్	-3819
ేకమైన	-3820
▁केले	-3821
▁కుడి	-3822
▁కులం	-3823
▁కోటి	-3824
▁కోడు	-3825
▁క్రమ	-3826
▁తనలో	-3827
▁పర్ష	-3828
▁పూణే	-3829
▁బాల్	-3830
▁మతాల	-3831
▁లోని	-3832
▁లోను	-3833
▁వద్ద	-3834
▁వరకూ	-3835
▁సభలో	-3836
ణాన్ని	-3837
నిధిచే	-3838
▁డిస్క	-3839
▁పక్షి	-3840
▁పరమైన	-3841
▁పీఠిక	-3842
▁ప్రణా	-3843
▁ప్రాజ	-3844
▁బిన్న	-3845
▁భార్త	-3846
▁మరాఠీ	-3847
▁రాతియ	-3848
▁రాసిన	-3849
▁రైళ్ల	-3850
▁రోడ్ల	-3851
▁లక్షల	-3852
▁లాంటి	-3853
▁వంటలు	-3854
▁వందేమ	-3855
▁వచ్చి	-3856
▁వనాలు	-3857
▁వలెనే	-3858
▁విధాన	-3859
▁వున్న	-3860
▁సంఘము	-3861
▁సమాజం	-3862
▁సరఫరా	-3863
▁సహాయక	-3864
▁సాహిత	-3865
▁సింధ్	-3866
▁సిద్ధ	-3867
▁సూరత్	-3868
▁సొర్స	-3869
▁స్టేట	-3870
▁స్థూల	-3871
5-05-07	-3872
93,422.	-3873
akistan	-3874
nologue	-3875
ందువల్ల	-3876
క్కులకు	-3877
ణదారులు	-3878
తరాలుగా	-3879
త్యజిత్	-3880
దినాలకు	-3881
దిర్చిన	-3882
దేశాలలో	-3883
పాక్షిక	-3884
పాలిటన్	-3885
ప్రాయపడ	-3886
మదీయులు	-3887
రామనవమి	-3888
ర్షణలను	-3889
ల్లింది	-3890
వార్లలో	-3891
స్టాటస్	-3892
స్తవులు	-3893
స్తుతము	-3894
ాఖపట్నం	-3895
ాత్రలతో	-3896
ాయిడ్స్	-3897
ాలనుండి	-3898
ాలేకాగా	-3899
rib	-3900
क्षण	-3901
ियाँ	-3902
ఆర్య	-3903
ులలో	-3904
▁fol	-3905
▁ఎడమ	-3906
▁చేర	-3907
▁భార	-3908
భాషలు	-3909
విజన్	-3910
▁सेना	-3911
▁గ్రం	-3912
▁నాటి	-3913
▁ఫుట్	-3914
ఆర్యన్	-3915
త్వాలు	-3916
రించిన	-3917
ాధినేత	-3918
ాలన్నీ	-3919
ాలలోను	-3920
▁కృష్ణ	-3921
▁చెంది	-3922
▁పక్షం	-3923
▁విడిప	-3924
ాల్లోనూ	-3925
ించినవే	-3926
ింసాయుత	-3927
ిరంగంగా	-3928
ిస్తాయి	-3929
ున్నారు	-3930
ెట్టుకు	-3931
ెల్లోని	-3932
ోదగినది	-3933
్రమాలిక	-3934
▁(0.9%)	-3935
▁10,000	-3936
▁75,7%.	-3937
▁83.80%	-3938
▁दिल्ली	-3939
▁प्रत्य	-3940
▁भाषाओं	-3941
▁అంకెలు	-3942
▁అంటారు	-3943
▁అక్షరబ	-3944
▁అనునది	-3945
▁అప్పటి	-3946
▁అయింది	-3947
▁అలంకార	-3948
▁అలీనోద	-3949
▁అహమ్మద	-3950
▁ఆగష్టు	-3951
▁ఆగ్నేయ	-3952
▁ఆధారిత	-3953
▁ఆధునిక	-3954
▁ఆలస్యం	-3955
▁ఇంటిపే	-3956
▁ఇందిరా	-3957
▁ఇందులో	-3958
▁ఇక్కడి	-3959
▁ఇటీవలి	-3960
▁ఇతరులు	-3961
▁ఇతిహాస	-3962
▁ఇవన్నీ	-3963
▁ఇవికాక	-3964
▁ఉపఖండం	-3965
▁ఎగుమతి	-3966
▁ఏర్పడే	-3967
▁ఓడించి	-3968
▁కన్నడం	-3969
▁కలిగిన	-3970
▁కాలేజి	-3971
▁కాలేజీ	-3972
▁కితాబు	-3973
▁కుర్తా	-3974
▁కృష్ణా	-3975
▁కొంకణి	-3976
▁కొనసాగ	-3977
▁క్రీడల	-3978
▁గాంచిన	-3979
▁చుట్టూ	-3980
▁చైనాతో	-3981
▁చోళులు	-3982
▁జంతువు	-3983
▁జనగణమన	-3984
▁జిల్లా	-3985
▁జైనులు	-3986
▁జోక్యం	-3987
▁టాగోర్	-3988
▁టికాలో	-3989
▁టెన్ని	-3990
▁టైటిల్	-3991
▁తగ్గిప	-3992
▁తదుపరి	-3993
▁తర్వాత	-3994
▁తిరిగే	-3995
▁దక్కను	-3996
▁దినాలు	-3997
▁దీనికి	-3998
▁దీన్ని	-3999
▁ద్వీపం	-4000
▁ద్వీపే	-4001
▁ధరించే	-4002
▁ధరిస్త	-4003
▁నడుస్త	-4004
▁నాయకుల	-4005
▁నిషేధం	-4006
▁నెహ్రూ	-4007
▁నేపాలీ	-4008
▁నేరుగా	-4009
▁నేరేడు	-4010
▁నోబెల్	-4011
▁పంజాబీ	-4012
▁పండ్లు	-4013
▁పతాకము	-4014
▁పరాజయం	-4015
▁పరోక్ష	-4016
▁పునర్వ	-4017
▁పుష్పం	-4018
▁పూర్వం	-4019
▁పెట్రో	-4020
▁పేరుతో	-4021
▁పోరాటం	-4022
▁ప్రమాణ	-4023
▁బడతాయి	-4024
▁బహుమతి	-4025
▁బాబ్డే	-4026
▁బ్రహ్మ	-4027
▁బ్రాడ్	-4028
▁భాషలతో	-4029
▁మంజూరు	-4030
▁మతములు	-4031
▁మతాలకు	-4032
▁మతాలతో	-4033
▁మర్రిచ	-4034
▁మామిడి	-4035
▁మార్గం	-4036
▁మాల్దీ	-4037
▁మినహాయ	-4038
▁మూలాలు	-4039
▁మెట్రో	-4040
▁మైత్రి	-4041
▁మైథిలి	-4042
▁యుద్ధం	-4043
▁యోచనలో	-4044
▁రంగంలో	-4045
▁రాణించ	-4046
▁రిట్లు	-4047
▁రీతులు	-4048
▁రుచులు	-4049
▁రూపంలో	-4050
▁లంకెలు	-4051
▁లేనివి	-4052
▁లోన్లీ	-4053
▁వంటలకు	-4054
▁వరుసగా	-4055
▁వహించి	-4056
▁వహించే	-4057
▁వాటిలో	-4058
▁వారిగా	-4059
▁విధంగా	-4060
▁వినాయక	-4061
▁వివాదం	-4062
▁విశేషం	-4063
▁వున్నా	-4064
▁వృక్షం	-4065
▁వెల్లడ	-4066
▁వేదాలు	-4067
▁శకుంతల	-4068
▁శాశ్వత	-4069
▁సంఖ్యా	-4070
▁సందర్శ	-4071
▁సమయంలో	-4072
▁సమష్టి	-4073
▁సమాజము	-4074
▁సముచిత	-4075
▁సాంఘిక	-4076
▁సానియా	-4077
▁సాఫ్ట్	-4078
▁సార్క్	-4079
▁సింహపు	-4080
▁సిక్కు	-4081
▁సిద్ధం	-4082
▁సుమారు	-4083
▁సూచనలు	-4084
▁సెర్టి	-4085
▁స్థానే	-4086
▁స్థాపక	-4087
▁స్థితి	-4088
▁స్లామ్	-4089
▁స్వర్ణ	-4090
▁స్వీకర	-4091
▁హాకీలో	-4092
▁హైకోర్	-4093
59-421-5	-4094
ంటున్నది	-4095
ంద్రనాథ్	-4096
కృష్టమైన	-4097
క్కనుంది	-4098
క్షమైంది	-4099
గలిగినది	-4100
చిత్రాలు	-4101
టెహ్రాన్	-4102
డ్మింటన్	-4103
ణాసియాలో	-4104
దిగ్భాగే	-4105
నకరమేనని	-4106
నిర్వాహక	-4107
నిల్లయిన	-4108
పెట్టారు	-4109
భరతవర్షం	-4110
భారతదేశం	-4111
మంత్రికి	-4112
మాదిరిగా	-4113
ముఖ్యతను	-4114
ముఖ్యమైన	-4115
ర్తిత్వం	-4116
లాగృహాలు	-4117
ల్తానులు	-4118
ళవింపబడి	-4119
శాల్యంలో	-4120
స్థానంలో	-4121
స్థానమైన	-4122
స్వాములు	-4123
ార్థనలలో	-4124
ాశ్రయాలు	-4125
ించవచ్చు	-4126
ిశ్రామిక	-4127
ిస్తామని	-4128
ిస్తుంది	-4129
ుకొనబడిన	-4130
ేచ్ఛాయుత	-4131
ైపోతున్న	-4132
్యవంతంగా	-4133
▁0-19-56	-4134
▁121,01,	-4135
▁82,14%,	-4136
▁83,04%,	-4137
▁between	-4138
▁निर्माण	-4139
▁అతిశీతల	-4140
▁అధికారక	-4141
▁అధికారి	-4142
▁అధీనంలో	-4143
▁అరవింద్	-4144
▁అరుదుగా	-4145
▁అరేబియా	-4146
▁అవరోధాల	-4147
▁అవినీతి	-4148
▁అశోకుడు	-4149
▁అస్సామీ	-4150
▁ఆచారాలు	-4151
▁ఆదేశాలు	-4152
▁ఆధారాలు	-4153
▁ఆధ్యాత్	-4154
▁ఆవిర్భవ	-4155
▁ఆసియాలో	-4156
▁ఆహార్యం	-4157
▁ఇవికూడా	-4158
▁ఉండుటచే	-4159
▁ఉనికికి	-4160
▁ఉపఖండపు	-4161
▁ఉపయుక్త	-4162
▁ఎదుర్కొ	-4163
▁ఏర్పడిన	-4164
▁ఏర్పాటు	-4165
▁ఒడిస్సీ	-4166
▁ఓటర్లపై	-4167
▁కథనాలతో	-4168
▁కర్ణాటక	-4169
▁కలకత్తా	-4170
▁కలగలుపు	-4171
▁కలుపుతూ	-4172
▁కల్పుతూ	-4173
▁కాకుండా	-4174
▁కార్పస్	-4175
▁కూడినది	-4176
▁కేంద్రీ	-4177
▁కొలమానం	-4178
▁కోట్లకు	-4179
▁క్యారమ్	-4180
▁క్రమంగా	-4181
▁ఖర్చుతో	-4182
▁గమనించి	-4183
▁గమనికలు	-4184
▁గుప్తుల	-4185
▁గెలిచిన	-4186
▁గోడుంబి	-4187
▁గోదావరి	-4188
▁గోదావరీ	-4189
▁గ్రాండ్	-4190
▁ఘట్టాలు	-4191
▁ఘర్షణను	-4192
▁చదరంగము	-4193
▁చిత్రకళ	-4194
▁చేయటంతో	-4195
▁చేయలేదు	-4196
▁జనాభాలో	-4197
▁జరిగాయి	-4198
▁జాతిపిత	-4199
▁డబుల్స్	-4200
▁డాలర్లు	-4201
▁డ్రైవరు	-4202
▁తక్కువే	-4203
▁తర్వాతి	-4204
▁తలంపుతో	-4205
▁తూర్పున	-4206
▁దగ్గరలో	-4207
▁దీపావళి	-4208
▁దేశాలకూ	-4209
▁దేశాలతో	-4210
▁దేశాలను	-4211
▁దైనందిన	-4212
▁ద్రావిడ	-4213
▁ద్విసభా	-4214
▁నగరాలనే	-4215
▁నెలకొని	-4216
▁పంచాయతి	-4217
▁పట్టణాల	-4218
▁పట్టాలు	-4219
▁పట్టాలె	-4220
▁పట్టును	-4221
▁పదిశాతం	-4222
▁పరిధిలో	-4223
▁పర్యాటక	-4224
▁పార్టీల	-4225
▁పాలకులు	-4226
▁పురుషుల	-4227
▁పూర్వపు	-4228
▁పెద్దగా	-4229
▁పేదరికం	-4230
▁పోటీలలో	-4231
▁పోస్టలు	-4232
▁ప్రజలకు	-4233
▁ప్రజలచే	-4234
▁ప్రదేశే	-4235
▁ప్రదేశ్	-4236
▁ప్రాచ్య	-4237
▁ఫలితంగా	-4238
▁బంగాళాఖ	-4239
▁బండ్లను	-4240
▁బడ్జెట్	-4241
▁బహాయీలు	-4242
▁బహుభాషా	-4243
▁బెంగాల్	-4244
▁భారతంలో	-4245
▁భావిస్త	-4246
▁మంత్రివ	-4247
▁మణిపురి	-4248
▁మతములకు	-4249
▁మద్రాసు	-4250
▁మరెన్నో	-4251
▁మసాలాలు	-4252
▁మాండమస్	-4253
▁మానవుని	-4254
▁మారింది	-4255
▁మారుమూల	-4256
▁మార్గము	-4257
▁మిగిలిన	-4258
▁ముందుగా	-4259
▁ముంబాయి	-4260
▁ముంబైలో	-4261
▁మొగలులు	-4262
▁మొదటిది	-4263
▁రకాలుగా	-4264
▁రామాయణం	-4265
▁రిట్లలో	-4266
▁రెండోది	-4267
▁రొట్టెల	-4268
▁లభ్యమైన	-4269
▁లాభదాయక	-4270
▁లెక్కలు	-4271
▁లెజిస్ల	-4272
▁వంటకాలు	-4273
▁వజ్రాలు	-4274
▁వర్గాలు	-4275
▁వర్ణించ	-4276
▁వర్షాలు	-4277
▁వాహనంలో	-4278
▁వాహనాలు	-4279
▁విజ్ఞాన	-4280
▁విద్యను	-4281
▁విలువైన	-4282
▁వివరాలు	-4283
▁విశిష్ట	-4284
▁వూపింది	-4285
▁వెలుపలి	-4286
▁వేదాలలో	-4287
▁వ్యయంతో	-4288
▁శక్తిగా	-4289
▁శక్తులు	-4290
▁శాకాహార	-4291
▁శిల్పకళ	-4292
▁శ్రీలంక	-4293
▁సంఖ్యలో	-4294
▁సంఖ్యాక	-4295
▁సంగీతము	-4296
▁సంస్థలు	-4297
▁సమాచారం	-4298
▁సముద్రం	-4299
▁సల్వార్	-4300
▁సాధించి	-4301
▁సిగ్నలు	-4302
▁సుదీర్ఘ	-4303
▁స్థానిక	-4304
▁స్వరూపం	-4305
▁హెబియస్	-4306
continent	-4307
ంటున్నారు	-4308
డిగించుకో	-4309
డ్చుకుంది	-4310
ఢవిల్లాయి	-4311
తాధిపత్యం	-4312
నిచ్చింది	-4313
పరిమితికి	-4314
వస్తుందని	-4315
శ్రద్ధలతో	-4316
సుకోవడంతో	-4317
ుకుంటోంది	-4318
ుతున్నారు	-4319
ుపూర్వోత్	-4320
్యప్రాణుల	-4321
▁(0.36%),	-4322
▁(3.72%),	-4323
▁(5.30%),	-4324
▁(8.70%),	-4325
▁81-90046	-4326
▁అంటార్క్	-4327
▁అందించిన	-4328
▁అనుమతిని	-4329
▁అనువైనది	-4330
▁అవసరమైతే	-4331
▁ఆడుతున్న	-4332
▁ఆధీనములో	-4333
▁ఇంగ్లండు	-4334
▁ఇండియాలో	-4335
▁ఇప్పటికీ	-4336
▁ఇవ్వబడిన	-4337
▁ఉన్నట్లు	-4338
▁ఉన్నతంగా	-4339
▁ఎల్లలుగా	-4340
▁ఏకత్వంగల	-4341
▁ఏళ్ళపాటు	-4342
▁ఒలింపిక్	-4343
▁కంటైనెర్	-4344
▁కంపెనీపై	-4345
▁కట్టడాలు	-4346
▁కబడ్డీలో	-4347
▁కల్పించే	-4348
▁కాలాల్లో	-4349
▁కాశ్మీరీ	-4350
▁కాశ్మీరు	-4351
▁కాశ్మీర్	-4352
▁కింగ్డమ్	-4353
▁కుమారుడు	-4354
▁కుమార్తె	-4355
▁కూచిపూడి	-4356
▁కోల్పోతూ	-4357
▁కోవారంటో	-4358
▁గంగోత్రి	-4359
▁గ్రంథాలు	-4360
▁గ్రీకులు	-4361
▁చదరంగంలో	-4362
▁చరిత్రలో	-4363
▁చిహ్నాలు	-4364
▁చెందింది	-4365
▁జరిగింది	-4366
▁జాబితాలో	-4367
▁జీవితంలో	-4368
▁జోన్లుగా	-4369
▁టైటిళ్ళు	-4370
▁ట్రాఫిక్	-4371
▁డిస్కవరీ	-4372
▁తెప్పించ	-4373
▁త్రివర్ణ	-4374
▁త్వరలోనే	-4375
▁దాదాపుగా	-4376
▁దీనివల్ల	-4377
▁దుస్తులు	-4378
▁దృష్ట్యా	-4379
▁దేశమంతటా	-4380
▁దేశాన్ని	-4381
▁నడిపించి	-4382
▁నిడివిని	-4383
▁నిడివిలో	-4384
▁నివాసాలు	-4385
▁నూటనలబైర	-4386
▁నెలకొన్న	-4387
▁నెహ్వాల్	-4388
▁పడుతుంది	-4389
▁పద్ధతిలో	-4390
▁పద్ధతులు	-4391
▁పరమోన్నత	-4392
▁పరిశోధనా	-4393
▁పరీక్షను	-4394
▁పరీక్షలు	-4395
▁పల్లవులు	-4396
▁పార్టీకి	-4397
▁పార్టీగా	-4398
▁పార్టీలు	-4399
▁పార్సీలు	-4400
▁పాలనలోకి	-4401
▁పాలయింది	-4402
▁పిలిచారు	-4403
▁పుట్టాయి	-4404
▁పురుషులు	-4405
▁పొందినది	-4406
▁పోషకాహార	-4407
▁ప్రగతిని	-4408
▁ప్రదేశాల	-4409
▁ప్రాంతాల	-4410
▁ప్రాసెస్	-4411
▁ప్లానెట్	-4412
▁ఫర్మేషన్	-4413
▁ఫ్రాన్స్	-4414
▁బిజినెస్	-4415
▁బౌద్ధులు	-4416
▁బ్రిటీషు	-4417
▁బ్రిటీష్	-4418
▁భాగమేనని	-4419
▁భారతీయుల	-4420
▁భాషలలోను	-4421
▁మతస్తులు	-4422
▁మనదేశంలో	-4423
▁మయన్మార్	-4424
▁మహాభారతం	-4425
▁మార్కెట్	-4426
▁మార్గంలో	-4427
▁మార్గాలే	-4428
▁మీర్జాలు	-4429
▁మెహర్గర్	-4430
▁మైదానంతో	-4431
▁యుద్ధాలు	-4432
▁యునైటెడ్	-4433
▁రంగానికి	-4434
▁రంగాల్లో	-4435
▁రాజ్యాంగ	-4436
▁రూపాంతరం	-4437
▁రోడ్డుకు	-4438
▁లక్షణాలు	-4439
▁లియాండర్	-4440
▁వంశంలోని	-4441
▁వచ్చినది	-4442
▁విధించిన	-4443
▁విభజితమై	-4444
▁విలువలను	-4445
▁వుంటుంది	-4446
▁వెల్లూరు	-4447
▁వైవిధ్యం	-4448
▁వ్యవసాయం	-4449
▁వ్యవస్థల	-4450
▁వ్యాపారం	-4451
▁సంకీర్ణం	-4452
▁సంగీతంలో	-4453
▁సంబంధాలు	-4454
▁సంవత్సరం	-4455
▁సంస్కృతం	-4456
▁సంస్కృతీ	-4457
▁సత్యజిత్	-4458
▁సభ్యులను	-4459
▁సమాఖ్యలు	-4460
▁సవాళ్లను	-4461
▁సాధించగా	-4462
▁సాహిత్యం	-4463
▁సింధులోయ	-4464
▁సిక్కులు	-4465
▁సౌకర్యము	-4466
▁స్థానాలు	-4467
▁స్థాయిలో	-4468
▁స్థిరమైన	-4469
▁స్వాధీనం	-4470
▁స్వీకారం	-4471
▁హక్కులకు	-4472
ఆంగ్లేయులు	-4473
ఇస్తాంబుల్	-4474
నప్పటికినీ	-4475
ప్రస్తుతము	-4476
రాజ్యసమితి	-4477
ష్ట్రపతులు	-4478
ుకోవడానికి	-4479
్యవస్థీకరణ	-4480
▁(17.23%).	-4481
▁2003–2004	-4482
▁32,87,263	-4483
▁అణ్వస్త్ర	-4484
▁అతివేగంగా	-4485
▁అధికారంలో	-4486
▁అధికారాలు	-4487
▁అధిగమించి	-4488
▁అప్పిలేట్	-4489
▁అహింసాయుత	-4490
▁ఆణిముత్యం	-4491
▁ఉత్తరాదిన	-4492
▁ఉత్సాహంగా	-4493
▁ఉపఖండములో	-4494
▁ఋతుపవనాలు	-4495
▁ఎన్నికలలో	-4496
▁ఏర్పడింది	-4497
▁కలుగుతాయి	-4498
▁కష్టంకాగా	-4499
▁కుటుంబాలు	-4500
▁కుదిర్చిన	-4501
▁కోర్టులకు	-4502
▁గుర్తింపు	-4503
▁చక్రవర్తి	-4504
▁చూపబడింది	-4505
▁చేయడానికి	-4506
▁చేయబడింది	-4507
▁జరుపుకునే	-4508
▁జాతీయవాదం	-4509
▁టెక్నాలజీ	-4510
▁టెలివిజన్	-4511
▁తత్వానికి	-4512
▁తరతరాలుగా	-4513
▁తురుష్కుల	-4514
▁తెలిసింది	-4515
▁తేలికేననీ	-4516
▁దర్శకుడైన	-4517
▁దాటేసింది	-4518
▁దేశరాజకీయ	-4519
▁దేశాధినేత	-4520
▁ధరిస్తారు	-4521
▁నడిపించటం	-4522
▁నడుస్తాయి	-4523
▁నాగరికతకు	-4524
▁నాయకత్వాన	-4525
▁నిర్వహణలో	-4526
▁నిలిచింది	-4527
▁నెమలిపావో	-4528
▁పచ్చజెండా	-4529
▁పట్టణాలను	-4530
▁పదార్థాలు	-4531
▁పద్ధతులతో	-4532
▁పరిపాలించ	-4533
▁పరిస్థితి	-4534
▁పర్వతాలతో	-4535
▁పవిత్రంగా	-4536
▁పస్రిద్ధి	-4537
▁పాండ్యులు	-4538
▁పార్టీలతో	-4539
▁పీఠభూమికి	-4540
▁పీఠభూమితో	-4541
▁పురుషులకు	-4542
▁పెద్దపులి	-4543
▁పోర్చుగల్	-4544
▁ప్రఖ్యాతి	-4545
▁ప్రాదేశిక	-4546
▁ప్రాబల్యం	-4547
▁ప్లగ్గులు	-4548
▁బహిరంగంగా	-4549
▁బెంగుళూరు	-4550
▁భరతనాట్యం	-4551
▁భారతదేశము	-4552
▁భారతదేశమే	-4553
▁భారతీయులు	-4554
▁భింబెట్కా	-4555
▁మంత్రిత్వ	-4556
▁మంత్రులచే	-4557
▁మార్గాలను	-4558
▁మార్గాలలో	-4559
▁మొదలగునవి	-4560
▁రహదారులను	-4561
▁రాజకీయాలు	-4562
▁రాజధానులు	-4563
▁రాజ్యాలను	-4564
▁రాతియుగపు	-4565
▁రాష్ట్రపు	-4566
▁రూపాంతరమే	-4567
▁వందేమాతరం	-4568
▁వహించింది	-4569
▁వహిస్తాయి	-4570
▁విధానాలతో	-4571
▁వ్యవస్థగా	-4572
▁వ్యవహారాల	-4573
▁శ్లోకాలతో	-4574
▁సంక్రాంతి	-4575
▁సంవత్సరాల	-4576
▁సంస్కరణలు	-4577
▁సభ్యురాలు	-4578
▁సమశీతోష్ణ	-4579
▁సరిహద్దున	-4580
▁సర్వీసును	-4581
▁సాధారణంగా	-4582
▁సాధించాము	-4583
▁సారవంతమైన	-4584
▁సింధుాలోయ	-4585
▁సొర్సింగ్	-4586
▁స్వతంత్రం	-4587
▁హిమాలయాలు	-4588
▁హైదరాబాదు	-4589
▁హైదరాబాద్	-4590
పాండిచ్చేరి	-4591
ిస్తున్నాయి	-4592
ెండుకోట్లకు	-4593
▁10,000,000	-4594
▁2005-05-07	-4595
▁Ethnologue	-4596
▁అక్షరబద్ధం	-4597
▁అత్యధికంగా	-4598
▁అనుసరిస్తూ	-4599
▁అభిప్రాయపడ	-4600
▁అమలవుతుంది	-4601
▁అహ్మదీయులు	-4602
▁ఆక్రమించిన	-4603
▁ఆక్షరాస్యత	-4604
▁ఇంటిపేర్లు	-4605
▁ఇండోనేసియా	-4606
▁ఇతరదేశాలకు	-4607
▁ఇతరదేశాలను	-4608
▁ఇతిహాసాలపై	-4609
▁ఎమర్జెన్సీ	-4610
▁ఏర్పరచింది	-4611
▁ఒక్కొక్కటే	-4612
▁కుటుంబాలకు	-4613
▁కొద్దిభాగం	-4614
▁గోడుంబిళ్ళ	-4615
▁చవిచూసింది	-4616
▁చాళుక్యులు	-4617
▁చిత్రమాలిక	-4618
▁చిరునామాలు	-4619
▁చేయిస్తారు	-4620
▁జన్మస్థానం	-4621
▁టెన్నిస్లో	-4622
▁తమిళనాడుకు	-4623
▁తారతమ్యాలు	-4624
▁దేశాల్లోనూ	-4625
▁ద్వీపకల్పం	-4626
▁నగరాలనుండి	-4627
▁నడిపించటమూ	-4628
▁నాయకత్వంలో	-4629
▁నియోలిథిక్	-4630
▁నిర్మించిన	-4631
▁పర్వదినాలు	-4632
▁పర్షియనులు	-4633
▁పార్లమెంటు	-4634
▁పుట్టిల్లు	-4635
▁పెట్రోలియం	-4636
▁పేరుమీదుగా	-4637
▁ప్రణాళికలు	-4638
▁ప్రతిపక్షం	-4639
▁ప్రయాణికుల	-4640
▁ప్రయోజనాలు	-4641
▁ప్రస్తుతము	-4642
▁ప్రాంతాలకు	-4643
▁ప్రాంతాలతో	-4644
▁ప్రాయమైనది	-4645
▁ప్రారంభమైన	-4646
▁బంగాళాఖాతం	-4647
▁భారతీయుడైన	-4648
▁భార్తదేశపు	-4649
▁మధ్యకాలంలో	-4650
▁మాల్దీవులు	-4651
▁మినహాయించి	-4652
▁మేళవింపబడి	-4653
▁మొదలగువారు	-4654
▁మౌఖికమైనది	-4655
▁యాత్రికులు	-4656
▁రాణించలేదు	-4657
▁రూపొందింది	-4658
▁లక్షణాన్ని	-4659
▁వచ్చినవారి	-4660
▁వర్గాలలోను	-4661
▁వర్గీకరణలో	-4662
▁వర్ధిల్లిన	-4663
▁వారసత్వంగా	-4664
▁విశాఖపట్నం	-4665
▁విశ్వనాథన్	-4666
▁విస్తీర్ణం	-4667
▁విస్తృతంగా	-4668
▁వెబ్సైట్లు	-4669
▁వైశాల్యంలో	-4670
▁శిలాగృహాలు	-4671
▁శ్రీశైలస్య	-4672
▁సంఘర్షణలను	-4673
▁సందర్శించే	-4674
▁సంబంధించిన	-4675
▁సంవత్సారాల	-4676
▁సంస్కరణలతో	-4677
▁సంస్కృతిలో	-4678
▁సముద్రతీరం	-4679
▁సరిహద్దులు	-4680
▁సర్వసత్తాక	-4681
▁సహాయకారిగా	-4682
▁సాధించింది	-4683
▁సింధూనదికి	-4684
▁సుల్తానులు	-4685
▁హిందువులైన	-4686
▁హైకోర్టులు	-4687
నిస్తున్నారు	-4688
ించుకున్నారు	-4689
▁అతిముఖ్యమైన	-4690
▁అధికారాన్ని	-4691
▁అధికారికంగా	-4692
▁అన్నిటికంటే	-4693
▁అయినప్పటికీ	-4694
▁అవతరించింది	-4695
▁అహమ్మదాబాదు	-4696
▁ఆధ్యాత్మికత	-4697
▁ఉత్కృష్టమైన	-4698
▁ఏడవస్థానంలో	-4699
▁ఒకేమాదిరిగా	-4700
▁కనిపించింది	-4701
▁కాంగ్రెసును	-4702
▁కాంగ్రెసేతర	-4703
▁కూడుకున్నది	-4704
▁కేంద్రాల్లో	-4705
▁క్రిస్టాటస్	-4706
▁క్రైస్తవులు	-4707
▁గుప్తులకాలం	-4708
▁గౌరవిస్తారు	-4709
▁చారిత్రకంగా	-4710
▁చేసుకోవడంతో	-4711
▁జన్మదినాలకు	-4712
▁దండయాత్రలతో	-4713
▁దక్షిణాదికి	-4714
▁ద్వైపాక్షిక	-4715
▁నడిపించాలనే	-4716
▁నియమించబడిన	-4717
▁నియమించబడ్డ	-4718
▁నిర్మించేది	-4719
▁నిలబెట్టుకు	-4720
▁నెరవేరతాయని	-4721
▁పల్లెల్లోని	-4722
▁పారిశ్రామిక	-4723
▁పార్లమెంటరీ	-4724
▁పాలకులనుండి	-4725
▁పొడిగించుకో	-4726
▁ప్రతినిధిచే	-4727
▁ప్రత్యేకమైన	-4728
▁ప్రపంచంలోనే	-4729
▁ప్రభుత్వంచే	-4730
▁ప్రభుత్వంలో	-4731
▁ప్రముఖమైనది	-4732
▁ప్రముఖమైనదే	-4733
▁ప్రాచుర్యము	-4734
▁ప్రార్థనలలో	-4735
▁బిన్నత్వంలో	-4736
▁బ్రహ్మపుత్ర	-4737
▁భాగస్వాములు	-4738
▁భిన్నత్వాలు	-4739
▁మంత్రివర్గం	-4740
▁మర్రిచెట్టు	-4741
▁మొదటిసారిగా	-4742
▁మొదలవుతుంది	-4743
▁రచయితలెందరో	-4744
▁రవీంద్రనాథ్	-4745
▁రెండువైపులా	-4746
▁రైల్వేశాఖకు	-4747
▁లెజిస్లేచర్	-4748
▁వన్యప్రాణుల	-4749
▁వాటిల్లింది	-4750
▁విడిపోయింది	-4751
▁విశ్వామిత్ర	-4752
▁విస్తరించిన	-4753
▁వ్యవస్థలోని	-4754
▁శ్రీరామనవమి	-4755
▁సంవత్సరాలలో	-4756
▁సంస్కృతులతో	-4757
▁సముద్రతీరము	-4758
▁సరిహద్దులను	-4759
▁సరిహద్దులలో	-4760
▁స్వేచ్ఛాయుత	-4761
▁హిందూస్తానీ	-4762
▁హిందూస్తాన్	-4763
▁అలీనోద్యమంలో	-4764
▁ఆక్రమణదారులు	-4765
▁ఇముడ్చుకుంది	-4766
▁ఉద్భవించినవే	-4767
▁ఉపయోగిస్తారు	-4768
▁ఎన్నుకుంటారు	-4769
▁ఎన్నుకొనబడిన	-4770
▁కాలపరిమితికి	-4771
▁కేంద్రీకృతమై	-4772
▁కొనసాగుతోంది	-4773
▁గుర్తించింది	-4774
▁జాతీయాదాయంలో	-4775
▁తగ్గిపోయింది	-4776
▁దక్షణాసియాలో	-4777
▁నడిపిస్తామని	-4778
▁నిరక్షరాస్యత	-4779
▁నివారిస్తారు	-4780
▁పంచుకుంటోంది	-4781
▁పరిఢవిల్లాయి	-4782
▁పాకిస్తాన్తో	-4783
▁పాకిస్థాన్కు	-4784
▁పేర్కొనవచ్చు	-4785
▁పేర్కొన్నాయి	-4786
▁ప్రత్యక్షంగా	-4787
▁ప్రాముఖ్యతను	-4788
▁బ్యాడ్మింటన్	-4789
▁మొదలైనటువంటి	-4790
▁రాష్ట్రపతిచే	-4791
▁రాష్ట్రానికి	-4792
▁రాష్ట్రాలుగా	-4793
▁లాభదాయకమేననీ	-4794
▁వాణిజ్యపరంగా	-4795
▁వారసత్వానికి	-4796
▁వారసత్వాన్ని	-4797
▁విస్తీర్ణంతో	-4798
▁వైవిధ్యమైనది	-4799
▁వైవిధ్యమైనవి	-4800
▁సంప్రదాయాలను	-4801
▁సహస్రాబ్దిలో	-4802
▁సామ్రాజ్యాలు	-4803
▁సిద్ధించింది	-4804
▁సెర్టియోరారి	-4805
▁సౌకర్యవంతంగా	-4806
▁స్టేటాయిడ్స్	-4807
▁స్థూలాదాయంలో	-4808
ుపూర్వోత్తరాలు	-4809
▁0-19-562359-2	-4810
▁1-74059-421-5	-4811
▁81-900461-8-7	-4812
▁అయినప్పటికినీ	-4813
▁ఆఫ్ఘానిస్తాన్	-4814
▁ఉపయోగిస్తుంది	-4815
▁ఎన్నుకుంటుంది	-4816
▁కాపాడుకుంటూనే	-4817
▁కార్యక్రమాలలో	-4818
▁కార్యనిర్వాహక	-4819
▁కుడ్యచిత్రాలు	-4820
▁గుత్తాధిపత్యం	-4821
▁గుర్తించవచ్చు	-4822
▁చెప్పుకోవచ్చు	-4823
▁జన్మనిచ్చింది	-4824
▁నడిపించవచ్చని	-4825
▁నిర్మిస్తున్న	-4826
▁న్యాయస్థానమైన	-4827
▁ప్రతిపాదనల్లో	-4828
▁ప్రపంచదేశాలలో	-4829
▁ప్రాజాస్వామ్య	-4830
▁భావిస్తున్నది	-4831
▁మధ్యవర్తిత్వం	-4832
▁మెట్రోపాలిటన్	-4833
▁వర్ణించబడింది	-4834
▁విమానాశ్రయాలు	-4835
▁వెల్లడించింది	-4836
▁వ్యాపారవేత్తల	-4837
▁స్వీకరించింది	-4838
ైపోతున్నప్పటికీ	-4839
▁121,01,93,422.	-4840
▁ఆవిర్భవించింది	-4841
▁ఉపరాష్ట్రపతులు	-4842
▁ఐక్యరాజ్యసమితి	-4843
▁కలిసివస్తుందని	-4844
▁చెప్పుకోదగినది	-4845
▁దక్షిణదిగ్భాగే	-4846
▁దేశరాజకీయాల్లో	-4847
▁న్యాయవ్యవస్థలో	-4848
▁పద్ధతులున్నాయి	-4849
▁పుట్టినిల్లయిన	-4850
▁ప్రతిపక్షమైంది	-4851
▁ప్రధానమంత్రికి	-4852
▁ప్రధానమంత్రిని	-4853
▁ప్రభుత్వాలన్నీ	-4854
▁ప్రయోజనకరమేనని	-4855
▁ప్రారంభించాలని	-4856
▁ప్రారంభించాలనే	-4857
▁భక్తిశ్రద్ధలతో	-4858
▁సంకీర్ణాలేకాగా	-4859
▁సాంప్రదాయికమైన	-4860
▁సాధించగలిగినది	-4861
▁ఆడుతున్నవార్లలో	-4862
▁ఎదుర్కొంటున్నది	-4863
▁పట్టాలెక్కనుంది	-4864
▁పేర్కొంటున్నారు	-4865
▁సాధించిపెట్టారు	-4866
ci	-4867
lu	-4868
ni	-4869
sh	-4870
vi	-4871
ज़	-4872
टी	-4873
ण्	-4874
वन	-4875
ेष	-4876
ॉल	-4877
ोर	-4878
्ञ	-4879
▁j	-4880
▁ऋ	-4881
ace	-4882
ade	-4883
ell	-4884
ांग	-4885
ागर	-4886
ाता	-4887
ुरु	-4888
▁Al	-4889
▁It	-4890
▁अज	-4891
▁अव	-4892
▁पृ	-4893
atic	-4894
hern	-4895
ilit	-4896
ited	-4897
merg	-4898
ांचा	-4899
ाधिक	-4900
्वीप	-4901
▁tim	-4902
▁किन	-4903
▁बदल	-4904
▁बीच	-4905
ition	-4906
ublic	-4907
राज्य	-4908
▁east	-4909
▁fore	-4910
▁hist	-4911
▁असते	-4912
▁झाला	-4913
▁महार	-4914
ांच्या	-4915
▁later	-4916
▁नेतृत	-4917
▁पार्ट	-4918
▁पृष्ठ	-4919
▁बंगाल	-4920
▁वैदिक	-4921
▁सैन्य	-4922
▁हिन्द	-4923
versity	-4924
▁द्वारा	-4925
▁प्रधान	-4926
▁economy	-4927
▁चुनावों	-4928
▁Pakistan	-4929
▁northern	-4930
▁प्रत्येक	-4931
▁स्वतंत्र	-4932
aw	-4933
cy	-4934
ik	-4935
lo	-4936
मत	-4937
लय	-4938
शन	-4939
ाख	-4940
ीस	-4941
ेर	-4942
्म	-4943
▁४	-4944
gin	-4945
omp	-4946
ust	-4947
तिक	-4948
भाव	-4949
▁By	-4950
▁ab	-4951
▁उन	-4952
▁कम	-4953
▁जा	-4954
▁पठ	-4955
▁मौ	-4956
able	-4957
iter	-4958
omin	-4959
raph	-4960
ting	-4961
ular	-4962
क्ति	-4963
ामान	-4964
ुप्त	-4965
ृत्य	-4966
▁195	-4967
▁ext	-4968
▁mat	-4969
▁non	-4970
▁sec	-4971
▁इतर	-4972
▁उदा	-4973
▁काम	-4974
▁घोष	-4975
▁मिल	-4976
velop	-4977
स्लाम	-4978
▁peop	-4979
▁rate	-4980
▁spec	-4981
▁केली	-4982
▁झाली	-4983
ंग्रेस	-4984
▁After	-4985
▁influ	-4986
▁since	-4987
▁there	-4988
▁जनजात	-4989
▁मध्ये	-4990
ॉंग्रेस	-4991
▁इस्लाम	-4992
▁प्रमाण	-4993
▁हवामान	-4994
▁western	-4995
▁प्राप्त	-4996
▁संस्कृत	-4997
▁economic	-4998
▁classical	-4999
▁increased	-5000
▁subcontinent	-5001
▁अर्थव्यवस्था	-5002
hm	-5003
sl	-5004
ta	-5005
च्	-5006
टे	-5007
तु	-5008
रत	-5009
सि	-5010
िप	-5011
ीं	-5012
▁ठ	-5013
esp	-5014
hem	-5015
iod	-5016
ise	-5017
lim	-5018
odi	-5019
ond	-5020
ork	-5021
orm	-5022
own	-5023
ण्ड	-5024
साय	-5025
हें	-5026
ीचे	-5027
ैकी	-5028
ैली	-5029
▁Pl	-5030
▁Th	-5031
▁ro	-5032
▁ru	-5033
▁आद	-5034
▁गु	-5035
▁पड	-5036
▁मा	-5037
▁ले	-5038
▁वन	-5039
▁वै	-5040
▁सण	-5041
▁सद	-5042
▁सभ	-5043
▁सी	-5044
ains	-5045
amil	-5046
ange	-5047
cted	-5048
ered	-5049
ever	-5050
ised	-5051
omet	-5052
tern	-5053
vent	-5054
ण्या	-5055
माणु	-5056
साठी	-5057
ाजिक	-5058
ुद्र	-5059
ुनिक	-5060
्यों	-5061
▁mid	-5062
▁mus	-5063
▁new	-5064
▁occ	-5065
▁rep	-5066
▁war	-5067
▁नाग	-5068
▁लाग	-5069
▁१९७	-5070
ately	-5071
ative	-5072
cient	-5073
कालीन	-5074
▁Chin	-5075
▁Mugh	-5076
▁cour	-5077
▁life	-5078
▁than	-5079
▁अन्त	-5080
▁आहार	-5081
▁पक्ष	-5082
▁पर्य	-5083
▁समाज	-5084
▁among	-5085
▁emerg	-5086
▁liter	-5087
▁milit	-5088
▁parli	-5089
▁power	-5090
▁state	-5091
▁कार्य	-5092
▁पर्वत	-5093
ांमध्ये	-5094
▁number	-5095
▁people	-5096
▁period	-5097
▁region	-5098
▁जनजाति	-5099
▁न्याया	-5100
▁परमाणु	-5101
▁develop	-5102
▁general	-5103
▁largest	-5104
▁nuclear	-5105
▁species	-5106
▁गणराज्य	-5107
▁नेतृत्व	-5108
▁सामाजिक	-5109
▁कॉंग्रेस	-5110
▁सर्वाधिक	-5111
▁parliament	-5112
▁महाराष्ट्र	-5113
ok	-5114
te	-5115
ya	-5116
गर	-5117
चल	-5118
ठा	-5119
फ़	-5120
षभ	-5121
ाब	-5122
ैल	-5123
ोध	-5124
ोप	-5125
्ल	-5126
▁३	-5127
▁६	-5128
ess	-5129
hen	-5130
jab	-5131
ket	-5132
ple	-5133
ron	-5134
ted	-5135
ten	-5136
uro	-5137
ved	-5138
ंतु	-5139
च्छ	-5140
पाल	-5141
यास	-5142
ष्ण	-5143
स्ट	-5144
ाना	-5145
ियन	-5146
ीरे	-5147
्तु	-5148
्ले	-5149
▁US	-5150
▁en	-5151
▁अग	-5152
▁आक	-5153
▁इन	-5154
▁ओर	-5155
▁गई	-5156
▁सक	-5157
ansk	-5158
enni	-5159
ंग्र	-5160
ताब्	-5161
ोच्च	-5162
▁Pun	-5163
▁bas	-5164
▁est	-5165
▁exp	-5166
▁ref	-5167
▁set	-5168
▁अरब	-5169
▁ईसा	-5170
▁चीन	-5171
▁साल	-5172
▁२००	-5173
engal	-5174
ities	-5175
ments	-5176
ultan	-5177
urope	-5178
न्द्र	-5179
शासित	-5180
स्थान	-5181
▁East	-5182
▁Indo	-5183
▁lead	-5184
▁rule	-5185
▁them	-5186
▁असले	-5187
▁असून	-5188
▁आधार	-5189
▁किल्	-5190
▁जातो	-5191
▁पठार	-5192
▁पहले	-5193
▁लिये	-5194
▁स्तर	-5195
ennium	-5196
ograph	-5197
ताब्दी	-5198
▁China	-5199
▁Sansk	-5200
▁human	-5201
▁उदाहर	-5202
▁काळात	-5203
▁दृष्ट	-5204
▁परंतु	-5205
▁प्रति	-5206
▁विकास	-5207
▁विद्य	-5208
▁व्याप	-5209
▁सिंधू	-5210
▁Bengal	-5211
▁Mughal	-5212
▁Punjab	-5213
▁caused	-5214
▁social	-5215
▁though	-5216
▁आधुनिक	-5217
▁जिसमें	-5218
▁प्रभाव	-5219
▁भूमिका	-5220
▁वर्षों	-5221
▁समुद्र	-5222
▁country	-5223
▁through	-5224
▁शताब्दी	-5225
illennium	-5226
▁Sanskrit	-5227
▁military	-5228
▁including	-5229
▁languages	-5230
▁क्षेत्रीय	-5231
▁constitution	-5232
▁प्रधानमंत्री	-5233
ai	-5234
ंच	-5235
ंह	-5236
एँ	-5237
जे	-5238
टन	-5239
भग	-5240
मन	-5241
ळू	-5242
वे	-5243
हि	-5244
५०	-5245
ati	-5246
ded	-5247
dle	-5248
hes	-5249
ice	-5250
ild	-5251
ird	-5252
orn	-5253
ors	-5254
ost	-5255
rew	-5256
ंदि	-5257
ड़े	-5258
धार	-5259
नाड	-5260
न्द	-5261
न्न	-5262
म्भ	-5263
सित	-5264
हाँ	-5265
ोलन	-5266
▁St	-5267
▁ne	-5268
▁अथ	-5269
▁आग	-5270
▁गठ	-5271
▁जब	-5272
▁जै	-5273
▁तो	-5274
▁थे	-5275
▁मत	-5276
▁मन	-5277
▁रो	-5278
▁१८	-5279
ared	-5280
ians	-5281
ivil	-5282
ould	-5283
read	-5284
क्रम	-5285
देशी	-5286
पैकी	-5287
बंधन	-5288
ांशी	-5289
ित्त	-5290
िष्ट	-5291
्यता	-5292
▁Mus	-5293
▁Sik	-5294
▁all	-5295
▁app	-5296
▁emp	-5297
▁far	-5298
▁gra	-5299
▁led	-5300
▁one	-5301
▁pre	-5302
▁sty	-5303
▁sup	-5304
▁एवं	-5305
▁कुछ	-5306
▁नदी	-5307
▁लोग	-5308
▁सदस	-5309
duced	-5310
heast	-5311
ident	-5312
large	-5313
पासून	-5314
▁Cent	-5315
▁Comp	-5316
▁dire	-5317
▁foun	-5318
▁main	-5319
▁sign	-5320
▁some	-5321
▁अतिश	-5322
▁उत्त	-5323
▁उत्प	-5324
▁गंगा	-5325
▁गांध	-5326
▁जनसं	-5327
▁परंप	-5328
▁शहरी	-5329
▁हिंद	-5330
imalay	-5331
ording	-5332
owever	-5333
vement	-5334
▁Indus	-5335
▁Plate	-5336
▁great	-5337
▁music	-5338
▁offic	-5339
▁other	-5340
▁polit	-5341
▁river	-5342
▁rural	-5343
▁आक्रम	-5344
▁दोनों	-5345
▁द्वीप	-5346
▁नृत्य	-5347
▁प्राण	-5348
▁बहुमत	-5349
▁येथील	-5350
▁रक्षा	-5351
▁राजनी	-5352
▁संगीत	-5353
largest	-5354
▁export	-5355
▁forest	-5356
▁mathem	-5357
▁religi	-5358
▁served	-5359
▁उद्योग	-5360
▁जगातील	-5361
्यांच्या	-5362
▁Himalay	-5363
▁billion	-5364
▁स्थानिक	-5365
्यांमध्ये	-5366
▁election	-5367
▁जनसंख्या	-5368
▁संस्कृति	-5369
▁सर्वोच्च	-5370
▁centuries	-5371
▁विद्यार्थ	-5372
▁millennium	-5373
▁स्वतंत्रता	-5374
);	-5375
6%	-5376
eh	-5377
gl	-5378
wn	-5379
खन	-5380
मह	-5381
ळख	-5382
ळी	-5383
ाह	-5384
ुल	-5385
ुष	-5386
ूस	-5387
ेट	-5388
ेल	-5389
ोब	-5390
▁$	-5391
▁%	-5392
▁'	-5393
▁७	-5394
abl	-5395
acy	-5396
ank	-5397
anu	-5398
arn	-5399
ars	-5400
ata	-5401
ats	-5402
cri	-5403
day	-5404
eat	-5405
gen	-5406
ins	-5407
mit	-5408
put	-5409
rol	-5410
ँकि	-5411
ंती	-5412
ंदी	-5413
करण	-5414
गोल	-5415
चना	-5416
ज़ी	-5417
ज्ञ	-5418
थिय	-5419
भाई	-5420
भाष	-5421
यां	-5422
यार	-5423
व्य	-5424
ांस	-5425
िवस	-5426
▁En	-5427
▁Mo	-5428
▁Sh	-5429
▁no	-5430
▁tr	-5431
▁us	-5432
▁we	-5433
▁अश	-5434
▁आय	-5435
▁इम	-5436
▁ऑफ	-5437
▁कृ	-5438
▁गो	-5439
▁घे	-5440
▁ति	-5441
▁दर	-5442
▁पै	-5443
▁मस	-5444
▁मू	-5445
▁वर	-5446
▁वृ	-5447
▁१२	-5448
ands	-5449
ants	-5450
dust	-5451
elhi	-5452
eral	-5453
ives	-5454
ocal	-5455
omen	-5456
very	-5457
नंतर	-5458
ांति	-5459
ाजपा	-5460
ोपीय	-5461
्राम	-5462
्लेट	-5463
▁Isl	-5464
▁acc	-5465
▁ass	-5466
▁bir	-5467
▁col	-5468
▁leg	-5469
▁out	-5470
▁sur	-5471
▁आले	-5472
▁इसी	-5473
▁ओळख	-5474
▁कला	-5475
▁चार	-5476
▁जिन	-5477
▁जैन	-5478
▁पड़	-5479
▁पहा	-5480
▁बनी	-5481
▁बने	-5482
▁भरत	-5483
▁युग	-5484
▁यूर	-5485
▁रहे	-5486
▁लाल	-5487
▁विष	-5488
▁वेग	-5489
▁वैश	-5490
▁१९८	-5491
ances	-5492
andhi	-5493
ensus	-5494
ories	-5495
ribut	-5496
थियार	-5497
युक्त	-5498
स्त्र	-5499
ाज्या	-5500
ारम्भ	-5501
▁Sikh	-5502
▁coal	-5503
▁cook	-5504
▁high	-5505
▁made	-5506
▁tech	-5507
▁time	-5508
▁used	-5509
▁wide	-5510
▁अथवा	-5511
▁अपनी	-5512
▁अपने	-5513
▁अप्र	-5514
▁करना	-5515
▁करून	-5516
▁ज्या	-5517
▁तमिल	-5518
▁निवड	-5519
▁प्रद	-5520
▁बड़ा	-5521
▁बांध	-5522
▁लगभग	-5523
▁लिया	-5524
▁वर्ग	-5525
▁सिंह	-5526
▁सेवा	-5527
▁हाला	-5528
ातंत्र	-5529
्यांची	-5530
▁Delhi	-5531
▁agric	-5532
▁areas	-5533
▁coast	-5534
▁third	-5535
▁trans	-5536
▁women	-5537
▁अतिशय	-5538
▁इमारत	-5539
▁गांधी	-5540
▁गुप्त	-5541
▁निभाई	-5542
▁प्लेट	-5543
धिकारिक	-5544
▁Gandhi	-5545
▁Muslim	-5546
▁direct	-5547
▁growth	-5548
▁territ	-5549
▁अधिकार	-5550
▁उदाहरण	-5551
▁गठबंधन	-5552
▁पार्टी	-5553
▁पूर्वी	-5554
▁मोठ्या	-5555
▁वर्षां	-5556
▁विकसित	-5557
▁हथियार	-5558
ultanate	-5559
▁Central	-5560
▁Company	-5561
▁Indians	-5562
▁central	-5563
▁control	-5564
▁culture	-5565
▁emerged	-5566
▁include	-5567
▁influen	-5568
▁केन्द्र	-5569
▁संयुक्त	-5570
▁सर्वांत	-5571
▁स्थापना	-5572
▁हालाँकि	-5573
▁Hinduism	-5574
▁न्यायालय	-5575
▁प्रारम्भ	-5576
▁बहुतांशी	-5577
▁following	-5578
▁political	-5579
▁religious	-5580
▁tradition	-5581
▁स्वातंत्र	-5582
▁राष्ट्रपती	-5583
1.	-5584
19	-5585
JP	-5586
au	-5587
ck	-5588
ft	-5589
iz	-5590
ti	-5591
ँच	-5592
ंक	-5593
ंस	-5594
एं	-5595
घल	-5596
जर	-5597
टा	-5598
डा	-5599
तः	-5600
पर	-5601
यक	-5602
यी	-5603
रु	-5604
वल	-5605
सभ	-5606
सम	-5607
ूष	-5608
ोह	-5609
ौर	-5610
ani	-5611
are	-5612
dam	-5613
dic	-5614
led	-5615
ley	-5616
oin	-5617
oms	-5618
ons	-5619
ood	-5620
til	-5621
ven	-5622
vid	-5623
vol	-5624
ंबे	-5625
देव	-5626
नाट	-5627
मिक	-5628
मीर	-5629
म्ब	-5630
लों	-5631
वरी	-5632
ष्क	-5633
सार	-5634
ांड	-5635
ाती	-5636
ासा	-5637
ॉलर	-5638
्वे	-5639
▁1,	-5640
▁bi	-5641
▁fl	-5642
▁अफ	-5643
▁आढ	-5644
▁उभ	-5645
▁उस	-5646
▁ऊँ	-5647
▁कह	-5648
▁गए	-5649
▁दे	-5650
▁मे	-5651
▁रख	-5652
▁शक	-5653
▁सध	-5654
▁सल	-5655
▁सू	-5656
▁हर	-5657
▁१०	-5658
▁१५	-5659
ades	-5660
ehru	-5661
emoc	-5662
fied	-5663
fore	-5664
ific	-5665
ines	-5666
ists	-5667
ites	-5668
main	-5669
ulpt	-5670
west	-5671
work	-5672
ंजाब	-5673
द्या	-5674
ध्यम	-5675
लावा	-5676
वर्ष	-5677
सेना	-5678
ांची	-5679
ांचे	-5680
ातून	-5681
ावली	-5682
ियां	-5683
िष्ठ	-5684
ुरुव	-5685
ुष्क	-5686
ेतात	-5687
ेतील	-5688
्राट	-5689
▁Act	-5690
▁Its	-5691
▁ago	-5692
▁arm	-5693
▁cap	-5694
▁car	-5695
▁cre	-5696
▁dev	-5697
▁dra	-5698
▁ent	-5699
▁esp	-5700
▁fed	-5701
▁fig	-5702
▁her	-5703
▁ori	-5704
▁rul	-5705
▁अलग	-5706
▁आदि	-5707
▁आली	-5708
▁कुल	-5709
▁गेट	-5710
▁तरी	-5711
▁तीस	-5712
▁निम	-5713
▁निर	-5714
▁बार	-5715
▁मरा	-5716
▁महा	-5717
▁वाप	-5718
▁सम्	-5719
▁सार	-5720
▁हाल	-5721
▁होत	-5722
▁१९६	-5723
ctive	-5724
glish	-5725
istic	-5726
round	-5727
ually	-5728
verse	-5729
ामुळे	-5730
्याचे	-5731
▁Jain	-5732
▁arch	-5733
▁cult	-5734
▁diff	-5735
▁feat	-5736
▁grew	-5737
▁last	-5738
▁pain	-5739
▁righ	-5740
▁supp	-5741
▁they	-5742
▁अजून	-5743
▁उष्ण	-5744
▁कर्ज	-5745
▁जिन्	-5746
▁डॉलर	-5747
▁तमिळ	-5748
▁तयार	-5749
▁धीरे	-5750
▁बड़ी	-5751
▁बड़े	-5752
▁मुघल	-5753
▁मोठा	-5754
▁राजा	-5755
▁शुरू	-5756
▁सीमा	-5757
minist	-5758
ख्याने	-5759
पालिका	-5760
प्रधान	-5761
ाद्वीप	-5762
▁Hindi	-5763
▁Nehru	-5764
▁There	-5765
▁early	-5766
▁espec	-5767
▁found	-5768
▁local	-5769
▁marri	-5770
▁occup	-5771
▁party	-5772
▁rates	-5773
▁इत्या	-5774
▁घोषणा	-5775
▁जिसके	-5776
▁पारंप	-5777
▁भागात	-5778
▁सहयोग	-5779
▁सुरुव	-5780
uropean	-5781
द्योगिक	-5782
▁Ganges	-5783
▁United	-5784
▁census	-5785
▁indust	-5786
▁origin	-5787
▁remain	-5788
▁sculpt	-5789
▁second	-5790
▁states	-5791
▁किन्तु	-5792
▁किल्ला	-5793
▁खासदार	-5794
▁प्रशास	-5795
▁प्रामु	-5796
▁मंत्री	-5797
▁माध्यम	-5798
▁विदेशी	-5799
▁सम्राट	-5800
▁English	-5801
▁ancient	-5802
▁regions	-5803
▁support	-5804
▁इस्लामी	-5805
▁भारताचे	-5806
▁राज्यात	-5807
▁विस्तार	-5808
▁विस्तृत	-5809
▁शास्त्र	-5810
▁literacy	-5811
▁majority	-5812
▁mathemat	-5813
▁painting	-5814
▁अंग्रेजी	-5815
▁आधिकारिक	-5816
▁व्यवस्था	-5817
▁स्थापत्य	-5818
▁contribut	-5819
▁diversity	-5820
▁religions	-5821
▁especially	-5822
▁Constitution	-5823
▁प्रामुख्याने	-5824
▁parliamentary	-5825
4.	-5826
8,	-5827
9.	-5828
DP	-5829
In	-5830
de	-5831
ib	-5832
ix	-5833
ke	-5834
pl	-5835
इन	-5836
कू	-5837
ख्	-5838
गत	-5839
जय	-5840
तन	-5841
तम	-5842
धि	-5843
नत	-5844
फल	-5845
भर	-5846
भु	-5847
ये	-5848
वव	-5849
श्	-5850
ीण	-5851
ूण	-5852
ूत	-5853
०१	-5854
४७	-5855
▁ढ	-5856
▁९	-5857
ach	-5858
amm	-5859
ana	-5860
bal	-5861
ert	-5862
ety	-5863
leg	-5864
mar	-5865
min	-5866
ned	-5867
ody	-5868
ose	-5869
ped	-5870
pro	-5871
tic	-5872
ual	-5873
डील	-5874
त्न	-5875
भाग	-5876
ल्प	-5877
ळवळ	-5878
वंट	-5879
वीं	-5880
शेष	-5881
ाही	-5882
िती	-5883
िसी	-5884
ेली	-5885
ोढ़	-5886
ोने	-5887
ोसी	-5888
०००	-5889
▁21	-5890
▁Se	-5891
▁ed	-5892
▁sm	-5893
▁so	-5894
▁अध	-5895
▁अब	-5896
▁आम	-5897
▁आस	-5898
▁कट	-5899
▁गा	-5900
▁घड	-5901
▁नव	-5902
▁नौ	-5903
▁पस	-5904
▁बि	-5905
▁बै	-5906
▁रह	-5907
▁ला	-5908
▁शत	-5909
▁२६	-5910
alth	-5911
arat	-5912
cent	-5913
dian	-5914
ecut	-5915
ingd	-5916
ings	-5917
osed	-5918
sequ	-5919
ंग्ल	-5920
क्षर	-5921
तमान	-5922
तिशत	-5923
दारी	-5924
धानी	-5925
धारण	-5926
र्थन	-5927
वसाय	-5928
वादी	-5929
वायु	-5930
ांना	-5931
ांनी	-5932
ांवर	-5933
ान्य	-5934
िकाण	-5935
िन्न	-5936
ियान	-5937
ृतिक	-5938
्तनत	-5939
्रिक	-5940
▁Acc	-5941
▁BJP	-5942
▁air	-5943
▁ind	-5944
▁kil	-5945
▁low	-5946
▁off	-5947
▁pen	-5948
▁sou	-5949
▁won	-5950
▁अनु	-5951
▁अभी	-5952
▁अशी	-5953
▁आढळ	-5954
▁उन्	-5955
▁ऋतु	-5956
▁कमी	-5957
▁कृष	-5958
▁घाट	-5959
▁जंग	-5960
▁जवा	-5961
▁जून	-5962
▁दख्	-5963
▁नाट	-5964
▁निय	-5965
▁पंत	-5966
▁फ्र	-5967
▁लाख	-5968
▁शहर	-5969
▁सां	-5970
alled	-5971
alley	-5972
ating	-5973
daman	-5974
ished	-5975
thern	-5976
ण्यास	-5977
द्वीप	-5978
पेक्ष	-5979
प्रिय	-5980
श्मीर	-5981
सिद्ध	-5982
स्लिम	-5983
ानंतर	-5984
ासागर	-5985
ेरिका	-5986
्रीका	-5987
▁Pers	-5988
▁decl	-5989
▁educ	-5990
▁pres	-5991
▁prom	-5992
▁rock	-5993
▁stat	-5994
▁well	-5995
▁अमरी	-5996
▁अस्त	-5997
▁आन्द	-5998
▁इसकी	-5999
▁करता	-6000
▁केवल	-6001
▁क्रम	-6002
▁गुजर	-6003
▁गेली	-6004
▁चळवळ	-6005
▁जबकि	-6006
▁जाना	-6007
▁जाने	-6008
▁दिवस	-6009
▁निर्	-6010
▁नेहर	-6011
▁प्रग	-6012
▁माना	-6013
▁मार्	-6014
▁मिला	-6015
▁वर्ण	-6016
▁वापर	-6017
▁शैली	-6018
▁सुरू	-6019
ration	-6020
ternal	-6021
urther	-6022
ंग्रजी	-6023
पूर्वी	-6024
पेक्षा	-6025
वसायिक	-6026
ामध्ये	-6027
ार्मिक	-6028
िष्ट्य	-6029
्यांचा	-6030
्यांना	-6031
▁Among	-6032
▁Tamil	-6033
▁These	-6034
▁based	-6035
▁birth	-6036
▁earli	-6037
▁endem	-6038
▁forms	-6039
▁inter	-6040
▁lower	-6041
▁often	-6042
▁produ	-6043
▁sever	-6044
▁union	-6045
▁whose	-6046
▁उपयोग	-6047
▁करतात	-6048
▁जलोढ़	-6049
▁जास्त	-6050
▁ठिकाण	-6051
▁पंजाब	-6052
▁पुरुष	-6053
▁प्रचल	-6054
▁बनाने	-6055
▁भाजपा	-6056
▁मंत्र	-6057
▁मानवी	-6058
▁मौर्य	-6059
▁वास्त	-6060
▁विभाग	-6061
▁विवाद	-6062
▁सध्या	-6063
▁हिंदू	-6064
eration	-6065
ificant	-6066
sequent	-6067
▁During	-6068
▁States	-6069
▁become	-6070
▁cities	-6071
▁commer	-6072
▁common	-6073
▁contin	-6074
▁execut	-6075
▁histor	-6076
▁import	-6077
▁longer	-6078
▁market	-6079
▁penins	-6080
▁styles	-6081
▁widely	-6082
▁अप्रैल	-6083
▁आधारित	-6084
▁उत्पाद	-6085
▁जलवायु	-6086
▁पड़ोसी	-6087
▁प्रयास	-6088
▁प्रांत	-6089
▁म्हणजे	-6090
▁म्हणून	-6091
▁लोकसभा	-6092
▁संख्या	-6093
▁समर्थन	-6094
▁समाप्त	-6095
▁सल्तनत	-6096
▁स्वरूप	-6097
▁हिन्दू	-6098
outheast	-6099
▁Andaman	-6100
▁Western	-6101
▁created	-6102
▁eastern	-6103
▁federal	-6104
▁history	-6105
▁kilomet	-6106
▁popular	-6107
▁अफ्रीका	-6108
▁अमेरिका	-6109
▁आन्दोलन	-6110
▁करण्यात	-6111
▁प्रतिशत	-6112
▁भारताची	-6113
▁भारताने	-6114
▁महासागर	-6115
▁यूरोपीय	-6116
▁राजधानी	-6117
▁वर्तमान	-6118
▁विभिन्न	-6119
▁व्यापार	-6120
▁Buddhism	-6121
▁National	-6122
▁administ	-6123
▁movement	-6124
▁national	-6125
▁regional	-6126
▁republic	-6127
▁southern	-6128
▁प्रसिद्ध	-6129
▁राजनीतिक	-6130
▁राज्यसभा	-6131
▁According	-6132
▁Himalayas	-6133
▁education	-6134
▁elections	-6135
▁sultanate	-6136
▁technolog	-6137
▁अंग्रेज़ी	-6138
▁पंतप्रधान	-6139
▁वैशिष्ट्य	-6140
▁Government	-6141
▁साम्राज्या	-6142
%;	-6143
1%	-6144
20	-6145
4,	-6146
6.	-6147
7%	-6148
af	-6149
ah	-6150
ax	-6151
je	-6152
mb	-6153
sc	-6154
ss	-6155
ंथ	-6156
गी	-6157
जन	-6158
जह	-6159
नै	-6160
पी	-6161
िख	-6162
िज	-6163
िध	-6164
ुक	-6165
ुट	-6166
ेस	-6167
ोत	-6168
▁z	-6169
▁ऐ	-6170
▁।	-6171
.6%	-6172
ale	-6173
amp	-6174
ard	-6175
ays	-6176
bar	-6177
can	-6178
cho	-6179
cro	-6180
dra	-6181
isl	-6182
iss	-6183
ked	-6184
loy	-6185
oci	-6186
oss	-6187
rop	-6188
row	-6189
tle	-6190
tou	-6191
val	-6192
yan	-6193
ंका	-6194
ंगा	-6195
ंची	-6196
क्ट	-6197
खंड	-6198
जीव	-6199
टना	-6200
णात	-6201
न्ध	-6202
र्श	-6203
ल्य	-6204
वंश	-6205
सून	-6206
हों	-6207
ागत	-6208
ेचे	-6209
ेती	-6210
ोंड	-6211
ोटे	-6212
ोबर	-6213
–20	-6214
▁13	-6215
▁Af	-6216
▁Bi	-6217
▁bl	-6218
▁cr	-6219
▁el	-6220
▁gr	-6221
▁kn	-6222
▁ob	-6223
▁आर	-6224
▁उद	-6225
▁कल	-6226
▁खो	-6227
▁गर	-6228
▁चल	-6229
▁जय	-6230
▁तट	-6231
▁दल	-6232
▁दि	-6233
▁दी	-6234
▁पी	-6235
▁बज	-6236
▁भा	-6237
▁मी	-6238
▁सत	-6239
▁१६	-6240
▁१७	-6241
ales	-6242
ards	-6243
ashm	-6244
bers	-6245
cial	-6246
ders	-6247
ight	-6248
ined	-6249
lief	-6250
mary	-6251
ouse	-6252
ract	-6253
rahm	-6254
stru	-6255
ured	-6256
ving	-6257
णाली	-6258
तांत	-6259
द्दल	-6260
नाटक	-6261
नेमा	-6262
भारत	-6263
भाषा	-6264
मारक	-6265
र्तग	-6266
लेला	-6267
ळवंट	-6268
सागर	-6269
स्तन	-6270
हारी	-6271
िबंध	-6272
िवाज	-6273
िश्र	-6274
ीयां	-6275
ुरुआ	-6276
्रील	-6277
▁(19	-6278
▁All	-6279
▁Ara	-6280
▁Des	-6281
▁GDP	-6282
▁Raj	-6283
▁War	-6284
▁ann	-6285
▁cur	-6286
▁def	-6287
▁eth	-6288
▁gar	-6289
▁gen	-6290
▁glo	-6291
▁mak	-6292
▁man	-6293
▁mem	-6294
▁men	-6295
▁now	-6296
▁old	-6297
▁ren	-6298
▁spe	-6299
▁tem	-6300
▁tex	-6301
▁win	-6302
▁आर्	-6303
▁ऋषभ	-6304
▁कंप	-6305
▁कर्	-6306
▁कोई	-6307
▁गति	-6308
▁चला	-6309
▁जीत	-6310
▁जेव	-6311
▁ज्ञ	-6312
▁तत्	-6313
▁तीन	-6314
▁तुल	-6315
▁दिस	-6316
▁नगर	-6317
▁पहु	-6318
▁पास	-6319
▁भवन	-6320
▁भील	-6321
▁मूल	-6322
▁यात	-6323
▁रंग	-6324
▁रही	-6325
▁राम	-6326
▁रूस	-6327
▁वाघ	-6328
▁वार	-6329
▁विर	-6330
▁वीं	-6331
▁शतक	-6332
▁संब	-6333
▁सात	-6334
▁२०१	-6335
ality	-6336
anted	-6337
ather	-6338
ature	-6339
chool	-6340
cture	-6341
epend	-6342
ility	-6343
ingly	-6344
ising	-6345
other	-6346
ंत्रण	-6347
कृष्ट	-6348
ज्ञान	-6349
त्त्व	-6350
नैतिक	-6351
र्यंत	-6352
स्पती	-6353
ाल्या	-6354
ेकडील	-6355
ेच्या	-6356
्याने	-6357
▁1960	-6358
▁Alth	-6359
▁Bhar	-6360
▁Janu	-6361
▁This	-6362
▁caus	-6363
▁char	-6364
▁dist	-6365
▁fast	-6366
▁five	-6367
▁four	-6368
▁held	-6369
▁indi	-6370
▁left	-6371
▁port	-6372
▁rise	-6373
▁sing	-6374
▁soci	-6375
▁surv	-6376
▁term	-6377
▁vari	-6378
▁vast	-6379
▁vill	-6380
▁west	-6381
▁worn	-6382
▁अपना	-6383
▁ईस्ट	-6384
▁उच्च	-6385
▁उपमह	-6386
▁उसके	-6387
▁करते	-6388
▁कहते	-6389
▁किये	-6390
▁केला	-6391
▁गोंड	-6392
▁छोड़	-6393
▁जनता	-6394
▁जहाँ	-6395
▁दर्ज	-6396
▁देखा	-6397
▁पदवी	-6398
▁प्रव	-6399
▁प्रश	-6400
▁प्रौ	-6401
▁बनाई	-6402
▁रचना	-6403
▁वन्य	-6404
▁विजय	-6405
▁समाव	-6406
▁साली	-6407
▁हस्त	-6408
▁हिस्	-6409
▁ह्या	-6410
▁१९४७	-6411
▁१९५०	-6412
णाऱ्या	-6413
ित्त्व	-6414
▁Brahm	-6415
▁Islam	-6416
▁Kashm	-6417
▁Union	-6418
▁along	-6419
▁civil	-6420
▁condu	-6421
▁court	-6422
▁domin	-6423
▁estim	-6424
▁every	-6425
▁famil	-6426
▁group	-6427
▁kingd	-6428
▁liber	-6429
▁plain	-6430
▁polic	-6431
▁three	-6432
▁times	-6433
▁until	-6434
▁अलावा	-6435
▁आकर्ष	-6436
▁घोषित	-6437
▁जनवरी	-6438
▁जयंती	-6439
▁जिसका	-6440
▁त्यात	-6441
▁दख्खन	-6442
▁नाटके	-6443
▁बढ़कर	-6444
▁बाहरी	-6445
▁येतात	-6446
▁लोगों	-6447
▁वेगळे	-6448
▁शांति	-6449
▁शुरुआ	-6450
▁शुष्क	-6451
▁श्रील	-6452
▁सस्तन	-6453
▁सैनिक	-6454
▁हिंदी	-6455
angered	-6456
eograph	-6457
इंग्रजी	-6458
स्कृतिक	-6459
▁around	-6460
▁comple	-6461
▁consid	-6462
▁courts	-6463
▁dances	-6464
▁differ	-6465
▁empire	-6466
▁employ	-6467
▁establ	-6468
▁formed	-6469
▁legisl	-6470
▁middle	-6471
▁record	-6472
▁spread	-6473
▁अजूनही	-6474
▁अभियान	-6475
▁उपसागर	-6476
▁गुजरात	-6477
▁गेल्या	-6478
▁दृष्टि	-6479
▁नदियाँ	-6480
▁नागरिक	-6481
▁परंपरा	-6482
▁पर्यंत	-6483
▁पर्यटन	-6484
▁पुर्तग	-6485
▁भाषाएँ	-6486
▁मानसून	-6487
▁मिलियन	-6488
▁मैदानी	-6489
▁राज्ये	-6490
▁वर्षात	-6491
▁वाळवंट	-6492
▁संघर्ष	-6493
▁सिनेमा	-6494
▁स्मारक	-6495
तांत्रिक	-6496
द्योगिकी	-6497
पूर्वीचे	-6498
▁Jainism	-6499
▁January	-6500
▁Persian	-6501
▁changes	-6502
▁figures	-6503
▁further	-6504
▁however	-6505
▁leading	-6506
▁thought	-6507
▁इत्यादी	-6508
▁कर्नाटक	-6509
▁तमिळनाड	-6510
▁धार्मिक	-6511
▁प्रशासन	-6512
▁भारताला	-6513
▁मुस्लिम	-6514
▁वनस्पती	-6515
▁सरकारें	-6516
▁Although	-6517
▁Buddhist	-6518
▁earliest	-6519
▁families	-6520
▁independ	-6521
▁industry	-6522
▁kingdoms	-6523
▁official	-6524
▁तत्कालीन	-6525
▁त्यामुळे	-6526
▁प्रदेशात	-6527
▁राजनैतिक	-6528
▁राजस्थान	-6529
▁लोकप्रिय	-6530
▁श्रीलंका	-6531
▁Southeast	-6532
▁coalition	-6533
▁developed	-6534
▁executive	-6535
▁sculpture	-6536
▁बंगालच्या	-6537
▁endangered	-6538
▁influenced	-6539
▁peninsular	-6540
▁subsequent	-6541
▁technology	-6542
▁traditions	-6543
▁अस्तित्त्व	-6544
▁उपमहाद्वीप	-6545
▁प्रकारच्या	-6546
▁व्यावसायिक	-6547
▁significant	-6548
▁territories	-6549
▁traditional	-6550
▁केंद्रशासित	-6551
▁स्वातंत्र्य	-6552
▁प्रौद्योगिकी	-6553
6,	-6554
8%	-6555
ex	-6556
ga	-6557
gu	-6558
gy	-6559
ie	-6560
ks	-6561
uj	-6562
ंट	-6563
ंश	-6564
कट	-6565
खी	-6566
गड	-6567
टल	-6568
थे	-6569
पि	-6570
प्	-6571
फे	-6572
मर	-6573
ळा	-6574
वत	-6575
सत	-6576
ीव	-6577
ूक	-6578
ूड	-6579
ूळ	-6580
ेज	-6581
ेम	-6582
ोज	-6583
ोड	-6584
ौह	-6585
्‍	-6586
५७	-6587
▁Y	-6588
▁८	-6589
ail	-6590
ali	-6591
ara	-6592
ash	-6593
dia	-6594
dis	-6595
div	-6596
ech	-6597
elf	-6598
equ	-6599
era	-6600
ets	-6601
ffe	-6602
has	-6603
ict	-6604
mas	-6605
old	-6606
ots	-6607
ppe	-6608
rox	-6609
tal	-6610
uch	-6611
ued	-6612
ues	-6613
ंदर	-6614
ंबई	-6615
ंबर	-6616
कीय	-6617
ग्र	-6618
घात	-6619
चित	-6620
चीन	-6621
जरा	-6622
डून	-6623
त्‍	-6624
द्व	-6625
नाथ	-6626
नेट	-6627
पणे	-6628
पूर	-6629
मंच	-6630
मूह	-6631
राण	-6632
रान	-6633
र्ग	-6634
लाल	-6635
लिक	-6636
ळूह	-6637
वली	-6638
वार	-6639
विय	-6640
व्ह	-6641
शील	-6642
ातन	-6643
ादी	-6644
ालर	-6645
ावे	-6646
ियर	-6647
ीति	-6648
ीपी	-6649
ीला	-6650
ूषा	-6651
ेशन	-6652
ॉकी	-6653
ोबत	-6654
्टा	-6655
्मक	-6656
▁2.	-6657
▁55	-6658
▁De	-6659
▁Gh	-6660
▁Re	-6661
▁pr	-6662
▁qu	-6663
▁sa	-6664
▁ve	-6665
▁wa	-6666
▁आव	-6667
▁ईद	-6668
▁उठ	-6669
▁एव	-6670
▁कप	-6671
▁ची	-6672
▁ज़	-6673
▁दु	-6674
▁नर	-6675
▁बद	-6676
▁बह	-6677
▁मज	-6678
▁मल	-6679
▁शै	-6680
▁सश	-6681
▁११	-6682
▁२४	-6683
ably	-6684
aksh	-6685
bian	-6686
cess	-6687
chab	-6688
etic	-6689
form	-6690
harm	-6691
here	-6692
ices	-6693
ingh	-6694
ject	-6695
lied	-6696
life	-6697
line	-6698
miss	-6699
olid	-6700
ones	-6701
oods	-6702
ravi	-6703
reme	-6704
rial	-6705
rica	-6706
ring	-6707
rust	-6708
soon	-6709
ulti	-6710
upta	-6711
viol	-6712
कल्प	-6713
णारे	-6714
ण्डल	-6715
त्ता	-6716
द्रा	-6717
रागत	-6718
लेली	-6719
वरून	-6720
वियत	-6721
विले	-6722
व्यु	-6723
शाली	-6724
समूह	-6725
स्वी	-6726
हायक	-6727
ांडर	-6728
ारचे	-6729
ालेय	-6730
िणाम	-6731
िवूड	-6732
िश्च	-6733
ृद्ध	-6734
ेरिक	-6735
्यान	-6736
▁Ass	-6737
▁Dec	-6738
▁Guj	-6739
▁Mah	-6740
▁Par	-6741
▁Sea	-6742
▁aff	-6743
▁can	-6744
▁che	-6745
▁der	-6746
▁equ	-6747
▁era	-6748
▁exc	-6749
▁fam	-6750
▁his	-6751
▁lay	-6752
▁mon	-6753
▁nat	-6754
▁ret	-6755
▁ste	-6756
▁str	-6757
▁sum	-6758
▁tax	-6759
▁tur	-6760
▁अति	-6761
▁अहि	-6762
▁आला	-6763
▁इसे	-6764
▁उसे	-6765
▁किए	-6766
▁कोर	-6767
▁ग्र	-6768
▁चाल	-6769
▁चोल	-6770
▁जमा	-6771
▁जवळ	-6772
▁तरह	-6773
▁तिस	-6774
▁दुस	-6775
▁नवी	-6776
▁परी	-6777
▁पुन	-6778
▁बजट	-6779
▁बाब	-6780
▁बॉल	-6781
▁भाव	-6782
▁मार	-6783
▁युर	-6784
▁लेख	-6785
▁वाढ	-6786
▁वेद	-6787
▁व्य	-6788
▁शिख	-6789
▁सफल	-6790
▁समझ	-6791
▁सुर	-6792
▁स्र	-6793
aceut	-6794
acted	-6795
ained	-6796
aking	-6797
aries	-6798
astri	-6799
aving	-6800
cript	-6801
cross	-6802
emocr	-6803
ering	-6804
ining	-6805
ively	-6806
iving	-6807
ommon	-6808
ously	-6809
roxim	-6810
vided	-6811
ंग्रज	-6812
ंदिरा	-6813
ंदिरे	-6814
क्रिय	-6815
द्धती	-6816
निष्ठ	-6817
नुसार	-6818
पुत्र	-6819
बरोबर	-6820
लादेश	-6821
ळूहळू	-6822
विध्य	-6823
शियाई	-6824
संख्य	-6825
सृष्ट	-6826
स्कार	-6827
हरलाल	-6828
ांतात	-6829
ात्मक	-6830
ावरील	-6831
ावरून	-6832
ासाठी	-6833
ेंद्र	-6834
ेक्षा	-6835
ेलीवि	-6836
▁1200	-6837
▁1965	-6838
▁1980	-6839
▁2013	-6840
▁====	-6841
▁Fore	-6842
▁Gree	-6843
▁Many	-6844
▁Maur	-6845
▁West	-6846
▁appe	-6847
▁body	-6848
▁exch	-6849
▁flow	-6850
▁fund	-6851
▁head	-6852
▁here	-6853
▁just	-6854
▁meat	-6855
▁near	-6856
▁poll	-6857
▁prov	-6858
▁sari	-6859
▁scri	-6860
▁show	-6861
▁took	-6862
▁trib	-6863
▁wear	-6864
▁when	-6865
▁wild	-6866
▁work	-6867
▁writ	-6868
▁अशोक	-6869
▁आंतर	-6870
▁आगमन	-6871
▁आयात	-6872
▁इसका	-6873
▁उनकी	-6874
▁उनके	-6875
▁ऊँची	-6876
▁एकूण	-6877
▁कच्छ	-6878
▁करणे	-6879
▁करती	-6880
▁किसी	-6881
▁कृषि	-6882
▁केवळ	-6883
▁कोटी	-6884
▁गणला	-6885
▁गेले	-6886
▁छोटे	-6887
▁जाति	-6888
▁जीवन	-6889
▁जैसे	-6890
▁डालर	-6891
▁तनाव	-6892
▁दिला	-6893
▁पडले	-6894
▁पाया	-6895
▁पूरा	-6896
▁पूरे	-6897
▁फैली	-6898
▁बांग	-6899
▁भागी	-6900
▁भूमि	-6901
▁भूमी	-6902
▁मोदी	-6903
▁यहाँ	-6904
▁येते	-6905
▁येथे	-6906
▁लंबे	-6907
▁लड़ा	-6908
▁लेकर	-6909
▁लेणी	-6910
▁वरील	-6911
▁वाटा	-6912
▁वाली	-6913
▁विषय	-6914
▁वेषभ	-6915
▁शक्त	-6916
▁शेती	-6917
▁सोयी	-6918
▁हॉकी	-6919
▁होना	-6920
▁१९८४	-6921
▁१९९१	-6922
▁२००४	-6923
dramas	-6924
dually	-6925
etwork	-6926
genous	-6927
liance	-6928
ulting	-6929
क्षणिक	-6930
ण्याची	-6931
पश्चिम	-6932
प्रकार	-6933
प्रदेश	-6934
लेल्या	-6935
स्वरूप	-6936
ांपैकी	-6937
िबंधीय	-6938
िमण्डल	-6939
्यांचे	-6940
्यांनी	-6941
्याद्र	-6942
▁1950,	-6943
▁Asian	-6944
▁Civil	-6945
▁Dravi	-6946
▁Ghats	-6947
▁Singh	-6948
▁Their	-6949
▁about	-6950
▁again	-6951
▁below	-6952
▁capit	-6953
▁creat	-6954
▁crust	-6955
▁intro	-6956
▁invol	-6957
▁known	-6958
▁pharm	-6959
▁place	-6960
▁plate	-6961
▁pract	-6962
▁prote	-6963
▁renew	-6964
▁small	-6965
▁sport	-6966
▁upper	-6967
▁waist	-6968
▁अन्तर	-6969
▁अवशेष	-6970
▁इंग्ल	-6971
▁इसमें	-6972
▁ओळखले	-6973
▁ग्राम	-6974
▁जातात	-6975
▁थारचे	-6976
▁नद्या	-6977
▁निम्न	-6978
▁निवडण	-6979
▁निवास	-6980
▁नेहरू	-6981
▁पुत्र	-6982
▁पुराण	-6983
▁पूर्ण	-6984
▁बढ़ती	-6985
▁भूगोल	-6986
▁भूभाग	-6987
▁मिळते	-6988
▁मिश्र	-6989
▁मुंबई	-6990
▁लागले	-6991
▁विधान	-6992
▁विभाज	-6993
▁विरोध	-6994
▁विशेष	-6995
▁वृद्ध	-6996
▁शक्ति	-6997
▁शालेय	-6998
▁संघीय	-6999
▁सदस्य	-7000
▁सहायक	-7001
▁सिंधु	-7002
amental	-7003
ropical	-7004
touchab	-7005
ultural	-7006
vention	-7007
िरपेक्ष	-7008
ोनेशिया	-7009
▁Africa	-7010
▁Bharat	-7011
▁Valley	-7012
▁animal	-7013
▁before	-7014
▁called	-7015
▁cooked	-7016
▁curren	-7017
▁disput	-7018
▁elites	-7019
▁extant	-7020
▁extens	-7021
▁global	-7022
▁leader	-7023
▁member	-7024
▁oldest	-7025
▁public	-7026
▁reform	-7027
▁rights	-7028
▁school	-7029
▁single	-7030
▁within	-7031
▁अधिकृत	-7032
▁अमरीकी	-7033
▁अमेरिक	-7034
▁अशियाई	-7035
▁असलेली	-7036
▁असल्या	-7037
▁आक्रमण	-7038
▁आढळतात	-7039
▁इंग्रज	-7040
▁इंदिरा	-7041
▁उत्तरी	-7042
▁उत्तरे	-7043
▁उन्हें	-7044
▁ऋषभदेव	-7045
▁कश्मीर	-7046
▁जिनमें	-7047
▁जेवणात	-7048
▁झाल्या	-7049
▁टेलीवि	-7050
▁ठिकाणी	-7051
▁धर्मीय	-7052
▁नावाचा	-7053
▁नावाने	-7054
▁नौसेना	-7055
▁पदव्यु	-7056
▁पदार्थ	-7057
▁परिणाम	-7058
▁पुरातन	-7059
▁प्रदान	-7060
▁प्रश्न	-7061
▁प्रसार	-7062
▁फ्रांस	-7063
▁भाषाएं	-7064
▁मंदिरे	-7065
▁मिळतात	-7066
▁मुख्यत	-7067
▁रंगमंच	-7068
▁राजवंश	-7069
▁राज्या	-7070
▁वास्तव	-7071
▁शिक्षा	-7072
▁शुरुआत	-7073
▁संसदीय	-7074
▁सक्रिय	-7075
▁सभ्यता	-7076
▁समावेश	-7077
▁समृद्ध	-7078
▁सामरिक	-7079
▁सोवियत	-7080
▁हळूहळू	-7081
▁हिन्दु	-7082
▁होत्या	-7083
▁Ancient	-7084
▁Constit	-7085
▁Hindust	-7086
▁However	-7087
▁Kashmir	-7088
▁Nuclear	-7089
▁Plateau	-7090
▁archite	-7091
▁cooking	-7092
▁decades	-7093
▁diverse	-7094
▁enacted	-7095
▁exports	-7096
▁foreign	-7097
▁greater	-7098
▁growing	-7099
▁numbers	-7100
▁process	-7101
▁reduced	-7102
▁secular	-7103
▁आकर्षित	-7104
▁जिन्हें	-7105
▁परीक्षण	-7106
▁पश्चिमी	-7107
▁प्रचलित	-7108
▁प्रणाली	-7109
▁बॉलिवूड	-7110
▁भारताचा	-7111
▁महत्त्व	-7112
▁म्हणतात	-7113
▁यांच्या	-7114
▁संबंधों	-7115
▁सदस्यों	-7116
aceutical	-7117
emocratic	-7118
operation	-7119
▁European	-7120
▁approxim	-7121
▁commonly	-7122
▁composed	-7123
▁consolid	-7124
▁directly	-7125
▁external	-7126
▁features	-7127
▁recorded	-7128
▁उत्कृष्ट	-7129
▁कार्यकाल	-7130
▁जवाहरलाल	-7131
▁दृष्ट्या	-7132
▁निर्मिती	-7133
▁परंपरागत	-7134
▁पुरस्कार	-7135
▁प्रमाणात	-7136
▁प्रांतात	-7137
▁भारतीयां	-7138
▁सह्याद्र	-7139
odiversity	-7140
▁Dravidian	-7141
▁conducted	-7142
▁continued	-7143
▁different	-7144
▁estimated	-7145
▁important	-7146
▁influence	-7147
▁partition	-7148
▁relations	-7149
▁resulting	-7150
▁द्वीपसमूह	-7151
▁पारंपारिक	-7152
▁शास्त्रीय	-7153
ternational	-7154
▁commercial	-7155
▁indigenous	-7156
▁इंडोनेशिया	-7157
▁पदव्युत्तर	-7158
▁मध्यप्रदेश	-7159
▁सांस्कृतिक	-7160
▁agriculture	-7161
▁development	-7162
▁established	-7163
▁fundamental	-7164
▁mathematics	-7165
▁कार्यपालिका	-7166
▁मंत्रिमण्डल	-7167
▁agricultural	-7168
▁चित्रपटसृष्ट	-7169
▁परिणामस्वरूप	-7170
▁वर्षांपूर्वी	-7171
▁approximately	-7172
▁traditionally	-7173
▁pharmaceutical	-7174
%,	-7175
61	-7176
80	-7177
DA	-7178
HO	-7179
ez	-7180
ha	-7181
ii	-7182
jo	-7183
kh	-7184
kn	-7185
la	-7186
no	-7187
yn	-7188
yp	-7189
अर	-7190
आस	-7191
ऊन	-7192
गध	-7193
गल	-7194
चि	-7195
जो	-7196
झे	-7197
ठक	-7198
थक	-7199
PA	-7200
दि	-7201
धन	-7202
धी	-7203
धे	-7204
बत	-7205
मे	-7206
यर	-7207
यश	-7208
रण	-7209
रल	-7210
लु	-7211
वट	-7212
शत	-7213
हू	-7214
ाँ	-7215
िष	-7216
ीर	-7217
ुण	-7218
ूट	-7219
ूह	-7220
ृह	-7221
ेप	-7222
ैर	-7223
ैस	-7224
्स	-7225
१३	-7226
१८	-7227
२०	-7228
३७	-7229
३८	-7230
४०	-7231
५२	-7232
▁ॲ	-7233
▁‘	-7234
.2%	-7235
200	-7236
400	-7237
Ary	-7238
ada	-7239
aic	-7240
ala	-7241
alw	-7242
ams	-7243
ann	-7244
aro	-7245
ase	-7246
ath	-7247
avi	-7248
aws	-7249
ble	-7250
bly	-7251
cts	-7252
cul	-7253
des	-7254
die	-7255
duc	-7256
ely	-7257
esc	-7258
ese	-7259
ett	-7260
ger	-7261
get	-7262
gth	-7263
hok	-7264
ico	-7265
ilw	-7266
ime	-7267
inc	-7268
irt	-7269
ken	-7270
ogn	-7271
oli	-7272
omm	-7273
one	-7274
ott	-7275
pay	-7276
pen	-7277
pic	-7278
pts	-7279
pur	-7280
ran	-7281
rat	-7282
reg	-7283
rig	-7284
sha	-7285
the	-7286
tre	-7287
ubs	-7288
uis	-7289
une	-7290
ung	-7291
ush	-7292
ute	-7293
van	-7294
wns	-7295
yal	-7296
ंचा	-7297
ंजन	-7298
ंथी	-7299
ंनी	-7300
ंबू	-7301
एशन	-7302
काज	-7303
काळ	-7304
काश	-7305
कों	-7306
गढ़	-7307
चाई	-7308
चार	-7309
चाल	-7310
जार	-7311
जों	-7312
ट्ट	-7313
ठित	-7314
डकर	-7315
तान	-7316
तील	-7317
त्प	-7318
त्व	-7319
थाई	-7320
थान	-7321
दीव	-7322
द्द	-7323
नगर	-7324
नाइ	-7325
पीठ	-7326
बूत	-7327
ब्द	-7328
भार	-7329
मोह	-7330
म्म	-7331
युग	-7332
यें	-7333
राई	-7334
र्ट	-7335
र्भ	-7336
लिस	-7337
ल्स	-7338
ळून	-7339
ववै	-7340
वान	-7341
वाह	-7342
समी	-7343
साद	-7344
सों	-7345
हरे	-7346
हशत	-7347
हेब	-7348
ह्य	-7349
ांक	-7350
ांद	-7351
ाका	-7352
ात्	-7353
ादर	-7354
ानी	-7355
ाशी	-7356
िक्	-7357
ियस	-7358
ीची	-7359
ुसू	-7360
ूबर	-7361
ेगी	-7362
ेला	-7363
ोला	-7364
ोली	-7365
्ये	-7366
▁0.	-7367
▁1.	-7368
▁14	-7369
▁28	-7370
▁Ak	-7371
▁At	-7372
▁Bh	-7373
▁Cl	-7374
▁Ex	-7375
▁Me	-7376
▁Va	-7377
▁Vi	-7378
▁bu	-7379
▁do	-7380
▁hy	-7381
▁ir	-7382
▁mi	-7383
▁pa	-7384
▁vi	-7385
▁अण	-7386
▁आठ	-7387
▁ईश	-7388
▁उम	-7389
▁एन	-7390
▁ओड	-7391
▁कड	-7392
▁खु	-7393
▁चौ	-7394
▁छह	-7395
▁जि	-7396
▁जु	-7397
▁टी	-7398
▁डि	-7399
▁तब	-7400
▁धर	-7401
▁नम	-7402
▁ना	-7403
▁पो	-7404
▁फा	-7405
▁बे	-7406
▁भर	-7407
▁भौ	-7408
▁यश	-7409
▁रा	-7410
▁रु	-7411
▁शृ	-7412
▁२२	-7413
▁२८	-7414
▁५४	-7415
abad	-7416
abit	-7417
aced	-7418
anch	-7419
andm	-7420
angl	-7421
anta	-7422
arly	-7423
arna	-7424
avou	-7425
ayed	-7426
bell	-7427
cast	-7428
cean	-7429
cept	-7430
ched	-7431
ctor	-7432
daro	-7433
eign	-7434
ency	-7435
ened	-7436
ense	-7437
erch	-7438
eter	-7439
gins	-7440
hoka	-7441
ials	-7442
idly	-7443
imes	-7444
isen	-7445
ises	-7446
itud	-7447
land	-7448
long	-7449
lows	-7450
medi	-7451
mers	-7452
olit	-7453
omic	-7454
oose	-7455
oral	-7456
orce	-7457
osen	-7458
oted	-7459
pend	-7460
racy	-7461
reen	-7462
ries	-7463
road	-7464
ront	-7465
serv	-7466
uent	-7467
uled	-7468
uous	-7469
uras	-7470
urid	-7471
कारी	-7472
ग्रे	-7473
जहान	-7474
जेचे	-7475
ठाया	-7476
त्ति	-7477
धीरे	-7478
न्या	-7479
पंथी	-7480
पुरी	-7481
प्पा	-7482
मुना	-7483
मुने	-7484
मोहन	-7485
म्बे	-7486
रीबी	-7487
र्तन	-7488
र्मण	-7489
र्वर	-7490
र्शन	-7491
लग्न	-7492
लेले	-7493
वतात	-7494
ववृत	-7495
वाने	-7496
वारी	-7497
शाही	-7498
श्रे	-7499
हिनी	-7500
हिन्	-7501
ाचार	-7502
ाजमह	-7503
ातार	-7504
ामिल	-7505
ायदा	-7506
ार्द	-7507
ालया	-7508
िध्र	-7509
िप्त	-7510
ीकरण	-7511
ेकडे	-7512
ैनिक	-7513
्टाफ	-7514
्षिक	-7515
–201	-7516
▁193	-7517
▁26%	-7518
▁300	-7519
▁400	-7520
▁500	-7521
▁Bay	-7522
▁Dal	-7523
▁Dem	-7524
▁For	-7525
▁Jan	-7526
▁Kal	-7527
▁Mal	-7528
▁Mid	-7529
▁Non	-7530
▁Rep	-7531
▁She	-7532
▁Sri	-7533
▁Tem	-7534
▁age	-7535
▁att	-7536
▁bor	-7537
▁bri	-7538
▁cal	-7539
▁cle	-7540
▁cos	-7541
▁cro	-7542
▁div	-7543
▁dri	-7544
▁fem	-7545
▁fra	-7546
▁gas	-7547
▁god	-7548
▁hig	-7549
▁lim	-7550
▁mig	-7551
▁min	-7552
▁opp	-7553
▁pat	-7554
▁pet	-7555
▁sep	-7556
▁sil	-7557
▁sim	-7558
▁six	-7559
▁uni	-7560
▁use	-7561
▁vis	-7562
▁अंद	-7563
▁अर्	-7564
▁अल्	-7565
▁असम	-7566
▁आंद	-7567
▁आगे	-7568
▁आते	-7569
▁ऊपर	-7570
▁ऑपर	-7571
▁करत	-7572
▁कान	-7573
▁गैर	-7574
▁घेत	-7575
▁चली	-7576
▁चीफ	-7577
▁जन्	-7578
▁ज्व	-7579
▁झार	-7580
▁ताप	-7581
▁दगड	-7582
▁दाद	-7583
▁दूस	-7584
▁धोर	-7585
▁नमू	-7586
▁निक	-7587
▁पतन	-7588
▁पाई	-7589
▁पाच	-7590
▁पान	-7591
▁पाल	-7592
▁पाव	-7593
▁पुढ	-7594
▁पुत	-7595
▁फुट	-7596
▁बडी	-7597
▁बाज	-7598
▁ब्र	-7599
▁भरा	-7600
▁मगध	-7601
▁मना	-7602
▁मही	-7603
▁माम	-7604
▁माल	-7605
▁मील	-7606
▁मैल	-7607
▁मोह	-7608
▁रखा	-7609
▁लाभ	-7610
▁लिख	-7611
▁वंश	-7612
▁वाल	-7613
▁शाह	-7614
▁संर	-7615
▁सकल	-7616
▁सदी	-7617
▁सभा	-7618
▁सभी	-7619
▁साज	-7620
▁सेव	-7621
▁सौह	-7622
▁हरा	-7623
Aryan	-7624
India	-7625
ached	-7626
acter	-7627
adesh	-7628
after	-7629
allav	-7630
ameez	-7631
ample	-7632
anged	-7633
anies	-7634
anism	-7635
apons	-7636
dient	-7637
embly	-7638
estic	-7639
guard	-7640
henjo	-7641
imals	-7642
ither	-7643
ivity	-7644
nings	-7645
oming	-7646
onial	-7647
orial	-7648
otion	-7649
reath	-7650
reaty	-7651
rents	-7652
ucial	-7653
urred	-7654
wards	-7655
गोलिक	-7656
तच्या	-7657
तिशील	-7658
त्‍नी	-7659
दृष्ट	-7660
द्यपि	-7661
द्रोह	-7662
धिकार	-7663
नियों	-7664
पुड़ा	-7665
प्रभु	-7666
मूल्य	-7667
रिवाज	-7668
रुद्ध	-7669
र्मदा	-7670
स्थाप	-7671
स्वती	-7672
होंने	-7673
ातीला	-7674
ात्मा	-7675
ीनंतर	-7676
ोत्तर	-7677
▁1930	-7678
▁1951	-7679
▁1999	-7680
▁2001	-7681
▁2008	-7682
▁2012	-7683
▁2020	-7684
▁Lank	-7685
▁Myan	-7686
▁Nico	-7687
▁Thar	-7688
▁adop	-7689
▁area	-7690
▁arts	-7691
▁aver	-7692
▁back	-7693
▁band	-7694
▁came	-7695
▁clim	-7696
▁coll	-7697
▁crit	-7698
▁defe	-7699
▁effe	-7700
▁ener	-7701
▁fact	-7702
▁fall	-7703
▁folk	-7704
▁gave	-7705
▁init	-7706
▁isol	-7707
▁laws	-7708
▁like	-7709
▁loss	-7710
▁mamm	-7711
▁much	-7712
▁name	-7713
▁only	-7714
▁pers	-7715
▁pred	-7716
▁resp	-7717
▁rich	-7718
▁safe	-7719
▁slow	-7720
▁test	-7721
▁then	-7722
▁unit	-7723
▁very	-7724
▁vict	-7725
▁went	-7726
▁अक्ट	-7727
▁अग्न	-7728
▁अच्छ	-7729
▁अरबी	-7730
▁अवधि	-7731
▁असतो	-7732
▁असली	-7733
▁आंबे	-7734
▁आकार	-7735
▁आणली	-7736
▁आपले	-7737
▁उठाव	-7738
▁उनका	-7739
▁उभरा	-7740
▁ओघात	-7741
▁कमान	-7742
▁ग्री	-7743
▁घाटी	-7744
▁चुकी	-7745
▁च्या	-7746
▁जंबू	-7747
▁त्रि	-7748
▁दहशत	-7749
▁नागा	-7750
▁नियु	-7751
▁पड़ा	-7752
▁पहली	-7753
▁पाँच	-7754
▁बंदर	-7755
▁बढ़ा	-7756
▁बनने	-7757
▁बैठक	-7758
▁मसाल	-7759
▁महाव	-7760
▁मानव	-7761
▁मीणा	-7762
▁मोठी	-7763
▁मोठे	-7764
▁मोर्	-7765
▁रत्न	-7766
▁रोजी	-7767
▁लागू	-7768
▁लेखक	-7769
▁वस्त	-7770
▁वायु	-7771
▁वारे	-7772
▁व्यव	-7773
▁शब्द	-7774
▁शहरे	-7775
▁शाका	-7776
▁सकता	-7777
▁सकते	-7778
▁समझौ	-7779
▁समूह	-7780
▁सम्म	-7781
▁सारी	-7782
▁सिया	-7783
▁सूची	-7784
▁हिंस	-7785
▁होतो	-7786
▁होने	-7787
▁१९७१	-7788
▁१९९०	-7789
▁१९९८	-7790
▁२००९	-7791
▁२०१४	-7792
anding	-7793
assing	-7794
crimin	-7795
ctions	-7796
dieval	-7797
eignty	-7798
erials	-7799
idents	-7800
itions	-7801
mitted	-7802
onesia	-7803
oulder	-7804
ources	-7805
overty	-7806
perial	-7807
rength	-7808
resent	-7809
ressed	-7810
ricket	-7811
romise	-7812
venues	-7813
क्षरता	-7814
ड़ियाँ	-7815
नाऱ्या	-7816
पद्धती	-7817
सभेतील	-7818
हिन्दी	-7819
ांमुळे	-7820
ासाहेब	-7821
्ट्रेल	-7822
्यवस्थ	-7823
▁1,000	-7824
▁1951,	-7825
▁1991,	-7826
▁2011,	-7827
▁Bangl	-7828
▁Dance	-7829
▁Early	-7830
▁Euras	-7831
▁Front	-7832
▁Greek	-7833
▁Gupta	-7834
▁North	-7835
▁added	-7836
▁addit	-7837
▁basin	-7838
▁being	-7839
▁broad	-7840
▁cause	-7841
▁could	-7842
▁count	-7843
▁displ	-7844
▁drain	-7845
▁enter	-7846
▁extin	-7847
▁goods	-7848
▁habit	-7849
▁impro	-7850
▁inequ	-7851
▁level	-7852
▁loose	-7853
▁maint	-7854
▁makes	-7855
▁manus	-7856
▁merch	-7857
▁moist	-7858
▁multi	-7859
▁natal	-7860
▁nomin	-7861
▁numer	-7862
▁organ	-7863
▁parts	-7864
▁railw	-7865
▁range	-7866
▁refer	-7867
▁retur	-7868
▁right	-7869
▁seals	-7870
▁share	-7871
▁short	-7872
▁sites	-7873
▁somet	-7874
▁sover	-7875
▁style	-7876
▁subdu	-7877
▁super	-7878
▁suppl	-7879
▁texts	-7880
▁these	-7881
▁those	-7882
▁today	-7883
▁total	-7884
▁trade	-7885
▁veget	-7886
▁would	-7887
▁अगस्त	-7888
▁अनुसू	-7889
▁असतात	-7890
▁अहिंस	-7891
▁आमदार	-7892
▁आसपास	-7893
▁उर्वर	-7894
▁ऊँचाई	-7895
▁कंपनी	-7896
▁खासकर	-7897
▁चलाया	-7898
▁जंगले	-7899
▁ज़्या	-7900
▁जिसकी	-7901
▁जिसने	-7902
▁जैववै	-7903
▁ज्ञान	-7904
▁ताजमह	-7905
▁तीसरी	-7906
▁तुलना	-7907
▁देखील	-7908
▁धर्मन	-7909
▁नमुने	-7910
▁न्याय	-7911
▁पहुँच	-7912
▁पावली	-7913
▁पुलिस	-7914
▁फायदा	-7915
▁बढ़ने	-7916
▁बनाया	-7917
▁मध्यम	-7918
▁मराठा	-7919
▁मराठी	-7920
▁मसाले	-7921
▁मार्ग	-7922
▁मृत्य	-7923
▁मोसमी	-7924
▁म्यान	-7925
▁यमुना	-7926
▁यांचा	-7927
▁यांना	-7928
▁यांनी	-7929
▁राजवट	-7930
▁वर्णन	-7931
▁वर्षा	-7932
▁विमान	-7933
▁विशाल	-7934
▁वृक्ष	-7935
▁शतकात	-7936
▁शामिल	-7937
▁संबोध	-7938
▁सूचना	-7939
▁स्टाफ	-7940
▁हत्या	-7941
bellion	-7942
heduled	-7943
omestic	-7944
reasing	-7945
uridars	-7946
कांच्या	-7947
धारणपणे	-7948
प्राप्त	-7949
राष्ट्र	-7950
शास्त्र	-7951
ापर्यंत	-7952
▁55,000	-7953
▁Ashoka	-7954
▁Buddha	-7955
▁Deccan	-7956
▁Desert	-7957
▁Econom	-7958
▁Europe	-7959
▁Indira	-7960
▁Janata	-7961
▁Maurya	-7962
▁Middle	-7963
▁Modern	-7964
▁Pallav	-7965
▁Treaty	-7966
▁across	-7967
▁appear	-7968
▁armies	-7969
▁assert	-7970
▁associ	-7971
▁belief	-7972
▁belong	-7973
▁capita	-7974
▁chosen	-7975
▁consum	-7976
▁decade	-7977
▁dishes	-7978
▁distin	-7979
▁energy	-7980
▁expans	-7981
▁formal	-7982
▁having	-7983
▁kameez	-7984
▁latter	-7985
▁marked	-7986
▁nation	-7987
▁office	-7988
▁others	-7989
▁partic	-7990
▁plains	-7991
▁rather	-7992
▁recent	-7993
▁recogn	-7994
▁rivers	-7995
▁script	-7996
▁sector	-7997
▁signed	-7998
▁status	-7999
▁strong	-8000
▁summer	-8001
▁threat	-8002
▁tribal	-8003
▁अन्ततः	-8004
▁अन्तर्	-8005
▁अरावली	-8006
▁आंतरिक	-8007
▁आंदोलन	-8008
▁आकर्मण	-8009
▁आरक्षण	-8010
▁आर्द्र	-8011
▁आहारात	-8012
▁ईशान्य	-8013
▁ऑपरेशन	-8014
▁कमांडर	-8015
▁कामकाज	-8016
▁किनारे	-8017
▁गरजेचे	-8018
▁छोड़कर	-8019
▁ज्याचा	-8020
▁झालेले	-8021
▁तापमान	-8022
▁त्याचे	-8023
▁त्याला	-8024
▁धर्मों	-8025
▁नदियों	-8026
▁नर्मदा	-8027
▁निर्भर	-8028
▁पक्षास	-8029
▁पत्‍नी	-8030
▁पहाड़ी	-8031
▁प्रकाश	-8032
▁प्रगती	-8033
▁प्रवेश	-8034
▁बनविले	-8035
▁मनमोहन	-8036
▁मालदीव	-8037
▁मिळाले	-8038
▁यद्यपि	-8039
▁यामुळे	-8040
▁राजकीय	-8041
▁लगातार	-8042
▁वरिष्ठ	-8043
▁विद्या	-8044
▁वृद्धि	-8045
▁संलग्न	-8046
▁सेनाओं	-8047
▁सेवाओं	-8048
▁स्थापन	-8049
▁स्थिति	-8050
▁हिस्सा	-8051
European	-8052
emocracy	-8053
resident	-8054
दृष्ट्या	-8055
▁Arabian	-8056
▁Islands	-8057
▁Mohenjo	-8058
▁Myanmar	-8059
▁Nicobar	-8060
▁Sikhism	-8061
▁animals	-8062
▁another	-8063
▁average	-8064
▁classes	-8065
▁contain	-8066
▁crucial	-8067
▁elected	-8068
▁endemic	-8069
▁example	-8070
▁express	-8071
▁forests	-8072
▁heredit	-8073
▁liberal	-8074
▁mammals	-8075
▁margins	-8076
▁poverty	-8077
▁primary	-8078
▁reached	-8079
▁schools	-8080
▁setting	-8081
▁society	-8082
▁village	-8083
▁weapons	-8084
▁written	-8085
▁अक्टूबर	-8086
▁अधिकारी	-8087
▁अपेक्षा	-8088
▁आंबेडकर	-8089
▁आक्रमणे	-8090
▁आलेल्या	-8091
▁उत्तरेक	-8092
▁काळातील	-8093
▁गणतंत्र	-8094
▁ग्रामीण	-8095
▁घेण्यास	-8096
▁तिसऱ्या	-8097
▁धर्माचा	-8098
▁नरेंद्र	-8099
▁निर्यात	-8100
▁निवडणूक	-8101
▁पुरुषों	-8102
▁पृष्ठीय	-8103
▁भौगोलिक	-8104
▁महात्मा	-8105
▁मान्यता	-8106
▁युद्धात	-8107
▁राजनीति	-8108
▁राजभाषा	-8109
▁वन्यजीव	-8110
▁वार्षिक	-8111
▁विजयनगर	-8112
▁विज्ञान	-8113
▁विद्रोह	-8114
▁वेषभूषा	-8115
▁व्यवसाय	-8116
▁शाहजहान	-8117
▁संपूर्ण	-8118
▁सतपुड़ा	-8119
▁सरकारों	-8120
▁सरस्वती	-8121
▁सशस्त्र	-8122
▁सामान्य	-8123
▁सारख्या	-8124
▁सुरुवात	-8125
▁सौहार्द	-8126
▁स्थानीय	-8127
▁स्थापित	-8128
▁हिमालया	-8129
mediately	-8130
ographics	-8131
▁Assembly	-8132
▁Geograph	-8133
▁Republic	-8134
▁becoming	-8135
▁consider	-8136
▁consists	-8137
▁contains	-8138
▁cultural	-8139
▁cultures	-8140
▁currency	-8141
▁disputes	-8142
▁employed	-8143
▁exchange	-8144
▁policies	-8145
▁populous	-8146
▁predomin	-8147
▁provided	-8148
▁religion	-8149
▁revenues	-8150
▁strength	-8151
▁tropical	-8152
▁wildlife	-8153
▁अग्निध्र	-8154
▁कटिबंधीय	-8155
▁काळाच्या	-8156
▁किल्ल्या	-8157
▁केंद्रीय	-8158
▁गंगेच्या	-8159
▁जानेवारी	-8160
▁तमिळनाडू	-8161
▁पारंपरिक	-8162
▁प्रकारचे	-8163
▁प्रदेशों	-8164
▁प्रभावित	-8165
▁बहुमूल्य	-8166
▁भागीदारी	-8167
▁भारतीयों	-8168
▁म्यानमार	-8169
▁वास्तविक	-8170
▁विकासशील	-8171
▁शैक्षणिक	-8172
▁सम्पूर्ण	-8173
▁साक्षरता	-8174
▁Himalayan	-8175
▁Indonesia	-8176
▁character	-8177
▁churidars	-8178
▁companies	-8179
▁gradually	-8180
▁marriages	-8181
▁materials	-8182
▁ministers	-8183
▁northwest	-8184
▁practices	-8185
▁protected	-8186
▁remaining	-8187
▁residents	-8188
▁sometimes	-8189
▁supported	-8190
▁इतिहासकार	-8191
▁उपसागराला	-8192
▁क्षेत्रों	-8193
▁जंबूद्वीप	-8194
▁दख्खनच्या	-8195
▁द्वीपकल्प	-8196
▁पार्टियों	-8197
▁पुर्तगाली	-8198
▁प्राचीनतम	-8199
▁मुख्यत्वे	-8200
▁राज्यातील	-8201
▁सह्याद्री	-8202
▁साधारणपणे	-8203
▁साहित्यात	-8204
▁स्थापत्या	-8205
▁Bangladesh	-8206
▁compromise	-8207
▁inequality	-8208
▁influences	-8209
▁introduced	-8210
▁kilometers	-8211
▁kilometres	-8212
▁originally	-8213
▁पूर्वीच्या	-8214
▁प्रभावशाली	-8215
▁प्रारम्भिक	-8216
▁भारतीयांनी	-8217
▁विद्यार्थी	-8218
▁सुरुवातीला	-8219
touchability	-8220
▁Constituent	-8221
▁governments	-8222
▁institution	-8223
▁sovereignty	-8224
▁transmitted	-8225
▁अर्थव्यवस्थ	-8226
▁दक्षिणेकडील	-8227
▁न्यायपालिका	-8228
▁लोकतांत्रिक	-8229
▁साम्राज्यों	-8230
▁हिन्दुस्तान	-8231
▁Civilisation	-8232
▁Demographics	-8233
▁architecture	-8234
▁increasingly	-8235
▁independence	-8236
▁mathematical	-8237
▁urbanisation	-8238
▁अस्तित्त्वात	-8239
▁केन्द्रशासित	-8240
▁धर्मनिरपेक्ष	-8241
▁शिक्षणपद्धती	-8242
▁contributions	-8243
▁administration	-8244
▁constitutional	-8245
▁महाराष्ट्रातील	-8246
")	-8247
$1	-8248
13	-8249
2)	-8250
62	-8251
7.	-8252
94	-8253
Bh	-8254
CN	-8255
eb	-8256
ee	-8257
fl	-8258
ho	-8259
if	-8260
ms	-8261
nd	-8262
tt	-8263
ंभ	-8264
उन	-8265
कॉ	-8266
खा	-8267
गण	-8268
ठन	-8269
डो	-8270
णम	-8271
थल	-8272
नि	-8273
पड	-8274
पण	-8275
बट	-8276
भे	-8277
यं	-8278
रम	-8279
लक	-8280
लू	-8281
शः	-8282
शि	-8283
सर	-8284
सव	-8285
सो	-8286
हत	-8287
ाड	-8288
िं	-8289
िझ	-8290
िड	-8291
ॅक	-8292
ेन	-8293
ोट	-8294
्प	-8295
५१	-8296
६६	-8297
Ἰν	-8298
▁Z	-8299
2-	-8300
51	-8301
Ar	-8302
ll	-8303
mn	-8304
tu	-8305
एस	-8306
गू	-8307
घा	-8308
नन	-8309
मब	-8310
यल	-8311
रळ	-8312
ाइ	-8313
०८	-8314
▁ॠ	-8315
▁०	-8316
▁“	-8317
▁₹	-8318
(2)	-8319
.24	-8320
00–	-8321
1.1	-8322
4.4	-8323
8–2	-8324
Pro	-8325
UCN	-8326
adi	-8327
akh	-8328
alf	-8329
alo	-8330
anc	-8331
app	-8332
arb	-8333
cer	-8334
cha	-8335
cil	-8336
cla	-8337
cto	-8338
edd	-8339
eth	-8340
han	-8341
hau	-8342
hip	-8343
ile	-8344
ili	-8345
ils	-8346
ily	-8347
iva	-8348
key	-8349
lal	-8350
mns	-8351
nov	-8352
omy	-8353
oor	-8354
oro	-8355
osp	-8356
ret	-8357
rid	-8358
sty	-8359
sur	-8360
ury	-8361
vas	-8362
wan	-8363
yth	-8364
zed	-8365
ंकड	-8366
ंवा	-8367
कथा	-8368
कले	-8369
किन	-8370
कुल	-8371
गळी	-8372
चिन	-8373
जोद	-8374
डीए	-8375
दात	-8376
दाव	-8377
धाय	-8378
नाभ	-8379
निय	-8380
पान	-8381
फ्र	-8382
भेद	-8383
राज	-8384
रुप	-8385
र्घ	-8386
र्फ	-8387
लब्	-8388
लां	-8389
समय	-8390
हाई	-8391
ांश	-8392
ाज़	-8393
ाये	-8394
िंग	-8395
िरक	-8396
ुंग	-8397
ूदी	-8398
ूमर	-8399
)।	-8400
,"	-8401
./	-8402
31	-8403
64	-8404
PP	-8405
ma	-8406
uk	-8407
ओड	-8408
टर	-8409
थम	-8410
बि	-8411
भू	-8412
ाऊ	-8413
ीए	-8414
ूद	-8415
ैऋ	-8416
२३	-8417
४८	-8418
६२	-8419
८५	-8420
▁°	-8421
$2,	-8422
1,3	-8423
asi	-8424
buc	-8425
erc	-8426
jay	-8427
चीफ	-8428
लीन	-8429
वर्	-8430
ायो	-8431
ियो	-8432
ूषण	-8433
ेंच	-8434
ेंट	-8435
ैंक	-8436
्टर	-8437
्यक	-8438
्रम	-8439
्रु	-8440
्‍व	-8441
Ἰνδ	-8442
▁("	-8443
▁(3	-8444
▁2,	-8445
▁34	-8446
▁II	-8447
▁Im	-8448
▁Ka	-8449
▁Ni	-8450
▁So	-8451
▁am	-8452
▁dh	-8453
▁ec	-8454
▁ge	-8455
▁sw	-8456
▁अख	-8457
▁आई	-8458
▁आए	-8459
▁आश	-8460
▁इत	-8461
▁एड	-8462
▁खा	-8463
▁ग़	-8464
▁चे	-8465
▁जे	-8466
▁जॉ	-8467
▁टक	-8468
▁तल	-8469
▁पि	-8470
▁बल	-8471
▁बु	-8472
▁मर	-8473
▁मश	-8474
▁मै	-8475
▁यू	-8476
▁रम	-8477
▁लू	-8478
▁लौ	-8479
▁सॉ	-8480
▁हड	-8481
▁५५	-8482
▁७९	-8483
$100	-8484
5.8%	-8485
abha	-8486
aled	-8487
ammu	-8488
andy	-8489
anuf	-8490
aras	-8491
ased	-8492
aves	-8493
awat	-8494
body	-8495
buck	-8496
east	-8497
econ	-8498
elig	-8499
9,	-8500
ओस	-8501
dus	-8502
osa	-8503
rac	-8504
udy	-8505
ups	-8506
गान	-8507
चिव	-8508
पात	-8509
ांढ	-8510
ालै	-8511
ुण्	-8512
▁अह	-8513
▁टो	-8514
▁डच	-8515
▁मि	-8516
▁सन	-8517
▁सव	-8518
aken	-8519
aved	-8520
erly	-8521
eror	-8522
etah	-8523
ffic	-8524
fort	-8525
gadi	-8526
hest	-8527
iger	-8528
ilar	-8529
iled	-8530
inth	-8531
ires	-8532
isdi	-8533
ital	-8534
itiz	-8535
ixed	-8536
ling	-8537
mitt	-8538
ning	-8539
niqu	-8540
oint	-8541
ondw	-8542
onic	-8543
oyal	-8544
pots	-8545
puts	-8546
ream	-8547
rist	-8548
ronz	-8549
side	-8550
sted	-8551
tell	-8552
uber	-8553
urta	-8554
uted	-8555
utra	-8556
vene	-8557
veri	-8558
ying	-8559
ंगिक	-8560
आसाम	-8561
ओडिश	-8562
गंगा	-8563
ग्रह	-8564
ग्वे	-8565
घाडी	-8566
जराथ	-8567
डीपी	-8568
डेरल	-8569
दर्भ	-8570
दलीय	-8571
दातर	-8572
दिवस	-8573
नाडु	-8574
न्धु	-8575
न्ही	-8576
पक्ष	-8577
पाइन	-8578
पाती	-8579
फ़्ट	-8580
फेअर	-8581
बन्ध	-8582
भाषी	-8583
भूमी	-8584
मबेट	-8585
माने	-8586
म्बई	-8587
रेखा	-8588
रेलू	-8589
लब्ध	-8590
ळ्या	-8591
वर्ग	-8592
वेयर	-8593
श्यक	-8594
ष्णा	-8595
सतों	-8596
सभेत	-8597
सायन	-8598
सोसि	-8599
co	-8600
amy	-8601
bai	-8602
emi	-8603
iff	-8604
nam	-8605
ulk	-8606
urs	-8607
खून	-8608
तीत	-8609
दली	-8610
न्स	-8611
वला	-8612
सदन	-8613
सां	-8614
ाचल	-8615
ासद	-8616
ियम	-8617
ैला	-8618
ोषण	-8619
▁To	-8620
▁१३	-8621
▁१४	-8622
aces	-8623
amic	-8624
ceed	-8625
edic	-8626
hess	-8627
ibet	-8628
utes	-8629
खण्ड	-8630
खाली	-8631
र्ता	-8632
लुगू	-8633
ळकार	-8634
ाँचा	-8635
ांचल	-8636
ांवि	-8637
ागृह	-8638
ाणिज	-8639
ात्र	-8640
ापान	-8641
ार्य	-8642
िंठा	-8643
िकेट	-8644
ित्व	-8645
िलित	-8646
ीव्र	-8647
ुण्ण	-8648
ुत्प	-8649
ुष्य	-8650
ूतील	-8651
ूपीए	-8652
ेतही	-8653
ेमाल	-8654
ेशिक	-8655
ोंगल	-8656
ोग्य	-8657
ोजना	-8658
ोबार	-8659
्त्व	-8660
्रणी	-8661
्रवा	-8662
्राइ	-8663
३८ला	-8664
▁192	-8665
▁2.8	-8666
▁36.	-8667
▁361	-8668
▁74.	-8669
▁Bah	-8670
▁Bet	-8671
▁Inc	-8672
▁Jaw	-8673
▁Lat	-8674
▁NDA	-8675
▁Nat	-8676
▁New	-8677
▁Out	-8678
▁Sim	-8679
▁Sin	-8680
▁Ter	-8681
▁UPA	-8682
▁Vaj	-8683
▁WHO	-8684
▁abs	-8685
▁any	-8686
▁aut	-8687
▁bal	-8688
▁ban	-8689
▁bon	-8690
▁bre	-8691
▁cat	-8692
▁cin	-8693
▁cor	-8694
▁cra	-8695
▁dyn	-8696
▁edi	-8697
▁emb	-8698
▁fil	-8699
.1	-8700
xt	-8701
आक	-8702
air	-8703
ead	-8704
irm	-8705
set	-8706
पति	-8707
पुर	-8708
पेन	-8709
बाद	-8710
वेर	-8711
▁42	-8712
▁Aj	-8713
▁ऑग	-8714
airs	-8715
aith	-8716
amed	-8717
ares	-8718
emen	-8719
fast	-8720
grow	-8721
head	-8722
ores	-8723
osis	-8724
ंचों	-8725
ंतिम	-8726
क्षम	-8727
गठित	-8728
चेरी	-8729
बद्ध	-8730
र्मी	-8731
स्कर	-8732
ाषाण	-8733
▁Fol	-8734
▁bar	-8735
▁dem	-8736
▁gig	-8737
▁hun	-8738
▁jur	-8739
▁kho	-8740
▁lab	-8741
▁lar	-8742
▁may	-8743
▁mod	-8744
▁nar	-8745
▁own	-8746
▁ple	-8747
▁saw	-8748
▁she	-8749
▁siz	-8750
▁ten	-8751
▁top	-8752
▁tun	-8753
▁typ	-8754
▁unc	-8755
▁web	-8756
▁wet	-8757
▁अणु	-8758
▁अमर	-8759
▁अहम	-8760
▁आने	-8761
▁आया	-8762
▁इन्	-8763
▁उदय	-8764
▁उपन	-8765
▁एकच	-8766
▁एका	-8767
▁एवम	-8768
▁ऐसी	-8769
▁ऐसे	-8770
▁ओणम	-8771
▁औसत	-8772
▁कथक	-8773
▁कथा	-8774
▁कले	-8775
▁काँ	-8776
▁काय	-8777
▁खात	-8778
▁गये	-8779
▁गाँ	-8780
▁गिध	-8781
▁गुट	-8782
▁गोड	-8783
▁ग्ल	-8784
▁घेऊ	-8785
▁चतु	-8786
▁चरम	-8787
▁चाह	-8788
▁छाऊ	-8789
▁छूट	-8790
▁जनक	-8791
▁जाग	-8792
▁जान	-8793
▁जुन	-8794
▁ज्य	-8795
▁थंड	-8796
▁दशह	-8797
▁दिए	-8798
▁दिन	-8799
एन	-8800
जा	-8801
१९	-8802
ake	-8803
nic	-8804
rdu	-8805
uls	-8806
कूल	-8807
कृत	-8808
खनन	-8809
टने	-8810
नृत	-8811
वाँ	-8812
वेग	-8813
्हा	-8814
▁He	-8815
▁जम	-8816
▁धड	-8817
▁४०	-8818
aval	-8819
ayat	-8820
down	-8821
ighb	-8822
ival	-8823
mphi	-8824
onse	-8825
ters	-8826
wing	-8827
त्री	-8828
द्धा	-8829
न्हा	-8830
ासून	-8831
▁70%	-8832
▁Dis	-8833
▁Mum	-8834
▁did	-8835
▁way	-8836
▁असत	-8837
▁असा	-8838
▁डिग	-8839
▁दौर	-8840
▁द्र	-8841
▁नया	-8842
▁नवर	-8843
▁नैऋ	-8844
▁न्य	-8845
▁परन	-8846
▁परा	-8847
▁परि	-8848
▁फाळ	-8849
▁फिर	-8850
▁बरी	-8851
▁बां	-8852
▁बाल	-8853
▁बीस	-8854
▁बेस	-8855
▁भाई	-8856
▁मंद	-8857
▁मतद	-8858
▁मधे	-8859
▁माग	-8860
▁मूळ	-8861
▁याच	-8862
▁रिझ	-8863
▁रेज	-8864
▁लाव	-8865
▁वजह	-8866
▁वने	-8867
▁वाद	-8868
▁विस	-8869
▁वेढ	-8870
▁शाख	-8871
▁शेष	-8872
▁संत	-8873
▁संश	-8874
▁सतर	-8875
▁समज	-8876
▁साग	-8877
▁सित	-8878
▁सीम	-8879
▁हंप	-8880
▁हनन	-8881
▁होय	-8882
▁५४५	-8883
Artic	-8884
Proli	-8885
ademi	-8886
agana	-8887
agara	-8888
andar	-8889
anded	-8890
angra	-8891
aning	-8892
assin	-8893
avira	-8894
bably	-8895
claim	-8896
dised	-8897
ences	-8898
ended	-8899
चर	-8900
ेड	-8901
ोण	-8902
aci	-8903
ंडळ	-8904
कीम	-8905
पाट	-8906
ष्म	-8907
साह	-8908
▁6%	-8909
▁२५	-8910
ends	-8911
idel	-8912
knit	-8913
pect	-8914
एसजी	-8915
मंडळ	-8916
माला	-8917
ळाने	-8918
ांकि	-8919
ीकार	-8920
▁Old	-8921
▁cut	-8922
▁pot	-8923
▁val	-8924
▁vol	-8925
▁आपू	-8926
▁दिव	-8927
▁नये	-8928
▁पाक	-8929
▁वाम	-8930
akers	-8931
cover	-8932
ength	-8933
ently	-8934
erala	-8935
ereal	-8936
ganiz	-8937
gency	-8938
gener	-8939
harkh	-8940
hered	-8941
house	-8942
icken	-8943
iding	-8944
illed	-8945
inces	-8946
isans	-8947
itude	-8948
jayan	-8949
lands	-8950
leges	-8951
mitte	-8952
molog	-8953
oetic	-8954
ogamy	-8955
oints	-8956
organ	-8957
ority	-8958
osing	-8959
otech	-8960
ottom	-8961
ought	-8962
payee	-8963
pidly	-8964
place	-8965
ption	-8966
resol	-8967
rical	-8968
rigon	-8969
ronic	-8970
sease	-8971
stant	-8972
style	-8973
ंच्या	-8974
ंध्या	-8975
ओडिशा	-8976
कटिका	-8977
क्षेप	-8978
ग्रेस	-8979
ग्वेद	-8980
चालित	-8981
च्छुक	-8982
जरायल	-8983
दावरी	-8984
देश्य	-8985
नाट्य	-8986
बद्दल	-8987
बिनेट	-8988
बियों	-8989
भाजपा	-8990
मानों	-8991
र्वाह	-8992
ऱ्यात	-8993
लकाता	-8994
वेगळे	-8995
ाक्षर	-8996
ातकाल	-8997
ानपान	-8998
ायोस्	-8999
ॉक	-9000
04%	-9001
aps	-9002
che	-9003
osi	-9004
ove	-9005
rup	-9006
दाय	-9007
फ़े	-9008
५००	-9009
▁नई	-9010
▁फ़	-9011
▁रण	-9012
adwe	-9013
iant	-9014
ours	-9015
rent	-9016
year	-9017
द्दा	-9018
विका	-9019
व्या	-9020
सर्व	-9021
ांतर	-9022
ारीत	-9023
िल्म	-9024
▁Nep	-9025
▁Vis	-9026
▁ser	-9027
▁sex	-9028
▁ख्र	-9029
▁जम्	-9030
▁जाऊ	-9031
▁तेज	-9032
▁देव	-9033
▁बोल	-9034
▁माश	-9035
▁मोग	-9036
▁लिह	-9037
▁वाट	-9038
▁हार	-9039
erves	-9040
lowed	-9041
ouses	-9042
ख्यिक	-9043
न्नति	-9044
ावधान	-9045
ावादी	-9046
ाव्या	-9047
िद्या	-9048
िमेंट	-9049
िवाजी	-9050
िश्चन	-9051
ुणाचल	-9052
ुववृत	-9053
ेशियन	-9054
ेशियर	-9055
ोरंजन	-9056
्रवाई	-9057
्हावे	-9058
▁(199	-9059
▁1967	-9060
▁1984	-9061
▁1987	-9062
▁1990	-9063
▁2007	-9064
▁2009	-9065
▁2018	-9066
▁2019	-9067
▁2021	-9068
▁Acha	-9069
▁Carn	-9070
▁Chol	-9071
▁Clim	-9072
▁Cups	-9073
▁Hist	-9074
▁IUCN	-9075
▁Jawa	-9076
▁June	-9077
▁Kosi	-9078
▁Modi	-9079
▁Nort	-9080
▁Octo	-9081
▁Over	-9082
▁Sant	-9083
▁Sovi	-9084
▁They	-9085
▁Urdu	-9086
▁Zoro	-9087
▁anat	-9088
▁arms	-9089
▁best	-9090
▁bulk	-9091
▁chap	-9092
▁city	-9093
▁cost	-9094
▁coun	-9095
▁cuis	-9096
▁cust	-9097
▁data	-9098
▁desc	-9099
ls	-9100
.5%	-9101
णाऱ	-9102
पाठ	-9103
लंब	-9104
संघ	-9105
संप	-9106
ायण	-9107
ेतो	-9108
▁$2	-9109
▁Or	-9110
▁अ‍	-9111
▁डॉ	-9112
▁२९	-9113
▁५०	-9114
osts	-9115
pped	-9116
rict	-9117
ंतीस	-9118
चस्व	-9119
धर्म	-9120
नाइट	-9121
माणे	-9122
र्जा	-9123
ल्ले	-9124
वर्ण	-9125
▁17.	-9126
▁due	-9127
▁ide	-9128
▁नीत	-9129
▁शतर	-9130
ience	-9131
major	-9132
stead	-9133
कालिक	-9134
्त्री	-9135
▁7.5%	-9136
▁Some	-9137
▁dest	-9138
▁died	-9139
▁down	-9140
▁eigh	-9141
▁evol	-9142
▁fash	-9143
▁fest	-9144
▁fish	-9145
▁food	-9146
▁give	-9147
▁gods	-9148
▁half	-9149
▁hots	-9150
▁hubs	-9151
▁infe	-9152
▁late	-9153
▁less	-9154
▁lies	-9155
▁ling	-9156
▁live	-9157
▁make	-9158
▁mand	-9159
▁meas	-9160
▁next	-9161
▁open	-9162
▁pass	-9163
▁past	-9164
▁push	-9165
▁rati	-9166
▁rece	-9167
▁repe	-9168
▁rept	-9169
▁rest	-9170
▁scen	-9171
▁sedi	-9172
▁self	-9173
▁sole	-9174
▁soon	-9175
▁tand	-9176
▁temp	-9177
▁vary	-9178
▁viol	-9179
▁wars	-9180
▁welf	-9181
▁what	-9182
▁अक्ष	-9183
▁अत्य	-9184
▁अधिप	-9185
▁अधिर	-9186
▁अनिव	-9187
▁अर्ध	-9188
▁अलिक	-9189
▁असणे	-9190
▁असफल	-9191
▁असला	-9192
▁आद्र	-9193
▁आर्क	-9194
▁आशिय	-9195
▁इंडो	-9196
▁इतका	-9197
▁इराण	-9198
▁इसने	-9199
०६	-9200
10,	-9201
lus	-9202
shy	-9203
ज़न	-9204
जोर	-9205
बीज	-9206
याब	-9207
लगा	-9208
ह्म	-9209
ोरि	-9210
,500	-9211
Aust	-9212
efly	-9213
ible	-9214
riya	-9215
तज्ञ	-9216
न्नई	-9217
स्थल	-9218
ुकार	-9219
ुमार	-9220
▁72.	-9221
▁Ety	-9222
▁dry	-9223
▁टिळ	-9224
▁पठण	-9225
▁सिख	-9226
ables	-9227
atory	-9228
idesp	-9229
scale	-9230
ड़ीसा	-9231
मारास	-9232
र्तिक	-9233
ामधील	-9234
ालामु	-9235
▁1958	-9236
▁able	-9237
▁drew	-9238
▁jack	-9239
▁role	-9240
▁आजही	-9241
▁आपके	-9242
▁आर्य	-9243
▁इसवी	-9244
▁इस्त	-9245
▁ईसाई	-9246
▁उभरी	-9247
▁कंकड	-9248
▁करोड	-9249
▁कर्म	-9250
▁कहीं	-9251
▁खोरे	-9252
▁गणित	-9253
▁गव्ह	-9254
▁गुरू	-9255
▁गोवा	-9256
▁घराण	-9257
▁घूमर	-9258
▁चलने	-9259
▁चांग	-9260
▁जगात	-9261
▁जन्म	-9262
▁जवाब	-9263
▁जारी	-9264
▁जिसे	-9265
▁तटों	-9266
▁तराई	-9267
▁तांद	-9268
▁तेथे	-9269
▁दलदल	-9270
▁देखो	-9271
▁देते	-9272
▁धम्म	-9273
▁धरतो	-9274
▁धोरण	-9275
▁नंतर	-9276
▁नमूद	-9277
▁नवीन	-9278
▁नष्ट	-9279
▁नाही	-9280
▁नीति	-9281
▁पडतो	-9282
▁पत्र	-9283
▁पर्ज	-9284
▁पहुँ	-9285
▁पांड	-9286
▁पांढ	-9287
▁पाठी	-9288
▁फैला	-9289
▁बदला	-9290
▁बनला	-9291
▁बनली	-9292
▁बनाए	-9293
▁बनीं	-9294
▁बरीच	-9295
▁बलों	-9296
▁बहती	-9297
▁बाढ़	-9298
▁बेटे	-9299
den	-9300
–19	-9301
orne	-9302
स्तर	-9303
▁ess	-9304
▁whe	-9305
▁उमट	-9306
▁दमन	-9307
▁रिप	-9308
▁सदन	-9309
Gange	-9310
riors	-9311
▁इण्ड	-9312
▁इनका	-9313
▁कन्न	-9314
▁कामग	-9315
▁क्री	-9316
▁जैसी	-9317
▁देता	-9318
▁बैंक	-9319
▁भांग	-9320
▁भाबर	-9321
▁भाषी	-9322
▁मधील	-9323
▁मनाए	-9324
▁मरीन	-9325
▁मशीन	-9326
▁महान	-9327
▁महिन	-9328
▁माता	-9329
▁मानी	-9330
▁मौसम	-9331
▁यक्ष	-9332
▁यहां	-9333
▁याचा	-9334
▁यादी	-9335
▁रखने	-9336
▁राशि	-9337
▁रिया	-9338
▁रीति	-9339
▁रूपए	-9340
▁रैंक	-9341
▁लक्ष	-9342
▁वक्त	-9343
▁वाला	-9344
▁वाले	-9345
▁विधि	-9346
▁वेळा	-9347
▁शांत	-9348
▁शाखा	-9349
▁शिखर	-9350
▁शिरक	-9351
▁श्री	-9352
▁संगम	-9353
▁सचिव	-9354
▁समान	-9355
▁सम्प	-9356
▁सरपट	-9357
▁सहित	-9358
▁साझे	-9359
▁साडी	-9360
▁सादर	-9361
▁सिक्	-9362
▁सेमी	-9363
▁सोबत	-9364
▁हजार	-9365
▁हाता	-9366
▁होली	-9367
▁१०००	-9368
▁१६४८	-9369
▁१९१३	-9370
▁१९२०	-9371
▁१९६२	-9372
▁१९६५	-9373
▁१९७४	-9374
▁१९७५	-9375
▁१९७७	-9376
▁१९८०	-9377
▁१९८९	-9378
▁१९९६	-9379
▁१९९९	-9380
▁२०११	-9381
Prolif	-9382
adweep	-9383
ailand	-9384
alwars	-9385
aputra	-9386
asions	-9387
atedly	-9388
atives	-9389
atures	-9390
avated	-9391
avoury	-9392
awatts	-9393
castes	-9394
dients	-9395
dified	-9396
eneral	-9397
ential	-9398
eously	-9399
espite	-9400
ettled	-9401
everal	-9402
formed	-9403
gather	-9404
harlal	-9405
ianity	-9406
iduous	-9407
ilding	-9408
includ	-9409
ioning	-9410
isions	-9411
isting	-9412
lected	-9413
mental	-9414
mented	-9415
mework	-9416
mology	-9417
ointed	-9418
orship	-9419
ralian	-9420
rative	-9421
remely	-9422
rising	-9423
rought	-9424
string	-9425
tified	-9426
vanced	-9427
vasive	-9428
wealth	-9429
तन्त्र	-9430
तुळकार	-9431
त्याने	-9432
द्याने	-9433
धान्ये	-9434
धायिका	-9435
नात्मक	-9436
पक्षीय	-9437
मबेटका	-9438
यशक्ति	-9439
ल्सियस	-9440
श्रेणी	-9441
स्थापक	-9442
ांसाठी	-9443
ांसोबत	-9444
ाणिज्य	-9445
ाबद्दल	-9446
ुक्यों	-9447
ुस्थान	-9448
्यात्म	-9449
्योंकि	-9450
्लादेश	-9451
▁1,200	-9452
▁16.6%	-9453
▁1950.	-9454
▁1971,	-9455
▁1999.	-9456
▁2001,	-9457
▁2008,	-9458
▁2010.	-9459
▁2022,	-9460
▁2023.	-9461
▁2026,	-9462
▁Akbar	-9463
▁Bihar	-9464
▁Caves	-9465
▁Champ	-9466
▁Chand	-9467
▁Chess	-9468
▁Chhau	-9469
▁Class	-9470
▁Emerg	-9471
▁Gondw	-9472
▁Jammu	-9473
▁Laksh	-9474
▁Major	-9475
▁Marat	-9476
▁Ocean	-9477
▁Party	-9478
▁Plain	-9479
▁Polit	-9480
▁Rajiv	-9481
▁Relig	-9482
▁Sabha	-9483
▁Shiva	-9484
▁Sikhs	-9485
▁Still	-9486
▁Tibet	-9487
▁Vedic	-9488
▁Yaksh	-9489
▁above	-9490
▁agree	-9491
▁amend	-9492
▁amphi	-9493
▁artic	-9494
▁begin	-9495
▁black	-9496
▁bonds	-9497
▁bread	-9498
▁break	-9499
▁bronz	-9500
▁child	-9501
▁citiz	-9502
▁close	-9503
▁cloth	-9504
▁conce	-9505
▁defin	-9506
▁deleg	-9507
▁dense	-9508
▁eight	-9509
▁emiss	-9510
▁enabl	-9511
▁event	-9512
▁exerc	-9513
▁flank	-9514
▁flour	-9515
▁green	-9516
▁house	-9517
▁hymns	-9518
▁imple	-9519
▁initi	-9520
▁innov	-9521
▁kurta	-9522
▁lands	-9523
▁layer	-9524
▁males	-9525
▁manuf	-9526
▁marry	-9527
▁medic	-9528
▁model	-9529
▁ninth	-9530
▁onset	-9531
▁pants	-9532
▁peace	-9533
▁petro	-9534
▁plant	-9535
▁respe	-9536
▁ruled	-9537
▁seats	-9538
▁stiff	-9539
▁study	-9540
▁taxes	-9541
▁thorn	-9542
▁towns	-9543
▁tuber	-9544
▁varna	-9545
▁voted	-9546
▁winds	-9547
▁works	-9548
▁अंतिम	-9549
▁अजनाभ	-9550
▁अवलंब	-9551
▁अवसाद	-9552
▁असेही	-9553
▁आघाडी	-9554
▁आठवीं	-9555
▁आदर्श	-9556
▁आयातक	-9557
▁आल्या	-9558
▁इंद्र	-9559
▁इलावा	-9560
▁उठाया	-9561
▁उदयास	-9562
▁ऊर्जा	-9563
▁एकनाथ	-9564
▁एसोसि	-9565
▁ऑगस्ट	-9566
▁ऑस्कर	-9567
▁ओडिसी	-9568
▁ओळखला	-9569
▁कमाली	-9570
▁करेगी	-9571
▁काबीज	-9572
▁कालीन	-9573
▁किंवा	-9574
▁किनार	-9575
▁कुलीन	-9576
▁कोपेन	-9577
▁कोरडे	-9578
▁गिधाड	-9579
▁गेटवे	-9580
▁ग्रंथ	-9581
▁ग्रीक	-9582
▁घरेलू	-9583
▁चंद्र	-9584
▁चळवळी	-9585
▁चालतो	-9586
▁जम्मू	-9587
▁जातीय	-9588
▁जापान	-9589
▁जिनके	-9590
▁जॉर्ज	-9591
▁ज्ञात	-9592
▁ड्राइ	-9593
▁ढाँचा	-9594
▁तीव्र	-9595
▁तीसरे	-9596
▁तेज़ी	-9597
▁दर्ज़	-9598
▁दर्जा	-9599
▁दलदली	-9600
▁दशहरा	-9601
▁दादरा	-9602
▁दीर्घ	-9603
▁दूसरे	-9604
▁देखते	-9605
▁देखने	-9606
▁देशात	-9607
▁नवरात	-9608
▁नामों	-9609
▁निवेश	-9610
▁नेपाल	-9611
▁नेहरु	-9612
▁परदेश	-9613
▁पसंती	-9614
▁पसन्द	-9615
▁पहाता	-9616
▁पहिला	-9617
▁पारसी	-9618
▁पाषाण	-9619
▁पासून	-9620
▁पुढार	-9621
▁पुतळा	-9622
▁पुराव	-9623
▁पोंगल	-9624
▁प्रथम	-9625
▁प्राय	-9626
▁प्रेम	-9627
▁फिल्म	-9628
▁बाह्य	-9629
▁बुद्ध	-9630
▁भक्ति	-9631
▁मंचों	-9632
▁मंदिर	-9633
▁मजबूत	-9634
▁मतभेद	-9635
▁मसाला	-9636
▁महत्व	-9637
▁महिला	-9638
▁महीने	-9639
▁मात्र	-9640
▁मानला	-9641
▁मानले	-9642
▁मामले	-9643
▁मुद्द	-9644
▁मुलगा	-9645
▁मोहें	-9646
▁यहूदी	-9647
▁यातील	-9648
▁यूपीए	-9649
▁योग्य	-9650
▁रममाण	-9651
▁रसायन	-9652
▁रोखून	-9653
▁रोवली	-9654
▁लागते	-9655
▁लिखित	-9656
▁लुप्त	-9657
▁वर्षे	-9658
▁वस्तु	-9659
▁वालों	-9660
▁वित्त	-9661
▁विदेश	-9662
▁वैश्व	-9663
▁शकतात	-9664
▁शहरों	-9665
▁शिकार	-9666
▁संक्ष	-9667
▁संगठन	-9668
▁संशोध	-9669
▁संसार	-9670
▁सक्षम	-9671
▁सत्ता	-9672
▁सभासद	-9673
▁साजरा	-9674
▁सामना	-9675
▁सामने	-9676
▁सार्व	-9677
▁सिद्ध	-9678
▁सुधार	-9679
▁स्त्र	-9680
▁स्थाई	-9681
▁स्रोत	-9682
▁स्वयं	-9683
▁स्वाय	-9684
▁हवेली	-9685
centage	-9686
century	-9687
ctively	-9688
culosis	-9689
etworks	-9690
fficial	-9691
growing	-9692
monsoon	-9693
oration	-9694
osition	-9695
osphere	-9696
passing	-9697
pendent	-9698
ressive	-9699
tlement	-9700
vidence	-9701
violent	-9702
western	-9703
ंध्याचल	-9704
प्रमाणे	-9705
फ़ेडेरल	-9706
स्ट्रेल	-9707
ांपासून	-9708
्यानंतर	-9709
▁30,000	-9710
▁74.04%	-9711
▁Agency	-9712
▁Ajanta	-9713
▁Asians	-9714
▁Christ	-9715
▁Common	-9716
▁Health	-9717
▁Hindus	-9718
▁Jharkh	-9719
▁Kaveri	-9720
▁Kerala	-9721
▁Lankan	-9722
▁Mumbai	-9723
▁Soviet	-9724
▁Temple	-9725
▁access	-9726
▁action	-9727
▁advent	-9728
▁affirm	-9729
▁annual	-9730
▁arisen	-9731
▁births	-9732
▁bottom	-9733
▁breath	-9734
▁calend	-9735
▁carved	-9736
▁cattle	-9737
▁centre	-9738
▁cereal	-9739
▁chains	-9740
▁coasts	-9741
▁compos	-9742
▁contra	-9743
▁cosine	-9744
▁devast	-9745
▁	-9746
్	-9747
ా	-9748
ి	-9749
ర	-9750
ు	-9751
ల	-9752
ం	-9753
న	-9754
త	-9755
క	-9756
ద	-9757
ప	-9758
ा	-9759
వ	-9760
e	-9761
స	-9762
మ	-9763
య	-9764
a	-9765
,	-9766
n	-9767
i	-9768
.	-9769
t	-9770
ే	-9771
ో	-9772
र	-9773
्	-9774
గ	-9775
ట	-9776
o	-9777
r	-9778
చ	-9779
s	-9780
ీ	-9781
े	-9782
त	-9783
భ	-9784
क	-9785
డ	-9786
శ	-9787
d	-9788
=	-9789
स	-9790
h	-9791
ी	-9792
l	-9793
జ	-9794
ि	-9795
य	-9796
न	-9797
ं	-9798
ధ	-9799
म	-9800
ె	-9801
c	-9802
ह	-9803
व	-9804
అ	-9805
బ	-9806
ూ	-9807
प	-9808
ై	-9809
ल	-9810
u	-9811
ష	-9812
హ	-9813
m	-9814
ణ	-9815
0	-9816
ఉ	-9817
1	-9818
द	-9819
g	-9820
f	-9821
ो	-9822
p	-9823
ज	-9824
థ	-9825
भ	-9826
ఇ	-9827
y	-9828
2	-9829
च	-9830
ु	-9831
ొ	-9832
ఆ	-9833
ग	-9834
श	-9835
9	-9836
w	-9837
b	-9838
I	-9839
ब	-9840
ఖ	-9841
-	-9842
ध	-9843
ళ	-9844
ष	-9845
अ	-9846
ण	-9847
v	-9848
आ	-9849
ै	-9850
7	-9851
ఎ	-9852
)	-9853
ू	-9854
(	-9855
5	-9856
ट	-9857
थ	-9858
4	-9859
:	-9860
।	-9861
;	-9862
ఈ	-9863
ఒ	-9864
ృ	-9865
6	-9866
ड	-9867
3	-9868
8	-9869
%	-9870
ౌ	-9871
C	-9872
k	-9873
ఏ	-9874
ख	-9875
इ	-9876
B	-9877
औ	-9878
A	-9879
ए	-9880
T	-9881
उ	-9882
ఘ	-9883
S	-9884
ळ	-9885
"	-9886
ఫ	-9887
E	-9888
–	-9889
P	-9890
ृ	-9891
़	-9892
१	-9893
ई	-9894
ठ	-9895
ఢ	-9896
'	-9897
—	-9898
N	-9899
०	-9900
M	-9901
घ	-9902
x	-9903
९	-9904
फ	-9905
२	-9906
D	-9907
G	-9908
j	-9909
H	-9910
ँ	-9911
ఐ	-9912
५	-9913
ओ	-9914
ौ	-9915
झ	-9916
W	-9917
ढ	-9918
४	-9919
ఠ	-9920
F	-9921
७	-9922
६	-9923
L	-9924
छ	-9925
ॉ	-9926
८	-9927
/	-9928
V	-9929
३	-9930
U	-9931
J	-9932
R	-9933
ఓ	-9934
K	-9935
ऊ	-9936
q	-9937
O	-9938
ऱ	-9939
z	-9940
ऑ	-9941
$	-9942
Z	-9943
ऋ	-9944
&	-9945
^	-9946
ః	-9947
ఋ	-9948
ఔ	-9949
ఛ	-9950
ఞ	-9951
‍	-9952
ः	-9953
ञ	-9954
ॅ	-9955
ā	-9956
°	-9957
ऐ	-9958
Y	-9959
′	-9960
ॲ	-9961
‘	-9962
’	-9963
[	-9964
]	-9965
|	-9966
ɦ	-9967
ˈ	-9968
ː	-9969
δ	-9970
ν	-9971
ॠ	-9972
ṇ	-9973
Ἰ	-9974
“	-9975
”	-9976
₹	-9977
+	-9978
Ö	-9979
á	-9980
â	-9981
í	-9982
ī	-9983
Ś	-9984
ū	-9985
ə	-9986
ɪ	-9987
ɾ	-9988
ʊ	-9989
ί	-9990
α	-9991
ς	-9992
ό	-9993
॰	-9994
ṅ	-9995
ṣ	-9996
ṭ	-9997
†	-9998
