{
  "version": "1.0",
  "truncation": null,
  "padding": null,
  "added_tokens": [],
  "normalizer": null,
  "pre_tokenizer": null,
  "post_processor": null,
  "decoder": null,
  "model": {
    "type": "BPE",
    "dropout": null,
    "unk_token": null,
    "continuing_subword_prefix": null,
    "end_of_word_suffix": null,
    "fuse_unk": false,
    "byte_fallback": false,
    "ignore_merges": false,
    "vocab": {
      "\n": 0,
      " ": 1,
      "\"": 2,
      "$": 3,
      "%": 4,
      "&": 5,
      "'": 6,
      "(": 7,
      ")": 8,
      "+": 9,
      ",": 10,
      "-": 11,
      ".": 12,
      "/": 13,
      "0": 14,
      "1": 15,
      "2": 16,
      "3": 17,
      "4": 18,
      "5": 19,
      "6": 20,
      "7": 21,
      "8": 22,
      "9": 23,
      ":": 24,
      ";": 25,
      "=": 26,
      "A": 27,
      "B": 28,
      "C": 29,
      "D": 30,
      "E": 31,
      "F": 32,
      "G": 33,
      "H": 34,
      "I": 35,
      "J": 36,
      "K": 37,
      "L": 38,
      "M": 39,
      "N": 40,
      "O": 41,
      "P": 42,
      "R": 43,
      "S": 44,
      "T": 45,
      "U": 46,
      "V": 47,
      "W": 48,
      "Y": 49,
      "Z": 50,
      "[": 51,
      "]": 52,
      "^": 53,
      "a": 54,
      "b": 55,
      "c": 56,
      "d": 57,
      "e": 58,
      "f": 59,
      "g": 60,
      "h": 61,
      "i": 62,
      "j": 63,
      "k": 64,
      "l": 65,
      "m": 66,
      "n": 67,
      "o": 68,
      "p": 69,
      "q": 70,
      "r": 71,
      "s": 72,
      "t": 73,
      "u": 74,
      "v": 75,
      "w": 76,
      "x": 77,
      "y": 78,
      "z": 79,
      "|": 80,
      "°": 81,
      "Ö": 82,
      "á": 83,
      "â": 84,
      "í": 85,
      "ā": 86,
      "ī": 87,
      "Ś": 88,
      "ū": 89,
      "ə": 90,
      "ɦ": 91,
      "ɪ": 92,
      "ɾ": 93,
      "ʊ": 94,
      "ʱ": 95,
      "ˈ": 96,
      "ː": 97,
      "ί": 98,
      "α": 99,
      "δ": 100,
      "ν": 101,
      "ς": 102,
      "ό": 103,
      "ँ": 104,
      "ं": 105,
      "ः": 106,
      "अ": 107,
      "आ": 108,
      "इ": 109,
      "ई": 110,
      "उ": 111,
      "ऊ": 112,
      "ऋ": 113,
      "ए": 114,
      "ऐ": 115,
      "ऑ": 116,
      "ओ": 117,
      "औ": 118,
      "क": 119,
      "ख": 120,
      "ग": 121,
      "घ": 122,
      "च": 123,
      "छ": 124,
      "ज": 125,
      "झ": 126,
      "ञ": 127,
      "ट": 128,
      "ठ": 129,
      "ड": 130,
      "ढ": 131,
      "ण": 132,
      "त": 133,
      "थ": 134,
      "द": 135,
      "ध": 136,
      "न": 137,
      "प": 138,
      "फ": 139,
      "ब": 140,
      "भ": 141,
      "म": 142,
      "य": 143,
      "र": 144,
      "ऱ": 145,
      "ल": 146,
      "ळ": 147,
      "व": 148,
      "श": 149,
      "ष": 150,
      "स": 151,
      "ह": 152,
      "़": 153,
      "ा": 154,
      "ि": 155,
      "ी": 156,
      "ु": 157,
      "ू": 158,
      "ृ": 159,
      "ॅ": 160,
      "े": 161,
      "ै": 162,
      "ॉ": 163,
      "ो": 164,
      "ौ": 165,
      "्": 166,
      "ॠ": 167,
      "।": 168,
      "०": 169,
      "१": 170,
      "२": 171,
      "३": 172,
      "४": 173,
      "५": 174,
      "६": 175,
      "७": 176,
      "८": 177,
      "९": 178,
      "॰": 179,
      "ॲ": 180,
      "ం": 181,
      "ః": 182,
      "అ": 183,
      "ఆ": 184,
      "ఇ": 185,
      "ఈ": 186,
      "ఉ": 187,
      "ఋ": 188,
      "ఎ": 189,
      "ఏ": 190,
      "ఐ": 191,
      "ఒ": 192,
      "ఓ": 193,
      "ఔ": 194,
      "క": 195,
      "ఖ": 196,
      "గ": 197,
      "ఘ": 198,
      "చ": 199,
      "ఛ": 200,
      "జ": 201,
      "ఞ": 202,
      "ట": 203,
      "ఠ": 204,
      "డ": 205,
      "ఢ": 206,
      "ణ": 207,
      "త": 208,
      "థ": 209,
      "ద": 210,
      "ధ": 211,
      "న": 212,
      "ప": 213,
      "ఫ": 214,
      "బ": 215,
      "భ": 216,
      "మ": 217,
      "య": 218,
      "ర": 219,
      "ల": 220,
      "ళ": 221,
      "వ": 222,
      "శ": 223,
      "ష": 224,
      "స": 225,
      "హ": 226,
      "ా": 227,
      "ి": 228,
      "ీ": 229,
      "ు": 230,
      "ూ": 231,
      "ృ": 232,
      "ె": 233,
      "ే": 234,
      "ై": 235,
      "ొ": 236,
      "ో": 237,
      "ౌ": 238,
      "్": 239,
      "ṅ": 240,
      "ṇ": 241,
      "ṣ": 242,
      "ṭ": 243,
      "Ἰ": 244,
      " ": 245,
      "‌": 246,
      "‍": 247,
      "–": 248,
      "—": 249,
      "‘": 250,
      "’": 251,
      "“": 252,
      "”": 253,
      "†": 254,
      "′": 255,
      "₹": 256,
      "ा ": 257,
      "े ": 258,
      ", ": 259,
      "्य": 260,
      "ी ": 261,
      "e ": 262,
      "ार": 263,
      ". ": 264,
      "्र": 265,
      " क": 266,
      "th": 267,
      "an": 268,
      "s ": 269,
      "in": 270,
      "d ": 271,
      "त ": 272,
      "er": 273,
      " स": 274,
      "on": 275,
      "the ": 276,
      "भार": 277,
      "र्": 278,
      " प": 279,
      " म": 280,
      "ు ": 281,
      "్ర": 282,
      "==": 283,
      "en": 284,
      "ां": 285,
      "al": 286,
      "ar": 287,
      "st": 288,
      "ార": 289,
      "ान": 290,
      "y ": 291,
      "di": 292,
      "र ": 293,
      "ात": 294,
      "िक": 295,
      "\n\n": 296,
      "at": 297,
      "भारत": 298,
      "स्": 299,
      "्या ": 300,
      "ाल": 301,
      "ాల": 302,
      "or": 303,
      "ें": 304,
      "ed ": 305,
      "In": 306,
      "of": 307,
      " ह": 308,
      " the ": 309,
      "ाच": 310,
      "and ": 311,
      "ి ": 312,
      "a ": 313,
      "re": 314,
      "आह": 315,
      " व": 316,
      "रा": 317,
      "Indi": 318,
      "ion": 319,
      "आहे": 320,
      " ప": 321,
      "ात ": 322,
      "లో": 323,
      "it": 324,
      "స్": 325,
      "ic": 326,
      " के ": 327,
      "ीय": 328,
      "్య": 329,
      "of ": 330,
      "प्र": 331,
      "िय": 332,
      " अ": 333,
      "ా ": 334,
      "ाम": 335,
      "ing": 336,
      "क्": 337,
      "t ": 338,
      "al ": 339,
      "న్": 340,
      " में": 341,
      "ील": 342,
      "न ": 343,
      "ిం": 344,
      "त्र": 345,
      "దే": 346,
      "वि": 347,
      "ास": 348,
      "దేశ": 349,
      "om": 350,
      "ిక": 351,
      "ों": 352,
      "ర్": 353,
      "ం ": 354,
      "an ": 355,
      "to": 356,
      "భార": 357,
      " प्र": 358,
      "दे": 359,
      "భారత": 360,
      "ur": 361,
      "లో ": 362,
      "ष्": 363,
      "त्": 364,
      "న ": 365,
      "ेल": 366,
      "ది": 367,
      " न": 368,
      "as ": 369,
      "राज": 370,
      "है": 371,
      "त्य": 372,
      "ाव": 373,
      "। ": 374,
      "in ": 375,
      "ec": 376,
      " ब": 377,
      "er ": 378,
      "ing ": 379,
      "क्ष": 380,
      "es ": 381,
      "ou": 382,
      "\n==": 383,
      "\n\n\n==": 384,
      ".\n": 385,
      "19": 386,
      "ंग": 387,
      "र्व": 388,
      "द्": 389,
      "ाह": 390,
      "ति": 391,
      " ज": 392,
      "भारतीय": 393,
      "आहे. ": 394,
      "ा क": 395,
      "న్న": 396,
      "देश": 397,
      "भा": 398,
      "to ": 399,
      " క": 400,
      "ion ": 401,
      "और ": 402,
      "ంగ": 403,
      "ుల": 404,
      "is": 405,
      "कार": 406,
      "es": 407,
      "ांच": 408,
      "भारत ": 409,
      "il": 410,
      "ాయ": 411,
      "st ": 412,
      " వ": 413,
      "ध्य": 414,
      "th ": 415,
      "ent": 416,
      "ly ": 417,
      "न्": 418,
      "ष्ट": 419,
      "క్": 420,
      "ాత": 421,
      " त": 422,
      "Th": 423,
      "ाप": 424,
      " की ": 425,
      "em": 426,
      "या ": 427,
      " ప్ర": 428,
      " స": 429,
      "00": 430,
      "h ": 431,
      "सं": 432,
      "India ": 433,
      " आ": 434,
      "ది. ": 435,
      "am": 436,
      "ol": 437,
      "राज्य": 438,
      "as": 439,
      "क ": 440,
      "is ": 441,
      "ul": 442,
      "ాలు ": 443,
      " है": 444,
      "रू": 445,
      "ाद": 446,
      "రా": 447,
      "్ట": 448,
      "मु": 449,
      "जात": 450,
      "ती ": 451,
      "र्म": 452,
      "ri": 453,
      "के ": 454,
      "िल": 455,
      "ीच": 456,
      "ने": 457,
      "వి": 458,
      "ने ": 459,
      "स्थ": 460,
      "li": 461,
      "ra": 462,
      "तर": 463,
      "में": 464,
      "ండ": 465,
      "ప్ర": 466,
      "ాన": 467,
      "ाच्या ": 468,
      "for": 469,
      "ाज": 470,
      "े. ": 471,
      "ీయ": 472,
      "భారతదేశ": 473,
      "ver": 474,
      "ద్": 475,
      " सं": 476,
      "The ": 477,
      "ు, ": 478,
      "ातील": 479,
      " श": 480,
      " का ": 481,
      "ow": 482,
      "हो": 483,
      "ाय": 484,
      "ण ": 485,
      "India": 486,
      "త్": 487,
      "ించ": 488,
      "ent ": 489,
      "స్త": 490,
      ".\n\n\n==": 491,
      "से ": 492,
      ", and ": 493,
      "el": 494,
      "్ల": 495,
      "ाने ": 496,
      " को": 497,
      " మ": 498,
      "िम": 499,
      " से ": 500,
      "by ": 501,
      "द्र": 502,
      "पू": 503,
      "हु": 504,
      "ित ": 505,
      " में ": 506,
      "ch": 507,
      "ी व": 508,
      "ir": 509,
      "n ": 510,
      "ంత": 511,
      "आहेत": 512,
      "ले ": 513,
      "झाल": 514,
      "ना": 515,
      " कर": 516,
      "द्ध": 517,
      " (": 518,
      "con": 519,
      "श्": 520,
      "of the ": 521,
      ", the ": 522,
      "िक ": 523,
      "सम": 524,
      "===": 525,
      "20": 526,
      "ag": 527,
      "op": 528,
      "ाण": 529,
      "లు ": 530,
      "Indian ": 531,
      "et": 532,
      "iv": 533,
      "su": 534,
      " स्": 535,
      " इ": 536,
      " ल": 537,
      "du": 538,
      "ist": 539,
      "नि": 540,
      "ाळ": 541,
      "ीन": 542,
      "ार्": 543,
      "wi": 544,
      "ा, ": 545,
      "ड़": 546,
      "िं": 547,
      "రి": 548,
      "ध्ये ": 549,
      "एक": 550,
      "ता ": 551,
      "सा": 552,
      "र्ष": 553,
      "ष्ट्र": 554,
      "ही ": 555,
      "ంలో ": 556,
      "ని": 557,
      ". The ": 558,
      "ाचे ": 559,
      "స్థ": 560,
      "'s ": 561,
      "ad": 562,
      "तर ": 563,
      "ना ": 564,
      " वि": 565,
      "िया ": 566,
      "ac": 567,
      "un": 568,
      "कृ": 569,
      "ून ": 570,
      "स्त": 571,
      "ंत्र": 572,
      "१९": 573,
      " द": 574,
      "ex": 575,
      "wh": 576,
      "ुर": 577,
      "ంట": 578,
      "గా ": 579,
      "भारतात ": 580,
      "ic ": 581,
      "ला ": 582,
      " ర": 583,
      " और ": 584,
      "था ": 585,
      "पर": 586,
      "्ष": 587,
      " and ": 588,
      "ंड": 589,
      "ीं": 590,
      "ము": 591,
      "ी क": 592,
      "in the ": 593,
      "or ": 594,
      "ాయి": 595,
      "आहेत. ": 596,
      "im": 597,
      "en ": 598,
      "was ": 599,
      "उत्": 600,
      "विध": 601,
      "ig": 602,
      "ut": 603,
      "ी. ": 604,
      "ro": 605,
      "तात": 606,
      "కు": 607,
      "ని ": 608,
      "ూడ": 609,
      "ు ప": 610,
      "ింది. ": 611,
      "cl": 612,
      "ear": 613,
      "धर्म": 614,
      "ी, ": 615,
      "ोक": 616,
      "res": 617,
      "ab": 618,
      "च्या ": 619,
      " ग": 620,
      "अस": 621,
      "ते ": 622,
      "ang": 623,
      "ong": 624,
      "स्व": 625,
      " हो": 626,
      "ाची ": 627,
      "क्षि": 628,
      "= ": 629,
      "rom": 630,
      "भू": 631,
      "id": 632,
      "mo": 633,
      "pl": 634,
      "s, ": 635,
      "us": 636,
      "द्य": 637,
      "धिक": 638,
      "ధిక": 639,
      "ern ": 640,
      "भाग": 641,
      "క్ష": 642,
      "o ": 643,
      "ली ": 644,
      "ार ": 645,
      "est": 646,
      "ख्य": 647,
      "తి": 648,
      "ిత": 649,
      "ation ": 650,
      "स्कृ": 651,
      "तात. ": 652,
      "; ": 653,
      "ast": 654,
      "नी ": 655,
      "मह": 656,
      "मो": 657,
      "।\n": 658,
      "चि": 659,
      "ते. ": 660,
      "ळे ": 661,
      "व्य": 662,
      "ून": 663,
      "ను ": 664,
      "భా": 665,
      "राष्ट्र": 666,
      "म्": 667,
      "ये": 668,
      "से": 669,
      "हे ": 670,
      " జ": 671,
      "ce ": 672,
      "चे ": 673,
      "मान": 674,
      "ा. ": 675,
      "िन्": 676,
      "వా": 677,
      "ిన ": 678,
      "र्थ": 679,
      "भाष": 680,
      "हैं": 681,
      "% ": 682,
      "इस": 683,
      "की ": 684,
      "दी ": 685,
      "िश": 686,
      "ం, ": 687,
      "తర": 688,
      "ల్": 689,
      "్చ": 690,
      "ere ": 691,
      "भारताच्या ": 692,
      "with ": 693,
      "co": 694,
      "पट": 695,
      "de": 696,
      "from": 697,
      "has ": 698,
      "par": 699,
      "कि": 700,
      "ण्य": 701,
      "तु": 702,
      "भी ": 703,
      "ाग": 704,
      "ంద": 705,
      "ార్": 706,
      "ంగా ": 707,
      "ha": 708,
      "ter": 709,
      "नाव": 710,
      "ाब": 711,
      " అ": 712,
      ") ": 713,
      "), ": 714,
      "oc": 715,
      "tion": 716,
      "um": 717,
      "सर": 718,
      "ష్ట": 719,
      "ిన": 720,
      "ు. ": 721,
      "ation": 722,
      "ed by ": 723,
      "ों के ": 724,
      ": ": 725,
      "दक्षि": 726,
      "न्य": 727,
      "्ल": 728,
      "ालय": 729,
      "द्व": 730,
      "ill": 731,
      " उ": 732,
      "ma": 733,
      "दल": 734,
      "िळ": 735,
      "िव": 736,
      "ైన": 737,
      "and": 738,
      "ाचा ": 739,
      "ich ": 740,
      "ील ": 741,
      "రాజ": 742,
      "ాయి. ": 743,
      "com": 744,
      "over": 745,
      "और": 746,
      "पूर्व": 747,
      "le ": 748,
      "os": 749,
      "लेल": 750,
      "ाट": 751,
      "ుత": 752,
      "all": 753,
      "ally ": 754,
      "ाला ": 755,
      " हे ": 756,
      "िया": 757,
      " अस": 758,
      "ांच्या ": 759,
      "be": 760,
      "हा ": 761,
      "ीप": 762,
      ". In": 763,
      "on ": 764,
      "ामु": 765,
      "ंग्र": 766,
      "चित्र": 767,
      " ट": 768,
      "दो": 769,
      "मध्ये ": 770,
      "ोग": 771,
      "ంలో": 772,
      "చ్చ": 773,
      "ట్ట": 774,
      "ను": 775,
      "నే": 776,
      " मु": 777,
      "ులు ": 778,
      "which ": 779,
      "चित्रपट": 780,
      "rit": 781,
      "sp": 782,
      "ud": 783,
      "यु": 784,
      "वे": 785,
      "िस": 786,
      "s of ": 787,
      "at ": 788,
      "ाम्र": 789,
      "त्व": 790,
      "है। ": 791,
      "cont": 792,
      " आहे. ": 793,
      "ea": 794,
      "ेत्र": 795,
      "ంది. ": 796,
      "ఉన్న": 797,
      "==\n\n": 798,
      "ical ": 799,
      "న్న ": 800,
      "భారతీయ": 801,
      "ult": 802,
      "स्थान": 803,
      "ाज्य": 804,
      "ाम्राज्य": 805,
      "200": 806,
      "y, ": 807,
      " पर": 808,
      "ाहि": 809,
      "रूप": 810,
      " संस्कृ": 811,
      "ies ": 812,
      "पु": 813,
      "ेव": 814,
      "ంచ": 815,
      "పా": 816,
      "సా": 817,
      "ియ": 818,
      ", ज": 819,
      " पर ": 820,
      "िक्ष": 821,
      "ate ": 822,
      "its ": 823,
      "oun": 824,
      "ा के ": 825,
      "श्च": 826,
      "201": 827,
      " स्थ": 828,
      "lar": 829,
      "sh": 830,
      "s. ": 831,
      "का ": 832,
      "क्र": 833,
      "तो": 834,
      "to the ": 835,
      " हैं": 836,
      "India's ": 837,
      " र": 838,
      "cent": 839,
      "ंद": 840,
      "अने": 841,
      "कड": 842,
      "बहु": 843,
      "मार": 844,
      "ीम": 845,
      "కు ": 846,
      "నా": 847,
      "మొ": 848,
      "ల్ల": 849,
      " केल": 850,
      "ांमध्ये ": 851,
      "ికి ": 852,
      "ष्ठ": 853,
      " ने ": 854,
      "ांचा ": 855,
      "ాతీయ": 856,
      "రాష్ట": 857,
      "త్వ": 858,
      "from ": 859,
      "రాష్ట్ర": 860,
      "est ": 861,
      "gen": 862,
      "se": 863,
      "wor": 864,
      "were ": 865,
      "धान": 866,
      "००": 867,
      "ी स": 868,
      "्रि": 869,
      "===\n": 870,
      "ाहित्य": 871,
      " చ": 872,
      " శ": 873,
      " దేశ": 874,
      " धर्म": 875,
      "ct": 876,
      "mar": 877,
      "ीन ": 878,
      "ुस": 879,
      "ैद": 880,
      "ాబ": 881,
      "are ": 882,
      "ాలు": 883,
      "ులు, ": 884,
      "ద్ధ": 885,
      "===\n\n": 886,
      "ive ": 887,
      "ed": 888,
      "णि": 889,
      "यह": 890,
      "शास": 891,
      "विविध": 892,
      "form": 893,
      "साथ": 894,
      "ain": 895,
      "le": 896,
      "lat": 897,
      "pro": 898,
      "si": 899,
      "ठी ": 900,
      "కో": 901,
      "ఖ్య": 902,
      "ువ": 903,
      " सम": 904,
      "్రీ": 905,
      "ort": 906,
      "్యవ": 907,
      "ింద": 908,
      "econ": 909,
      " సం": 910,
      "में ": 911,
      "ద్ద": 912,
      "ంత్ర": 913,
      "larg": 914,
      "0 ": 915,
      "ial ": 916,
      "माण": 917,
      "हर": 918,
      "ar ": 919,
      "ity ": 920,
      "ीचे ": 921,
      "for ": 922,
      "दक्षिण": 923,
      " ఆ": 924,
      "gh": 925,
      "low": 926,
      "च्": 927,
      "दार": 928,
      "शी ": 929,
      "सर्व": 930,
      "हण": 931,
      "ीत ": 932,
      "ेट": 933,
      "ोल": 934,
      "ఒక": 935,
      "వే": 936,
      "ి, ": 937,
      ". A": 938,
      " सर": 939,
      " पू": 940,
      "ाली ": 941,
      "ాలు, ": 942,
      "ర్వ": 943,
      "है।": 944,
      "196": 945,
      "होत": 946,
      ".\n\n\n=== ": 947,
      "्रिट": 948,
      "bo": 949,
      "min": 950,
      "ment ": 951,
      "per": 952,
      "ंध": 953,
      "लि": 954,
      "हास": 955,
      "ीव": 956,
      "े, ": 957,
      " सर्व": 958,
      "भारत के ": 959,
      "ing the ": 960,
      "ism": 961,
      "es, ": 962,
      "ass": 963,
      "उत्तर": 964,
      ". In ": 965,
      "्रिटिश": 966,
      " च": 967,
      "ay": 968,
      "up": 969,
      "ure": 970,
      "ओं": 971,
      "काल": 972,
      "णे ": 973,
      "ाँ": 974,
      "ित": 975,
      "ेत": 976,
      "ेर": 977,
      "ంది": 978,
      "కా": 979,
      "జాతీయ": 980,
      "టి": 981,
      "తి ": 982,
      "ది ": 983,
      "లి": 984,
      "వర": 985,
      "సం": 986,
      "్‌": 987,
      "end": 988,
      "ed in ": 989,
      "భారతదేశం ": 990,
      "overn": 991,
      "Ch": 992,
      "ce": 993,
      "cre": 994,
      "tr": 995,
      "गर": 996,
      "बंध": 997,
      "लग": 998,
      "लोक": 999,
      "सभ": 1000,
      "ास्": 1001,
      " क्ष": 1002,
      "195": 1003,
      " है। ": 1004,
      "ार्थ": 1005,
      "1 ": 1006,
      "CE": 1007,
      "Hin": 1008,
      "ak": 1009,
      "gr": 1010,
      "og": 1011,
      "कर": 1012,
      "गेल": 1013,
      "ढ़": 1014,
      "वी ": 1015,
      "वस्थ": 1016,
      "िर": 1017,
      "ुव": 1018,
      "ఎన్న": 1019,
      "చే": 1020,
      "తో": 1021,
      "ధ్య": 1022,
      "మై": 1023,
      "లు": 1024,
      "ా, ": 1025,
      "ాన్": 1026,
      " पा": 1027,
      " पु": 1028,
      " मह": 1029,
      "ary ": 1030,
      " प्रकार": 1031,
      "ाही ": 1032,
      "तिहास": 1033,
      " ప్రా": 1034,
      "िमालय": 1035,
      "मोठ": 1036,
      "सेच": 1037,
      "द्वीप": 1038,
      "श्चिम": 1039,
      " राज्य": 1040,
      "ap": 1041,
      "bec": 1042,
      "i ": 1043,
      "तथा ": 1044,
      "प्": 1045,
      "बाद": 1046,
      "बसे ": 1047,
      "वर": 1048,
      "ेंद्र": 1049,
      "reg": 1050,
      "ect": 1051,
      "ाहर": 1052,
      "जाती ": 1053,
      "econom": 1054,
      " क्षेत्र": 1055,
      "af": 1056,
      "a, ": 1057,
      "e, ": 1058,
      "nor": 1059,
      "port": 1060,
      "ve ": 1061,
      "ंब": 1062,
      "गु": 1063,
      "ग्र": 1064,
      "ची ": 1065,
      "भर": 1066,
      "ल्य": 1067,
      "सद": 1068,
      "ृष्ट": 1069,
      "ोब": 1070,
      "డ్": 1071,
      "మా": 1072,
      "మార్": 1073,
      "రు": 1074,
      "హింద": 1075,
      "ెండ": 1076,
      "ో ": 1077,
      "్ ": 1078,
      "ा प": 1079,
      "్రమ": 1080,
      "प्राच": 1081,
      "ों में": 1082,
      "199": 1083,
      "ीच्या ": 1084,
      "पूर्": 1085,
      "श्व": 1086,
      " రై": 1087,
      "ూడా ": 1088,
      " टक्": 1089,
      "్యవస్థ": 1090,
      " भारत ": 1091,
      "der": 1092,
      "k ": 1093,
      "mill": 1094,
      "tra": 1095,
      "uag": 1096,
      "अधिक": 1097,
      "उप": 1098,
      "एक ": 1099,
      "धार": 1100,
      " मान": 1101,
      "==\n": 1102,
      "ांत": 1103,
      "ांध": 1104,
      "स्ल": 1105,
      " वर्ष": 1106,
      "ामान": 1107,
      "िल्": 1108,
      "स्तान": 1109,
      "anguag": 1110,
      "centur": 1111,
      "ts ": 1112,
      "ter ": 1113,
      "ंत": 1114,
      "जन": 1115,
      "तम": 1116,
      "दू": 1117,
      "ेज": 1118,
      "ంబ": 1119,
      "అధిక": 1120,
      "కృ": 1121,
      "కొ": 1122,
      "చె": 1123,
      "పు ": 1124,
      "వచ్చ": 1125,
      "ామ": 1126,
      "ిప": 1127,
      "ిస్త": 1128,
      "ీ, ": 1129,
      "ుకు": 1130,
      "ేర": 1131,
      "e of ": 1132,
      "ther ": 1133,
      "any ": 1134,
      "र्ज": 1135,
      "stit": 1136,
      "ात आ": 1137,
      "స్వ": 1138,
      "भारतीय स": 1139,
      "ांची ": 1140,
      " तथा ": 1141,
      "ame ": 1142,
      "स्थाप": 1143,
      "ానికి ": 1144,
      "भूम": 1145,
      "येथ": 1146,
      "ed by the ": 1147,
      "ामुळे ": 1148,
      " पूर्व": 1149,
      " राज": 1150,
      "govern": 1151,
      "ph": 1152,
      "ंतर ": 1153,
      "गण": 1154,
      "र्य": 1155,
      "वं": 1156,
      "ा। ": 1157,
      "ीर": 1158,
      "ेस": 1159,
      "==\n\n\n==": 1160,
      "तिश": 1161,
      "ांचे ": 1162,
      "00 ": 1163,
      "sub": 1164,
      "िया ग": 1165,
      "राष्ट्रीय": 1166,
      "सरकार": 1167,
      " భా": 1168,
      "bu": 1169,
      "ch ": 1170,
      "ely ": 1171,
      "pop": 1172,
      "खास": 1173,
      "धील": 1174,
      "मू": 1175,
      "ल्": 1176,
      "शिक्ष": 1177,
      "ृष्ठ": 1178,
      "ेश": 1179,
      "ఉంది. ": 1180,
      "కర": 1181,
      "టి ": 1182,
      "త్య": 1183,
      "దక్ష": 1184,
      "పాల": 1185,
      "పంచ": 1186,
      "మీ": 1187,
      "ాద": 1188,
      "the": 1189,
      "ांना ": 1190,
      "ated ": 1191,
      " हु": 1192,
      "దేశాల": 1193,
      "194": 1194,
      "ाप्": 1195,
      "త్త": 1196,
      "ir ": 1197,
      "िंध": 1198,
      "స్థాన": 1199,
      "व्यवस्थ": 1200,
      "రాజ్య": 1201,
      "ంలోని ": 1202,
      " घ": 1203,
      " of ": 1204,
      " या ": 1205,
      "26": 1206,
      "fir": 1207,
      "i, ": 1208,
      "ld ": 1209,
      "languag": 1210,
      "year": 1211,
      "ंप": 1212,
      "ख्या ": 1213,
      "तां": 1214,
      "पद": 1215,
      "पा": 1216,
      "मंत्र": 1217,
      "िन": 1218,
      "ीत": 1219,
      "ौद्ध": 1220,
      "ा व": 1221,
      "ारी ": 1222,
      "ans": 1223,
      "incl": 1224,
      " साम्राज्य": 1225,
      "str": 1226,
      "िक क": 1227,
      " प्रदेश": 1228,
      "विधान": 1229,
      "ong ": 1230,
      "भाषा": 1231,
      "किस्तान": 1232,
      "minist": 1233,
      "Hindu": 1234,
      " य": 1235,
      "av": 1236,
      "dec": 1237,
      "pri": 1238,
      "qu": 1239,
      "s, and ": 1240,
      "we": 1241,
      "yst": 1242,
      "आज": 1243,
      "कर ": 1244,
      "तसेच": 1245,
      "नाम": 1246,
      "नुस": 1247,
      "ऱ्या ": 1248,
      "वाद": 1249,
      "वामान": 1250,
      "ाख": 1251,
      "ेकड": 1252,
      "కూడా ": 1253,
      "త్ర": 1254,
      "ధాన": 1255,
      "ప్": 1256,
      "ిణ": 1257,
      " केंद्र": 1258,
      "ांप": 1259,
      "ांनी ": 1260,
      "ారు": 1261,
      "ార్ట": 1262,
      "ారు. ": 1263,
      "and the ": 1264,
      "आहे ": 1265,
      "आहे.\n": 1266,
      "it ": 1267,
      "प्रदेश": 1268,
      "क्षण": 1269,
      "197": 1270,
      "ंगाल": 1271,
      " जन": 1272,
      "న్ని ": 1273,
      "मुख": 1274,
      "मुद्र": 1275,
      ".\n\n\n== ": 1276,
      "ియా ": 1277,
      "మొద": 1278,
      " सरकार": 1279,
      "మార్గ": 1280,
      "stitut": 1281,
      "popul": 1282,
      "దక్షిణ": 1283,
      " –": 1284,
      " देश": 1285,
      ",00": 1286,
      "Asi": 1287,
      "Sou": 1288,
      "fl": 1289,
      "w ": 1290,
      "जग": 1291,
      "णी ": 1292,
      "पत": 1293,
      "वर्": 1294,
      "शक": 1295,
      "शत": 1296,
      "ाष्ट्र": 1297,
      "ुन": 1298,
      "ुरू": 1299,
      "ृत्य": 1300,
      "ेष": 1301,
      "ेक्ष": 1302,
      " मो": 1303,
      "ांत ": 1304,
      "ed to ": 1305,
      "प्रमाण": 1306,
      "lig": 1307,
      " इंड": 1308,
      " लोक": 1309,
      "निर्म": 1310,
      "most ": 1311,
      "र्थव्यवस्थ": 1312,
      "part": 1313,
      " स्थाप": 1314,
      "first ": 1315,
      "includ": 1316,
      "ystem": 1317,
      " ए": 1318,
      " బ": 1319,
      " और": 1320,
      ")\n": 1321,
      "dur": 1322,
      "me": 1323,
      "ment": 1324,
      "ot": 1325,
      "rat": 1326,
      "sc": 1327,
      "sou": 1328,
      "west": 1329,
      "उद": 1330,
      "ज्": 1331,
      "पह": 1332,
      "पश्चिम": 1333,
      "मध्य": 1334,
      "ऱ्य": 1335,
      "ले": 1336,
      "वळ": 1337,
      "ैकी ": 1338,
      "ం. ": 1339,
      "ఇతర": 1340,
      "ట్ల": 1341,
      "భి": 1342,
      "భు": 1343,
      "వల": 1344,
      "ాక": 1345,
      "ున్న": 1346,
      "ारे ": 1347,
      "ाराष्ट्र": 1348,
      "ance ": 1349,
      "s and ": 1350,
      " मध्ये ": 1351,
      " मिळ": 1352,
      "్రా": 1353,
      "िक स": 1354,
      "भारत की ": 1355,
      " व्य": 1356,
      " के साथ": 1357,
      "ों को": 1358,
      "त्ये": 1359,
      "ous ": 1360,
      " కూడ": 1361,
      "క్కు": 1362,
      "रून ": 1363,
      "ातील सर्व": 1364,
      "ఉన్నాయి. ": 1365,
      "क्रम": 1366,
      " ప్రాంత": 1367,
      "north": 1368,
      "హిందూ": 1369,
      "ప్ప": 1370,
      "be ": 1371,
      "dh": 1372,
      "gh ": 1373,
      "ser": 1374,
      "so ": 1375,
      "system": 1376,
      "ंत ": 1377,
      "ंतर": 1378,
      "इतिहास": 1379,
      "काह": 1380,
      "तंत्र": 1381,
      "विक": 1382,
      "वर्ष": 1383,
      "e and ": 1384,
      ". I": 1385,
      "anc": 1386,
      "ant": 1387,
      "dition": 1388,
      "स्ट": 1389,
      "ों की ": 1390,
      "ough ": 1391,
      "भारतीय ": 1392,
      "ी वर्ष": 1393,
      "अनेक": 1394,
      "अनेक ": 1395,
      "ास्त्र": 1396,
      "became ": 1397,
      " २": 1398,
      " గ": 1399,
      " झाल": 1400,
      "4 ": 1401,
      "ast ": 1402,
      "fic": 1403,
      "mor": 1404,
      "ni": 1405,
      "ub": 1406,
      "गंग": 1407,
      "घे": 1408,
      "चा ": 1409,
      "ते": 1410,
      "दृष्ट": 1411,
      "ब्रिटिश": 1412,
      "मा": 1413,
      "रो": 1414,
      "वा": 1415,
      "वा ": 1416,
      "साम्राज्य": 1417,
      "साहित्य": 1418,
      "सबसे ": 1419,
      "ी। ": 1420,
      "ोष": 1421,
      "ोड़": 1422,
      "्हण": 1423,
      "కే": 1424,
      "కార": 1425,
      "కాల": 1426,
      "ణా ": 1427,
      "దాయ": 1428,
      "రెండ": 1429,
      "శా": 1430,
      "ిల్ల": 1431,
      "ీత": 1432,
      "ుకో": 1433,
      "ెద్ద": 1434,
      ". Th": 1435,
      " कि": 1436,
      "them": 1437,
      "into ": 1438,
      " पुर": 1439,
      " पृष्ठ": 1440,
      " म्हण": 1441,
      "్రి": 1442,
      "also ": 1443,
      "art": 1444,
      "స్కృ": 1445,
      " के अ": 1446,
      "प्रधान": 1447,
      " असे ": 1448,
      "देख": 1449,
      "त्त्व": 1450,
      "ion of ": 1451,
      "ish ": 1452,
      "भारत में": 1453,
      " వి": 1454,
      "th centur": 1455,
      "ాత్ర": 1456,
      " ప్రభు": 1457,
      "India has ": 1458,
      "मुख्य": 1459,
      "जातो": 1460,
      "जाता ": 1461,
      "िल्ल": 1462,
      "భారతదేశంలో ": 1463,
      "होते. ": 1464,
      " स्व": 1465,
      "duc": 1466,
      "రిగ": 1467,
      "ते हैं": 1468,
      "द्योग": 1469,
      "have ": 1470,
      "ंग्रज": 1471,
      "युद्ध": 1472,
      "contin": 1473,
      "gener": 1474,
      "creas": 1475,
      "మైన ": 1476,
      "డ్డ": 1477,
      " टक्के ": 1478,
      "स्लाम": 1479,
      "1947": 1480,
      "िंधू": 1481,
      "ార్టీ": 1482,
      "ज्ञ": 1483,
      "క్కువ": 1484,
      " १": 1485,
      "18": 1486,
      "Cong": 1487,
      "Em": 1488,
      "cast": 1489,
      "dern ": 1490,
      "gre": 1491,
      "ld": 1492,
      "me ": 1493,
      "ne": 1494,
      "our": 1495,
      "pe": 1496,
      "pre": 1497,
      "ved ": 1498,
      "ver ": 1499,
      "अप": 1500,
      "आर्थ": 1501,
      "ज्य": 1502,
      "भाव": 1503,
      "योग": 1504,
      "शि": 1505,
      "शहर": 1506,
      "साल": 1507,
      "साय": 1508,
      "हिं": 1509,
      "हीं": 1510,
      "हिन्": 1511,
      "ाधिक": 1512,
      "ूह": 1513,
      "ैल": 1514,
      ", स": 1515,
      ", which ": 1516,
      "on the ": 1517,
      "ांग": 1518,
      "िका ": 1519,
      "भारत का ": 1520,
      "relig": 1521,
      " बन": 1522,
      "such ": 1523,
      "ext": 1524,
      "ear ": 1525,
      "had ": 1526,
      "comm": 1527,
      "been ": 1528,
      " मुख्य": 1529,
      "च्च": 1530,
      "but ": 1531,
      "Congres": 1532,
      " త": 1533,
      " भी ": 1534,
      "ay ": 1535,
      "cor": 1536,
      "ies": 1537,
      "num": 1538,
      "pol": 1539,
      "rul": 1540,
      "tw": 1541,
      "ंच": 1542,
      "ंतु": 1543,
      "इंग्रज": 1544,
      "णा": 1545,
      "दु": 1546,
      "पुर": 1547,
      "बन": 1548,
      "बांध": 1549,
      "मर": 1550,
      "ले. ": 1551,
      "वर ": 1552,
      "शिय": 1553,
      "सा ": 1554,
      "स. ": 1555,
      "ाठी ": 1556,
      "ोर": 1557,
      "ం\n": 1558,
      "ఇండ": 1559,
      "ఉంట": 1560,
      "ఉన్న ": 1561,
      "గర": 1562,
      "గు": 1563,
      "జరిగ": 1564,
      "టు": 1565,
      "ధించ": 1566,
      "బడ": 1567,
      "మన": 1568,
      "ము ": 1569,
      "మైన": 1570,
      "వార": 1571,
      "సి": 1572,
      "్మ": 1573,
      "ी अ": 1574,
      "e in ": 1575,
      "ans ": 1576,
      "increas": 1577,
      "ers ": 1578,
      "్రె": 1579,
      "eng": 1580,
      "stat": 1581,
      "ानंतर ": 1582,
      "ed the ": 1583,
      " हा ": 1584,
      " हिं": 1585,
      "आहार": 1586,
      "ions ": 1587,
      " పరి": 1588,
      "్యం ": 1589,
      "ome ": 1590,
      "ों का ": 1591,
      "ర్ణ": 1592,
      "ection": 1593,
      "\n\n\n=== ": 1594,
      " जात": 1595,
      " కాల": 1596,
      " క్రీ": 1597,
      " వ్యవస్థ": 1598,
      "క్క": 1599,
      " ప్రపంచ": 1600,
      " సభ": 1601,
      " आणि": 1602,
      "is the ": 1603,
      "मुळे ": 1604,
      "ప్రా": 1605,
      "vers": 1606,
      "ले जात": 1607,
      "with": 1608,
      "१९९": 1609,
      "द्यार्थ": 1610,
      "వాణా ": 1611,
      "తరువ": 1612,
      "dev": 1613,
      "ంద్ర": 1614,
      "द्वार": 1615,
      "maj": 1616,
      "comp": 1617,
      "लेल्या ": 1618,
      "నాభ": 1619,
      "world": 1620,
      "शासन": 1621,
      "लिए": 1622,
      "1950": 1623,
      "tradition": 1624,
      "అధికార": 1625,
      "such as ": 1626,
      "తరువాత": 1627,
      " त्य": 1628,
      "17": 1629,
      "21": 1630,
      "22": 1631,
      "Ar": 1632,
      "coun": 1633,
      "dom": 1634,
      "io": 1635,
      "ok": 1636,
      "ru": 1637,
      "ric": 1638,
      "ठार": 1639,
      "फ्र": 1640,
      "रब": 1641,
      "रु": 1642,
      "ला": 1643,
      "वै": 1644,
      "सि": 1645,
      "्म": 1646,
      "५०": 1647,
      "ी आ": 1648,
      " कर ": 1649,
      "ant ": 1650,
      " मिल": 1651,
      "ामाज": 1652,
      "क्त ": 1653,
      "ural ": 1654,
      "है।\n": 1655,
      "198": 1656,
      "संख्या ": 1657,
      "lim": 1658,
      "istor": 1659,
      "निव": 1660,
      "परंतु": 1661,
      "igh": 1662,
      "महाराष्ट्र": 1663,
      " संस्कृत": 1664,
      "largest ": 1665,
      "grow": 1666,
      "million ": 1667,
      "government ": 1668,
      "prime ": 1669,
      "South ": 1670,
      "र्थव्यवस्था ": 1671,
      "more ": 1672,
      "two ": 1673,
      "prime minist": 1674,
      "\nభారతదేశ": 1675,
      "\nభారతీయ": 1676,
      " भ": 1677,
      " న": 1678,
      " आहेत. ": 1679,
      " రాష్ట్ర": 1680,
      "BCE": 1681,
      "Ma": 1682,
      "aus": 1683,
      "ber ": 1684,
      "bet": 1685,
      "cult": 1686,
      "ef": 1687,
      "ever": 1688,
      "hum": 1689,
      "pres": 1690,
      "sin": 1691,
      "s. The ": 1692,
      "soc": 1693,
      "vi": 1694,
      "ंज": 1695,
      "अज": 1696,
      "इंड": 1697,
      "ओळ": 1698,
      "कल": 1699,
      "काळ": 1700,
      "चु": 1701,
      "जो": 1702,
      "तृ": 1703,
      "पास": 1704,
      "पठार": 1705,
      "बर": 1706,
      "बड़": 1707,
      "यास": 1708,
      "ल्या ": 1709,
      "लाल": 1710,
      "ली. ": 1711,
      "शास्त्र": 1712,
      "हिमालय": 1713,
      "ॉल": 1714,
      "१८": 1715,
      "అనే": 1716,
      "ఇది ": 1717,
      "ఎక్కువ": 1718,
      "ఏర్": 1719,
      "కీయ": 1720,
      "కు ప": 1721,
      "గల": 1722,
      "గో": 1723,
      "గ్": 1724,
      "టిక": 1725,
      "పూ": 1726,
      "మే": 1727,
      "రో": 1728,
      "రంగ": 1729,
      "లే": 1730,
      "వీ": 1731,
      "ష్": 1732,
      "సిం": 1733,
      "ావర": 1734,
      "ిళ": 1735,
      "े आहे. ": 1736,
      ", బ": 1737,
      "e of the ": 1738,
      "ence ": 1739,
      "ातून ": 1740,
      "ातंत्र": 1741,
      "ాల్": 1742,
      " ही ": 1743,
      " हिमालय": 1744,
      "a f": 1745,
      " పేర": 1746,
      " పార్టీ": 1747,
      "ात स": 1748,
      "प्रकार": 1749,
      "िये ": 1750,
      " अने": 1751,
      "विश्व": 1752,
      "urb": 1753,
      "ष्ण": 1754,
      "ेली ": 1755,
      " बहु": 1756,
      " बदल": 1757,
      "ा का ": 1758,
      "to be ": 1759,
      "और अ": 1760,
      "ంగ్రె": 1761,
      " तक": 1762,
      " तक ": 1763,
      "olog": 1764,
      "lif": 1765,
      "ప్రదాయ": 1766,
      " शिक्ष": 1767,
      "India, ": 1768,
      "ించింది. ": 1769,
      "స్త్ర": 1770,
      "స్తుత": 1771,
      ".\n\n\n===": 1772,
      " మత": 1773,
      "ाण्य": 1774,
      "act": 1775,
      "ला जातो": 1776,
      "modern ": 1777,
      "म्हण": 1778,
      "ational ": 1779,
      "दक्षिण ": 1780,
      "రాజకీయ": 1781,
      "लेली ": 1782,
      "beg": 1783,
      "సాం": 1784,
      "बहुतां": 1785,
      "ాబ్": 1786,
      "च्छ": 1787,
      "मोठ्या ": 1788,
      "प्त ": 1789,
      "after ": 1790,
      "प्राचीन ": 1791,
      "पूर्ण ": 1792,
      "तिशय": 1793,
      "शिक्षण": 1794,
      "िक काळ": 1795,
      "ween ": 1796,
      "south": 1797,
      " ప్రభుత్వ": 1798,
      "Emp": 1799,
      "Congress ": 1800,
      " క్రీడ": 1801,
      "ओळख": 1802,
      " भारतीय": 1803,
      " ==\n\n": 1804,
      "15": 1805,
      "23": 1806,
      ";\n": 1807,
      "Brit": 1808,
      "Bud": 1809,
      "Un": 1810,
      "caus": 1811,
      "fol": 1812,
      "histor": 1813,
      "nu": 1814,
      "pt": 1815,
      "ral ": 1816,
      "इस्लाम": 1817,
      "खन": 1818,
      "गोल": 1819,
      "जय": 1820,
      "दशक": 1821,
      "धिक ": 1822,
      "न स": 1823,
      "बौद्ध": 1824,
      "मत ": 1825,
      "ाई": 1826,
      "ीस": 1827,
      "ोड": 1828,
      "e the ": 1829,
      " किया ": 1830,
      "this ": 1831,
      "that ": 1832,
      "ांस": 1833,
      "arm": 1834,
      "divers": 1835,
      "Ind": 1836,
      " हिन्": 1837,
      " वे": 1838,
      "राण": 1839,
      " के बाद": 1840,
      "t of ": 1841,
      " प्राच": 1842,
      "देव": 1843,
      " ब्रिटिश": 1844,
      "क्षेत्र": 1845,
      "es of ": 1846,
      ".\nThe ": 1847,
      "ish": 1848,
      ", and the ": 1849,
      "हुई": 1850,
      "नाड": 1851,
      " लाग": 1852,
      "१९७": 1853,
      "class": 1854,
      "% of ": 1855,
      "ंग्रेज": 1856,
      "ंदिर": 1857,
      "ैदान": 1858,
      "both ": 1859,
      "region": 1860,
      "their ": 1861,
      "शिष्ट": 1862,
      " ई": 1863,
      " थ": 1864,
      " ఉ": 1865,
      " ద": 1866,
      " in ": 1867,
      " ద్": 1868,
      " उत्": 1869,
      "Con": 1870,
      "Pak": 1871,
      "gl": 1872,
      "many ": 1873,
      "no": 1874,
      "अतिशय": 1875,
      "ऑफ": 1876,
      "ख्": 1877,
      "घल": 1878,
      "चीन": 1879,
      "जल": 1880,
      "जे ": 1881,
      "ण्": 1882,
      "दर्": 1883,
      "धुन": 1884,
      "नद": 1885,
      "ना क": 1886,
      "पर ": 1887,
      "पाल": 1888,
      "मिळ": 1889,
      "मेर": 1890,
      "मसाल": 1891,
      "सुर": 1892,
      "ुल": 1893,
      "ैन": 1894,
      "ैन्य": 1895,
      "्ट": 1896,
      "्ह": 1897,
      "२०": 1898,
      "ంప": 1899,
      "ం ప": 1900,
      "అయ": 1901,
      "ఇవ": 1902,
      "క్రమ": 1903,
      "గా": 1904,
      "చి": 1905,
      "డిప": 1906,
      "దార": 1907,
      "నాలు ": 1908,
      "భూ": 1909,
      "రై": 1910,
      "ర్య": 1911,
      "సు": 1912,
      "హద్ద": 1913,
      "ాట": 1914,
      "ాస": 1915,
      "ాన ": 1916,
      "ెలు": 1917,
      "ा आहे. ": 1918,
      "्यंत ": 1919,
      ". D": 1920,
      " किया": 1921,
      "त अस": 1922,
      "erg": 1923,
      " पड": 1924,
      " पद": 1925,
      "enc": 1926,
      "ात क": 1927,
      "भारताचे ": 1928,
      "ాలలో ": 1929,
      "ి ప": 1930,
      "आहेत ": 1931,
      "ics ": 1932,
      "प्रत्ये": 1933,
      "ामध्ये ": 1934,
      "विष": 1935,
      "ासून ": 1936,
      "omet": 1937,
      "ిక వ": 1938,
      "ర్ధిక": 1939,
      " प्रजाती ": 1940,
      " प्रांत": 1941,
      "त्त": 1942,
      "त्तर ": 1943,
      "ेला ": 1944,
      " नि": 1945,
      " न्य": 1946,
      ".\nజాతీయ": 1947,
      " जै": 1948,
      "ంగ్ల": 1949,
      "ంగీత": 1950,
      "ament": 1951,
      " है।": 1952,
      "rib": 1953,
      "नेतृ": 1954,
      "విధ": 1955,
      "విస్త": 1956,
      "ండి ": 1957,
      " ము": 1958,
      " మధ్య": 1959,
      "झाली. ": 1960,
      " करने ": 1961,
      " करोड़": 1962,
      "sup": 1963,
      "ार्ट": 1964,
      "రిహద్ద": 1965,
      "und": 1966,
      "ముఖ్య": 1967,
      "able ": 1968,
      "असते. ": 1969,
      "ख्याने ": 1970,
      "ation of ": 1971,
      "इसके ": 1972,
      "ల్ప": 1973,
      "from the ": 1974,
      "ण्यात ": 1975,
      "ण्यास": 1976,
      "ण्यात आ": 1977,
      "िवस": 1978,
      "ियाँ": 1979,
      "ामुख्याने ": 1980,
      "दोन": 1981,
      "युग": 1982,
      " संस्कृती ": 1983,
      "तो. ": 1984,
      " केले ": 1985,
      " శా": 1986,
      "विविध प्रकार": 1987,
      "कालीन": 1988,
      "కాంగ్రె": 1989,
      "తో కూడ": 1990,
      "ाहरण ": 1991,
      "प्राचीन": 1992,
      " రైలు ": 1993,
      "िल्ला ": 1994,
      "ుకుంట": 1995,
      "येथील": 1996,
      " భాష": 1997,
      "త్యధిక": 1998,
      "भाषाओं": 1999,
      "ారు.\n": 2000,
      "మార్గాలు ": 2001,
      ",000 ": 2002,
      "western ": 2003,
      "दृष्ट्या ": 2004,
      "with the ": 2005,
      "between ": 2006,
      "ఏర్ప": 2007,
      "ातंत्र्य": 2008,
      "ला जातो. ": 2009,
      "Buddh": 2010,
      "Pakist": 2011,
      " भारत": 2012,
      "Eur": 2013,
      "ding ": 2014,
      "e-": 2015,
      "ep": 2016,
      "ev": 2017,
      "et ": 2018,
      "har": 2019,
      "ist ": 2020,
      "ially ": 2021,
      "lit": 2022,
      "land": 2023,
      "o-": 2024,
      "ob": 2025,
      "od": 2026,
      "pow": 2027,
      "ris": 2028,
      "rol": 2029,
      "tim": 2030,
      "y. ": 2031,
      "आधार": 2032,
      "काव": 2033,
      "चल": 2034,
      "ण, ": 2035,
      "तिक": 2036,
      "त्या ": 2037,
      "पक्ष": 2038,
      "बीच": 2039,
      "बंगाल": 2040,
      "रह": 2041,
      "शन": 2042,
      "शेष": 2043,
      "सार": 2044,
      "हें": 2045,
      "ीड": 2046,
      "ृत": 2047,
      "ृत ": 2048,
      "ा सं": 2049,
      ", अ": 2050,
      " कम": 2051,
      " कार": 2052,
      " काल": 2053,
      "s in ": 2054,
      "on-": 2055,
      "र्त": 2056,
      "ari": 2057,
      "ात्म": 2058,
      "िक व": 2059,
      "at the ": 2060,
      "a and ": 2061,
      " के दशक": 2062,
      "प्रमुख": 2063,
      " अप": 2064,
      " अभ": 2065,
      "ों ने ": 2066,
      "ure ": 2067,
      "ावर": 2068,
      "ous": 2069,
      "il ": 2070,
      "ilit": 2071,
      "ादी ": 2072,
      "जाति": 2073,
      "ell": 2074,
      "election": 2075,
      "पूर": 2076,
      "ित प्रदेश": 2077,
      "नाट": 2078,
      "cons": 2079,
      "समय": 2080,
      " दक्षि": 2081,
      "clear ": 2082,
      "राष्ट्रप": 2083,
      " उप": 2084,
      "all ": 2085,
      "spec": 2086,
      ", जिस": 2087,
      " पाकिस्तान": 2088,
      "economic ": 2089,
      " हुआ": 2090,
      "मंत्री ": 2091,
      "northern ": 2092,
      "ubl": 2093,
      "world's ": 2094,
      "चुनाव": 2095,
      " न्याय": 2096,
      " భారత": 2097,
      " एक": 2098,
      " भारतात ": 2099,
      " ===\n\n": 2100,
      " ఎన్న": 2101,
      " స్థాన": 2102,
      " రాజ్య": 2103,
      "\" ": 2104,
      ".7": 2105,
      "1,": 2106,
      "10": 2107,
      "5, ": 2108,
      "By ": 2109,
      "Com": 2110,
      "ff": 2111,
      "her": 2112,
      "ik": 2113,
      "ugh": 2114,
      "war": 2115,
      "y, the ": 2116,
      "आप": 2117,
      "आणि": 2118,
      "उन": 2119,
      "कू": 2120,
      "गळे ": 2121,
      "जीव": 2122,
      "जास्": 2123,
      "ठा ": 2124,
      "ठिक": 2125,
      "डी ": 2126,
      "ढळ": 2127,
      "दा ": 2128,
      "दख्": 2129,
      "धि": 2130,
      "पीय": 2131,
      "भग": 2132,
      "मधील": 2133,
      "रच": 2134,
      "रि": 2135,
      "ळवळ": 2136,
      "वाळ": 2137,
      "शै": 2138,
      "समुद्र": 2139,
      "हवामान": 2140,
      "ीक": 2141,
      "ेन्": 2142,
      "ेचे ": 2143,
      "ॉंग्र": 2144,
      "ोच्च": 2145,
      "ौर्य": 2146,
      "కుల": 2147,
      "కలి": 2148,
      "చీ": 2149,
      "జల": 2150,
      "జ్య": 2151,
      "డు": 2152,
      "ఢిల్ల": 2153,
      "తమ": 2154,
      "తుల": 2155,
      "తంత్ర": 2156,
      "ద్ర": 2157,
      "ధీ": 2158,
      "నె": 2159,
      "నడిప": 2160,
      "బహ": 2161,
      "బె": 2162,
      "బ్రి": 2163,
      "మహ": 2164,
      "మె": 2165,
      "మంత్ర": 2166,
      "యు": 2167,
      "యో": 2168,
      "శ్": 2169,
      "హార": 2170,
      "హదార": 2171,
      "ాప": 2172,
      "ిమ": 2173,
      "ుగా ": 2174,
      "ెబ": 2175,
      "ేర్": 2176,
      "ౌకర": 2177,
      "ा ग": 2178,
      ". S": 2179,
      "्राट": 2180,
      " क्र": 2181,
      "ther": 2182,
      "infl": 2183,
      "र्ण": 2184,
      " पह": 2185,
      "ांपूर्व": 2186,
      "are": 2187,
      "भारताने ": 2188,
      "स्ति": 2189,
      "ాలను ": 2190,
      "ed a ": 2191,
      " हवामान": 2192,
      "ి చె": 2193,
      "आहे, ": 2194,
      "ited ": 2195,
      "స్య": 2196,
      "స్ల": 2197,
      "స్వా": 2198,
      "प्रामुख्याने ": 2199,
      " अरब": 2200,
      "क्ति": 2201,
      "ासाठी ": 2202,
      "దేశంలోని ": 2203,
      "ిక, ": 2204,
      "ర్ట": 2205,
      "ర్థ": 2206,
      "ం చే": 2207,
      "న స": 2208,
      " नाम": 2209,
      "है, ": 2210,
      "ough": 2211,
      "ंग्ल": 2212,
      "ंगीत ": 2213,
      "ा काळ": 2214,
      "भाज": 2215,
      " కో": 2216,
      "ంగాల": 2217,
      "भारत ने ": 2218,
      " వచ్చ": 2219,
      " ते ": 2220,
      " तर ": 2221,
      " ప్రతి": 2222,
      " సంగీత": 2223,
      "ीचा ": 2224,
      "raph": 2225,
      "ప్రధాన": 2226,
      "elop": 2227,
      "constitut": 2228,
      "साठी ": 2229,
      "सागर": 2230,
      "నిమ": 2231,
      " विद्यार्थ": 2232,
      "ంటి ": 2233,
      "ముఖ": 2234,
      "imal": 2235,
      "anges ": 2236,
      "स्वरूप": 2237,
      " होता ": 2238,
      "भागात ": 2239,
      "ार झाल": 2240,
      "ిత్ర": 2241,
      "భాష": 2242,
      " జనాభ": 2243,
      "cour": 2244,
      "main": 2245,
      "ట్టణ": 2246,
      "నుండి ": 2247,
      "east ": 2248,
      "स्थानिक": 2249,
      "पुत्र": 2250,
      "రాష్ట్రప": 2251,
      "ैदिक काळ": 2252,
      "ద్ధి చె": 2253,
      "शासित प्रदेश": 2254,
      "large ": 2255,
      "होती. ": 2256,
      "होता. ": 2257,
      "ंतप्रधान": 2258,
      "तमिळ": 2259,
      "వచ్చింది. ": 2260,
      "वंट": 2261,
      "subcontin": 2262,
      "खासदार": 2263,
      "नुसार ": 2264,
      "ांपैकी ": 2265,
      "पतीं": 2266,
      "शतक": 2267,
      " स्थापत्य": 2268,
      "ప్పటిక": 2269,
      "काही वर्ष": 2270,
      "ज्ञान": 2271,
      "peop": 2272,
      "ले जाते. ": 2273,
      "सिद्ध": 2274,
      "निवड": 2275,
      "human ": 2276,
      "since ": 2277,
      "urban ": 2278,
      "began ": 2279,
      "British ": 2280,
      "नाडू": 2281,
      "शिष्ट्य": 2282,
      "ण्ड": 2283,
      " निर्म": 2284,
      "नेतृत्व": 2285,
      "ाहरण आहे. ": 2286,
      "liter": 2287,
      "ठिकाण": 2288,
      "ॉंग्रेस": 2289,
      "influ": 2290,
      " జనాభా ": 2291,
      " फ": 2292,
      " रा": 2293,
      "%, ": 2294,
      "16": 2295,
      "; the ": 2296,
      "; and ": 2297,
      "An": 2298,
      "Mo": 2299,
      "Mugh": 2300,
      "S$": 2301,
      "US$": 2302,
      "Wor": 2303,
      "aw": 2304,
      "ad ": 2305,
      "ain ": 2306,
      "ber": 2307,
      "bas": 2308,
      "eat": 2309,
      "ian ": 2310,
      "ient ": 2311,
      "krit": 2312,
      "lin": 2313,
      "long": 2314,
      "mon": 2315,
      "mid": 2316,
      "mus": 2317,
      "milit": 2318,
      "over ": 2319,
      "per ": 2320,
      "ving ": 2321,
      "ंद्र": 2322,
      "अर्थव्यवस्था ": 2323,
      "आस": 2324,
      "ऋष": 2325,
      "ग्": 2326,
      "घट": 2327,
      "घोष": 2328,
      "जरा": 2329,
      "जिस": 2330,
      "दि": 2331,
      "धार्": 2332,
      "निय": 2333,
      "न प्र": 2334,
      "पत्": 2335,
      "ब्": 2336,
      "मरा": 2337,
      "यू": 2338,
      "यात ": 2339,
      "वन": 2340,
      "वाय": 2341,
      "श्र": 2342,
      "शिया ": 2343,
      "सु": 2344,
      "सो": 2345,
      "स्य": 2346,
      "सी ": 2347,
      "सित ": 2348,
      "ीकर": 2349,
      "ोट": 2350,
      "१७": 2351,
      "ा जाता ": 2352,
      ", a ": 2353,
      "्यान": 2354,
      "्याद": 2355,
      "though ": 2356,
      "त व": 2357,
      " से": 2358,
      "र्ग": 2359,
      " मंत्र": 2360,
      "ens": 2361,
      "sty": 2362,
      "ically ": 2363,
      " अश": 2364,
      "विस्त": 2365,
      "ों पर ": 2366,
      "राजन": 2367,
      "ावसाय": 2368,
      "ech": 2369,
      " बंगाल": 2370,
      "ा की ": 2371,
      "ध्यम": 2372,
      "ement": 2373,
      "संस्कृ": 2374,
      "संसद": 2375,
      "राज्यसभ": 2376,
      "ीची ": 2377,
      "तरी ": 2378,
      " शास": 2379,
      "होती ": 2380,
      "ire ": 2381,
      "समूह": 2382,
      "ett": 2383,
      "ड़ी ": 2384,
      "िंह": 2385,
      "abl": 2386,
      "भूष": 2387,
      "plac": 2388,
      "हैं।": 2389,
      "parli": 2390,
      "ागर": 2391,
      "tern": 2392,
      "occ": 2393,
      "ों के साथ": 2394,
      "ियाई": 2395,
      ". In the ": 2396,
      "रूप से ": 2397,
      " हैं।": 2398,
      " हैं। ": 2399,
      "माणु": 2400,
      "perio": 2401,
      "Chin": 2402,
      "लोकसभ": 2403,
      "app": 2404,
      "धारण": 2405,
      "िल्ली ": 2406,
      "भूमिका ": 2407,
      "ाप्त": 2408,
      "years ": 2409,
      "ेक्षा ": 2410,
      "during ": 2411,
      ". It ": 2412,
      "general ": 2413,
      "increased ": 2414,
      "develop": 2415,
      "ंजाब": 2416,
      " अनेक": 2417,
      "follow": 2418,
      "not ": 2419,
      "मेरिक": 2420,
      "ैनिक": 2421,
      "ublic ": 2422,
      "World ": 2423,
      "धार्म": 2424,
      " ల": 2425,
      " లో ": 2426,
      " भारताच्या ": 2427,
      " ===\n": 2428,
      " ==\n\n\n==": 2429,
      " आहे ": 2430,
      "%;\n": 2431,
      ".3": 2432,
      ".स. ": 2433,
      "14": 2434,
      "1, ": 2435,
      "8 ": 2436,
      "Af": 2437,
      "Beng": 2438,
      "Mus": 2439,
      "Pun": 2440,
      "Sans": 2441,
      "bir": 2442,
      "dle ": 2443,
      "eg": 2444,
      "edi": 2445,
      "east": 2446,
      "hi ": 2447,
      "ire": 2448,
      "jab": 2449,
      "now": 2450,
      "non-": 2451,
      "pr": 2452,
      "rate ": 2453,
      "sur": 2454,
      "ten ": 2455,
      "अन्": 2456,
      "असे ": 2457,
      "अस्ति": 2458,
      "आधुन": 2459,
      "इमार": 2460,
      "इंग्ल": 2461,
      "ई। ": 2462,
      "को": 2463,
      "काही ": 2464,
      "गड": 2465,
      "गळ": 2466,
      "चळवळ": 2467,
      "जी ": 2468,
      "थवा ": 2469,
      "दिल्ली ": 2470,
      "ध्या ": 2471,
      "धील ": 2472,
      "धीर": 2473,
      "नु": 2474,
      "पर्व": 2475,
      "फ़": 2476,
      "बढ़": 2477,
      "मैदान": 2478,
      "यश": 2479,
      "रक्षण": 2480,
      "लाव": 2481,
      "ला. ": 2482,
      "लिये ": 2483,
      "वन ": 2484,
      "वाह": 2485,
      "व्ह": 2486,
      "सिंधू": 2487,
      "हाल": 2488,
      "ा।": 2489,
      "ाण ": 2490,
      "ाशी ": 2491,
      "ीण": 2492,
      "ुष्": 2493,
      "ेच": 2494,
      "ेड": 2495,
      "ेत ": 2496,
      "ेच्या ": 2497,
      "ोध": 2498,
      "्दी ": 2499,
      "११": 2500,
      "१६": 2501,
      "२.": 2502,
      "२००": 2503,
      "ం:": 2504,
      "ంక": 2505,
      "అతి": 2506,
      "అత్యధిక": 2507,
      "ఉండ": 2508,
      "ఉత్": 2509,
      "క్య": 2510,
      "గంగా ": 2511,
      "గా, ": 2512,
      "టీ": 2513,
      "టె": 2514,
      "ట్": 2515,
      "డి": 2516,
      "ణి": 2517,
      "ణం ": 2518,
      "తాబ్": 2519,
      "దం ": 2520,
      "ధార": 2521,
      "నీ": 2522,
      "పో": 2523,
      "పెద్ద": 2524,
      "మత": 2525,
      "మించ": 2526,
      "మధ్య": 2527,
      "యా": 2528,
      "లవ": 2529,
      "లా": 2530,
      "లలో ": 2531,
      "లు, ": 2532,
      "లతో": 2533,
      "ళ్ల": 2534,
      "వడ": 2535,
      "వె": 2536,
      "వర్": 2537,
      "వత్": 2538,
      "వ్యవస్థ": 2539,
      "షు ": 2540,
      "సై": 2541,
      "సౌకర": 2542,
      "ీర్ణ": 2543,
      "ుట్ట": 2544,
      "ుంది. ": 2545,
      "ూప": 2546,
      "ోర": 2547,
      "్, ": 2548,
      "— ": 2549,
      ", प": 2550,
      ", ఈ": 2551,
      " कु": 2552,
      "thr": 2553,
      "than ": 2554,
      "anis": 2555,
      "ered ": 2556,
      " सह": 2557,
      " पार": 2558,
      " पश्चिम": 2559,
      "enni": 2560,
      "ांन": 2561,
      "ांवर ": 2562,
      "ांमुळे ": 2563,
      "alit": 2564,
      "y of ": 2565,
      "dis": 2566,
      "ately ": 2567,
      "भारताची ": 2568,
      "भारताला ": 2569,
      "स्त्र": 2570,
      "स्पतीं": 2571,
      "्या काही वर्ष": 2572,
      "ाले": 2573,
      "ority ": 2574,
      "Indu": 2575,
      "offic": 2576,
      " वा": 2577,
      " పెద్ద": 2578,
      "స్ట": 2579,
      " के लिए": 2580,
      " के चुनाव": 2581,
      "प्रिय": 2582,
      "प्रजाती ": 2583,
      "िया, ": 2584,
      " अन्य": 2585,
      " में न": 2586,
      "ింది": 2587,
      "विध्य": 2588,
      "దేశంలో ": 2589,
      "ों में ": 2590,
      " प्रमुख": 2591,
      " नाट": 2592,
      " नृत्य": 2593,
      " बौद्ध": 2594,
      "ंगम": 2595,
      "द्दल": 2596,
      " जान": 2597,
      "भारतीय पृष्ठ": 2598,
      " కా": 2599,
      " కొ": 2600,
      " వ శ": 2601,
      "ాతంత్ర": 2602,
      "ాతావర": 2603,
      "ापार": 2604,
      "empl": 2605,
      "emerg": 2606,
      " సా": 2607,
      " సమా": 2608,
      " సామ": 2609,
      "संघ": 2610,
      "India and ": 2611,
      "is a ": 2612,
      "रून": 2613,
      "िला ": 2614,
      "వివిధ": 2615,
      "में स": 2616,
      "ప్రస్తుత": 2617,
      "భారతదేశానికి ": 2618,
      " संसद": 2619,
      " संविधान": 2620,
      " को ": 2621,
      "झालेल": 2622,
      "श्म": 2623,
      "age ": 2624,
      " इतिहास": 2625,
      "రిత్ర": 2626,
      "నిర్వ": 2627,
      " विश्व": 2628,
      "स्तन प्र": 2629,
      "exp": 2630,
      "ला आहे. ": 2631,
      " రకాల": 2632,
      " రవాణా ": 2633,
      "पर्यंत ": 2634,
      "ముద్ర": 2635,
      "उत्तर ": 2636,
      "ign": 2637,
      "च्या उप": 2638,
      "ong the ": 2639,
      " होत": 2640,
      "धिकार": 2641,
      "ధికార": 2642,
      "తి, ": 2643,
      "महा": 2644,
      "ून स": 2645,
      "ूनही ": 2646,
      "భాగ": 2647,
      " జన": 2648,
      " జాబ": 2649,
      "भाषा ": 2650,
      "हैं। ": 2651,
      "ల్వే": 2652,
      "def": 2653,
      "ाब्दी ": 2654,
      " అధికార": 2655,
      "um ": 2656,
      "पूर्वीचे ": 2657,
      "ంలో, ": 2658,
      "నుక": 2659,
      "ులు (": 2660,
      "वेद": 2661,
      "ఉన్నాయి": 2662,
      "ultan": 2663,
      "సాధించ": 2664,
      "ound ": 2665,
      "2011 ": 2666,
      " रो": 2667,
      "ीमा ": 2668,
      "మొత్త": 2669,
      " చరిత్ర": 2670,
      "mark": 2671,
      "ాలు\n": 2672,
      "lead": 2673,
      "later ": 2674,
      " సంస్కృ": 2675,
      "ందిన ": 2676,
      "try ": 2677,
      "ograph": 2678,
      "गेल्या काही वर्ष": 2679,
      "ग्राम": 2680,
      "भरत ": 2681,
      "पूर्ण": 2682,
      " రైల్వే": 2683,
      " टक्क": 2684,
      "millenni": 2685,
      "ిస్తాన్": 2686,
      "స్వాతంత్ర": 2687,
      "भारतीय साहित्य": 2688,
      "िया गेट": 2689,
      "ाप्त ": 2690,
      "पाकिस्तान": 2691,
      "మొదటి ": 2692,
      "जगातील सर्व": 2693,
      "including ": 2694,
      "during the ": 2695,
      "భిన్న ": 2696,
      "क्रमण": 2697,
      " ప్రాంతాలు ": 2698,
      "కేంద్ర": 2699,
      "themat": 2700,
      "caste ": 2701,
      "new ": 2702,
      "number ": 2703,
      "इंग्रजी": 2704,
      "णाऱ्या ": 2705,
      "ఇండియా ": 2706,
      "జరిగిన ": 2707,
      "టు\n": 2708,
      " हिंदू": 2709,
      "culture": 2710,
      "इंडिया गेट": 2711,
      "అనేక": 2712,
      "లేద": 2713,
      "సింధ": 2714,
      "ాల్లో ": 2715,
      " शिक्षण": 2716,
      "बहुतांशी ": 2717,
      "nuclear ": 2718,
      "Indo-": 2719,
      "చిన్న ": 2720,
      "రైలు ": 2721,
      "ण्यात ये": 2722,
      "विविध प्रकारच्या ": 2723,
      "Europ": 2724,
      "power ": 2725,
      "आधारित ": 2726,
      "नाटक": 2727,
      "राष्ट्रपती ": 2728,
      "दख्खन": 2729,
      "वाळवंट": 2730,
      "కలిగ": 2731,
      "ఢిల్లీ": 2732,
      "నడిపించ": 2733,
      "స్వామ": 2734,
      "ద్ధి చెంద": 2735,
      "तमिळनाडू": 2736,
      "Mughal ": 2737,
      "military ": 2738,
      "parliament": 2739,
      "general election": 2740,
      "Punjab": 2741,
      "Sanskrit": 2742,
      "अस्तित्त्व": 2743,
      "సౌకర్య": 2744,
      " नाटके ": 2745,
      " వ శతాబ్": 2746,
      "నిర్వహ": 2747,
      "च्या उपसागर": 2748,
      " జాబిత": 2749,
      "మొత్తం ": 2750,
      " 7": 2751,
      " द्वार": 2752,
      "-d": 2753,
      "..": 2754,
      "2,": 2755,
      "3,": 2756,
      "40": 2757,
      "Ac": 2758,
      "Cent": 2759,
      "Himal": 2760,
      "Is": 2761,
      "Ne": 2762,
      "Sik": 2763,
      "bill": 2764,
      "cit": 2765,
      "ces": 2766,
      "col": 2767,
      "de ": 2768,
      "ey ": 2769,
      "ean ": 2770,
      "fam": 2771,
      "ies, ": 2772,
      "kil": 2773,
      "land ": 2774,
      "loc": 2775,
      "nat": 2776,
      "no ": 2777,
      "nolog": 2778,
      "other ": 2779,
      "ron": 2780,
      "sch": 2781,
      "some ": 2782,
      "आग": 2783,
      "उठ": 2784,
      "उद्योग": 2785,
      "उष्ण": 2786,
      "एँ": 2787,
      "कथ": 2788,
      "कम": 2789,
      "जा": 2790,
      "त, ": 2791,
      "था। ": 2792,
      "दिल्ल": 2793,
      "दिवस": 2794,
      "नदी ": 2795,
      "नृत्य": 2796,
      "पड": 2797,
      "पड़": 2798,
      "बा": 2799,
      "भदेव": 2800,
      "मार्": 2801,
      "लन": 2802,
      "वे ": 2803,
      "वार": 2804,
      "सह": 2805,
      "ा।\n": 2806,
      "ृद्ध": 2807,
      "ेब": 2808,
      "१०": 2809,
      "२६": 2810,
      "४.": 2811,
      "५ ": 2812,
      "ा देश": 2813,
      "े प": 2814,
      ", wh": 2815,
      "e in the ": 2816,
      " का": 2817,
      "s (": 2818,
      "ine": 2819,
      "into the ": 2820,
      " साल": 2821,
      " साहित्य": 2822,
      " पर्व": 2823,
      " मंदिर": 2824,
      "als ": 2825,
      "dire": 2826,
      "ates ": 2827,
      "ed on ": 2828,
      "rep": 2829,
      "प्रसिद्ध": 2830,
      "ियां": 2831,
      " अज": 2832,
      "ing, ": 2833,
      "न ग": 2834,
      "न धर्म": 2835,
      "ों से ": 2836,
      " ने": 2837,
      "है ज": 2838,
      " बना": 2839,
      " बढ़": 2840,
      "es and ": 2841,
      "\n\n\n===": 2842,
      "ा कर": 2843,
      "esp": 2844,
      "ese ": 2845,
      "भारत में ": 2846,
      "among ": 2847,
      "ash": 2848,
      "ादर": 2849,
      "के बाद": 2850,
      "for the ": 2851,
      " संघ": 2852,
      " संबंध": 2853,
      "owever": 2854,
      "हुआ": 2855,
      "हुए": 2856,
      "===\n\n\n=== ": 2857,
      "duct": 2858,
      "under": 2859,
      "कृष्ट": 2860,
      "१९८": 2861,
      "ी को": 2862,
      "म्भ": 2863,
      "cook": 2864,
      "ation, ": 2865,
      " उद": 2866,
      "mathemat": 2867,
      "ose ": 2868,
      "ाटा ": 2869,
      "ritor": 2870,
      "युक्त ": 2871,
      ", जो": 2872,
      " स्थित ": 2873,
      "work": 2874,
      "leg": 2875,
      "prov": 2876,
      "स्थापत्य": 2877,
      "िया गया ": 2878,
      "ल्प": 2879,
      "नुसार": 2880,
      "1971": 2881,
      ",000": 2882,
      "निर्माण": 2883,
      "medi": 2884,
      "सबसे बड़": 2885,
      "religi": 2886,
      "cording ": 2887,
      "polit": 2888,
      "major ": 2889,
      "prime minister ": 2890,
      "social ": 2891,
      "बौद्ध धर्म": 2892,
      "diversity ": 2893,
      " प्राचीन": 2894,
      "classical ": 2895,
      "ribut": 2896,
      "Pakistan": 2897,
      " दक्षिण": 2898,
      "ेन्द्र": 2899,
      "people ": 2900,
      "ीकरण": 2901,
      "विस्तार": 2902,
      "ावसायिक ": 2903,
      "period ": 2904,
      "Muslim": 2905,
      "through ": 2906,
      "Himalay": 2907,
      "kilomet": 2908,
      " ఖ": 2909,
      " , ": 2910,
      " to ": 2911,
      " ని": 2912,
      " స్థ": 2913,
      " यह": 2914,
      " kilomet": 2915,
      "%), ": 2916,
      "-largest ": 2917,
      ".6": 2918,
      "12": 2919,
      "13": 2920,
      "30": 2921,
      "; మ": 2922,
      "Al": 2923,
      "Del": 2924,
      "En": 2925,
      "Gand": 2926,
      "Jan": 2927,
      "P ": 2928,
      "Plat": 2929,
      "Sh": 2930,
      "St": 2931,
      "aj": 2932,
      "ach": 2933,
      "bac": 2934,
      "car": 2935,
      "dance ": 2936,
      "fi": 2937,
      "ga": 2938,
      "gra": 2939,
      "l ": 2940,
      "man": 2941,
      "mad": 2942,
      "ood": 2943,
      "ry ": 2944,
      "rural ": 2945,
      "so": 2946,
      "tur": 2947,
      "tech": 2948,
      "ven": 2949,
      "wom": 2950,
      "ंती ": 2951,
      "ंपर": 2952,
      "अधिक ": 2953,
      "आढळ": 2954,
      "इतर": 2955,
      "इ.स. ": 2956,
      "ओड": 2957,
      "ओर ": 2958,
      "कर्ष": 2959,
      "केव": 2960,
      "क प्रांत": 2961,
      "गल": 2962,
      "घात ": 2963,
      "जह": 2964,
      "जा ": 2965,
      "जंग": 2966,
      "जवळ": 2967,
      "टि": 2968,
      "टी वर्ष": 2969,
      "ठबंध": 2970,
      "णू": 2971,
      "णारे ": 2972,
      "तः": 2973,
      "तय": 2974,
      "तरा": 2975,
      "तात ": 2976,
      "थिय": 2977,
      "दान": 2978,
      "दार ": 2979,
      "नद्य": 2980,
      "ना के ": 2981,
      "नवी ": 2982,
      "नहीं": 2983,
      "पा ": 2984,
      "पणे ": 2985,
      "बदल": 2986,
      "युर": 2987,
      "या काळ": 2988,
      "रक्ष": 2989,
      "लु": 2990,
      "ली व": 2991,
      "लाग": 2992,
      "ळू": 2993,
      "ळूह": 2994,
      "वली ": 2995,
      "वैद": 2996,
      "सृष्ट": 2997,
      "सध्या ": 2998,
      "सस्तन प्र": 2999,
      "हा क": 3000,
      "ाइ": 3001,
      "िती ": 3002,
      "िने": 3003,
      "ीज": 3004,
      "ीठ": 3005,
      "ीब": 3006,
      "ुष": 3007,
      "ुत्तर ": 3008,
      "ूड": 3009,
      "ेख": 3010,
      "ेम": 3011,
      "ोने": 3012,
      "४७": 3013,
      "ం ప్ర": 3014,
      "అతి ": 3015,
      "అభి": 3016,
      "ఆక్రమ": 3017,
      "ఆర్ధిక": 3018,
      "కళ": 3019,
      "కల్ప": 3020,
      "ఖండ": 3021,
      "గణ": 3022,
      "చైన": 3023,
      "జా": 3024,
      "డే": 3025,
      "తక": 3026,
      "తన ": 3027,
      "దీ": 3028,
      "ద్య": 3029,
      "న్య": 3030,
      "ను ప": 3031,
      "నాలు": 3032,
      "పశ": 3033,
      "పు": 3034,
      "బా": 3035,
      "మర": 3036,
      "మాన": 3037,
      "మ్మ": 3038,
      "యిన ": 3039,
      "రత": 3040,
      "రీ": 3041,
      "ల క": 3042,
      "లు. ": 3043,
      "వృ": 3044,
      "శ్రమ": 3045,
      "సర": 3046,
      "సూ": 3047,
      "సార": 3048,
      "సింది. ": 3049,
      "సర్వ": 3050,
      "ిస్థ": 3051,
      "ీ ": 3052,
      "ుగ": 3053,
      "ుళ": 3054,
      "ుంది": 3055,
      "ూర్": 3056,
      "ే, ": 3057,
      "ైగా ": 3058,
      "ో కూడ": 3059,
      "ा होता. ": 3060,
      ", क": 3061,
      "्यता ": 3062,
      "्यांच्या ": 3063,
      "्यांचा ": 3064,
      "ारचे ": 3065,
      "ारम्भ": 3066,
      ". India ": 3067,
      ". स. ": 3068,
      " कई": 3069,
      " काम": 3070,
      " काळ": 3071,
      " किल्ला ": 3072,
      " कॉंग्रेस": 3073,
      "thre": 3074,
      "thir": 3075,
      "ank": 3076,
      "ance": 3077,
      "s were ": 3078,
      "inv": 3079,
      "त आहे. ": 3080,
      "erc": 3081,
      "eral ": 3082,
      " सद": 3083,
      " साली ": 3084,
      " सबसे ": 3085,
      "र्नाटक": 3086,
      " पक्ष": 3087,
      " प्ल": 3088,
      " मत": 3089,
      "ు (": 3090,
      "ensu": 3091,
      "ांड": 3092,
      "ांति": 3093,
      "alis": 3094,
      "art ": 3095,
      "arch": 3096,
      "ान्य": 3097,
      "di ": 3098,
      "div": 3099,
      "ातच": 3100,
      "ात्य": 3101,
      "ात. ": 3102,
      "िकार": 3103,
      "स्कार": 3104,
      "स्मार": 3105,
      "्या शतक": 3106,
      "ాలయ": 3107,
      "ాలో ": 3108,
      "ాలతో కూడ": 3109,
      "orig": 3110,
      "ed on the ": 3111,
      " व क": 3112,
      " वैदिक काळ": 3113,
      " పద్ధ": 3114,
      "ात विविध": 3115,
      "లోక్": 3116,
      " के रूप": 3117,
      " के लिये ": 3118,
      "of India ": 3119,
      "ियन": 3120,
      "िया क": 3121,
      " अमेरिक": 3122,
      " में प्र": 3123,
      "विद्य": 3124,
      "దేశం ": 3125,
      "ికత": 3126,
      "ర్గ": 3127,
      "ర్త": 3128,
      "ం వ": 3129,
      " प्रग": 3130,
      " प्रत्ये": 3131,
      "त्कालीन": 3132,
      " नद": 3133,
      "as a ": 3134,
      "त्यादी ": 3135,
      "ावर ": 3136,
      "ावेश": 3137,
      "ावरून ": 3138,
      "out ": 3139,
      "ा को": 3140,
      " కే": 3141,
      " కార": 3142,
      "ులకు ": 3143,
      "कारण": 3144,
      "भारत हे ": 3145,
      " వాతావర": 3146,
      "th and ": 3147,
      "ापर ": 3148,
      "ement ": 3149,
      "या देश": 3150,
      " సి": 3151,
      " సరిహద్ద": 3152,
      "संख्य": 3153,
      " आर्": 3154,
      "as, ": 3155,
      "क राज्य": 3156,
      "ular ": 3157,
      "రాస్య": 3158,
      "righ": 3159,
      "వి. ": 3160,
      "ప్రపంచ": 3161,
      "ाच्या ओ": 3162,
      "ाजर": 3163,
      "ण घे": 3164,
      "India\n": 3165,
      "త్వా": 3166,
      "ించే": 3167,
      " कोटी वर्ष": 3168,
      "by the ": 3169,
      "chang": 3170,
      "आहेत.\n": 3171,
      " करणे ": 3172,
      "समावेश": 3173,
      "agric": 3174,
      "Indian subcontin": 3175,
      "ived ": 3176,
      " ले": 3177,
      "निभा": 3178,
      "एकू": 3179,
      "నిర్": 3180,
      " विविध": 3181,
      "१९६": 3182,
      "१९५०": 3183,
      " दो": 3184,
      "export": 3185,
      "ంటే": 3186,
      " రహదార": 3187,
      "ములో ": 3188,
      "కుడ": 3189,
      "ూడు ": 3190,
      "early ": 3191,
      "स्वातंत्र्य": 3192,
      "ident": 3193,
      "క్షరాస్య": 3194,
      "व्युत्तर ": 3195,
      "म्ब": 3196,
      " జాతీయ": 3197,
      "चे पठार": 3198,
      "ం, భారతీయ": 3199,
      "dep": 3200,
      "territor": 3201,
      "नावाने ": 3202,
      "ations ": 3203,
      "िवाज": 3204,
      "िवूड": 3205,
      "ील राज्य": 3206,
      " असते. ": 3207,
      " असून": 3208,
      "నుమ": 3209,
      " मुघल": 3210,
      "चित्रपट निर्म": 3211,
      "चित्रपटसृष्ट": 3212,
      "वेश": 3213,
      "control": 3214,
      "contribut": 3215,
      " संस्कृत ": 3216,
      "ेवण": 3217,
      "ంచి ": 3218,
      "పాక": 3219,
      "2011": 3220,
      "०००": 3221,
      " దేశాల": 3222,
      "ాలుగా ": 3223,
      "aint": 3224,
      " समाज": 3225,
      " सम्राट": 3226,
      " సంఖ్య": 3227,
      "వేగంగా ": 3228,
      "1962": 3229,
      "1965, ": 3230,
      "ism, ": 3231,
      "ाँकि": 3232,
      "ेतील": 3233,
      "ेतील ": 3234,
      "టిలో ": 3235,
      "trans": 3236,
      "गेली. ": 3237,
      "द्वीपसमूह": 3238,
      "ंबई": 3239,
      "్ ఇండియా ": 3240,
      "अधिकार": 3241,
      "ేరు ": 3242,
      "స్వతంత్ర": 3243,
      "government": 3244,
      "गणराज्य": 3245,
      "िया गय": 3246,
      " భాగ": 3247,
      "शिक्षण घे": 3248,
      "కరణ": 3249,
      "పాలిత": 3250,
      "దేశాలలో ": 3251,
      "language ": 3252,
      "ंपार": 3253,
      "पाठ": 3254,
      " प्रदेशात ": 3255,
      "ेकडे ": 3256,
      "ेकडील राज्य": 3257,
      " केंद्रशासित प्रदेश": 3258,
      " जनजाति": 3259,
      "మొదల": 3260,
      "ेषभूष": 3261,
      "ांत मोठ": 3262,
      "scri": 3263,
      "ట్లు ": 3264,
      " मिळाल": 3265,
      " ప్రాంతాల": 3266,
      "serv": 3267,
      "served ": 3268,
      "विकास": 3269,
      "రెండు ": 3270,
      "శాస్త్ర": 3271,
      "ుకోవడ": 3272,
      " म्हणून ": 3273,
      " म्हणजे ": 3274,
      "స్కృత": 3275,
      "ాత్రం ": 3276,
      "ते हैं।": 3277,
      "द्योगिक": 3278,
      "1947, ": 3279,
      "our ": 3280,
      "हिंस": 3281,
      "हिन्दी ": 3282,
      "सा पूर्व": 3283,
      "ం\nభారత": 3284,
      "టుంబ": 3285,
      "సినిమ": 3286,
      "ప్రాచీ": 3287,
      "majority ": 3288,
      "domin": 3289,
      "वैविध्य": 3290,
      "South Asi": 3291,
      "prime minister": 3292,
      "ॉलिवूड": 3293,
      "ఎక్కువగా ": 3294,
      "కు పైగా ": 3295,
      "మేన": 3296,
      "వీప": 3297,
      " పేరు ": 3298,
      "సాంప్రదాయ": 3299,
      "मोठ्या प्रमाण": 3300,
      "Empire ": 3301,
      " हिन्दी ": 3302,
      " ఉప": 3303,
      " ద్వీప": 3304,
      "Constitut": 3305,
      "नद्या ": 3306,
      "सुरुव": 3307,
      "विषय": 3308,
      "కాంగ్రెస": 3309,
      " न्यायालय": 3310,
      "Comp": 3311,
      "తమిళ": 3312,
      "బ్రిటి": 3313,
      "స్లామ": 3314,
      "ంగాలీ": 3315,
      " వచ్చింది. ": 3316,
      "ప్రధానమంత్ర": 3317,
      "influenc": 3318,
      "्याद्र": 3319,
      "ुष्क": 3320,
      "ళ్లను ": 3321,
      "ालेय": 3322,
      "ंगमंच": 3323,
      " होता. ": 3324,
      "गेल्या काही वर्षात ": 3325,
      " टक्के, ": 3326,
      "millennium ": 3327,
      "इंग्रजी: ": 3328,
      "స్వామ్య": 3329,
      " వ శతాబ్దం ": 3330,
      " జాబితా": 3331,
      "billion ": 3332,
      "owever, ": 3333,
      " उदाहरण आहे. ": 3334,
      "political ": 3335,
      "ळूहळू": 3336,
      "జాస్వామ్య": 3337,
      "పశ్చ": 3338,
      "సర్వీ": 3339,
      "ిస్థాన్": 3340,
      "ारचे वाळवंट": 3341,
      ". स. १६": 3342,
      " प्लेट": 3343,
      "agricult": 3344,
      "క్షరాస్యత": 3345,
      " ख": 3346,
      " ड": 3347,
      " ५": 3348,
      " ==\n": 3349,
      "). ": 3350,
      ") and ": 3351,
      ".5": 3352,
      ".8": 3353,
      ".9": 3354,
      "0 के दशक": 3355,
      "46": 3356,
      "50": 3357,
      "A ": 3358,
      "BJ": 3359,
      "East ": 3360,
      "Govern": 3361,
      "Ganges ": 3362,
      "Jain": 3363,
      "West": 3364,
      "a. ": 3365,
      "bre": 3366,
      "bel": 3367,
      "c ": 3368,
      "cu": 3369,
      "cur": 3370,
      "cru": 3371,
      "censu": 3372,
      "ded ": 3373,
      "dam": 3374,
      "dra": 3375,
      "eth": 3376,
      "e, and ": 3377,
      "fer": 3378,
      "fig": 3379,
      "hig": 3380,
      "hru": 3381,
      "led ": 3382,
      "long ": 3383,
      "oy": 3384,
      "oin": 3385,
      "ok ": 3386,
      "pen": 3387,
      "paint": 3388,
      "s, the ": 3389,
      "secon": 3390,
      "sett": 3391,
      "ty": 3392,
      "t, ": 3393,
      "ta ": 3394,
      "tre": 3395,
      "wa": 3396,
      "अन्य": 3397,
      "ईसा पूर्व": 3398,
      "ऊँ": 3399,
      "एं": 3400,
      "कु": 3401,
      "कीय": 3402,
      "गत ": 3403,
      "चर": 3404,
      "चाल": 3405,
      "छोट": 3406,
      "ट्ट": 3407,
      "डॉल": 3408,
      "तक": 3409,
      "तन": 3410,
      "ता के ": 3411,
      "ताब्दी ": 3412,
      "थी ": 3413,
      "था, ": 3414,
      "दी": 3415,
      "दाय": 3416,
      "ध्र": 3417,
      "न व": 3418,
      "पार": 3419,
      "पेक्ष": 3420,
      "फल": 3421,
      "मत": 3422,
      "मन": 3423,
      "मौर्य": 3424,
      "यी ": 3425,
      "र-": 3426,
      "रहा ": 3427,
      "वान": 3428,
      "वाल": 3429,
      "सव": 3430,
      "सू": 3431,
      "सैन्य": 3432,
      "़ी ": 3433,
      "ाड": 3434,
      "ाओं": 3435,
      "िख": 3436,
      "ीति": 3437,
      "ूट": 3438,
      "ृह": 3439,
      "्न": 3440,
      "१३": 3441,
      "ा है। ": 3442,
      "े व": 3443,
      "्यट": 3444,
      "ी राज्य": 3445,
      ". India has ": 3446,
      " कह": 3447,
      "theast ": 3448,
      "ani": 3449,
      "s to ": 3450,
      "indu": 3451,
      "inter": 3452,
      " पार्ट": 3453,
      " मध्य": 3454,
      "end ": 3455,
      "ence": 3456,
      "al, ": 3457,
      "diff": 3458,
      "िक्": 3459,
      "भारत को": 3460,
      "ed and ": 3461,
      "ed with ": 3462,
      " विक": 3463,
      "itt": 3464,
      "ic, ": 3465,
      " अव": 3466,
      " अप्र": 3467,
      " में ब": 3468,
      "ोंड": 3469,
      "as the ": 3470,
      "राजस्थान": 3471,
      "है और ": 3472,
      "in India": 3473,
      "ecially ": 3474,
      "ing a ": 3475,
      "क्षर": 3476,
      " ज्": 3477,
      "कारण ": 3478,
      " तो": 3479,
      " की ओर ": 3480,
      "emoc": 3481,
      "000": 3482,
      " आज": 3483,
      " आय": 3484,
      "amm": 3485,
      "ulpt": 3486,
      " है ज": 3487,
      " है।\n": 3488,
      "river ": 3489,
      " शहर": 3490,
      " शताब्दी ": 3491,
      "India, the ": 3492,
      "elect": 3493,
      " कोर": 3494,
      "ी व्य": 3495,
      "सम्": 3496,
      "ago": 3497,
      "sum": 3498,
      "ता है।": 3499,
      " विदेश": 3500,
      " विस्त": 3501,
      "१९४७": 3502,
      "who ": 3503,
      "परि": 3504,
      "ीं शताब्दी ": 3505,
      "उत्कृष्ट": 3506,
      "स्वी ": 3507,
      "भूभाग": 3508,
      "भूगोल": 3509,
      "mov": 3510,
      "मानव": 3511,
      "िन्तु": 3512,
      "िश्र": 3513,
      "coast": 3514,
      "has been ": 3515,
      "part ": 3516,
      "किन": 3517,
      "ter the ": 3518,
      "सरे ": 3519,
      " परमाणु": 3520,
      "ound": 3521,
      "central ": 3522,
      "marri": 3523,
      "===\n\nThe ": 3524,
      " समय": 3525,
      ". Af": 3526,
      "ism ": 3527,
      "ures ": 3528,
      "लगभग": 3529,
      "economy ": 3530,
      "गुप्त ": 3531,
      "गुजरा": 3532,
      "भरत": 3533,
      "उपयोग": 3534,
      "स्लिम": 3535,
      "तमिल": 3536,
      "==\n\n\n=== ": 3537,
      "00 BCE": 3538,
      "ल्तन": 3539,
      "they ": 3540,
      "decad": 3541,
      " जनसंख्या ": 3542,
      "population ": 3543,
      " – ": 3544,
      " मोह": 3545,
      "party ": 3546,
      "sculpt": 3547,
      "पहले ": 3548,
      "िक सु": 3549,
      ". Its ": 3550,
      "ancient ": 3551,
      "माध्यम": 3552,
      "th century ": 3553,
      " स्वतंत्र": 3554,
      "185": 3555,
      "great": 3556,
      "grew ": 3557,
      "आर्थिक ": 3558,
      "शहरी ": 3559,
      " जाती ": 3560,
      " कर द": 3561,
      "ामाजिक": 3562,
      "growth ": 3563,
      " बहुत ": 3564,
      "और अंग्रेज": 3565,
      "United ": 3566,
      " उत्प": 3567,
      "दर्श": 3568,
      "under ": 3569,
      " अभिय": 3570,
      "ा गांध": 3571,
      "ought ": 3572,
      "literac": 3573,
      "ऋषभदेव": 3574,
      "घोषण": 3575,
      "वायु": 3576,
      " शासन": 3577,
      "occup": 3578,
      "भूमिका निभा": 3579,
      "years ago": 3580,
      "धीरे ": 3581,
      "Indus ": 3582,
      "European ": 3583,
      "parliamentary ": 3584,
      "Central ": 3585,
      "Nehru": 3586,
      "famil": 3587,
      "especially ": 3588,
      "religious ": 3589,
      "Engl": 3590,
      "women ": 3591,
      "origin": 3592,
      "depend": 3593,
      "डॉलर ": 3594,
      "\nअ": 3595,
      "\nవి": 3596,
      " -": 3597,
      " 8": 3598,
      " ध": 3599,
      " ३": 3600,
      " ఇ": 3601,
      " ति": 3602,
      " च्या ": 3603,
      " రాజ": 3604,
      " నా": 3605,
      " भारत के ": 3606,
      " उत्तर": 3607,
      " आहे.\n": 3608,
      " రాజకీయ": 3609,
      " ऑफ": 3610,
      " येथील": 3611,
      " भाषाओं": 3612,
      "% व": 3613,
      "% and ": 3614,
      ",३": 3615,
      ".2": 3616,
      ".పూ": 3617,
      "1-": 3618,
      "24": 3619,
      "25": 3620,
      "29": 3621,
      "36": 3622,
      "55": 3623,
      "7,": 3624,
      "Ara": 3625,
      "BN": 3626,
      "GD": 3627,
      "IS": 3628,
      "National ": 3629,
      "Per": 3630,
      "Tam": 3631,
      "air ": 3632,
      "bi": 3633,
      "ck": 3634,
      "can": 3635,
      "cap": 3636,
      "ds ": 3637,
      "del": 3638,
      "danc": 3639,
      "day ": 3640,
      "dance": 3641,
      "ew": 3642,
      "e. The ": 3643,
      "eig": 3644,
      "educ": 3645,
      "eograph": 3646,
      "f ": 3647,
      "ft ": 3648,
      "gar": 3649,
      "hat": 3650,
      "hel": 3651,
      "hous": 3652,
      "iet": 3653,
      "kh": 3654,
      "king": 3655,
      "ly": 3656,
      "lam": 3657,
      "m ": 3658,
      "mi": 3659,
      "ost": 3660,
      "p ": 3661,
      "pon": 3662,
      "prom": 3663,
      "ra ": 3664,
      "ram": 3665,
      "sm": 3666,
      "sion": 3667,
      "sultan": 3668,
      "ta": 3669,
      "ust ": 3670,
      "uch": 3671,
      "uct": 3672,
      "well": 3673,
      "ंक": 3674,
      "ंभ": 3675,
      "ंका ": 3676,
      "अव": 3677,
      "अरा": 3678,
      "अशी ": 3679,
      "आण": 3680,
      "आलेल्या ": 3681,
      "उभ": 3682,
      "उन्": 3683,
      "ऊ लाग": 3684,
      "ऋतु": 3685,
      "का": 3686,
      "कल्प": 3687,
      "खु": 3688,
      "घड": 3689,
      "घेत": 3690,
      "चार": 3691,
      "ची स": 3692,
      "चोल": 3693,
      "ज़": 3694,
      "जी": 3695,
      "जु": 3696,
      "जार": 3697,
      "जेचे ": 3698,
      "जेवण": 3699,
      "डे ": 3700,
      "णु": 3701,
      "त की ": 3702,
      "ताज": 3703,
      "त कर": 3704,
      "तीत ": 3705,
      "तेज": 3706,
      "थे ": 3707,
      "थारचे वाळवंट": 3708,
      "दह": 3709,
      "दिल": 3710,
      "धे ": 3711,
      "धोर": 3712,
      "न के ": 3713,
      "नगर": 3714,
      "नस्पतीं": 3715,
      "पि": 3716,
      "पो": 3717,
      "पाव": 3718,
      "पद्ध": 3719,
      "पार्ट": 3720,
      "पंतप्रधान": 3721,
      "फळ": 3722,
      "बकि": 3723,
      "बाब": 3724,
      "भु": 3725,
      "भर ": 3726,
      "भिन्": 3727,
      "मल": 3728,
      "मा ": 3729,
      "मदार": 3730,
      "ये ": 3731,
      "यांच्या ": 3732,
      "यांना ": 3733,
      "यार झाल": 3734,
      "रहे ": 3735,
      "रंगमंच": 3736,
      "लोग": 3737,
      "लंब": 3738,
      "ळा ": 3739,
      "वट": 3740,
      "वतात. ": 3741,
      "वाहर": 3742,
      "वसाय": 3743,
      "वृत": 3744,
      "ववैविध्य": 3745,
      "शेत": 3746,
      "शाही ": 3747,
      "शोध": 3748,
      "शस्त्र": 3749,
      "शान्य": 3750,
      "शालेय": 3751,
      "सदे": 3752,
      "साह": 3753,
      "सऱ्या ": 3754,
      "हि": 3755,
      "हात": 3756,
      "ह्या ": 3757,
      "ाठ": 3758,
      "ाधिक ": 3759,
      "िह": 3760,
      "ी.": 3761,
      "ीट": 3762,
      "ूच": 3763,
      "ृक्ष": 3764,
      "ैशिष्ट्य": 3765,
      "ोढ़": 3766,
      "ोसी ": 3767,
      "्स": 3768,
      "२८": 3769,
      "३८": 3770,
      "४०": 3771,
      "५७": 3772,
      "५ वर्ष": 3773,
      "६ टक्के ": 3774,
      "८ मध्ये ": 3775,
      "ంభ": 3776,
      "ం: ": 3777,
      "ంధీ": 3778,
      "అవ": 3779,
      "అహ": 3780,
      "ఆఫ": 3781,
      "ఇంగ్ల": 3782,
      "ఉప": 3783,
      "ఉత్త": 3784,
      "ఒల": 3785,
      "కథ": 3786,
      "కూ": 3787,
      "క్రీ": 3788,
      "కీర్ణ": 3789,
      "గువ": 3790,
      "చార": 3791,
      "చాల": 3792,
      "జన": 3793,
      "జన్": 3794,
      "జాత": 3795,
      "జాలు ": 3796,
      "జరు": 3797,
      "జనాభ": 3798,
      "టై": 3799,
      "టర్": 3800,
      "టం ": 3801,
      "డుత": 3802,
      "ణంగా ": 3803,
      "తా": 3804,
      "తె": 3805,
      "దన": 3806,
      "దు": 3807,
      "ధి": 3808,
      "ధాన ": 3809,
      "నలో ": 3810,
      "పద": 3811,
      "పై": 3812,
      "పు ప": 3813,
      "పట్టణ": 3814,
      "ఫల": 3815,
      "బం": 3816,
      "బంగ": 3817,
      "బడ్డ": 3818,
      "భౌ": 3819,
      "భరత": 3820,
      "మౌ": 3821,
      "మాత": 3822,
      "మిత": 3823,
      "మాత్రం ": 3824,
      "యాలు ": 3825,
      "య నా": 3826,
      "రూ": 3827,
      "రే": 3828,
      "రు ": 3829,
      "రిక": 3830,
      "రవాణా ": 3831,
      "లె": 3832,
      "లను ": 3833,
      "ళిక": 3834,
      "వ్య": 3835,
      "శ్ర": 3836,
      "శ్రీ": 3837,
      "సభ": 3838,
      "సులు ": 3839,
      "సత్వ": 3840,
      "సరిహద్ద": 3841,
      "హై": 3842,
      "హిమ": 3843,
      "ాదేశ": 3844,
      "ాంగ": 3845,
      "ాద్": 3846,
      "ాన్ని ": 3847,
      "ిన్న": 3848,
      "ిగా ": 3849,
      "ీఠ": 3850,
      "ీ; ": 3851,
      "ుమ": 3852,
      "ురు": 3853,
      "ుకొ": 3854,
      "ూల": 3855,
      "ూ వచ్చింది. ": 3856,
      "ెనీ": 3857,
      "ెలవ": 3858,
      "ేజ": 3859,
      "ైవి": 3860,
      "్ఘ": 3861,
      "్ళ": 3862,
      "్వ": 3863,
      "‍नी ": 3864,
      "े आहेत. ": 3865,
      ", స": 3866,
      ", India ": 3867,
      ", ప్ర": 3868,
      ", it ": 3869,
      "्यांची ": 3870,
      "ी (": 3871,
      "ी हे ": 3872,
      "e was ": 3873,
      ". E": 3874,
      ". F": 3875,
      ". T": 3876,
      ". India's ": 3877,
      ". By ": 3878,
      "्रे": 3879,
      " कल": 3880,
      " करून ": 3881,
      " करून": 3882,
      "there ": 3883,
      "ants ": 3884,
      "inf": 3885,
      "ins": 3886,
      "ine ": 3887,
      "indi": 3888,
      "init": 3889,
      "eri": 3890,
      "er, ": 3891,
      " सण": 3892,
      " सां": 3893,
      " सुरू": 3894,
      " सिंधू": 3895,
      " सिंह": 3896,
      " सैनिक": 3897,
      "only ": 3898,
      "र्फ": 3899,
      " पाव": 3900,
      " मन": 3901,
      " मैल": 3902,
      "ు మార్గాలు ": 3903,
      "state ": 3904,
      "ారి ": 3905,
      "ారు ప": 3906,
      "ారంభ": 3907,
      "ान, ": 3908,
      "disp": 3909,
      "ाताळ": 3910,
      "ातून स": 3911,
      "\n\nభారతదేశం ": 3912,
      "स्फ": 3913,
      "ాలో": 3914,
      "ాలనే": 3915,
      "ాలెండ": 3916,
      "ed for ": 3917,
      " हाल": 3918,
      "ి అ": 3919,
      "ి ఇ": 3920,
      "ి సం": 3921,
      "a m": 3922,
      " वर": 3923,
      " व ब": 3924,
      " व त": 3925,
      " वैशिष्ट्य": 3926,
      "Indians ": 3927,
      "आहे.\n\n\n==": 3928,
      " పర": 3929,
      " పాల": 3930,
      " పండ": 3931,
      " పట్టణ": 3932,
      "ात आहे. ": 3933,
      "ात अस": 3934,
      "లోని ": 3935,
      "లోను ": 3936,
      "స్, ": 3937,
      "ीय व": 3938,
      "ीय बदल": 3939,
      "్యులు ": 3940,
      "్యక్రమ": 3941,
      "प्रति": 3942,
      "प्रांत": 3943,
      "प्रयास": 3944,
      "प्रचल": 3945,
      "प्राप्त": 3946,
      " अब": 3947,
      " अमर": 3948,
      " अर्थव्यवस्था ": 3949,
      " अनु": 3950,
      "ా సం": 3951,
      "ా గా": 3952,
      "ामधील": 3953,
      "क्ट": 3954,
      "ीला ": 3955,
      "ीलंका ": 3956,
      "न (": 3957,
      "विले ": 3958,
      "विद्यार्थ": 3959,
      "विभिन्": 3960,
      "ासून": 3961,
      "ిక్": 3962,
      "ర్చ": 3963,
      "ర్ష": 3964,
      "ర్‌": 3965,
      "touch": 3966,
      " प्रण": 3967,
      " प्रति": 3968,
      " प्रजात": 3969,
      " प्रतिश": 3970,
      "uring ": 3971,
      "urther ": 3972,
      "లో జరిగిన ": 3973,
      "లో మాత్రం ": 3974,
      "ेली. ": 3975,
      "దినాలు ": 3976,
      " नाव": 3977,
      " निव": 3978,
      " नहीं": 3979,
      "त्यामुळे ": 3980,
      "ecut": 3981,
      "ing to ": 3982,
      "es are ": 3983,
      "out": 3984,
      "ould ": 3985,
      ".\nIn": 3986,
      "ाहजह": 3987,
      "भारतीय व": 3988,
      "भारतीय न": 3989,
      "भारतीय स्थापत्य": 3990,
      "న్నడ": 3991,
      "న్ని": 3992,
      "देशात ": 3993,
      "ంగా, ": 3994,
      "ులు": 3995,
      "ుల్": 3996,
      "भारत हा ": 3997,
      "ాయక": 3998,
      "ాయి ": 3999,
      " వంట": 4000,
      " వర్గ": 4001,
      "न्दो": 4002,
      "ాత్మ": 4003,
      " तसेच": 4004,
      " तयार झाल": 4005,
      "ापर्य": 4006,
      "ापैकी ": 4007,
      "ापीठ": 4008,
      " की सबसे ": 4009,
      "emp": 4010,
      "या मह": 4011,
      "या स्मार": 4012,
      " ప్రధాన": 4013,
      " ప్రముఖ": 4014,
      "संलग": 4015,
      "संविधान": 4016,
      "India Comp": 4017,
      " आण": 4018,
      " आप": 4019,
      " आशिय": 4020,
      "ాలు ==\n\n": 4021,
      "ాలు ===\n": 4022,
      "ాలు గల": 4023,
      "मुने ": 4024,
      "मुघल": 4025,
      "ती क": 4026,
      "river": 4027,
      "విభిన్న ": 4028,
      "ప్రజల": 4029,
      "ప్రముఖ": 4030,
      "forest": 4031,
      "భారతదేశపు ": 4032,
      "ातीला ": 4033,
      " शक": 4034,
      " शाहजह": 4035,
      " का सबसे बड़": 4036,
      "ायदा ": 4037,
      "ण आहेत. ": 4038,
      "ించిన ": 4039,
      "ించిన": 4040,
      "ించి, ": 4041,
      "స్తాన్": 4042,
      " మహ": 4043,
      " మొ": 4044,
      " మంద": 4045,
      " మార్": 4046,
      " మూడు ": 4047,
      " में एक": 4048,
      "ी वा": 4049,
      "ले अस": 4050,
      "झाला. ": 4051,
      "नाग": 4052,
      "नाभ": 4053,
      "नाऱ्य": 4054,
      "2022": 4055,
      "opp": 4056,
      "ives ": 4057,
      "ivil": 4058,
      " स्तरा": 4059,
      " इस": 4060,
      " इतर": 4061,
      " इतर ": 4062,
      " इमार": 4063,
      " लाख": 4064,
      "istic ": 4065,
      "निर्": 4066,
      "निष्ठ": 4067,
      "निध्र": 4068,
      "साड": 4069,
      "साधारण": 4070,
      "ाचे स": 4071,
      "ाचे नाव": 4072,
      "adv": 4073,
      "administ": 4074,
      " विष": 4075,
      " विभाग": 4076,
      "union ": 4077,
      "ून त्य": 4078,
      "ून ये": 4079,
      "execut": 4080,
      "ुरु": 4081,
      "ुरुव": 4082,
      "ला व": 4083,
      "ींनी ": 4084,
      "ముడ": 4085,
      "ముంబ": 4086,
      "ी की ": 4087,
      "igni": 4088,
      "కుటుంబ": 4089,
      "earli": 4090,
      "च्या पठार": 4091,
      " गण": 4092,
      "स्वती ": 4093,
      "स्वतंत्र": 4094,
      " होत अस": 4095,
      "mother ": 4096,
      "plain": 4097,
      "క్షణ": 4098,
      "ली आहे. ": 4099,
      "తిగా ": 4100,
      "तात. ज": 4101,
      "महास": 4102,
      "व्यावसायिक ": 4103,
      "భావిస్త": 4104,
      "म्म": 4105,
      "सेव": 4106,
      "सेना के ": 4107,
      "चे हवामान": 4108,
      "मानवी ": 4109,
      "వాహ": 4110,
      "हैं, ": 4111,
      "% या ": 4112,
      "इसकी ": 4113,
      "दी महास": 4114,
      "ण्याची ": 4115,
      "नाव पड": 4116,
      "ाबद्दल": 4117,
      " అయిన ": 4118,
      "ినది. ": 4119,
      "compl": 4120,
      "over the ": 4121,
      "लेला ": 4122,
      "ीपासून ": 4123,
      "दोन ": 4124,
      "ట్టమొదటి ": 4125,
      "నుంచి ": 4126,
      "నేపాల": 4127,
      " मुंबई": 4128,
      "चित्रपट व्य": 4129,
      "वेगळे ": 4130,
      "त्वे ": 4131,
      "स्थानिक ": 4132,
      "200 ": 4133,
      "2003": 4134,
      " संस्कृति": 4135,
      "పాదన": 4136,
      "2013": 4137,
      "तो तर ": 4138,
      " रख": 4139,
      "మొట్టమొదటి ": 4140,
      " केलेल": 4141,
      "ांचा पुत्र": 4142,
      "రాష్ట్రాల": 4143,
      "genc": 4144,
      "sever": 4145,
      "sequ": 4146,
      "world ": 4147,
      "ी समुद्र": 4148,
      " శెలవ": 4149,
      " దేశానికి ": 4150,
      "ुसार ": 4151,
      "ాబాద్": 4152,
      "ులు, ప": 4153,
      "===\n\nIndia ": 4154,
      "ederal ": 4155,
      "form of ": 4156,
      "కోర్ట": 4157,
      " సంవత్": 4158,
      " ఆర్ధిక": 4159,
      " ఆధార": 4160,
      "low ": 4161,
      "ఒకే": 4162,
      "ఒకటి": 4163,
      ". A ": 4164,
      ". Al": 4165,
      " सरस्वती ": 4166,
      " पूर": 4167,
      "bod": 4168,
      " चल": 4169,
      "णे गर": 4170,
      "ित कर": 4171,
      "లిచ": 4172,
      "్‌సై": 4173,
      "endem": 4174,
      "created ": 4175,
      "grand": 4176,
      "गेले. ": 4177,
      "वी शिक्षण": 4178,
      "ఎన్నో": 4179,
      "ఎన్నో ": 4180,
      " महा": 4181,
      " महत्त्व": 4182,
      " राज्ये ": 4183,
      "become ": 4184,
      "प्त": 4185,
      "ल्याने ": 4186,
      "ोबत": 4187,
      "ोबत ": 4188,
      "ोबर ": 4189,
      "एक आहे. ": 4190,
      "ంబూ": 4191,
      "ుకున్న": 4192,
      "स्थापना क": 4193,
      "येथे ": 4194,
      "गणला जातो. ": 4195,
      "वंश": 4196,
      "00 CE": 4197,
      "सरकार स्थाप": 4198,
      "मूळ": 4199,
      "ृष्ठीय बदल": 4200,
      "మీద": 4201,
      " हुई": 4202,
      " हुए": 4203,
      " घड": 4204,
      "ंपरा": 4205,
      "पदव्युत्तर ": 4206,
      "ीतील": 4207,
      "struct": 4208,
      "Hindu ": 4209,
      "s, and the ": 4210,
      "ाखाली ": 4211,
      "ांपेक्षा ": 4212,
      "దక్షిణాస": 4213,
      "దక్షిణాన ": 4214,
      "शतवाद": 4215,
      " इंडिया क": 4216,
      "include the ": 4217,
      " एवं": 4218,
      "मध्यप्रदेश": 4219,
      "लेख": 4220,
      "వలం ": 4221,
      "్రాజ్య": 4222,
      "क्रमणे ": 4223,
      "विकसित ": 4224,
      "स्ट इंडिया क": 4225,
      "became the ": 4226,
      "गंगा ": 4227,
      "गंगेच्या ": 4228,
      "माश": 4229,
      "रोपीय": 4230,
      "वाघ": 4231,
      "కేవలం ": 4232,
      "కారం ": 4233,
      "శాఖ": 4234,
      " पुरात": 4235,
      " पुरस्कार": 4236,
      "प्रधानमंत्री ": 4237,
      " असे म्हण": 4238,
      "मुख्यत्वे ": 4239,
      "िल्ल्य": 4240,
      " स्वातंत्र्य": 4241,
      "युद्धात ": 4242,
      "आर्थिक": 4243,
      ", सह": 4244,
      ", which is ": 4245,
      "గరికత": 4246,
      "బడిన": 4247,
      "మైనది. ": 4248,
      "వారా ": 4249,
      "ers (": 4250,
      "आहारात ": 4251,
      " పరిపాల": 4252,
      " పరిశ్రమ": 4253,
      "compos": 4254,
      "traditional ": 4255,
      "such as the ": 4256,
      "लाभ": 4257,
      "वैशिष्ट्य": 4258,
      "ामाजिक ": 4259,
      " నగర": 4260,
      "viol": 4261,
      "अजूनही ": 4262,
      "लाल ने": 4263,
      "పూర్వ": 4264,
      "రోడ్డ": 4265,
      "రంగా": 4266,
      "వీటిలో ": 4267,
      "ష్ణ": 4268,
      ", బంగ్ల": 4269,
      "life ": 4270,
      "ప్రదాయాలు ": 4271,
      "बहुतांश": 4272,
      "प्राचीन भारतीय साहित्य": 4273,
      "southern ": 4274,
      " క్రీడలు ": 4275,
      "ओळखले ": 4276,
      "इस्लामी आ": 4277,
      "जयंती ": 4278,
      "this tim": 4279,
      " वेगळे ": 4280,
      " के बाद भारत ": 4281,
      " प्राचीन ": 4282,
      "क्षेत्रीय": 4283,
      "regional ": 4284,
      " ईशान्य": 4285,
      "ంపెనీ": 4286,
      "అయిన": 4287,
      " किया।": 4288,
      " किया। ": 4289,
      "प्रत्येक प्रांत": 4290,
      "प्रत्येक राज्य": 4291,
      "ిక వెబ": 4292,
      " ముఖ్య": 4293,
      "support": 4294,
      "दोनों": 4295,
      " केले व": 4296,
      " శాఖ": 4297,
      " శాస్త్ర": 4298,
      " రైలు సర్వీ": 4299,
      "ుకుంటారు. ": 4300,
      "ఏర్పడ్డ": 4301,
      "पक्षास": 4302,
      "बंगालच्या उपसागर": 4303,
      " कार्य": 4304,
      "िक वेषभूष": 4305,
      "ावरील": 4306,
      " ఎన్నిక": 4307,
      "जास्त ": 4308,
      "ठा साम्राज्य": 4309,
      "शैक्षण": 4310,
      "ధీన": 4311,
      "బహుళ": 4312,
      "శ్మీ": 4313,
      "ాపార": 4314,
      "ేర్కొ": 4315,
      "ांपूर्वी ": 4316,
      "ర్థిక": 4317,
      "ం చేయ": 4318,
      "भाजपा ": 4319,
      " ప్రతిపాదన": 4320,
      " సంగీతం ": 4321,
      "constitution": 4322,
      "ిత్రక": 4323,
      "రాష్ట్రపతి ": 4324,
      "ప్పటికీ, ": 4325,
      "निवडणू": 4326,
      "began to ": 4327,
      "ठिकाणी ": 4328,
      "Andam": 4329,
      "music ": 4330,
      "आसाम": 4331,
      "ग्निध्र": 4332,
      "पत्‍नी ": 4333,
      "मराठा साम्राज्य": 4334,
      "सोय": 4335,
      "styl": 4336,
      " अशियाई": 4337,
      "राजनीत": 4338,
      "ागरिक": 4339,
      "ternal ": 4340,
      "eastern ": 4341,
      "surv": 4342,
      "इंग्लिश": 4343,
      "यशस्वी ": 4344,
      "ఉత్తర": 4345,
      "ణిజ్య": 4346,
      "లతో, ": 4347,
      "వెనుక": 4348,
      " कुछ": 4349,
      "भारताची अर्थव्यवस्था ": 4350,
      "official ": 4351,
      "ింది.\n": 4352,
      " बौद्ध धर्म": 4353,
      " जानेव": 4354,
      " కాశ్మీ": 4355,
      " సామ్రాజ్య": 4356,
      "ప్రస్తుతం ": 4357,
      " రవాణా సౌకర్య": 4358,
      " रोजी ": 4359,
      "స్వాతంత్ర్య": 4360,
      "కేంద్ర ప్రభుత్వ": 4361,
      "number of ": 4362,
      "दख्खनच्या पठार": 4363,
      "కలిగి ": 4364,
      "నిర్వహణ": 4365,
      "Islam": 4366,
      "Sikh": 4367,
      "no long": 4368,
      "उठाव": 4369,
      "२६ जानेव": 4370,
      "direct": 4371,
      "Muslim ": 4372,
      " kilometers (": 4373,
      "technolog": 4374,
      "आढळतात. ": 4375,
      "जंगले ": 4376,
      "टिबंध": 4377,
      "तयार": 4378,
      "थियार": 4379,
      "युरो": 4380,
      "सस्तन प्राण्य": 4381,
      "हा किल्ला ": 4382,
      "అభివృ": 4383,
      "తకాలు ": 4384,
      "న్యాయ": 4385,
      "నాలుగ": 4386,
      "సూచ": 4387,
      "ుంది.\n": 4388,
      " प्रत्येक ": 4389,
      " కేంద్ర": 4390,
      " కార్యక్రమ": 4391,
      "भारत हे नाव पड": 4392,
      " వాతావరణం ": 4393,
      "ाच्या ओघात ": 4394,
      "Indian subcontinent ": 4395,
      "एकूण ": 4396,
      " రహదారులు, ": 4397,
      "control ": 4398,
      " सम्राट शाहजह": 4399,
      "1965, 1971": 4400,
      "పాలిత ప్రాంతాలు ": 4401,
      "ंपारिक वेषभूष": 4402,
      "శాస్త్రీయ": 4403,
      "1947, 1965, 1971": 4404,
      "ప్రాచీన ": 4405,
      "సాంప్రదాయిక": 4406,
      " ఉపఖండ": 4407,
      "सुरुवातीला ": 4408,
      "స్లామాబాద్": 4409,
      "పశ్చిమ": 4410,
      "East India Comp": 4411,
      "Western ": 4412,
      "high ": 4413,
      "penins": 4414,
      " अप्रैल": 4415,
      "part of the ": 4416,
      "Central Asi": 4417,
      "English ": 4418,
      "% वाटा ": 4419,
      "ISBN": 4420,
      "Persi": 4421,
      "eign ": 4422,
      "दहशतवाद": 4423,
      "वाहरलाल ने": 4424,
      "ఆఫ్ఘ": 4425,
      "ఉత్తరా": 4426,
      "జరుప": 4427,
      "టర్ల": 4428,
      "య నాగరికత": 4429,
      "హిమాలయ": 4430,
      "ైవిధ్య": 4431,
      "ాలెండర్": 4432,
      "ా గాంధీ": 4433,
      "ापर्यंत ": 4434,
      " మార్గ": 4435,
      "साधारणपणे ": 4436,
      "ignific": 4437,
      "mother of ": 4438,
      " ఆర్ధిక వ్యవస్థ": 4439,
      "णे गरजेचे ": 4440,
      "్‌సైటు\n": 4441,
      "దక్షిణాసియా ": 4442,
      " असे म्हणतात. ": 4443,
      ", బంగ్లాదేశ": 4444,
      "ిక వెబ్‌సైటు\n": 4445,
      "बंगालच्या उपसागराला ": 4446,
      "వెనుకటి ": 4447,
      "అభివృద్ధి చెంద": 4448,
      " सम्राट शाहजहान": 4449,
      " भाग": 4450,
      " राष्ट्र": 4451,
      " भारत की ": 4452,
      " million ": 4453,
      " % या ": 4454,
      "(आ": 4455,
      ");\n": 4456,
      "-0": 4457,
      ".0": 4458,
      ".८": 4459,
      ". ": 4460,
      "4%": 4461,
      "59": 4462,
      "50 ": 4463,
      ":\n": 4464,
      "Bh": 4465,
      "Bra": 4466,
      "Bhar": 4467,
      "Coun": 4468,
      "Des": 4469,
      "Fact": 4470,
      "Gre": 4471,
      "Kash": 4472,
      "Nor": 4473,
      "Re": 4474,
      "Raj": 4475,
      "ah": 4476,
      "ai": 4477,
      "ath": 4478,
      "aver": 4479,
      "a, and ": 4480,
      "bor": 4481,
      "bro": 4482,
      "call": 4483,
      "c. ": 4484,
      "d-largest ": 4485,
      "equ": 4486,
      "feat": 4487,
      "further ": 4488,
      "ganis": 4489,
      "high": 4490,
      "however, ": 4491,
      "i-": 4492,
      "ip": 4493,
      "ians ": 4494,
      "know": 4495,
      "last ": 4496,
      "mat": 4497,
      "mitt": 4498,
      "ned ": 4499,
      "o, ": 4500,
      "od ": 4501,
      "ool": 4502,
      "ped ": 4503,
      "pur": 4504,
      "pay": 4505,
      "ren": 4506,
      "red ": 4507,
      "row": 4508,
      "ss ": 4509,
      "sit": 4510,
      "sing": 4511,
      "sec": 4512,
      "sol": 4513,
      "sid": 4514,
      "s; ": 4515,
      "signific": 4516,
      "tri": 4517,
      "tro": 4518,
      "tect": 4519,
      "uj": 4520,
      "u and ": 4521,
      "uary ": 4522,
      "var": 4523,
      "vill": 4524,
      "vast ": 4525,
      "vari": 4526,
      "wil": 4527,
      "won ": 4528,
      "wea": 4529,
      "war ": 4530,
      "yan": 4531,
      "ya ": 4532,
      "y. The ": 4533,
      "ंट": 4534,
      "ंश": 4535,
      "अश": 4536,
      "अंद": 4537,
      "अंग्रेज": 4538,
      "अथवा ": 4539,
      "इट": 4540,
      "उस": 4541,
      "उर्व": 4542,
      "एन": 4543,
      "ए ग": 4544,
      "एशिय": 4545,
      "एशिया ": 4546,
      "कई": 4547,
      "गि": 4548,
      "छोड़": 4549,
      "जै": 4550,
      "टल": 4551,
      "थी। ": 4552,
      "दर": 4553,
      "नर": 4554,
      "नौ": 4555,
      "नों": 4556,
      "पंजाब": 4557,
      "फै": 4558,
      "बज": 4559,
      "बेट": 4560,
      "भौ": 4561,
      "मि": 4562,
      "मे": 4563,
      "म, ": 4564,
      "मी ": 4565,
      "मात": 4566,
      "मी. ": 4567,
      "मिश्र": 4568,
      "यमु": 4569,
      "र म": 4570,
      "रपेक्ष": 4571,
      "लिक": 4572,
      "विय": 4573,
      "शा": 4574,
      "शुरु": 4575,
      "सात": 4576,
      "सभा": 4577,
      "सीमा ": 4578,
      "हरू": 4579,
      "हाँ": 4580,
      "ाड़ी ": 4581,
      "ित्र": 4582,
      "ीफ": 4583,
      "ीका ": 4584,
      "ुट": 4585,
      "ुद्ध": 4586,
      "ूद्वीप": 4587,
      "ूची ": 4588,
      "ेप": 4589,
      "ेदार": 4590,
      "ैस": 4591,
      "ो-": 4592,
      "ोह": 4593,
      "ौर": 4594,
      "ौह": 4595,
      "ौद्योगिक": 4596,
      "०,": 4597,
      "१२": 4598,
      "५००": 4599,
      "ा ह": 4600,
      "ा प्र": 4601,
      ", ड": 4602,
      "्यात ": 4603,
      "ी क्षेत्र": 4604,
      "ार्य": 4605,
      "ाराज": 4606,
      ". C": 4607,
      ". P": 4608,
      "्रेल": 4609,
      " कृ": 4610,
      " किया गया ": 4611,
      " कटिबंध": 4612,
      "anim": 4613,
      "s a ": 4614,
      "s of the ": 4615,
      "s are ": 4616,
      "independ": 4617,
      "ering ": 4618,
      "ers, ": 4619,
      " सभ": 4620,
      " सो": 4621,
      " साम": 4622,
      " सेव": 4623,
      " सैन्य": 4624,
      " पंजाब": 4625,
      " मैदान": 4626,
      " म्यान": 4627,
      "ale ": 4628,
      "als, ": 4629,
      "ar, ": 4630,
      "around ": 4631,
      "stri": 4632,
      "र व": 4633,
      "र और ": 4634,
      "att": 4635,
      "organis": 4636,
      "often ": 4637,
      "ाचल": 4638,
      "a and the ": 4639,
      "relat": 4640,
      "recor": 4641,
      "remain": 4642,
      " वीं शताब्दी ": 4643,
      "ite ": 4644,
      "ity, ": 4645,
      " के बीच": 4646,
      " के नेतृत्व": 4647,
      "of which ": 4648,
      "प्रारम्भ": 4649,
      " अधिक": 4650,
      " अभी ": 4651,
      "ings of ": 4652,
      "al and ": 4653,
      " में, ": 4654,
      " में म": 4655,
      " में व": 4656,
      "त्रि": 4657,
      "त्रिक": 4658,
      "विवाद": 4659,
      "विरु": 4660,
      "विजय": 4661,
      "ासाह": 4662,
      "an and ": 4663,
      " प्रधान": 4664,
      " प्राप्त ": 4665,
      "त्न": 4666,
      " नमू": 4667,
      "राजधान": 4668,
      "ing in ": 4669,
      "es were ": 4670,
      "ंगीत": 4671,
      "द्देश": 4672,
      " जग": 4673,
      " जीव": 4674,
      "भारतीय र": 4675,
      "ion and ": 4676,
      "es. The ": 4677,
      "भारत देश": 4678,
      "ile ": 4679,
      "ility ": 4680,
      "ents ": 4681,
      "ently ": 4682,
      " की आ": 4683,
      "emper": 4684,
      "ember ": 4685,
      "या जाता ": 4686,
      "संब": 4687,
      "India was ": 4688,
      "India from ": 4689,
      "India is the ": 4690,
      " आधिकार": 4691,
      " आकर्ष": 4692,
      "रूस": 4693,
      "ri ": 4694,
      "के कारण ": 4695,
      "ने क": 4696,
      "ने व": 4697,
      "ने की ": 4698,
      "lief": 4699,
      "liber": 4700,
      " संयुक्त ": 4701,
      " शह": 4702,
      "elf": 4703,
      "elit": 4704,
      "ाने के ": 4705,
      " कोई": 4706,
      " से एक": 4707,
      "हुँ": 4708,
      " में भारत ": 4709,
      "नाथ": 4710,
      "ना, ": 4711,
      "नाइट": 4712,
      "conduct": 4713,
      "श्न ": 4714,
      "समर्थ": 4715,
      "2023": 4716,
      "oper": 4717,
      "ively ": 4718,
      " स्तर": 4719,
      " इन ": 4720,
      " इस्लाम": 4721,
      " लाल": 4722,
      "निर्व": 4723,
      "निरपेक्ष": 4724,
      "wide": 4725,
      "ता है। ": 4726,
      "unt": 4727,
      "unit": 4728,
      "untouch": 4729,
      " दिल्ल": 4730,
      " दिवस": 4731,
      "import": 4732,
      "ross ": 4733,
      " गठबंध": 4734,
      "play": 4735,
      "estim": 4736,
      "establ": 4737,
      "मोह": 4738,
      "व्यापार": 4739,
      "भाषा, ": 4740,
      "coalit": 4741,
      "तुल": 4742,
      "ाबाद": 4743,
      "ों के लिए": 4744,
      "ों के बीच": 4745,
      "न्यजीव": 4746,
      "mak": 4747,
      "and, ": 4748,
      "ally, ": 4749,
      "िया। ": 4750,
      "spre": 4751,
      "eau": 4752,
      "2008": 4753,
      "ies and ": 4754,
      ", जै": 4755,
      " स्थान": 4756,
      "s. Th": 4757,
      "बहुत ": 4758,
      " ने भारत के ": 4759,
      "worn ": 4760,
      "mary ": 4761,
      "ैदिक": 4762,
      "शासन ": 4763,
      "formed a ": 4764,
      "left ": 4765,
      "produc": 4766,
      "दक्षिण में": 4767,
      "lowing ": 4768,
      "सर्वाधिक": 4769,
      "सर्वोच्च": 4770,
      "ment of ": 4771,
      "लिख": 4772,
      " सर्वोच्च": 4773,
      "ism, and ": 4774,
      "ism and ": 4775,
      " चु": 4776,
      "ाँच": 4777,
      "ित क": 4778,
      "endang": 4779,
      "सभा ": 4780,
      "Hindi ": 4781,
      "grou": 4782,
      " महाराष्ट्र": 4783,
      "region ": 4784,
      "a, or ": 4785,
      "ंबेड": 4786,
      "ंबूद्वीप": 4787,
      "गुरू": 4788,
      "ग्रेस": 4789,
      "1991": 4790,
      "1999": 4791,
      "अधिकृत ": 4792,
      "centuries ": 4793,
      "र्जा ": 4794,
      "भूमि": 4795,
      "ा। इस": 4796,
      "subsequ": 4797,
      "ेशिय": 4798,
      " घोष": 4799,
      "भाषाएँ": 4800,
      "नाम से ": 4801,
      "1977": 4802,
      "population of ": 4803,
      "Southeast ": 4804,
      "वर्ग": 4805,
      "वर्त": 4806,
      " मोदी ": 4807,
      " इंडिया ": 4808,
      " व्यवस्थ": 4809,
      "स्ट्रेल": 4810,
      "4 billion ": 4811,
      "दृष्टि": 4812,
      "साहित्य, ": 4813,
      ". These ": 4814,
      "them ": 4815,
      " के अनुसार ": 4816,
      " के अनुसार": 4817,
      "th century, ": 4818,
      "continu": 4819,
      "अपनी ": 4820,
      "but also ": 4821,
      "polic": 4822,
      " जाते ": 4823,
      "१९९१": 4824,
      "countr": 4825,
      "country ": 4826,
      "फ्रीका ": 4827,
      "more than ": 4828,
      "press": 4829,
      "कला, ": 4830,
      "शास्त्र, ": 4831,
      " अनेक ": 4832,
      "to be the ": 4833,
      "Empire": 4834,
      "caused ": 4835,
      " लागू": 4836,
      "glob": 4837,
      "दर्भ": 4838,
      " करने का ": 4839,
      ",000 years ago": 4840,
      "र्तग": 4841,
      " अपने ": 4842,
      "consid": 4843,
      " हुआ। ": 4844,
      "रचना ": 4845,
      " क्रम": 4846,
      "court": 4847,
      "mid-": 4848,
      "middle ": 4849,
      "नियु": 4850,
      "यूरोपीय": 4851,
      "श्रे": 4852,
      "style ": 4853,
      "धार्मिक ": 4854,
      "Bengal": 4855,
      "Bengal ": 4856,
      "birth": 4857,
      "now ": 4858,
      "हालाँकि": 4859,
      " वास्त": 4860,
      "employ": 4861,
      "महाद्वीप": 4862,
      "market ": 4863,
      "मार्ग": 4864,
      " पर्वत": 4865,
      "१९८४": 4866,
      "legis": 4867,
      "Delhi ": 4868,
      "Gandhi ": 4869,
      "January ": 4870,
      "back ": 4871,
      "fied ": 4872,
      "soon ": 4873,
      " सदस्य": 4874,
      " के रूप में": 4875,
      "BJP ": 4876,
      "curr": 4877,
      "industr": 4878,
      "differ": 4879,
      " विस्तृत ": 4880,
      " अभियान": 4881,
      "literacy ": 4882,
      "घोषणा क": 4883,
      "held ": 4884,
      "kingdom": 4885,
      "ताजमह": 4886,
      "disput": 4887,
      "executive ": 4888,
      "earliest ": 4889,
      "स्ट इंडिया कंप": 4890,
      "no longer ": 4891,
      "peninsular ": 4892,
      " अप्रैल ": 4893,
      "Brah": 4894,
      "Factbo": 4895,
      "उर्वर": 4896,
      "ए गए": 4897,
      "भौगोल": 4898,
      "शाकाह": 4899,
      "शुरुआ": 4900,
      "विरुद्ध": 4901,
      "ासाहेब": 4902,
      "widely ": 4903,
      "establish": 4904,
      " सर्वोच्च न्यायालय": 4905,
      "ंबेडकर ": 4906,
      "Southeast Asi": 4907,
      " \"": 4908,
      " '": 4909,
      " B": 4910,
      " झ": 4911,
      " ठ": 4912,
      " ७": 4913,
      " ఘ": 4914,
      " స్": 4915,
      " by ": 4916,
      " తి": 4917,
      " भाष": 4918,
      " एक ": 4919,
      " भारतीय स": 4920,
      " హిందూ": 4921,
      " १९९": 4922,
      " తరువాత": 4923,
      " ओळख": 4924,
      " आहेत ": 4925,
      " आहे, ": 4926,
      " भाषा ": 4927,
      " \n\nభారతదేశం ": 4928,
      " స్వాతంత్ర్య": 4929,
      " % वाटा ": 4930,
      "\", ఈ": 4931,
      "\"భరత": 4932,
      "%)": 4933,
      "%. In ": 4934,
      "' म्हणजे ": 4935,
      "(क": 4936,
      "(पूर्वीचे ": 4937,
      "(इंग्रजी: ": 4938,
      ").\n": 4939,
      ") श": 4940,
      ") कि": 4941,
      ",\n": 4942,
      "-5": 4943,
      "-లా": 4944,
      "-ఢిల్లీ": 4945,
      ".1": 4946,
      ".५": 4947,
      ".\n\n": 4948,
      ".मी. ": 4949,
      "0%), ": 4950,
      "1200 ": 4951,
      "2 ": 4952,
      "2.": 4953,
      "28": 4954,
      "35": 4955,
      "4 రకాల": 4956,
      "400 BCE": 4957,
      "5-0": 4958,
      "8లో ": 4959,
      "8 కేంద్ర": 4960,
      ": the ": 4961,
      "Am": 4962,
      "As": 4963,
      "CI": 4964,
      "Dec": 4965,
      "Dra": 4966,
      "E 7": 4967,
      "For": 4968,
      "Gup": 4969,
      "Ghat": 4970,
      "Guj": 4971,
      "Languag": 4972,
      "Many ": 4973,
      "Nu": 4974,
      "Pr": 4975,
      "Se": 4976,
      "Vall": 4977,
      "War ": 4978,
      "ail": 4979,
      "ai, ": 4980,
      "bl": 4981,
      "bar": 4982,
      "ble ": 4983,
      "bian ": 4984,
      "cin": 4985,
      "cri": 4986,
      "cent ": 4987,
      "ction": 4988,
      "cial ": 4989,
      "cient ": 4990,
      "dr": 4991,
      "der ": 4992,
      "des": 4993,
      "dri": 4994,
      "dow": 4995,
      "democ": 4996,
      "ee": 4997,
      "e's ": 4998,
      "ead": 4999,
      "eut": 5000,
      "e; ": 5001,
      "eir ": 5002,
      "eigh": 5003,
      "fo": 5004,
      "far": 5005,
      "fast": 5006,
      "five ": 5007,
      "fect": 5008,
      "fact": 5009,
      "four ": 5010,
      "found": 5011,
      "hi": 5012,
      "hy": 5013,
      "hen": 5014,
      "her ": 5015,
      "his ": 5016,
      "hab": 5017,
      "hi, ": 5018,
      "just ": 5019,
      "ken": 5020,
      "lo": 5021,
      "lad": 5022,
      "los": 5023,
      "ly, ": 5024,
      "mer": 5025,
      "nom": 5026,
      "not": 5027,
      "national ": 5028,
      "pt ": 5029,
      "pli": 5030,
      "pra": 5031,
      "put": 5032,
      "pass": 5033,
      "public ": 5034,
      "rang": 5035,
      "rich ": 5036,
      "sil": 5037,
      "sem": 5038,
      "s. In ": 5039,
      "saf": 5040,
      "sign": 5041,
      "ti": 5042,
      "tt": 5043,
      "trib": 5044,
      "us ": 5045,
      "uar": 5046,
      "val": 5047,
      "vic": 5048,
      "wan": 5049,
      "win": 5050,
      "went ": 5051,
      "writ": 5052,
      "west ": 5053,
      "xim": 5054,
      "yan ": 5055,
      "y's ": 5056,
      "अख": 5057,
      "अथ": 5058,
      "अल": 5059,
      "अर ": 5060,
      "अलाव": 5061,
      "अग्निध्र": 5062,
      "आव": 5063,
      "आकार": 5064,
      "आद्र": 5065,
      "आर्य": 5066,
      "आंतर": 5067,
      "आदि": 5068,
      "आरक्षण": 5069,
      "इत": 5070,
      "इन": 5071,
      "इतर ": 5072,
      "इराण": 5073,
      "इंद्र": 5074,
      "इत्यादी ": 5075,
      "इ. स. १६": 5076,
      "ई है। ": 5077,
      "उसे ": 5078,
      "ऊन": 5079,
      "ऊ शक": 5080,
      "ऋत्य": 5081,
      "ए जाते ": 5082,
      "ऑग": 5083,
      "ऑस्": 5084,
      "ऑस्ट्रेल": 5085,
      "क्य": 5086,
      "कर्": 5087,
      "काम": 5088,
      "करू": 5089,
      "काची ": 5090,
      "कांच्या ": 5091,
      "कीम": 5092,
      "केर": 5093,
      "कनिष्ठ": 5094,
      "खो": 5095,
      "खाल": 5096,
      "खून ": 5097,
      "खंड": 5098,
      "ख्रि": 5099,
      "खोर": 5100,
      "गध": 5101,
      "गो": 5102,
      "गर ": 5103,
      "गति": 5104,
      "गेट": 5105,
      "गीर": 5106,
      "गोड": 5107,
      "गवेगळे ": 5108,
      "ची व": 5109,
      "चस्व": 5110,
      "चक्र": 5111,
      "चा प": 5112,
      "चांग": 5113,
      "चीफ": 5114,
      "जड": 5115,
      "जॉ": 5116,
      "जान": 5117,
      "जंबूद्वीप": 5118,
      "झर्व": 5119,
      "टी ": 5120,
      "ठा": 5121,
      "डक": 5122,
      "डॉ": 5123,
      "ड्र": 5124,
      "ड (": 5125,
      "ढार": 5126,
      "ढलेल": 5127,
      "ढऱ्या ": 5128,
      "ण स": 5129,
      "णाम": 5130,
      "णी, ": 5131,
      "ण हे ": 5132,
      "ती": 5133,
      "तेल": 5134,
      "ताप": 5135,
      "तीन": 5136,
      "तच्या ": 5137,
      "तील ": 5138,
      "तेव": 5139,
      "तीव": 5140,
      "तज्ञ": 5141,
      "ता का ": 5142,
      "तत्कालीन": 5143,
      "थम": 5144,
      "थे": 5145,
      "थंड": 5146,
      "द आ": 5147,
      "दी, ": 5148,
      "दिस": 5149,
      "दांना ": 5150,
      "दाख": 5151,
      "दगड": 5152,
      "धर": 5153,
      "धु": 5154,
      "धाड": 5155,
      "नां": 5156,
      "न्या ": 5157,
      "नाह": 5158,
      "नष्ट": 5159,
      "निम": 5160,
      "न पूर्व": 5161,
      "नमुने ": 5162,
      "पान": 5163,
      "पात": 5164,
      "पत्य": 5165,
      "पसं": 5166,
      "पाट": 5167,
      "पैकी ": 5168,
      "पृष्ठीय बदल": 5169,
      "फायदा ": 5170,
      "बट": 5171,
      "बह": 5172,
      "ब्र": 5173,
      "बाहर": 5174,
      "बद्दल": 5175,
      "बॉलिवूड": 5176,
      "भवन ": 5177,
      "मट": 5178,
      "मर ": 5179,
      "मन ": 5180,
      "मिल": 5181,
      "माय": 5182,
      "मणि": 5183,
      "मृत्य": 5184,
      "ममा": 5185,
      "मृत": 5186,
      "याच": 5187,
      "याद": 5188,
      "यातील": 5189,
      "याब": 5190,
      "यांचा पुत्र": 5191,
      "रण": 5192,
      "रेल": 5193,
      "रीब": 5194,
      "रममा": 5195,
      "ल ": 5196,
      "लब्": 5197,
      "ल शिक्षण": 5198,
      "ळी ": 5199,
      "ळ व": 5200,
      "ळकार": 5201,
      "व्या ": 5202,
      "व अ": 5203,
      "वाने ": 5204,
      "वीं": 5205,
      "वाब": 5206,
      "वालय": 5207,
      "व त्य": 5208,
      "वली. ": 5209,
      "शाली ": 5210,
      "शुरू": 5211,
      "शैल": 5212,
      "शियाई": 5213,
      "शिकार": 5214,
      "शिवाज": 5215,
      "षि": 5216,
      "स्र": 5217,
      "सां": 5218,
      "साम": 5219,
      "सध्य": 5220,
      "साद": 5221,
      "सचि": 5222,
      "सून": 5223,
      "सिक्": 5224,
      "सल्तन": 5225,
      "सण स": 5226,
      "हों": 5227,
      "हिम": 5228,
      "हस्त": 5229,
      "हंप": 5230,
      "हजार": 5231,
      "ाघ": 5232,
      "ा.\n": 5233,
      "ादेश": 5234,
      "ाप्रमाण": 5235,
      "िहु": 5236,
      "िन्य": 5237,
      "ित्त": 5238,
      "ी\n": 5239,
      "ीए": 5240,
      "ीर ": 5241,
      "ीवि": 5242,
      "ी.\n": 5243,
      "ीकार": 5244,
      "ी।\n": 5245,
      "ीकी ": 5246,
      "ीक्षण": 5247,
      "ीसाठी ": 5248,
      "ूर ": 5249,
      "े-": 5250,
      "ेढ": 5251,
      "ेअर ": 5252,
      "ैठ": 5253,
      "ैतिक": 5254,
      "ैऋत्य": 5255,
      "ॉकी ": 5256,
      "ोत्": 5257,
      "ोत्तर ": 5258,
      "ोस्फ": 5259,
      "्हा ": 5260,
      "्वे": 5261,
      "्त्व": 5262,
      "१४": 5263,
      "१ मैल": 5264,
      "२४": 5265,
      "३ टक्के ": 5266,
      "४८ मध्ये ": 5267,
      "५४": 5268,
      "५.८": 5269,
      "६ टक्के, ": 5270,
      "७९": 5271,
      "९ साली ": 5272,
      "ంజ": 5273,
      "ం; ": 5274,
      "అణ": 5275,
      "అవి": 5276,
      "అంట": 5277,
      "అని ": 5278,
      "అను": 5279,
      "అప్ప": 5280,
      "ఇదే": 5281,
      "ఇక్క": 5282,
      "ఇటీ": 5283,
      "ఇస్లామాబాద్": 5284,
      "ఈ ర": 5285,
      "ఈ రాష్ట్ర": 5286,
      "ఈస్ట": 5287,
      "ఈ పేరు ": 5288,
      "ఉంది": 5289,
      "ఎడ": 5290,
      "ఎల": 5291,
      "ఏక": 5292,
      "ఏడ": 5293,
      "ఏప్ర": 5294,
      "ఐరో": 5295,
      "ఐక్య": 5296,
      "కల": 5297,
      "కాత": 5298,
      "కు, ": 5299,
      "కులు ": 5300,
      "కింద": 5301,
      "కలు": 5302,
      "కనుక": 5303,
      "కబడ్డ": 5304,
      "కన్నడ": 5305,
      "కంపెనీ": 5306,
      "ఖో": 5307,
      "గత": 5308,
      "గు, ": 5309,
      "గుత": 5310,
      "గిస్త": 5311,
      "గెలు": 5312,
      "గినది. ": 5313,
      "చద": 5314,
      "చయ": 5315,
      "చూడ": 5316,
      "చుకోవడ": 5317,
      "జి": 5318,
      "జె": 5319,
      "జలు ": 5320,
      "జైన": 5321,
      "జనా": 5322,
      "జాద": 5323,
      "జిక, ": 5324,
      "జంబూ": 5325,
      "టు ": 5326,
      "ట్ర": 5327,
      "టా ": 5328,
      "టన్": 5329,
      "ట్‌": 5330,
      "టాన్": 5331,
      "టోర": 5332,
      "డిన ": 5333,
      "డి ప": 5334,
      "డుకుంట": 5335,
      "ఢా": 5336,
      "ణులు ": 5337,
      "తీ": 5338,
      "తే": 5339,
      "తిక": 5340,
      "తం ": 5341,
      "తంలో ": 5342,
      "తంగా ": 5343,
      "తర్వ": 5344,
      "తాక": 5345,
      "తెలు": 5346,
      "తారు.\n": 5347,
      "తూర్": 5348,
      "దా": 5349,
      "దరా": 5350,
      "దాద": 5351,
      "ద్రా": 5352,
      "దాట": 5353,
      "ధి ": 5354,
      "నం": 5355,
      "నూ": 5356,
      "నో": 5357,
      "నాల": 5358,
      "న ప": 5359,
      "నిక": 5360,
      "నది ": 5361,
      "నగర": 5362,
      "పా ": 5363,
      "పుల": 5364,
      "పక్ష": 5365,
      "పుత": 5366,
      "పేర్కొ": 5367,
      "పడిన ": 5368,
      "భవ": 5369,
      "భక్": 5370,
      "మయ": 5371,
      "మల": 5372,
      "మార": 5373,
      "మూడ": 5374,
      "మేర": 5375,
      "యింది. ": 5376,
      "యాత్ర": 5377,
      "యమించ": 5378,
      "రణ": 5379,
      "రం ": 5380,
      "రహదార": 5381,
      "లీ": 5382,
      "లలో": 5383,
      "లక్ష": 5384,
      "లియ": 5385,
      "లకు ": 5386,
      "లువ": 5387,
      "లకొ": 5388,
      "ల మధ్య": 5389,
      "లస్య": 5390,
      "లంక": 5391,
      "ళి, ": 5392,
      "ళ్ళ": 5393,
      "విం": 5394,
      "వ స": 5395,
      "వులు, ": 5396,
      "వత్ర": 5397,
      "వర్ణ": 5398,
      "శక": 5399,
      "శి": 5400,
      "శో": 5401,
      "శాన": 5402,
      "షం": 5403,
      "షుల": 5404,
      "ష్ ": 5405,
      "షయాలు ": 5406,
      "సీ": 5407,
      "స్ర": 5408,
      "సన ": 5409,
      "సాయ": 5410,
      "సియా ": 5411,
      "సముద్ర": 5412,
      "హో": 5413,
      "హ్ర": 5414,
      "హాయ": 5415,
      "హాక": 5416,
      "హస్ర": 5417,
      "ాధ": 5418,
      "ాళ": 5419,
      "ాక్": 5420,
      "ాడే": 5421,
      "ాణిజ్య": 5422,
      "ిలో": 5423,
      "ిల్": 5424,
      "ీం ": 5425,
      "ీషు ": 5426,
      "ీకరణ": 5427,
      "ు\n": 5428,
      "ులో": 5429,
      "ుత్": 5430,
      "ున్న ": 5431,
      "ుదినాలు ": 5432,
      "ూరు ": 5433,
      "ూ కాశ్మీ": 5434,
      "ెస్": 5435,
      "ెంగాలీ": 5436,
      "ేయ": 5437,
      "ే. ": 5438,
      "ే ప": 5439,
      "ే అ": 5440,
      "ై\n": 5441,
      "ై (": 5442,
      "ైన స": 5443,
      "ొంది": 5444,
      "ో వ": 5445,
      "ోంది. ": 5446,
      "ోయింది. ": 5447,
      "ౌక": 5448,
      "ౌర": 5449,
      "ౌద్ధ": 5450,
      "్లో": 5451,
      "‌ (": 5452,
      "‌సభ": 5453,
      "‌కాత": 5454,
      "‍ॅ": 5455,
      "– ": 5456,
      "– (": 5457,
      "–200": 5458,
      "ा द": 5459,
      "ा हे ": 5460,
      "ा लाभ": 5461,
      "े आज": 5462,
      "े उद": 5463,
      "े होते. ": 5464,
      "े समय": 5465,
      "े तयार": 5466,
      ", an ": 5467,
      ", और ": 5468,
      ", is ": 5469,
      ", कृ": 5470,
      ", or ": 5471,
      ", with ": 5472,
      ", तथा ": 5473,
      ", ఇతర": 5474,
      ", फ्र": 5475,
      ", परंतु": 5476,
      ", గో": 5477,
      ", పో": 5478,
      ", १९६": 5479,
      "्याच्या ": 5480,
      "ी य": 5481,
      "ी और ": 5482,
      "ी आहेत. ": 5483,
      "ी अस": 5484,
      "ी मह": 5485,
      "ी बन": 5486,
      "ारीत ": 5487,
      ". B": 5488,
      ". मसाल": 5489,
      "्रीलंका ": 5490,
      " का क": 5491,
      " काँ": 5492,
      " कुल": 5493,
      " किया, ": 5494,
      " केन्द्र": 5495,
      " किल्ल्य": 5496,
      "thought ": 5497,
      "ann": 5498,
      "an, ": 5499,
      "annu": 5500,
      "inct": 5501,
      "intro": 5502,
      "त होते. ": 5503,
      "त संघ": 5504,
      "ere": 5505,
      "ert ": 5506,
      " सक": 5507,
      " सा": 5508,
      " सू": 5509,
      " संग": 5510,
      " सन्": 5511,
      " सभाग": 5512,
      " से, ": 5513,
      " समुद्र": 5514,
      " संगीत ": 5515,
      " सण आहेत. ": 5516,
      "one of the ": 5517,
      "र्ट": 5518,
      "र्तु": 5519,
      " पान": 5520,
      " परा": 5521,
      " पंतप्रधान": 5522,
      " पहुँ": 5523,
      " मज": 5524,
      " मरा": 5525,
      " मधील": 5526,
      " मधे ": 5527,
      "ు వ": 5528,
      "ు మార్గ": 5529,
      "్రై": 5530,
      "enact": 5531,
      "ांतर ": 5532,
      "ांमधील": 5533,
      "ांसाठी ": 5534,
      "ांविरुद्ध": 5535,
      "ांढऱ्या ": 5536,
      "along the ": 5537,
      "sti": 5538,
      "ార్ల": 5539,
      "ారు (": 5540,
      "ారసత్వ": 5541,
      "ారిత్రక": 5542,
      "ान्": 5543,
      "ानंतर": 5544,
      "y ===\n\n\n=== ": 5545,
      "dit": 5546,
      "dist": 5547,
      "dian ": 5548,
      "dish": 5549,
      "ातही ": 5550,
      "िकोब": 5551,
      "ata ": 5552,
      "ating ": 5553,
      "atic ": 5554,
      "भारताचा ": 5555,
      "स्तर": 5556,
      "ालग": 5557,
      "ाला क": 5558,
      "ाली, ": 5559,
      "ాల క": 5560,
      "ాలించ": 5561,
      "ాలు. ": 5562,
      "ort ": 5563,
      "ेंच": 5564,
      "ed into ": 5565,
      "off ": 5566,
      " ह्या ": 5567,
      " हळूहळू": 5568,
      " हाताळ": 5569,
      "ाचार": 5570,
      "ाचा क": 5571,
      "and f": 5572,
      "ి 26": 5573,
      "ి కాల": 5574,
      "ి ఉంట": 5575,
      "a new ": 5576,
      "rel": 5577,
      "reform": 5578,
      "reduc": 5579,
      "reach": 5580,
      "आहार ": 5581,
      " वेल": 5582,
      " वारे ": 5583,
      " वर्ग": 5584,
      " व्या शतक": 5585,
      " वृक्ष": 5586,
      " व इतर": 5587,
      "रात ": 5588,
      "राव्य": 5589,
      "ions, ": 5590,
      "आहे.\n\n\n=== ": 5591,
      "आहे.\n\n\n== ": 5592,
      "आहे.\n\n\n===": 5593,
      " పట": 5594,
      " పు": 5595,
      " పొ": 5596,
      " పో": 5597,
      " ప్ల": 5598,
      " పక్ష": 5599,
      " పట్ట": 5600,
      " పాక": 5601,
      " పాత్ర": 5602,
      " పీఠ": 5603,
      " పతాక": 5604,
      "ात व": 5605,
      "ात त्य": 5606,
      "ात आहेत. ": 5607,
      "ात भारताने ": 5608,
      "ात प्रामुख्याने ": 5609,
      "లో ప్రపంచ": 5610,
      "ition": 5611,
      "itect": 5612,
      "స్ పార్టీ": 5613,
      "స్కరణ": 5614,
      "ich": 5615,
      "ice ": 5616,
      "ीयांचे ": 5617,
      "ीय आर्": 5618,
      "్యాలెండర్": 5619,
      "प्रभाव": 5620,
      "प्रशासन": 5621,
      "प्राण्य": 5622,
      "प्रेम": 5623,
      "प्रवेश": 5624,
      "ियाच": 5625,
      "ियों को": 5626,
      " अन्": 5627,
      " असे": 5628,
      " अलग": 5629,
      " अर्थव्यवस्थ": 5630,
      " अलिक": 5631,
      "ా వ": 5632,
      "ా రంగ": 5633,
      "ाम कर": 5634,
      "ामधील ": 5635,
      "क्त": 5636,
      " में पा": 5637,
      "त्रिक ": 5638,
      "विभाग": 5639,
      "ासदांना ": 5640,
      "దేశపు ": 5641,
      "ిక్‌": 5642,
      "ిక్ ": 5643,
      "ిక త": 5644,
      "ిక ఎన్నిక": 5645,
      "ों तथा ": 5646,
      "ों द्वार": 5647,
      "ర్శ": 5648,
      "ర్జాతీయ": 5649,
      "ర్ రై": 5650,
      "ర్ బ": 5651,
      "ం ఉంది. ": 5652,
      "భారత్": 5653,
      "భారత్‌": 5654,
      "భారత ప్రభుత్వ": 5655,
      "భారత రాజ్య": 5656,
      "భారత్, ": 5657,
      "భారత రైల్వే": 5658,
      "భారత దేశానికి ": 5659,
      "ured ": 5660,
      "లో స": 5661,
      "లో అత్యధిక": 5662,
      "ेले ": 5663,
      "ेलीवि": 5664,
      " निम": 5665,
      " निर": 5666,
      " नंतर ": 5667,
      " नागरिक": 5668,
      " नगर ": 5669,
      " निकोब": 5670,
      "as well": 5671,
      "राजकीय": 5672,
      "है, जिस": 5673,
      "त्याद": 5674,
      "त्याने ": 5675,
      "त्याचे ": 5676,
      "त्या. ": 5677,
      "त्यांनी ": 5678,
      "ावे ": 5679,
      "ावादी ": 5680,
      "ाव्या शतक": 5681,
      "in India ": 5682,
      " बल": 5683,
      " बार": 5684,
      " बंद": 5685,
      " बन ग": 5686,
      " बॉलिवूड": 5687,
      ".\nवर": 5688,
      ".\nIndia has ": 5689,
      "ाह्य": 5690,
      "तिसऱ्या ": 5691,
      " जल": 5692,
      " जून": 5693,
      " जवाब": 5694,
      "भारतीय श": 5695,
      "भारतीयांनी ": 5696,
      "भारतीय संस्कृत": 5697,
      "भारतीय उप": 5698,
      "भारतीय समाज": 5699,
      "भारतीय प्लेट": 5700,
      "న్నీ": 5701,
      "న్నాయి. ": 5702,
      "देशातील": 5703,
      "देश आहे. ": 5704,
      "देशों के साथ": 5705,
      "भावि": 5706,
      "to a ": 5707,
      "to have ": 5708,
      " కలి": 5709,
      " కూడా ": 5710,
      " కంటే": 5711,
      " క్యాలెండర్": 5712,
      "ులను ": 5713,
      "ission": 5714,
      "कारभार": 5715,
      "ess": 5716,
      "ess ": 5717,
      "ांचल": 5718,
      "ांच्यात ": 5719,
      "ాయాలు ": 5720,
      "ాయంలో ": 5721,
      "ాయు మార్గాలు ": 5722,
      " వం": 5723,
      " వహ": 5724,
      " వ్య": 5725,
      " వెబ": 5726,
      " వంటి ": 5727,
      " వ పెద్ద": 5728,
      "ent, ": 5729,
      "न्न": 5730,
      "न्स": 5731,
      "न्ही ": 5732,
      "न्हा ": 5733,
      "క్టోర": 5734,
      "ాతో": 5735,
      "ాతి ": 5736,
      "ాతం ": 5737,
      " ती": 5738,
      " तत्कालीन": 5739,
      "ापासून ": 5740,
      "या ग": 5741,
      "या व": 5742,
      "या सिंधू": 5743,
      "या नावाने ": 5744,
      " ప్రదేశ": 5745,
      " ప్రస్తుత": 5746,
      " ప్రయో": 5747,
      " ప్రజాస్వామ్య": 5748,
      " ప్రధాన ": 5749,
      " సిం": 5750,
      " సార్": 5751,
      " సైన": 5752,
      " సమర": 5753,
      "संरक्षण": 5754,
      "संशोध": 5755,
      "India into ": 5756,
      " आली. ": 5757,
      " आधुन": 5758,
      " आमदार": 5759,
      " आन्दो": 5760,
      "ampl": 5761,
      "olid": 5762,
      "olde": 5763,
      "olved ": 5764,
      "राज्यांच्या ": 5765,
      "क आहे. ": 5766,
      "क दृष्ट्या ": 5767,
      "ాలు భారతదేశంలో ": 5768,
      "ాలు నిర్": 5769,
      " है और ": 5770,
      " है, ज": 5771,
      "रूळ": 5772,
      "मुलग": 5773,
      "जातात. ": 5774,
      "र्मदा ": 5775,
      "के आ": 5776,
      "िलेला ": 5777,
      "ीची स": 5778,
      "విత్ర": 5779,
      "విశ్": 5780,
      "ने के बाद": 5781,
      "ने हा किल्ला ": 5782,
      "liance ": 5783,
      "rac": 5784,
      "ra, ": 5785,
      "ండి": 5786,
      "ండు": 5787,
      "ండ్ల": 5788,
      "ప్రారంభ": 5789,
      "ప్రకారం ": 5790,
      "ప్రీం ": 5791,
      "ాన, ": 5792,
      "ాను ": 5793,
      "ाच्या पद": 5794,
      "ाच्या प्रमाण": 5795,
      "ाच्या सोय": 5796,
      "forest ": 5797,
      "foreign ": 5798,
      "భారతదేశం": 5799,
      "భారతదేశంలో": 5800,
      "భారతదేశంలోని ": 5801,
      "భారతదేశం. ": 5802,
      " संब": 5803,
      "ు, ఇతర": 5804,
      "ातील ल": 5805,
      "ातील भ": 5806,
      "ातील प्रग": 5807,
      "ातील ७": 5808,
      "ातील आमदार": 5809,
      " शक्ति": 5810,
      " श्रीलंका ": 5811,
      "ow ": 5812,
      "होय": 5813,
      "होतो. ": 5814,
      "ायोस्फ": 5815,
      "త్తర": 5816,
      "ించింది.\n": 5817,
      "స్త్రీ": 5818,
      " మంత్ర": 5819,
      "िमण्ड": 5820,
      " से भी ": 5821,
      " से बढ़": 5822,
      " से अधिक ": 5823,
      "द्र हवामान": 5824,
      "ित अस": 5825,
      " में भारत ने ": 5826,
      "char": 5827,
      "chived ": 5828,
      "ी व ब": 5829,
      "ంతో ": 5830,
      "ంతో కూడ": 5831,
      "ంతో వ": 5832,
      "ంతర్జాతీయ": 5833,
      "ले होते. ": 5834,
      "ले गेले. ": 5835,
      "झाला": 5836,
      "झाल्य": 5837,
      "झाले. ": 5838,
      "नाओं": 5839,
      " करना ": 5840,
      " करतात. ": 5841,
      " करण्यात आ": 5842,
      " (पूर्वीचे ": 5843,
      " (इंग्रजी: ": 5844,
      "of the Indian ": 5845,
      "समज": 5846,
      "समाज": 5847,
      "सम्राट": 5848,
      "2020": 5849,
      "2026": 5850,
      "ages ": 5851,
      "opical ": 5852,
      "ाणी ": 5853,
      "లు –": 5854,
      "లు ఉన్న": 5855,
      "లు ఉన్నాయి": 5856,
      "Indian mathemat": 5857,
      " इत्यादी ": 5858,
      " इ. स. १६": 5859,
      " लग": 5860,
      "dually ": 5861,
      "ीनंतर ": 5862,
      "ार्ष": 5863,
      "ार्क ": 5864,
      "ा, जिस": 5865,
      "ड़े ": 5866,
      "िंवा ": 5867,
      "రి.\n": 5868,
      "రిస్త": 5869,
      "एकच": 5870,
      "एका ": 5871,
      "ता हे ": 5872,
      "ही एक": 5873,
      "ही मुख्यत्वे ": 5874,
      "ంలో ఉన్న ": 5875,
      "నిపు": 5876,
      "నిజాలు ": 5877,
      "నిస్తాన్": 5878,
      "ाचे खास": 5879,
      "ाचे उद": 5880,
      "ाचे वैशिष्ट्य": 5881,
      "ना अ": 5882,
      "ना पड़": 5883,
      " विशेष": 5884,
      "ack": 5885,
      "aceut": 5886,
      "ून घे": 5887,
      "ून निवड": 5888,
      "१९२०": 5889,
      "१९१३": 5890,
      " दल": 5891,
      "exchang": 5892,
      "external ": 5893,
      "ంటున్న": 5894,
      "भारतात अनेक ": 5895,
      "ला ही ": 5896,
      "ला बांध": 5897,
      " और राज्य": 5898,
      "परमाणु": 5899,
      "ंडळ": 5900,
      "ींची ": 5901,
      "ींचा ": 5902,
      "ము. ": 5903,
      "ी का ": 5904,
      "ी काळ": 5905,
      "ी कर्ज": 5906,
      "ी किन": 5907,
      "ी केली ": 5908,
      "ी केली. ": 5909,
      "ాయి.\n": 5910,
      "आहेत. महाराष्ट्र": 5911,
      "was the ": 5912,
      "rock": 5913,
      "तात.\n\n\n==": 5914,
      "ని ఉంది. ": 5915,
      "ని నిపు": 5916,
      "ు పార్టీ": 5917,
      "ు పరీ": 5918,
      "ు పూర్": 5919,
      "ు పేరు ": 5920,
      "clear": 5921,
      "धर्मनिरपेक्ष": 5922,
      "ोकाने ": 5923,
      "result": 5924,
      "resident": 5925,
      "ably ": 5926,
      "about ": 5927,
      "ability ": 5928,
      " गय": 5929,
      " गु": 5930,
      " ग्र": 5931,
      " गंग": 5932,
      " गांध": 5933,
      " गोंड": 5934,
      "असलेली ": 5935,
      "असणे गरजेचे ": 5936,
      "ते ऑ": 5937,
      "ते तर": 5938,
      "ते हुए": 5939,
      "स्वाय": 5940,
      "स्वीकार": 5941,
      " होत ": 5942,
      " होती ": 5943,
      " होते. ": 5944,
      "ाची ओळख": 5945,
      "ाची पत्‍नी ": 5946,
      "भू-": 5947,
      "used in ": 5948,
      "द्याने ": 5949,
      "भाग होता. ": 5950,
      "ली गेल": 5951,
      "ली तरी ": 5952,
      "est-": 5953,
      "తిలో ": 5954,
      "తిని ": 5955,
      "ితి ": 5956,
      "स्कृत": 5957,
      "स्कृतिक": 5958,
      "तात. भारत ": 5959,
      "तात. या ": 5960,
      "तात. गेल्या काही वर्षात ": 5961,
      "मोसम": 5962,
      "मोठी ": 5963,
      "मोहें": 5964,
      "मोगल": 5965,
      "राष्ट्रपत": 5966,
      "म् ": 5967,
      "म्मू": 5968,
      "येतात. ": 5969,
      " జో": 5970,
      " జాత": 5971,
      "मान्य": 5972,
      "मान व": 5973,
      "ा. भारतात ": 5974,
      "िन्हें": 5975,
      "% among ": 5976,
      "% ఆక్రమ": 5977,
      "इसव": 5978,
      "िशा": 5979,
      "ం, వ": 5980,
      "ల్లో ": 5981,
      "ల్ బ": 5982,
      "ల్ కాల": 5983,
      "ల్‌కాత": 5984,
      "ere are ": 5985,
      "with an ": 5986,
      "with its ": 5987,
      "part of ": 5988,
      "किनाऱ्य": 5989,
      "ागा ": 5990,
      "ార్థ": 5991,
      "ంగా గు": 5992,
      "term ": 5993,
      "नावाचा ": 5994,
      "ाबर": 5995,
      "ाबीज": 5996,
      " అత్యధిక": 5997,
      " అక్షరాస్యత": 5998,
      ") या स्मार": 5999,
      "), कथ": 6000,
      "oci": 6001,
      "सरी ": 6002,
      "ినీ": 6003,
      "ిన ప్ర": 6004,
      "न्यसं": 6005,
      " उन": 6006,
      " उस": 6007,
      "main ": 6008,
      "दलदल": 6009,
      "िवाळ": 6010,
      "ाचा देश": 6011,
      "ील एका ": 6012,
      "ाट असे ": 6013,
      " हे अतिशय": 6014,
      " हे भारताचे ": 6015,
      " असलेल्या ": 6016,
      " असतो. ": 6017,
      "befor": 6018,
      "on India\n": 6019,
      "ामुख": 6020,
      "दोन्ही ": 6021,
      "मध्ये ने": 6022,
      "చ్చే": 6023,
      "నేరే": 6024,
      " मुस्लिम": 6025,
      "चित्रपटाला ": 6026,
      "spea": 6027,
      "वेरूळ": 6028,
      "िसी ": 6029,
      "है। यह": 6030,
      "है। इसके ": 6031,
      " आहे. वैद": 6032,
      "ead ": 6033,
      "ఉన్నారు. ": 6034,
      "==\n\nभारतीय": 6035,
      " पर्यंत ": 6036,
      " परंपर": 6037,
      " पर्यट": 6038,
      " परंपरा": 6039,
      "ies in the ": 6040,
      "पुराण": 6041,
      "ेवळ": 6042,
      "పావ": 6043,
      "పాక్": 6044,
      "పాంత": 6045,
      "పాటు ": 6046,
      "పాడుకుంట": 6047,
      "సామా": 6048,
      "ియాలో ": 6049,
      ", जिन": 6050,
      "2010": 6051,
      "2012": 6052,
      " स्थि": 6053,
      "shar": 6054,
      "क्रिय": 6055,
      "क्रीड": 6056,
      "तो त्य": 6057,
      " रह": 6058,
      " रहा ": 6059,
      "कडे ": 6060,
      "कडधान": 6061,
      "बहुमत ": 6062,
      "मारास": 6063,
      "ीमधील": 6064,
      "ीमंडळ": 6065,
      "కు వచ్చింది. ": 6066,
      "నాథ": 6067,
      " केले. ": 6068,
      " केली. ": 6069,
      "ांमध्ये पदव्युत्तर ": 6070,
      "ికి ఆ": 6071,
      "ांचा समावेश": 6072,
      "త్వంలో ": 6073,
      " చి": 6074,
      " చారిత్రక": 6075,
      " శక్": 6076,
      " దేశం ": 6077,
      " దేశం. ": 6078,
      " దేశం\n": 6079,
      "ीन ड्र": 6080,
      "ुसऱ्या ": 6081,
      "ాలు:": 6082,
      "ాలు\nభారతదేశ": 6083,
      "ులు, గ": 6084,
      "ద్ధం చేయ": 6085,
      "edul": 6086,
      "proces": 6087,
      "proxim": 6088,
      "కోల్‌కాత": 6089,
      "ఖ్య. ": 6090,
      " సంస్కరణ": 6091,
      "ीचे खास": 6092,
      " ఆహార": 6093,
      " ఆర్థిక": 6094,
      "lower ": 6095,
      "सर्वांत ": 6096,
      "सर्वाधिक ": 6097,
      "सर्व राज्ये ": 6098,
      "ఒక ": 6099,
      "ఒకటి ": 6100,
      "వేద": 6101,
      "వే. ": 6102,
      ". Ac": 6103,
      ". Am": 6104,
      "1965": 6105,
      "1967": 6106,
      "होत्या ": 6107,
      "लिह": 6108,
      "ीवर ": 6109,
      " सर्वाधिक": 6110,
      "es, including ": 6111,
      "associ": 6112,
      "उत्तर-": 6113,
      "उत्तर प्रदेश": 6114,
      " चार": 6115,
      "कालीन ": 6116,
      "ेतही ": 6117,
      "కాగా ": 6118,
      "కాహార": 6119,
      "కా-ఢిల్లీ": 6120,
      "కాపాడుకుంట": 6121,
      "జాతీయ రహదారులు, ": 6122,
      "వరి 26": 6123,
      "సంఘ": 6124,
      "సంప్రదాయాలు ": 6125,
      "భారతదేశం –": 6126,
      "creat": 6127,
      "tropical ": 6128,
      "लोकप्रिय": 6129,
      "1 million ": 6130,
      "CEE 7": 6131,
      "aksh": 6132,
      "कर पुरस्कार": 6133,
      "वी पर्यंत ": 6134,
      "ुवर्ण": 6135,
      "ఎన్నుకో": 6136,
      "చేయ": 6137,
      "లుగా ": 6138,
      "లు\nభారతీయ": 6139,
      " पुत": 6140,
      " पुराण": 6141,
      " पुर्तग": 6142,
      " पुढार": 6143,
      " महात्म": 6144,
      " प्रकारचे हवामान": 6145,
      "मोठा ": 6146,
      "द्वीपकल्प": 6147,
      "approxim": 6148,
      "प्प": 6149,
      "वरी ": 6150,
      "ेंद्र मोदी ": 6151,
      "ाहरणे ": 6152,
      " क्षेत्रीय": 6153,
      " क्षेत्रामध्ये ": 6154,
      "north ": 6155,
      "गुप्त": 6156,
      "ची निवडणू": 6157,
      "ची जंगले ": 6158,
      "ल्याची ": 6159,
      "सदस्य": 6160,
      "మాన ": 6161,
      "రుగు": 6162,
      "్ టై": 6163,
      "ा पुर": 6164,
      " मानला जातो. ": 6165,
      " मानले जाते. ": 6166,
      " वर्षे ": 6167,
      "ामान्य": 6168,
      "दू धर्म": 6169,
      "చెన్న": 6170,
      "చెందిన ": 6171,
      "వచ్చు. ": 6172,
      "ిస్తారు.\n": 6173,
      "र्जन्य": 6174,
      "స్వీ": 6175,
      "भारतीय संगीत ": 6176,
      "स्थापना ": 6177,
      " पूर्वी ": 6178,
      " पूर्वीच्या ": 6179,
      " राजा ": 6180,
      " राजवट": 6181,
      "pharm": 6182,
      "गणतंत्र": 6183,
      "00 ईसा पूर्व": 6184,
      " భాగా": 6185,
      "ch of ": 6186,
      "మీటర్ల": 6187,
      "ాదు\n": 6188,
      "ాదాయంలో ": 6189,
      "దేశాలను ": 6190,
      "िंधु": 6191,
      "రాజ్య సభ": 6192,
      "రాజ్యాలుగా ": 6193,
      " या नावाने ": 6194,
      " या चित्रपटाला ": 6195,
      "languages": 6196,
      "ख्या मोठ्या ": 6197,
      "पदवी शिक्षण": 6198,
      "ारी जेवण": 6199,
      "िक क्र": 6200,
      "भाषाएं": 6201,
      "Hindust": 6202,
      " यामुळे ": 6203,
      " यांन": 6204,
      "आजही ": 6205,
      "तसेच क": 6206,
      "ाखंड": 6207,
      "ेकडील": 6208,
      "కూడా ఉన్నాయి. ": 6209,
      "ార్టీ, ": 6210,
      "आहे आणि": 6211,
      "1974": 6212,
      "మొదటి": 6213,
      "popular ": 6214,
      " – २": 6215,
      "वर्चस्व": 6216,
      "ुन्या ": 6217,
      " मोठा ": 6218,
      " इंडोने": 6219,
      "निर्माण ": 6220,
      "निर्मिती ": 6221,
      ")\nజాతీయ": 6222,
      "ments ": 6223,
      "ratic ": 6224,
      "उदाहरणे ": 6225,
      "पहिल": 6226,
      "पहिला ": 6227,
      "पश्चिम बंगाल": 6228,
      "पश्चिमेकडे ": 6229,
      "मध्य भारतात ": 6230,
      "ట్లకు పైగా ": 6231,
      "ట్లాడే": 6232,
      "వలస": 6233,
      " मिळते. ": 6234,
      " के साथ ": 6235,
      "ातील सर्वाधिक": 6236,
      "ातील सर्वांत मोठ": 6237,
      "क्रमां": 6238,
      "ప్పుకో": 6239,
      "system of ": 6240,
      "इतिहासकार": 6241,
      "anted ": 6242,
      "भारतीय राष्ट्रीय": 6243,
      "भारतीय आहार": 6244,
      "भारतीय द्वीपकल्प": 6245,
      "अनेक साम्राज्य": 6246,
      " २००": 6247,
      " గణ": 6248,
      " झाला. ": 6249,
      "तेथ": 6250,
      "ते.\n": 6251,
      "ब्रिटिशांविरुद्ध": 6252,
      "रोध": 6253,
      "रोखून ": 6254,
      "वाढ": 6255,
      "साहित्य हे ": 6256,
      "కేతిక": 6257,
      "కారణంగా ": 6258,
      "రెండో": 6259,
      "రెండవ స": 6260,
      "శాసన ": 6261,
      ". This ": 6262,
      " पुरुष": 6263,
      "art, ": 6264,
      "देखील": 6265,
      " విషయాలు ": 6266,
      " ప్రభుత్వా": 6267,
      "मुख्य ": 6268,
      "मुख्य उ": 6269,
      "ते हैं। ": 6270,
      "ज्याचा ": 6271,
      "भावार्थ": 6272,
      "हिंदी महास": 6273,
      "ाधिकार": 6274,
      "ांगला": 6275,
      "religions ": 6276,
      "extant ": 6277,
      "extens": 6278,
      "commerc": 6279,
      "commonly ": 6280,
      " मुख्य सण": 6281,
      "number": 6282,
      "poll": 6283,
      "rule": 6284,
      "इंग्रजांनी ": 6285,
      "णाऱ्य": 6286,
      "दुस्थान": 6287,
      "बनविले ": 6288,
      "बांधणी ": 6289,
      "बांधले गेले. ": 6290,
      "बांधली गेल": 6291,
      "मरण": 6292,
      "मरीन ड्र": 6293,
      "ఇండో": 6294,
      "ఉంటుంది. ": 6295,
      "జరిగే": 6296,
      "ధించిన ": 6297,
      "బడింది. ": 6298,
      "బడతారు.\n": 6299,
      "ी अथवा ": 6300,
      "ानंतर भारतात ": 6301,
      " हिंदुस्थान": 6302,
      " కాలంలో ": 6303,
      " కాలంలో": 6304,
      "క్కన ": 6305,
      " ప్రపంచంలో ": 6306,
      " ప్రపంచములో ": 6307,
      " సభ్య": 6308,
      " సభను ": 6309,
      " आणि का": 6310,
      "ప్రాంత": 6311,
      "ले जातात. ": 6312,
      "१९९०": 6313,
      "1950 జన": 6314,
      "traditionally ": 6315,
      "అధికారిక": 6316,
      "అధికారిక వెబ్‌సైటు\n": 6317,
      "Archived ": 6318,
      "iodiversity ": 6319,
      " मिलियन": 6320,
      "growing ": 6321,
      "\nభారతదేశంలోని ": 6322,
      " भवन": 6323,
      " నాయక": 6324,
      "Maur": 6325,
      "societ": 6326,
      "vidian ": 6327,
      "अजिं": 6328,
      "अजनाभ": 6329,
      "काळाच्या ओघात ": 6330,
      "पासून स": 6331,
      "बरीच": 6332,
      "यासाठी ": 6333,
      "यास आली. ": 6334,
      "ल्या होत्या ": 6335,
      "लाल किल्ला ": 6336,
      "शास्त्रातील प्रग": 6337,
      "ఇది సింధ": 6338,
      "కు పుట్ట": 6339,
      "గోళిక": 6340,
      "గ్గ": 6341,
      "సింది": 6342,
      "ావరాలు ": 6343,
      "ातून आलेल्या ": 6344,
      " పేరు, ": 6345,
      "ात सुरू": 6346,
      "ेली आहे. ": 6347,
      " बहुमत ": 6348,
      " शिक्षण ": 6349,
      "సాంస్కృత": 6350,
      "प्त पाव": 6351,
      "पूर्ण भारत": 6352,
      "िक काळात ": 6353,
      "south-": 6354,
      " క్రీడలలో ": 6355,
      "इस्लामी राज्य": 6356,
      " किया और ": 6357,
      "ांसोबत ": 6358,
      " वेळा ": 6359,
      "हुई। ": 6360,
      "१९७१": 6361,
      "ंदिरा गांध": 6362,
      " ఉంది": 6363,
      " దీ": 6364,
      " ద్వారా ": 6365,
      " उत्तर ": 6366,
      "अतिशय पुढार": 6367,
      "जलवायु": 6368,
      "जलोढ़": 6369,
      "पालिक": 6370,
      "मसाल्य": 6371,
      "्टवे": 6372,
      "ం పాత్ర": 6373,
      "అయిన ": 6374,
      "ఇవి ": 6375,
      "ఇవిక": 6376,
      "భూభాగ": 6377,
      "భూటాన్": 6378,
      "ర్య సామ్రాజ్య": 6379,
      "ర్యాయాలు ": 6380,
      "సును ": 6381,
      "సుప్రీం ": 6382,
      "ాటక": 6383,
      "ాసముద్ర": 6384,
      ". During ": 6385,
      "ergy ": 6386,
      " पदार्थ": 6387,
      "ात कल": 6388,
      "आहेत तसेच": 6389,
      "विषुव": 6390,
      "त्ता": 6391,
      ".\nజాతీయ గ": 6392,
      " जैन ": 6393,
      " जैववैविध्य": 6394,
      "amental ": 6395,
      " ముస్ల": 6396,
      " करने के ": 6397,
      "undamental ": 6398,
      "ముఖ్యంగా ": 6399,
      "ण्यास सुरू": 6400,
      " संस्कृती व": 6401,
      "కాంగ్రెస్ పార్టీ": 6402,
      "తో కూడిన ": 6403,
      ",000 = ": 6404,
      "दृष्ट्या भारताचे ": 6405,
      "दृष्ट्या अतिशय पुढार": 6406,
      "ఏర్పడ": 6407,
      "Buddhist ": 6408,
      "lands ": 6409,
      "times ": 6410,
      "कावरून ": 6411,
      "सारख्या मोठ्या ": 6412,
      " कमी ": 6413,
      " कालीन": 6414,
      "consist": 6415,
      "consolid": 6416,
      " दक्षिण ": 6417,
      "species ": 6418,
      "species, ": 6419,
      "world's secon": 6420,
      " స్థానాలను ": 6421,
      " రాజ్యంగా ": 6422,
      "आपले ": 6423,
      "कूल शिक्षण": 6424,
      "जास्त व": 6425,
      "धिपत्य": 6426,
      "रिझर्व": 6427,
      "ेचे खोर": 6428,
      "జల మార్గ": 6429,
      "డు\"": 6430,
      "తంత్ర రాజ్యంగా ": 6431,
      "నెలకొ": 6432,
      "బెంగాలీ": 6433,
      "బ్రిటీ": 6434,
      "మెంట": 6435,
      "మెరిక": 6436,
      "యుద్ధ": 6437,
      "యోగిస్త": 6438,
      "there": 6439,
      "areas": 6440,
      "प्रामुख्याने संस्कृ": 6441,
      " अरब अमर": 6442,
      " अरबी समुद्र": 6443,
      "ర్థ్యం ": 6444,
      "ం చేస": 6445,
      " కోర్ట": 6446,
      " వచ్చిన": 6447,
      " ప్రతిపక్ష": 6448,
      "constitution ": 6449,
      "स्वरूपात ": 6450,
      "स्थानिक्": 6451,
      "होती. ति": 6452,
      "शतकात ": 6453,
      "ప్పటికినీ": 6454,
      "; and the ": 6455,
      "Ancient ": 6456,
      "based on the ": 6457,
      "घटने": 6458,
      "वनस्पतीं": 6459,
      "सुद्ध": 6460,
      "सुमारास": 6461,
      "ा जाता है।": 6462,
      "त व द": 6463,
      " बंगालच्या उपसागर": 6464,
      "ternational ": 6465,
      "धारणांचा ": 6466,
      ". It is ": 6467,
      " अनेक नाटके ": 6468,
      "following ": 6469,
      "धार्मिक स": 6470,
      " లక్షణ": 6471,
      " ===\nभारतात ": 6472,
      "Afric": 6473,
      "अन्त": 6474,
      "आधुनिक ": 6475,
      "आधुनिक काळात ": 6476,
      "इमारत ": 6477,
      "इंग्लंड": 6478,
      "गळी ": 6479,
      "पर्वत ": 6480,
      "मैदानी क्षेत्र": 6481,
      "वन या मह": 6482,
      "ाशी संलग": 6483,
      "ం: మ": 6484,
      "అతిపెద్ద": 6485,
      "గా, ఉత్తరా": 6486,
      "డిస్": 6487,
      "డివి": 6488,
      "యాళ": 6489,
      "లవుత": 6490,
      "వెల్ల": 6491,
      "్, భూటాన్": 6492,
      ", ఈశాన": 6493,
      " सहयोग": 6494,
      " पारंपर": 6495,
      "ांवर आधारित ": 6496,
      " के चुनावों में": 6497,
      " के चुनावों में ": 6498,
      "प्रिय आहेत. ": 6499,
      "प्रजाती स्थानिक ": 6500,
      " नृत्यप्रकार": 6501,
      " కొన్ని ": 6502,
      "emerged ": 6503,
      " సాం": 6504,
      " సాధించ": 6505,
      " సమాజ": 6506,
      " సమాఖ్య. ": 6507,
      " సామర్థ్యం ": 6508,
      "ప్రస్తుతము ": 6509,
      "झालेले ": 6510,
      "श्मीर": 6511,
      "श्मीर ": 6512,
      " జనగణ": 6513,
      "ులు (0": 6514,
      "సాధించిన ": 6515,
      "2011 censu": 6516,
      "leading ": 6517,
      " సంస్కృతి ": 6518,
      "try Pr": 6519,
      "ग्रामीण": 6520,
      "స్వాతంత్ర్యం ": 6521,
      "जगातील सर्वांत ": 6522,
      "కేంద్రపాలిత ప్రాంతాలు ": 6523,
      " हिंदू धर्म": 6524,
      "అనేక మత": 6525,
      "లేదా ": 6526,
      "बहुतांशी हिमालय": 6527,
      "చిన్న చిన్న ": 6528,
      "రైలు మార్గ": 6529,
      "दख्खनचे पठार": 6530,
      "अस्तित्त्वात आहेत. ": 6531,
      "నిర్వహించింది. ": 6532,
      "-dram": 6533,
      "...": 6534,
      "3,4": 6535,
      "Act ": 6536,
      "local ": 6537,
      "school": 6538,
      "उष्ण कटिबंध": 6539,
      "कमाल": 6540,
      "जाऊ लाग": 6541,
      "दिल्ली\n": 6542,
      "नदी ही ": 6543,
      "नृत्याचे ": 6544,
      "पड़ोसी ": 6545,
      "वे ऑफ": 6546,
      "५ ऑग": 6547,
      " मंदिरे ": 6548,
      "republic ": 6549,
      " अजूनही ": 6550,
      " बनाई": 6551,
      "ादर केले ": 6552,
      " संघीय": 6553,
      "under the ": 6554,
      "cooking ": 6555,
      "provid": 6556,
      "स्थापत्यशास्त्रातील प्रग": 6557,
      "cording to ": 6558,
      "cording to the ": 6559,
      "बौद्ध धर्माचा ": 6560,
      " ఖనిజాలు ": 6561,
      " నియమించ": 6562,
      "Plateau": 6563,
      "made ": 6564,
      "इ.स. पूर्व": 6565,
      "ओडिशा": 6566,
      "केवळ": 6567,
      "जवळपास": 6568,
      "दार आहेत. ": 6569,
      "नद्यांमध्ये ": 6570,
      "नवी दिल्ली ": 6571,
      "या काळात ": 6572,
      "रक्षा ": 6573,
      "लुप्त पाव": 6574,
      "लागते. ": 6575,
      "ाइव्ह": 6576,
      "అతి పెద్ద": 6577,
      "చైనా, ": 6578,
      "ద్యుత్": 6579,
      "మానం: ": 6580,
      "మ్మూ కాశ్మీ": 6581,
      "ల కిలో": 6582,
      "ుగలు ": 6583,
      "three ": 6584,
      "third ": 6585,
      "third-largest ": 6586,
      "architect": 6587,
      "ात्यांचे ": 6588,
      "ాలో భారతదేశం ": 6589,
      "ాలతో కూడిన ": 6590,
      " పద్ధతుల": 6591,
      "లోక్ సభ": 6592,
      "లోక్‌సభ": 6593,
      "विद्यालय": 6594,
      "विद्यापीठ": 6595,
      "దేశం రూ": 6596,
      "ం వహ": 6597,
      "ावरून भारत हे नाव पड": 6598,
      " సినిమ": 6599,
      " సరిహద్దుల": 6600,
      " आर्क ": 6601,
      "ाजरा कर": 6602,
      " कोटी वर्षांपूर्वी ": 6603,
      "आहेत.\nभारतात ": 6604,
      "१९५० रोजी ": 6605,
      "स्वातंत्र्यप्राप्त": 6606,
      "चित्रपट निर्मिती ": 6607,
      "పాకిస్తాన్": 6608,
      "పాకిస్థాన్": 6609,
      "వేగంగా అభివృద్ధి చెంద": 6610,
      "ेतील खासदार": 6611,
      "్ ఇండియా కంపెనీ": 6612,
      "िया गया।\n": 6613,
      "शिक्षण घेऊ शक": 6614,
      "దేశాలలో ఒకటి": 6615,
      "మొదలైన": 6616,
      " मिळाला. ": 6617,
      "ం\nభారత జాతీయ": 6618,
      "సినిమాలు నిర్": 6619,
      "majority of ": 6620,
      " हिन्दी और अंग्रेज": 6621,
      "Constitution of ": 6622,
      "विषय हाताळ": 6623,
      "బ్రిటిషు ": 6624,
      "ప్రధానమంత్రి ": 6625,
      "ళ్లను నడిపించ": 6626,
      "millennium BCE": 6627,
      " వ శతాబ్దం మధ్య": 6628,
      " జాబితా\nభారతీయ": 6629,
      "agricultural ": 6630,
      "Government ": 6631,
      "ऊँची ": 6632,
      "पारंपारिक वेषभूष": 6633,
      "मौर्य साम्राज्य": 6634,
      "वालामुख": 6635,
      "end of the ": 6636,
      " ज्वालामुख": 6637,
      " तो इ. स. १६": 6638,
      " है जो": 6639,
      " शहरी ": 6640,
      " कोरडे ": 6641,
      "परिणाम": 6642,
      "movement ": 6643,
      ". After the ": 6644,
      "लगभग ": 6645,
      "गुप्त साम्राज्य": 6646,
      "decades ": 6647,
      "िक सुधारणांचा ": 6648,
      " स्वतंत्रता ": 6649,
      "greater ": 6650,
      "शहरी भागात ": 6651,
      " कर दिया ": 6652,
      "growth rate ": 6653,
      "United St": 6654,
      " उत्पाद": 6655,
      "Indus Vall": 6656,
      "Nehru ": 6657,
      "\nవిద్యుత్": 6658,
      " च्या सुमारास": 6659,
      "29 రాష్ట్ర": 6660,
      "Tamil ": 6661,
      "capit": 6662,
      "dance-dram": 6663,
      "education ": 6664,
      "sultanate ": 6665,
      "tax": 6666,
      "अरावली ": 6667,
      "उन्हें": 6668,
      "ऋतु (": 6669,
      "ची सीमा ": 6670,
      "चोल साम्राज्य": 6671,
      "दिला आहे. ": 6672,
      "धोरण": 6673,
      "पद्धती ": 6674,
      "बाबतीत ": 6675,
      "वृतीय आर्": 6676,
      "३८ला बांध": 6677,
      "ఇంగ్లీషు ": 6678,
      "ఉపయోగిస్త": 6679,
      "ఒలంప": 6680,
      "క్రీ.పూ": 6681,
      "గువ సభను ": 6682,
      "చాలా ": 6683,
      "జన్మ": 6684,
      "జాతులు, ": 6685,
      "జనాభాతో": 6686,
      "డుతున్న": 6687,
      "తా పార్టీ": 6688,
      "బంధ": 6689,
      "బంగారు ప": 6690,
      "భౌగోళిక": 6691,
      "మౌర్య సామ్రాజ్య": 6692,
      "మాత్రమ": 6693,
      "రవాణా సౌకర్య": 6694,
      "వ్యాపార": 6695,
      "హైదరా": 6696,
      "ేజి ": 6697,
      "ी (ओडिशा": 6698,
      "indigen": 6699,
      " सिंधू संस्कृत": 6700,
      " वरील ": 6701,
      " व तमिळ": 6702,
      " పండుగలు ": 6703,
      "ర్షణ": 6704,
      " प्रतिशत ": 6705,
      " निवड": 6706,
      ".\nIn the ": 6707,
      "भारतीय नौ": 6708,
      "ాత్మా గాంధీ": 6709,
      " ప్రముఖమైన": 6710,
      " आशियातील": 6711,
      "मुघल सम्राट शाहजहान": 6712,
      " మొద": 6713,
      " మంది ": 6714,
      "नागपूर": 6715,
      "ivilis": 6716,
      " स्तरावर ": 6717,
      " इतर अनेक": 6718,
      "union territor": 6719,
      "ुरुवात ": 6720,
      "व्यावसायिक चित्रपट": 6721,
      "दोन द्वीपसमूह": 6722,
      "నేపాల్, భూటాన్": 6723,
      "चित्रपट व्यवसाय": 6724,
      " केलेल्या ": 6725,
      " శెలవుదినాలు ": 6726,
      " సంవత్సర": 6727,
      " ఆధారపడిన ": 6728,
      " सरस्वती नदी ही ": 6729,
      " पूरे ": 6730,
      "created a ": 6731,
      "grandmother of ": 6732,
      "ोबतच": 6733,
      "सरकार स्थापन": 6734,
      "మీదగా ": 6735,
      "लेखक": 6736,
      "गंगेच्या खो": 6737,
      " पुरातन": 6738,
      ", सह्याद्र": 6739,
      "ामाजिक चळवळ": 6740,
      "రోడ్డు మార్గ": 6741,
      "రంగా ప్రపంచములో ": 6742,
      "ష్ణ వాతావరణం ": 6743,
      "ओळखले जाऊ लाग": 6744,
      "इस्लामी आक्रमण": 6745,
      " वेगळे विषय हाताळ": 6746,
      " ईशान्येकडील राज्य": 6747,
      "అయినా, ": 6748,
      " केले व तो इ. स. १६": 6749,
      " రైలు సర్వీసులు ": 6750,
      "ఏర్పడ్డాయి. ": 6751,
      "पक्षास ": 6752,
      " ప్రతిపాదనకు ప": 6753,
      " अशियाई पृष्ठ": 6754,
      "यशस्वी झाल": 6755,
      "ఉత్తర భారత": 6756,
      "भारताची अर्थव्यवस्था जग": 6757,
      "official languag": 6758,
      "दख्खनच्या पठारावरील": 6759,
      "२६ जानेवारी ": 6760,
      "directly ": 6761,
      "technology ": 6762,
      "युरोपीय": 6763,
      "న్యాయవ్యవస్థ": 6764,
      "నాలుగు ": 6765,
      "సూచించిన": 6766,
      " కార్యక్రమాలు ": 6767,
      "East India Company ": 6768,
      "ISBN ": 6769,
      "वाहरलाल नेहरू": 6770,
      "ఆఫ్ఘనిస్తాన్": 6771,
      "జరుపుకుంటారు. ": 6772,
      ", బంగ్లాదేశ్‌": 6773,
      "बंगालच्या उपसागराला मिळ": 6774,
      "59-": 6775,
      "Bharat": 6776,
      "Country Pr": 6777,
      "Gree": 6778,
      "Kashm": 6779,
      "called ": 6780,
      "features ": 6781,
      "known ": 6782,
      "materi": 6783,
      "renew": 6784,
      "single ": 6785,
      "significant ": 6786,
      "गिधाड": 6787,
      "नरेंद्र मोदी ": 6788,
      "फैली ": 6789,
      "वियत संघ": 6790,
      "animal ": 6791,
      "विजयनगर": 6792,
      " नमूद": 6793,
      "रूस के साथ": 6794,
      "समर्थन": 6795,
      "operation ": 6796,
      "estimated ": 6797,
      "ाबाद\n": 6798,
      ", जैन धर्म": 6799,
      "endangered ": 6800,
      "गुरूकूल शिक्षण": 6801,
      "दृष्टि से ": 6802,
      " लागू झाल": 6803,
      "global ": 6804,
      " करने का प्रयास": 6805,
      "legislat": 6806,
      "ताजमहाल": 6807,
      "स्ट इंडिया कंपन": 6808,
      " अप्रैल 195": 6809,
      "Factbook ": 6810,
      "उर्वरित ": 6811,
      " స్వాతంత్ర్య సమర": 6812,
      ") कि.मी. ": 6813,
      "-లాహో": 6814,
      "Dravidian ": 6815,
      "pract": 6816,
      "इतका ": 6817,
      "इ. स. १६३८ला बांध": 6818,
      "ऑस्कर पुरस्कार": 6819,
      "करून स": 6820,
      "कीम व": 6821,
      "ख्रिश्च": 6822,
      "गेटवे ऑफ": 6823,
      "जॉर्ज": 6824,
      "तापमान": 6825,
      "थंड वारे ": 6826,
      "नाही. ": 6827,
      "मायण, ": 6828,
      "मणिपुर": 6829,
      "रममाण ": 6830,
      "लब्ध": 6831,
      "वालय इमार": 6832,
      "शिवाजी मह": 6833,
      "सचिवालय इमार": 6834,
      "सिक्कीम व": 6835,
      "ेअर रिझर्व": 6836,
      "४८ मध्ये पूर्ण ": 6837,
      "५.८ टक्के ": 6838,
      "ఇటీవల": 6839,
      "ఈస్ట్ ఇండియా కంపెనీ": 6840,
      "ఎలక్టోర": 6841,
      "ఏప్రిల్": 6842,
      "ఐరోపా ": 6843,
      "కిందకు వచ్చింది. ": 6844,
      "గెలుచుకోవడ": 6845,
      "చదరంగ": 6846,
      "చయిత": 6847,
      "జనాభా": 6848,
      "జాదరణ": 6849,
      "ట్రో": 6850,
      "ఢాకా-ఢిల్లీ": 6851,
      "దాదాప": 6852,
      "లకు దేశ": 6853,
      "వత్రిక ఎన్నిక": 6854,
      "హాకీ": 6855,
      "హస్రాబ్": 6856,
      "ాక్ రైల్వే": 6857,
      "ై (వెనుకటి ": 6858,
      "े उदयास आली. ": 6859,
      " काँग्रेस": 6860,
      " सभागृह": 6861,
      " पानगळी ": 6862,
      "ांढऱ्या पाठ": 6863,
      "ార్లమెంట": 6864,
      "ాలించారు. ": 6865,
      " పాత్ర వహ": 6866,
      "प्रेमकथ": 6867,
      " असेही ": 6868,
      "భారత రాజ్యాంగ": 6869,
      "భారత రైల్వేశాఖ": 6870,
      "भारतीय उपमहाद्वीप": 6871,
      " కలిస": 6872,
      " వెబ్": 6873,
      " సైనిక": 6874,
      "oldest ": 6875,
      "ने हा किल्ला इ. स. १६३८ला बांध": 6876,
      "ప్రారంభించ": 6877,
      "ाच्या पदार्थ": 6878,
      "ు, ఇతర ఖనిజాలు ": 6879,
      "ायोस्फेअर रिझर्व": 6880,
      " మంత్రి": 6881,
      "िमण्डल": 6882,
      " से बढ़कर ": 6883,
      "aceutical ": 6884,
      "ून घेण्यास सुरू": 6885,
      "ून निवडले जातात. ": 6886,
      "ని నిపుణులు ": 6887,
      "ు పరీక్ష": 6888,
      "ు పూర్తిగా ": 6889,
      "असणे गरजेचे आहे. ": 6890,
      "मोहेंजो": 6891,
      "म्मू आणि का": 6892,
      "ంగా గుర్త": 6893,
      ") या स्मारकावरून ": 6894,
      "speak": 6895,
      " पर्यटन ": 6896,
      "సామాజిక, ": 6897,
      "तो त्यामुळे ": 6898,
      "कडधान्य": 6899,
      "CEE 7/": 6900,
      "ఎన్నుకోబడతారు.\n": 6901,
      "approximately ": 6902,
      "गुप्त कालीन": 6903,
      "pharmaceutical ": 6904,
      " భాగాన్ని ": 6905,
      "మీటర్లకు పైగా ": 6906,
      "निर्मिती झाली. ": 6907,
      "ట్లకు పైగా జనాభాతో": 6908,
      "रोखून धर": 6909,
      "రెండవ సహస్రాబ్": 6910,
      "శాసన వ్యవస్థ": 6911,
      " విషయాలు ==\n": 6912,
      " ప్రభుత్వాన్ని ": 6913,
      "हिंदी महासाग": 6914,
      "ांगलादेश": 6915,
      "बनविले आहे. ": 6916,
      "मरीन ड्राइव्ह": 6917,
      "1950 జనవరి 26": 6918,
      "अजनाभवर्ष": 6919,
      " ముస్లిం": 6920,
      " స్థానాలను గెలుచుకోవడ": 6921,
      "जास्त वापर ": 6922,
      "वन या महाखंड": 6923,
      "ाशी संलग्": 6924,
      ", ఈశాన్య": 6925,
      "५ ऑगस्ट": 6926,
      "ల కిలోమీటర్లకు పైగా ": 6927,
      "దేశం రూపాంత": 6928,
      "स्वातंत्र्यप्राप्तीनंतर ": 6929,
      "వేగంగా అభివృద్ధి చెందుత": 6930,
      "पारंपारिक वेषभूषा ": 6931,
      "परिणामस्वरूप": 6932,
      "Indus Valley ": 6933,
      "dance-dramas ": 6934,
      "वृतीय आर्द्र हवामान": 6935,
      "బంగారు పతకాలు ": 6936,
      "ాత్మా గాంధీ నాయక": 6937,
      "गंगेच्या खोऱ्य": 6938,
      "ओळखले जाऊ लागले. ": 6939,
      " वेगळे विषय हाताळून ": 6940,
      " केले व तो इ. स. १६४८ मध्ये पूर्ण ": 6941,
      "Country Prof": 6942,
      ") कि.मी. इतका ": 6943,
      "थंड वारे रोखून धर": 6944,
      "शिवाजी महाराज": 6945,
      "ఎలక్టోరల్ కాల": 6946,
      "ఢాకా-ఢిల్లీ-లాహో": 6947,
      "ने हा किल्ला इ. स. १६३८ला बांधून घेण्यास सुरू": 6948,
      " స్థానాలను గెలుచుకోవడం ": 6949,
      "ने हा किल्ला इ. स. १६३८ला बांधून घेण्यास सुरू केले व तो इ. स. १६४८ मध्ये पूर्ण ": 6950,
      "\nब": 6951,
      " \n": 6952,
      " c": 6953,
      " ९": 6954,
      " भर": 6955,
      " युद्ध": 6956,
      " भारत का ": 6957,
      " at the ": 6958,
      " 2011": 6959,
      " भरत": 6960,
      " 2003": 6961,
      ",7": 6962,
      ",०": 6963,
      ",६": 6964,
      ".4": 6965,
      ".२": 6966,
      "0.7": 6967,
      "1.": 6968,
      "100": 6969,
      "1% ": 6970,
      "100 ": 6971,
      "121": 6972,
      "1,000 ": 6973,
      "1000": 6974,
      "1 अप्रैल 195": 6975,
      "30 ": 6976,
      "3.8": 6977,
      "43": 6978,
      "40 ": 6979,
      "517": 6980,
      "62": 6981,
      ":\n\n": 6982,
      "Ak": 6983,
      "At": 6984,
      "Au": 6985,
      "Ash": 6986,
      "BB": 6987,
      "Bi": 6988,
      "Bang": 6989,
      "Bay ": 6990,
      "CN": 6991,
      "Civilis": 6992,
      "Dem": 6993,
      "Dev": 6994,
      "Ear": 6995,
      "East": 6996,
      "Fron": 6997,
      "Geograph": 6998,
      "HO": 6999,
      "However, ": 7000,
      "IU": 7001,
      "Kal": 7002,
      "Lank": 7003,
      "Mal": 7004,
      "Mar": 7005,
      "Mid": 7006,
      "Myan": 7007,
      "ND": 7008,
      "Nic": 7009,
      "Non-": 7010,
      "PA": 7011,
      "PI": 7012,
      "Pl": 7013,
      "Pol": 7014,
      "Pro": 7015,
      "Pall": 7016,
      "Rep": 7017,
      "SI": 7018,
      "Sin": 7019,
      "Sri ": 7020,
      "Tre": 7021,
      "Va": 7022,
      "West ": 7023,
      "Way": 7024,
      "WHO": 7025,
      "adi": 7026,
      "a, the ": 7027,
      "aic ": 7028,
      "aut": 7029,
      "br": 7030,
      "bly ": 7031,
      "bri": 7032,
      "bell": 7033,
      "can ": 7034,
      "ces ": 7035,
      "cra": 7036,
      "crit": 7037,
      "ck ": 7038,
      "came ": 7039,
      "cav": 7040,
      "clim": 7041,
      "could ": 7042,
      "dar": 7043,
      "d, and the ": 7044,
      "dens": 7045,
      "ees": 7046,
      "eam": 7047,
      "eas": 7048,
      "eet": 7049,
      "eolog": 7050,
      "eign": 7051,
      "fin": 7052,
      "fem": 7053,
      "far ": 7054,
      "found ": 7055,
      "federal ": 7056,
      "fundamental ": 7057,
      "gn": 7058,
      "gin": 7059,
      "gas ": 7060,
      "good": 7061,
      "hal": 7062,
      "hub": 7063,
      "head": 7064,
      "ii": 7065,
      "iz": 7066,
      "ial": 7067,
      "iat": 7068,
      "ifer": 7069,
      "jo-": 7070,
      "kam": 7071,
      "ket ": 7072,
      "lab": 7073,
      "last": 7074,
      "led by ": 7075,
      "lay": 7076,
      "law": 7077,
      "mu": 7078,
      "men": 7079,
      "mal": 7080,
      "mer ": 7081,
      "mig": 7082,
      "mand": 7083,
      "mult": 7084,
      "mamm": 7085,
      "ner": 7086,
      "nam": 7087,
      "nation ": 7088,
      "nation": 7089,
      "name ": 7090,
      "nings of ": 7091,
      "oth": 7092,
      "oast": 7093,
      "otion": 7094,
      "other": 7095,
      "pat": 7096,
      "past": 7097,
      "ption": 7098,
      "pover": 7099,
      "poin": 7100,
      "ration ": 7101,
      "s)": 7102,
      "se ": 7103,
      "sar": 7104,
      "s.\n": 7105,
      "sli": 7106,
      "sim": 7107,
      "sover": 7108,
      "s.\n\n\n=== ": 7109,
      "sect": 7110,
      "sav": 7111,
      "somet": 7112,
      "self": 7113,
      "tu": 7114,
      "tal": 7115,
      "ty ": 7116,
      "tor": 7117,
      "ted ": 7118,
      "tain": 7119,
      "tak": 7120,
      "text": 7121,
      "templ": 7122,
      "ue ": 7123,
      "ues ": 7124,
      "uent ": 7125,
      "ures": 7126,
      "vis": 7127,
      "vent": 7128,
      "vel": 7129,
      "vall": 7130,
      "veg": 7131,
      "wn": 7132,
      "way ": 7133,
      "would ": 7134,
      "yp": 7135,
      "y.\n": 7136,
      "z ": 7137,
      "° ": 7138,
      "ँट": 7139,
      "ंथ": 7140,
      "ंदो": 7141,
      "ंजन": 7142,
      "ंथी ": 7143,
      "अग": 7144,
      "अभ": 7145,
      "अर्थ": 7146,
      "अलग": 7147,
      "अरब": 7148,
      "अनुसार ": 7149,
      "अमेरिक": 7150,
      "अफ्रीका ": 7151,
      "आक्रमण": 7152,
      "इन ": 7153,
      "इच्छ": 7154,
      "इत्याद": 7155,
      "इंदिरा गांध": 7156,
      "ईद": 7157,
      "ई, ": 7158,
      "ई और ": 7159,
      "ई जाती ": 7160,
      "उभर": 7161,
      "एवं": 7162,
      "ऑपर": 7163,
      "ओण": 7164,
      "औद्योगिक": 7165,
      "कट": 7166,
      "कात": 7167,
      "क प्र": 7168,
      "कर्म": 7169,
      "काज": 7170,
      "की व": 7171,
      "क बन": 7172,
      "खू": 7173,
      "खान": 7174,
      "गठ": 7175,
      "गू": 7176,
      "गै": 7177,
      "गणि": 7178,
      "गढ़": 7179,
      "गतिश": 7180,
      "गोंड": 7181,
      "घू": 7182,
      "घाट": 7183,
      "घकाल": 7184,
      "चौ": 7185,
      "चंद": 7186,
      "चेर": 7187,
      "चाई": 7188,
      "चेन्": 7189,
      "छह": 7190,
      "छा": 7191,
      "जर": 7192,
      "झौ": 7193,
      "झार": 7194,
      "टा": 7195,
      "ट में ": 7196,
      "डम": 7197,
      "डि": 7198,
      "णाचल": 7199,
      "तट": 7200,
      "तब": 7201,
      "तपु": 7202,
      "थल": 7203,
      "थान": 7204,
      "थी, ": 7205,
      "था।": 7206,
      "दाल": 7207,
      "दीव": 7208,
      "द ही ": 7209,
      "दावर": 7210,
      "दर्जा ": 7211,
      "धन": 7212,
      "नव": 7213,
      "न का ": 7214,
      "नंद": 7215,
      "नवर": 7216,
      "नात्म": 7217,
      "नीति": 7218,
      "पे": 7219,
      "पात ": 7220,
      "पंथी ": 7221,
      "फग": 7222,
      "फुट": 7223,
      "बद": 7224,
      "बू": 7225,
      "बन्": 7226,
      "बेस": 7227,
      "बडी ": 7228,
      "भे": 7229,
      "भ्र": 7230,
      "भीम": 7231,
      "भांग": 7232,
      "भ्यता ": 7233,
      "मद": 7234,
      "माम": 7235,
      "मांस": 7236,
      "यं": 7237,
      "यद्य": 7238,
      "यत्न": 7239,
      "रान": 7240,
      "रिक": 7241,
      "रंग": 7242,
      "रही ": 7243,
      "लो": 7244,
      "लौ": 7245,
      "लन ": 7246,
      "ल और ": 7247,
      "लीं": 7248,
      "लिस": 7249,
      "वम": 7250,
      "वत ": 7251,
      "वाण": 7252,
      "वार ": 7253,
      "वन्यजीव": 7254,
      "वार्ष": 7255,
      "शृ": 7256,
      "शाल": 7257,
      "शील ": 7258,
      "शुष्क": 7259,
      "ष्य": 7260,
      "सक": 7261,
      "सल": 7262,
      "स, ": 7263,
      "स में ": 7264,
      "सीन": 7265,
      "सी, ": 7266,
      "संगीत": 7267,
      "हर ": 7268,
      "हत्या ": 7269,
      "ावि": 7270,
      "ाड़": 7271,
      "िड": 7272,
      "िष्ठ": 7273,
      "िज्य": 7274,
      "ि हुई": 7275,
      "ीख": 7276,
      "ी।": 7277,
      "ी\n\n\n==": 7278,
      "ी), ": 7279,
      "ीदार": 7280,
      "ी)\n": 7281,
      "ुप": 7282,
      "ुत्": 7283,
      "ुगू": 7284,
      "ेती ": 7285,
      "ैंक": 7286,
      "ोज": 7287,
      "। क": 7288,
      "१५ वर्ष": 7289,
      "२)": 7290,
      "२३": 7291,
      "५-": 7292,
      "५२": 7293,
      "५, ": 7294,
      "७०": 7295,
      "‌ ": 7296,
      "ा ऊ": 7297,
      "ा भ": 7298,
      "ा एक": 7299,
      "ा है।": 7300,
      "े –": 7301,
      "े भारतीय": 7302,
      ", म": 7303,
      ", भारत": 7304,
      ", as ": 7305,
      ", in ": 7306,
      ", हिन्": 7307,
      ", between ": 7308,
      ", राजस्थान": 7309,
      ", especially ": 7310,
      ", however, ": 7311,
      ", कला, ": 7312,
      ", विजयनगर": 7313,
      ", झार": 7314,
      "्यु": 7315,
      "ी ह": 7316,
      "ी के ": 7317,
      "ी और": 7318,
      "ी तथा ": 7319,
      "ी जाती ": 7320,
      "ी डॉलर ": 7321,
      "e to the ": 7322,
      ". 7": 7323,
      ". O": 7324,
      "्रम": 7325,
      " किसी ": 7326,
      "thos": 7327,
      "th.\nThe ": 7328,
      "th-largest ": 7329,
      "an-": 7330,
      "anch": 7331,
      "anag": 7332,
      "ans. ": 7333,
      "animal": 7334,
      "another ": 7335,
      "s the ": 7336,
      "s or ": 7337,
      "s for ": 7338,
      "s from the ": 7339,
      "s at the ": 7340,
      "s follow": 7341,
      "in, ": 7342,
      "inat": 7343,
      "incom": 7344,
      "ines, ": 7345,
      "institut": 7346,
      "ers": 7347,
      "eral": 7348,
      "era ": 7349,
      "ergenc": 7350,
      " सत्": 7351,
      " साग": 7352,
      " सिने": 7353,
      " सियाच": 7354,
      " सक्रिय": 7355,
      "ond": 7356,
      "one ": 7357,
      "ones": 7358,
      "onial ": 7359,
      "र्घकाल": 7360,
      " पात": 7361,
      " पड़": 7362,
      " मू": 7363,
      " मे": 7364,
      " मील": 7365,
      " महास": 7366,
      " मौर्य": 7367,
      "en the ": 7368,
      "energy ": 7369,
      "alth ": 7370,
      "ara ": 7371,
      "area": 7372,
      "arnat": 7373,
      "stand": 7374,
      "y ==\n\n": 7375,
      "discri": 7376,
      "ातार": 7377,
      "ates": 7378,
      "ati, ": 7379,
      "स्स": 7380,
      "स्त ": 7381,
      "ालर": 7382,
      "ालदीव": 7383,
      "ory": 7384,
      "oral ": 7385,
      "ें हैं।": 7386,
      " हर": 7387,
      " हथियार": 7388,
      "a C": 7389,
      "a d": 7390,
      "a of ": 7391,
      "reco": 7392,
      "report": 7393,
      "res (": 7394,
      "retur": 7395,
      "reven": 7396,
      "refer": 7397,
      "recent ": 7398,
      " वे ": 7399,
      " वर्त": 7400,
      " वैदिक": 7401,
      "रा, ": 7402,
      "Indira ": 7403,
      "icl": 7404,
      "icid": 7405,
      "icians ": 7406,
      " के युद्ध": 7407,
      " के माध्यम": 7408,
      " के नाम से ": 7409,
      " के माम": 7410,
      "ीय प": 7411,
      "ीय न": 7412,
      "ीय तथा ": 7413,
      "of a ": 7414,
      "प्रभु": 7415,
      "प्रौद्योगिक": 7416,
      "प्रश्न ": 7417,
      "ियन ": 7418,
      "ियों के ": 7419,
      "ियों का ": 7420,
      "ामिल": 7421,
      "ingly ": 7422,
      "ingh ": 7423,
      "क्शन": 7424,
      " में केंद्र": 7425,
      " में सरकार": 7426,
      " में अप": 7427,
      " में पाकिस्तान": 7428,
      " में स्थित ": 7429,
      "विस": 7430,
      "विशाल": 7431,
      "ों, ": 7432,
      "ों और ": 7433,
      "ोंगल": 7434,
      "an S": 7435,
      "today ": 7436,
      "town": 7437,
      " प्रमाण": 7438,
      " प्राप्त": 7439,
      " प्रारम्भ": 7440,
      "ur ": 7441,
      "urid": 7442,
      "uring the ": 7443,
      "ure and ": 7444,
      "ष्म": 7445,
      "त्त ": 7446,
      " नदी ": 7447,
      "as prime minister": 7448,
      "है और": 7449,
      "है , ": 7450,
      "। भारत के ": 7451,
      "in its ": 7452,
      "in urban ": 7453,
      "in into the ": 7454,
      "ect ": 7455,
      " बाज": 7456,
      " बोल": 7457,
      "ing of ": 7458,
      "ing of the ": 7459,
      "ing its ": 7460,
      "oul": 7461,
      "\n\n\n== ": 7462,
      ".\nIndia's ": 7463,
      "1930": 7464,
      "तिम": 7465,
      " जम": 7466,
      " ज्य": 7467,
      " जमा ": 7468,
      "भारतीय राज्य": 7469,
      "भारतीय संविधान": 7470,
      "देशी ": 7471,
      "to its ": 7472,
      "to US$": 7473,
      "ise ": 7474,
      "ised ": 7475,
      "isol": 7476,
      "कार्य": 7477,
      "es, and ": 7478,
      "भारत अ": 7479,
      "भारत एक": 7480,
      "भारत पर": 7481,
      "भारत और": 7482,
      "भारत ===\n": 7483,
      "भारत विश्व": 7484,
      "st of ": 7485,
      "ध्यात्म": 7486,
      "ly influenc": 7487,
      "न्त ": 7488,
      "न्त्र": 7489,
      "न्तु": 7490,
      " तनाव": 7491,
      "Thar ": 7492,
      "ापर": 7493,
      " की दर": 7494,
      " की घोषणा क": 7495,
      " की शुरुआ": 7496,
      " की दृष्टि से ": 7497,
      "संबंध": 7498,
      "संयुक्त ": 7499,
      "India from the ": 7500,
      "India Archived ": 7501,
      " आर्थ": 7502,
      " आदि": 7503,
      " आंबेडकर ": 7504,
      "amp": 7505,
      "among the ": 7506,
      "olving ": 7507,
      "क (": 7508,
      "क और ": 7509,
      "is often ": 7510,
      "ular, ": 7511,
      " है, ": 7512,
      " है, जिस": 7513,
      "मुद्": 7514,
      "मुस्लिम": 7515,
      "जाते ": 7516,
      "ती हुई": 7517,
      "rig": 7518,
      "के नेतृत्व": 7519,
      "ने का ": 7520,
      "स्थल": 7521,
      "lik": 7522,
      "rap": 7523,
      "rail": 7524,
      "rather ": 7525,
      "तरह": 7526,
      "में द": 7527,
      "very ": 7528,
      "verse": 7529,
      " शुष्क": 7530,
      " शक्त": 7531,
      " शामिल": 7532,
      " का विस्तार": 7533,
      "ायक ": 7534,
      "ण इत्याद": 7535,
      "India)": 7536,
      "India, and the ": 7537,
      "िमान": 7538,
      "द्रोह": 7539,
      "ित जन": 7540,
      "chos": 7541,
      "changes ": 7542,
      "churid": 7543,
      "ire and ": 7544,
      "नागर": 7545,
      " करती ": 7546,
      "conom": 7547,
      "conce": 7548,
      "consum": 7549,
      ", the BJP ": 7550,
      "िक धर्म": 7551,
      "िक और": 7552,
      "िक रूप से ": 7553,
      "age": 7554,
      "Indian government": 7555,
      "eter": 7556,
      "etic ": 7557,
      "ivity ": 7558,
      "ivil ": 7559,
      "super": 7560,
      " स्टा": 7561,
      " लोग": 7562,
      " लूट": 7563,
      "निवेश": 7564,
      "ार्द": 7565,
      "wide ": 7566,
      "एक क": 7567,
      "ता से ": 7568,
      "साई": 7569,
      "साक्षर": 7570,
      "adop": 7571,
      "adher": 7572,
      "ना प्रौद्योगिक": 7573,
      " विद्य": 7574,
      " विज्ञान": 7575,
      "acter": 7576,
      "across ": 7577,
      "uni": 7578,
      "ंत्रण": 7579,
      " दिल": 7580,
      "ex ": 7581,
      "express": 7582,
      "exampl": 7583,
      "whose ": 7584,
      "which": 7585,
      " और विश्व": 7586,
      " और 1999": 7587,
      "ंडी": 7588,
      "ीं। ": 7589,
      "in the world": 7590,
      "in the western ": 7591,
      "imes ": 7592,
      "imper": 7593,
      "clas": 7594,
      "ी, द": 7595,
      "ी, और ": 7596,
      "ी, नवर": 7597,
      "reser": 7598,
      "respon": 7599,
      " गो": 7600,
      "s, or ": 7601,
      "ush ": 7602,
      "uscri": 7603,
      "ख्यिक": 7604,
      "सेवा": 7605,
      "भाषी राज्य": 7606,
      "% to ": 7607,
      "% of the ": 7608,
      "इस ": 7609,
      "इसी ": 7610,
      "co-": 7611,
      "तुलन": 7612,
      "भी सम": 7613,
      "having ": 7614,
      ") –": 7615,
      "सरा ": 7616,
      ": 6": 7617,
      "ill ": 7618,
      " उद्योग": 7619,
      " उच्च": 7620,
      "दलीय": 7621,
      "anding ": 7622,
      "और स": 7623,
      "belief": 7624,
      "spe": 7625,
      "spic": 7626,
      "sport": 7627,
      "at is ": 7628,
      "है। भारत का ": 7629,
      "contain": 7630,
      "ical and ": 7631,
      "स्थान पर ": 7632,
      "2004": 7633,
      "2007": 7634,
      " परि": 7635,
      "ies of the ": 7636,
      "पुन": 7637,
      "ेवल": 7638,
      "ा के मैदानी क्षेत्र": 7639,
      "2014 ": 7640,
      "shal": 7641,
      "share ": 7642,
      "show ": 7643,
      "s. India has ": 7644,
      "क्रांत": 7645,
      "तोष": 7646,
      " हैं।\n": 7647,
      "India's population ": 7648,
      "centr": 7649,
      "बहुमू": 7650,
      "gence ": 7651,
      "separ": 7652,
      "ी सबसे ": 7653,
      "margin": 7654,
      "are directly ": 7655,
      "ed, ": 7656,
      "edly ": 7657,
      "ed, and ": 7658,
      "यहाँ": 7659,
      "formal ": 7660,
      "ained ": 7661,
      "level": 7662,
      "protect": 7663,
      "six": 7664,
      " समाप्त ": 7665,
      " समझौ": 7666,
      "largest": 7667,
      "0 million ": 7668,
      "हरु": 7669,
      "ity of ": 7670,
      "ोलकात": 7671,
      "1960 के दशक": 7672,
      "bodi": 7673,
      "pers": 7674,
      "es, or ": 7675,
      "assert ": 7676,
      "उत्तरी ": 7677,
      " चाल": 7678,
      "up in ": 7679,
      "upper ": 7680,
      "up to ": 7681,
      "ures and ": 7682,
      "ेरल": 7683,
      "ending ": 7684,
      "लोकसभा": 7685,
      "1956": 7686,
      " है। भारत की ": 7687,
      " पाक": 7688,
      " पाष": 7689,
      " राज्यों की ": 7690,
      "becom": 7691,
      "i is ": 7692,
      "वरिष्ठ": 7693,
      "regul": 7694,
      "regions ": 7695,
      " क्षेत्र में ": 7696,
      "e, which ": 7697,
      "गुट": 7698,
      "गुजर": 7699,
      "ल्य र": 7700,
      "ों में, ": 7701,
      "1996": 7702,
      "1991 ": 7703,
      "1991, ": 7704,
      " भारत ने ": 7705,
      " भारत में": 7706,
      " भारत में ": 7707,
      "dern": 7708,
      "ders ": 7709,
      "अधिकार ": 7710,
      " मान्य": 7711,
      " मानसून": 7712,
      "ts and ": 7713,
      "दूर ": 7714,
      "e of India's ": 7715,
      "stituent ": 7716,
      "भारतीय से": 7717,
      "स्थापक": 7718,
      " पूर्वोत्तर ": 7719,
      "00 mi": 7720,
      "राष्ट्रीय भाषा ": 7721,
      "ेशन": 7722,
      "ाप्ति": 7723,
      "26 जन": 7724,
      "तांत्रिक ": 7725,
      "मंत्रिमण्डल": 7726,
      "streng": 7727,
      "Hinduism, ": 7728,
      "declar": 7729,
      "declin": 7730,
      "primary ": 7731,
      "qualit": 7732,
      "वादी ": 7733,
      "it to ": 7734,
      "1975, ": 7735,
      "populous ": 7736,
      "Asia ": 7737,
      "वर्ण": 7738,
      "शताब्दी ": 7739,
      " इंडो-": 7740,
      "most in": 7741,
      "most populous ": 7742,
      "partic": 7743,
      "parts of ": 7744,
      "partition": 7745,
      "rates ": 7746,
      "south ": 7747,
      "ance of ": 7748,
      " व्यापार": 7749,
      "northwest": 7750,
      "system ": 7751,
      "इतिहास अ": 7752,
      "ास्त्रीय": 7753,
      "became a ": 7754,
      "ब्रिटिश राज": 7755,
      "ब्रिटिश ई": 7756,
      ". Their ": 7757,
      ". There are ": 7758,
      " किए गए": 7759,
      " के अन्त ": 7760,
      "th centuries": 7761,
      "ते हैं।\n": 7762,
      "1947, the ": 7763,
      "great ": 7764,
      "prev": 7765,
      "predomin": 7766,
      "अपने ": 7767,
      "आर्थिक व": 7768,
      "भावन": 7769,
      "भावशाली ": 7770,
      "हिंद": 7771,
      "हिन्दू धर्म": 7772,
      ", संगीत ": 7773,
      "िका और ": 7774,
      "religion": 7775,
      "had been ": 7776,
      "common ": 7777,
      " मुख्यमंत्री ": 7778,
      "दुस्तान": 7779,
      "increasingly ": 7780,
      "statu": 7781,
      "within ": 7782,
      "compan": 7783,
      "comprom": 7784,
      "ok the ": 7785,
      "oka ": 7786,
      "ricket ": 7787,
      "रुणाचल": 7788,
      " कर ल": 7789,
      "क्त प्र": 7790,
      "है।\nभारत के ": 7791,
      "1980 के दशक": 7792,
      "निवास": 7793,
      "South India ": 7794,
      "South Indian ": 7795,
      "Mach": 7796,
      "cultural ": 7797,
      "every": 7798,
      "present ": 7799,
      "president": 7800,
      "इंडिया ": 7801,
      "बड़ी ": 7802,
      "१८५७": 7803,
      "ence of ": 7804,
      "a federal ": 7805,
      "urbanis": 7806,
      "British": 7807,
      "Union ": 7808,
      "खनन": 7809,
      "जयंत": 7810,
      "न सिंह": 7811,
      " किया जा ": 7812,
      "armies ": 7813,
      "diverse ": 7814,
      "Indones": 7815,
      "१९७४": 7816,
      "classic": 7817,
      "regions. ": 7818,
      " थी। ": 7819,
      "Constituent ": 7820,
      "२०१४": 7821,
      "त्तीय": 7822,
      "suppl": 7823,
      "suppli": 7824,
      "प्राचीनतम": 7825,
      "Buddhism and ": 7826,
      "Pakistan ": 7827,
      "Euras": 7828,
      "ep ": 7829,
      "eval ": 7830,
      "आधार पर ": 7831,
      "ा संबंध": 7832,
      " कमांड": 7833,
      "प्रमुख कार": 7834,
      "नाट्य": 7835,
      "species": 7836,
      "\" or ": 7837,
      "1,9": 7838,
      "By the ": 7839,
      "heredi": 7840,
      "उनकी ": 7841,
      "उनका ": 7842,
      "शैली ": 7843,
      "ीका, ": 7844,
      " पहले ": 7845,
      " पहाड़ी ": 7846,
      "areas ": 7847,
      "court ": 7848,
      "maintain": 7849,
      "human fig": 7850,
      "influence ": 7851,
      "Modern ": 7852,
      "Mohen": 7853,
      "ian Plat": 7854,
      "per capit": 7855,
      "per 1,000 ": 7856,
      "आसपास": 7857,
      "ग्वेद": 7858,
      "पत्ति": 7859,
      "मराठ": 7860,
      "शिया से ": 7861,
      "त व प": 7862,
      " सेना ": 7863,
      " मंत्री ": 7864,
      "राजनैतिक": 7865,
      "संस्कृति": 7866,
      "संसदीय": 7867,
      "ड़ी भूमिका निभा": 7868,
      "place of ": 7869,
      "China ": 7870,
      " ==\n\n\n===": 7871,
      "After ": 7872,
      "prin": 7873,
      "prop": 7874,
      "दिल्ली सल्तन": 7875,
      "धीरे-": 7876,
      "पर्वत": 7877,
      " पश्चिमी ": 7878,
      "संघर्ष": 7879,
      "में सफल": 7880,
      " संविधान के अनुसार": 7881,
      " को छोड़": 7882,
      " विश्व क": 7883,
      "expans": 7884,
      "defin": 7885,
      "definit": 7886,
      "ographics ": 7887,
      "पूर्ण संबंध": 7888,
      "nuclear wea": 7889,
      "Indo-Ar": 7890,
      "power in ": 7891,
      "Mughal Empire ": 7892,
      "Punjab ": 7893,
      "Sanskrit ": 7894,
      "According to the ": 7895,
      "cities ": 7896,
      "colonial ": 7897,
      "natal ": 7898,
      "schedul": 7899,
      "आगे ": 7900,
      "दिवस, ": 7901,
      "ृद्धि हुई": 7902,
      "४.४": 7903,
      "े पै": 7904,
      ", whose ": 7905,
      "inequalit": 7906,
      "als in the ": 7907,
      "है जिस": 7908,
      "हुआ। ": 7909,
      "duction ": 7910,
      "ी को बहुमत ": 7911,
      "cooked ": 7912,
      "mathematical ": 7913,
      "mediately ": 7914,
      "Himalayas": 7915,
      "Although ": 7916,
      "All ": 7917,
      "Janata ": 7918,
      "back": 7919,
      "dance tradition": 7920,
      "gave ": 7921,
      "gradually ": 7922,
      "manuscri": 7923,
      "ओडिस": 7924,
      "केवल": 7925,
      "दान कर": 7926,
      "नहीं है। ": 7927,
      "वैदिक धर्म": 7928,
      "िनेट": 7929,
      " कामग": 7930,
      "threat": 7931,
      " सबसे बडी ": 7932,
      " मतभे": 7933,
      " अमेरिकन ": 7934,
      " नदिय": 7935,
      " नदियाँ": 7936,
      "right": 7937,
      " लेकर ": 7938,
      "contributions ": 7939,
      "transmitt": 7940,
      "language famil": 7941,
      "विकासशील ": 7942,
      " डालर": 7943,
      ") and the ": 7944,
      "breath": 7945,
      "below": 7946,
      "belong ": 7947,
      "crust": 7948,
      "crucial ": 7949,
      "drain into the ": 7950,
      "painting, ": 7951,
      "second ": 7952,
      "settl": 7953,
      "ऊँचाई": 7954,
      " कहते हैं। ": 7955,
      " विकसित ": 7956,
      " में बड़ी भूमिका निभा": 7957,
      "elected ": 7958,
      "summer ": 7959,
      " विदेशी कर्ज": 7960,
      "१९४७, १९६": 7961,
      "movement": 7962,
      "has been an ": 7963,
      "===\n\nThe Indian ": 7964,
      ". After ": 7965,
      "गुजरात ": 7966,
      "भरतनाट्य": 7967,
      "they were ": 7968,
      " जनसंख्या के ": 7969,
      "िक सुधार": 7970,
      "1857": 7971,
      "grew by ": 7972,
      "parliamentary system": 7973,
      "originally ": 7974,
      " धम्म": 7975,
      " भाषाओं का ": 7976,
      "7,517": 7977,
      "Arabian ": 7978,
      "GDP": 7979,
      "GDP ": 7980,
      "National Congress ": 7981,
      "ost-": 7982,
      "काश": 7983,
      "लोगों को": 7984,
      "ूचना प्रौद्योगिक": 7985,
      ". By the ": 7986,
      "there were ": 7987,
      " सांस्कृतिक": 7988,
      " हालाँकि": 7989,
      "a member ": 7990,
      " अर्थव्यवस्था ==\n\n": 7991,
      "क्टू": 7992,
      "विभिन्न ": 7993,
      " प्रणाली ": 7994,
      "empire ": 7995,
      "संविधान निर्म": 7996,
      "oppos": 7997,
      "advanc": 7998,
      " गणराज्य": 7999,
      ". All ": 8000,
      "body ": 8001,
      "structive ": 8002,
      "became the first ": 8003,
      "प्रधानमंत्री बन": 8004,
      "this time, ": 8005,
      "constitutional ": 8006,
      "Islamic ": 8007,
      "1947, 1965, 1971 और 1999": 8008,
      "Western Ghat": 8009,
      "Central Asian ": 8010,
      "Persian ": 8011,
      "North ": 8012,
      "varn": 8013,
      "wild": 8014,
      "एशिया के ": 8015,
      "यमुना, ": 8016,
      "ौहार्द": 8017,
      ", डच": 8018,
      "ार्यकाल": 8019,
      " कृषि": 8020,
      "independence ": 8021,
      "around the ": 8022,
      "organisation ": 8023,
      "remaining ": 8024,
      " वीं शताब्दी में": 8025,
      " के नेतृत्व में": 8026,
      " अभी भी ": 8027,
      " प्रधानमंत्री ": 8028,
      "liberalis": 8029,
      "निर्वाह": 8030,
      "until ": 8031,
      " दिल्ली, ": 8032,
      "important ": 8033,
      "मोहन सिंह": 8034,
      "coalition ": 8035,
      "तुलना ": 8036,
      "makes ": 8037,
      "spread ": 8038,
      "लिखित ": 8039,
      "group": 8040,
      "subsequent ": 8041,
      "वर्तमान": 8042,
      "साहित्य, गणि": 8043,
      "दर्भ ==\n\n\n==": 8044,
      "consider": 8045,
      "नियुक्त प्र": 8046,
      "birthplace of ": 8047,
      "back Mach": 8048,
      "currenc": 8049,
      "industry ": 8050,
      "different ": 8051,
      "literacy rate ": 8052,
      "disputes ": 8053,
      "भौगोलिक ": 8054,
      "ासाहेब आंबेडकर ": 8055,
      " १९९९": 8056,
      "Assem": 8057,
      "Deccan ": 8058,
      "Gupta ": 8059,
      "Gujar": 8060,
      "Languages of ": 8061,
      "Nuclear ": 8062,
      "habit": 8063,
      "loos": 8064,
      "lades": 8065,
      "merch": 8066,
      "signed ": 8067,
      "tribal ": 8068,
      "uard ": 8069,
      "victor": 8070,
      "written ": 8071,
      "ए जाते हैं": 8072,
      "गोदावर": 8073,
      "गति से ": 8074,
      "तेलुगू": 8075,
      "बाहरी ": 8076,
      "होंने ": 8077,
      "ीकी डॉलर ": 8078,
      "े समय तक ": 8079,
      "introduc": 8080,
      "relations ": 8081,
      " अन्तर": 8082,
      " आन्दोलन": 8083,
      "character": 8084,
      " दलदल": 8085,
      "resulting ": 8086,
      " गांधी ": 8087,
      " उनके ": 8088,
      ". According to ": 8089,
      ". Among the ": 8090,
      "उत्तर-पश्चिम": 8091,
      " महात्मा गांध": 8092,
      "commercial ": 8093,
      "pollut": 8094,
      " अरब अमरीकी डॉलर ": 8095,
      "Africa ": 8096,
      " पारंपरिक ": 8097,
      "3,422": 8098,
      "architecture": 8099,
      "indigenous ": 8100,
      "Greek ": 8101,
      "Kashmir": 8102,
      "practic": 8103,
      "Indus Valley Civilis": 8104,
      "Ashoka ": 8105,
      "BBC": 8106,
      "Banglades": 8107,
      "Bay of ": 8108,
      "Early ": 8109,
      "IUCN": 8110,
      "Middle ": 8111,
      "Myanmar": 8112,
      "Nicob": 8113,
      "Pallav": 8114,
      "Republic ": 8115,
      "Sri Lank": 8116,
      "Treat": 8117,
      "Wayback Mach": 8118,
      "bly of India ": 8119,
      "jo-dar": 8120,
      "kamee": 8121,
      "national": 8122,
      "sovereign": 8123,
      "sector ": 8124,
      "sometimes ": 8125,
      "veget": 8126,
      "अफ्रीका और ": 8127,
      "इच्छु": 8128,
      "ऑपरेशन": 8129,
      "औद्योगिक क्षेत्र": 8130,
      "कर्मण": 8131,
      "गैर-": 8132,
      "गतिशील": 8133,
      "चेन्न": 8134,
      "छाऊ": 8135,
      "तपुड़": 8136,
      "यद्यपि": 8137,
      "लौट": 8138,
      "वाणिज्य": 8139,
      "५, १९७१": 8140,
      " महासागर": 8141,
      "discrimin": 8142,
      "recogn": 8143,
      "revenues ": 8144,
      " वर्तमान": 8145,
      "Indira Gandhi ": 8146,
      "ीय नम": 8147,
      "Thar Des": 8148,
      " की दर से ": 8149,
      "chosen ": 8150,
      "churidar": 8151,
      " स्टाफ": 8152,
      "साक्षरता ": 8153,
      "imperial ": 8154,
      "ी, नवरात": 8155,
      "बहुमूल्य र": 8156,
      "protected ": 8157,
      " समाप्त हो": 8158,
      "गुजरात": 8159,
      "00 mi) ": 8160,
      "th centuries, the ": 8161,
      "Indonesi": 8162,
      "Constituent Assem": 8163,
      "heredit": 8164,
      "Mohenjo-dar": 8165,
      "per capita ": 8166,
      "धीरे-धीरे ": 8167,
      "nuclear weapon": 8168,
      "scheduled ": 8169,
      "transmitted ": 8170,
      "१९४७, १९६५, १९७१": 8171,
      "साहित्य, गणित, ": 8172,
      "Constituent Assembly of India ": 8173,
      "\n(": 8174,
      "\nक": 8175,
      "\nठ": 8176,
      "\nम": 8177,
      "\nలో": 8178,
      "\nభారత": 8179,
      "\nभारतीय": 8180,
      "\nभारताच्या ": 8181,
      "\nఒక": 8182,
      "\nజాతీయ": 8183,
      "\nకర": 8184,
      "\nसुर": 8185,
      "\nబె": 8186,
      "\nप्रसिद्ध": 8187,
      "\nఆర్ధిక": 8188,
      "\nసూ": 8189,
      "\n विक": 8190,
      "\nहिम": 8191,
      "\nచెన్న": 8192,
      "\nవలస": 8193,
      "\nసుప్రీం ": 8194,
      "\nడిస్": 8195,
      "\nహైదరా": 8196,
      "\nमरीन ड्राइव्ह": 8197,
      "\nचंद": 8198,
      " $": 8199,
      " &": 8200,
      " 5": 8201,
      " 6": 8202,
      " D": 8203,
      " M": 8204,
      " V": 8205,
      " °": 8206,
      " ऊ": 8207,
      " ऐ": 8208,
      " छ": 8209,
      " ॠ": 8210,
      " ।": 8211,
      " ॲ": 8212,
      " ఈ": 8213,
      " ఓ": 8214,
      " ఔ": 8215,
      " డ": 8216,
      " హ": 8217,
      " ‘": 8218,
      " లో": 8219,
      " భారతదేశ": 8220,
      " था ": 8221,
      " ये": 8222,
      " ter": 8223,
      " चित्रपट": 8224,
      " ఉన్న": 8225,
      " रूप": 8226,
      " 201": 8227,
      " to the ": 8228,
      " for ": 8229,
      " ఒక": 8230,
      " 1 ": 8231,
      " येथ": 8232,
      " దక్షిణ": 8233,
      " ఉన్నాయి. ": 8234,
      " देख": 8235,
      " 1947": 8236,
      " ఉన్న ": 8237,
      " आहार": 8238,
      " 17": 8239,
      " యు": 8240,
      " యో": 8241,
      " भागात ": 8242,
      " నుండి ": 8243,
      " ऋष": 8244,
      " టె": 8245,
      " — ": 8246,
      " भरत ": 8247,
      " ४.": 8248,
      "  बढ़": 8249,
      " आहेत.\n": 8250,
      " चित्रपटसृष्ट": 8251,
      " ऋषभदेव": 8252,
      " 55": 8253,
      " ६ टक्के ": 8254,
      " టై": 8255,
      " ఫల": 8256,
      " భౌ": 8257,
      " आहे.\n\n\n==": 8258,
      " లోని ": 8259,
      " నుంచి ": 8260,
      " येथे ": 8261,
      " 1947, 1965, 1971": 8262,
      " भाषाएँ": 8263,
      " ఎడ": 8264,
      " ఐక్య": 8265,
      " resident": 8266,
      " స్వీ": 8267,
      " भारतीय द्वीपकल्प": 8268,
      " ఏర్పడ": 8269,
      " ऋतु (": 8270,
      " నేపాల్, భూటాన్": 8271,
      " ఏర్పడ్డాయి. ": 8272,
      " ఏప్రిల్": 8273,
      " 1857": 8274,
      "\"గ": 8275,
      "\".\n": 8276,
      "\" of ": 8277,
      "\"India is the ": 8278,
      "\"భారతదేశం": 8279,
      "\"\nप्रसिद्ध": 8280,
      "%. ": 8281,
      "% ప్ర": 8282,
      "% है।": 8283,
      "%). ": 8284,
      "%.\nवर": 8285,
      "% కంటే": 8286,
      "'भारत": 8287,
      "' अ": 8288,
      "'भा": 8289,
      "'भारत ": 8290,
      "'स्ल": 8291,
      "' या चित्रपटाला ": 8292,
      "(\"": 8293,
      "(2": 8294,
      "(ఆ": 8295,
      "(ట": 8296,
      "(త": 8297,
      "(ర": 8298,
      "(భారత": 8299,
      "(पूर्व": 8300,
      "(सर्व": 8301,
      "(Ar": 8302,
      "(फ्र": 8303,
      "(महाराष्ट्र": 8304,
      "(हिमालय": 8305,
      "(तमिळनाडू": 8306,
      "(राजस्थान": 8307,
      "(వెనుకటి ": 8308,
      "(c. ": 8309,
      "(untouch": 8310,
      ") व": 8311,
      ")\n\n\n==": 8312,
      ") క": 8313,
      ") వ": 8314,
      ") से ": 8315,
      "). The ": 8316,
      "); ": 8317,
      ") हे ": 8318,
      ") तथा ": 8319,
      ").\nజాతీయ": 8320,
      ") वैदिक काळ": 8321,
      ") बौद्ध धर्म": 8322,
      "):\n": 8323,
      ") दिल्ल": 8324,
      ") जैन ": 8325,
      ") हिंदू धर्म": 8326,
      "): 6": 8327,
      ",0": 8328,
      ",4": 8329,
      ",5": 8330,
      ",४": 8331,
      ",५": 8332,
      ",७": 8333,
      ",పా": 8334,
      ",ज्य": 8335,
      ",మహ": 8336,
      ",భాష": 8337,
      ",०००": 8338,
      "- ": 8339,
      "-7": 8340,
      "-s": 8341,
      "-ఆ": 8342,
      "-ఇ": 8343,
      "-ద": 8344,
      "-19": 8345,
      "-पूर्व": 8346,
      "-దేశాల": 8347,
      "-तृ": 8348,
      "- ము": 8349,
      "-समय": 8350,
      "-फ़": 8351,
      "-టె": 8352,
      "-ga": 8353,
      "-div": 8354,
      "-majority ": 8355,
      "-गंगा ": 8356,
      "- పరిపాల": 8357,
      "-style ": 8358,
      "-चीफ": 8359,
      "-ఖో": 8360,
      "-वेरूळ": 8361,
      "-grandmother of ": 8362,
      "-body ": 8363,
      ".ब": 8364,
      ".७": 8365,
      ".ఇ": 8366,
      ".ఈ": 8367,
      ".ఏ": 8368,
      ".క": 8369,
      ".20": 8370,
      ".మీ": 8371,
      ".23": 8372,
      ".६ टक्के, ": 8373,
      ".सर्व राज्ये ": 8374,
      ".ప్రస్తుతము ": 8375,
      ".ఢాకా-ఢిల్లీ-లాహో": 8376,
      "/G": 8377,
      "/वर्ष": 8378,
      "/ ज्": 8379,
      "01": 8380,
      "04": 8381,
      "0 से ": 8382,
      "0% ప్ర": 8383,
      "0-19": 8384,
      "1st ": 8385,
      "10 ": 8386,
      "11 ": 8387,
      "1 కో": 8388,
      "1.3": 8389,
      "1.6": 8390,
      "1.2": 8391,
      "1 వ పెద్ద": 8392,
      "27": 8393,
      "2 మ": 8394,
      "2 కో": 8395,
      "28 ": 8396,
      "2%), ": 8397,
      "2%. In ": 8398,
      "2% ఆక్రమ": 8399,
      "2\nలో": 8400,
      "33": 8401,
      "3 చ": 8402,
      "3.7": 8403,
      "3 లో ": 8404,
      "32,": 8405,
      "3.9": 8406,
      "300 CE": 8407,
      "45": 8408,
      "49": 8409,
      "4, ": 8410,
      "4% ": 8411,
      "421": 8412,
      "4.0": 8413,
      "42 ": 8414,
      "53": 8415,
      "5.\nThe ": 8416,
      "5.3": 8417,
      "5 సంవత్సర": 8418,
      "5,7": 8419,
      "52 మ": 8420,
      "63": 8421,
      "64": 8422,
      "6 और ": 8423,
      "6 and ": 8424,
      "623": 8425,
      "6%), ": 8426,
      "70": 8427,
      "740": 8428,
      "7.5": 8429,
      "7 వ పెద్ద": 8430,
      "7 at the ": 8431,
      "74.0": 8432,
      "8 ప": 8433,
      "8 में": 8434,
      "8.7": 8435,
      "87,": 8436,
      "83.8": 8437,
      "8-7": 8438,
      "9 ": 8439,
      "900": 8440,
      "9% of ": 8441,
      "9,000": 8442,
      ": कर": 8443,
      ": జ": 8444,
      ": జనాభా ": 8445,
      ": పెద్ద": 8446,
      "; ప": 8447,
      "; క": 8448,
      "; तर ": 8449,
      "; కొ": 8450,
      "; కాశ్మీ": 8451,
      "; मरा": 8452,
      "; సిం": 8453,
      "Aj": 8454,
      "Ach": 8455,
      "A's ": 8456,
      "Act": 8457,
      "Agenc": 8458,
      "BS": 8459,
      "Bah": 8460,
      "Biodiversity ": 8461,
      "C, ": 8462,
      "Col": 8463,
      "Cult": 8464,
      "Cup": 8465,
      "Carnat": 8466,
      "Cricket ": 8467,
      "Dance ": 8468,
      "D &": 8469,
      "Ex": 8470,
      "Eth": 8471,
      "Eigh": 8472,
      "Ety": 8473,
      "Econom": 8474,
      "Fort": 8475,
      "Gen": 8476,
      "Gang": 8477,
      "Gond": 8478,
      "HZ": 8479,
      "He": 8480,
      "Histor": 8481,
      "II": 8482,
      "It ": 8483,
      "Jun": 8484,
      "Jhar": 8485,
      "Jaw": 8486,
      "Jamm": 8487,
      "Kos": 8488,
      "Kaver": 8489,
      "Keral": 8490,
      "Li": 8491,
      "Lat": 8492,
      "L B": 8493,
      "Laksh": 8494,
      "Min": 8495,
      "Mem": 8496,
      "Mum": 8497,
      "Medi": 8498,
      "Na": 8499,
      "Ni": 8500,
      "Nar": 8501,
      "Nat": 8502,
      "Net": 8503,
      "Not": 8504,
      "Nep": 8505,
      "N): 6": 8506,
      "Oc": 8507,
      "Or": 8508,
      "Over": 8509,
      "Out": 8510,
      "Oce": 8511,
      "Old ": 8512,
      "PP": 8513,
      "Par": 8514,
      "Pre": 8515,
      "Part": 8516,
      "Prol": 8517,
      "PA ": 8518,
      "Post-": 8519,
      "Red ": 8520,
      "Ram": 8521,
      "So": 8522,
      "Sar": 8523,
      "Sch": 8524,
      "Sab": 8525,
      "Sang": 8526,
      "Sant": 8527,
      "Sultan": 8528,
      "Ti": 8529,
      "Ter": 8530,
      "Tit": 8531,
      "Tri": 8532,
      "Typ": 8533,
      "Ur": 8534,
      "UPA ": 8535,
      "Vi": 8536,
      "Vis": 8537,
      "V; ": 8538,
      "Vedi": 8539,
      "Vaj": 8540,
      "Wh": 8541,
      "Yaksh": 8542,
      "Zor": 8543,
      "] ": 8544,
      "^ జ": 8545,
      "aː": 8546,
      "a—": 8547,
      "aem": 8548,
      "air": 8549,
      "a's ": 8550,
      "aim": 8551,
      "ahar": 8552,
      "aism, and ": 8553,
      "bal": 8554,
      "bit": 8555,
      "bal ": 8556,
      "bul": 8557,
      "band": 8558,
      "bers ": 8559,
      "bron": 8560,
      "bai, ": 8561,
      "bably ": 8562,
      "biodiversity ": 8563,
      "cal": 8564,
      "ct ": 8565,
      "cris": 8566,
      "civil": 8567,
      "crow": 8568,
      "cere": 8569,
      "civil ": 8570,
      "d-": 8571,
      "dd": 8572,
      "din": 8573,
      "dre": 8574,
      "dem": 8575,
      "den ": 8576,
      "do ": 8577,
      "dest": 8578,
      "doc": 8579,
      "ded in ": 8580,
      "dates ": 8581,
      "eb": 8582,
      "eh": 8583,
      "ei": 8584,
      "e, the ": 8585,
      "eac": 8586,
      "e: ": 8587,
      "ew ": 8588,
      "eep": 8589,
      "eous": 8590,
      "e\" ": 8591,
      "ework": 8592,
      "e) या स्मारकावरून ": 8593,
      "e\" of ": 8594,
      "ft": 8595,
      "f the ": 8596,
      "fil": 8597,
      "fac": 8598,
      "foun": 8599,
      "fav": 8600,
      "fall ": 8601,
      "fash": 8602,
      "fram": 8603,
      "flow ": 8604,
      "fair": 8605,
      "gig": 8606,
      "gro": 8607,
      "give ": 8608,
      "god": 8609,
      "gani": 8610,
      "geograph": 8611,
      "g by ": 8612,
      "geolog": 8613,
      "gained ": 8614,
      "ho": 8615,
      "hā": 8616,
      "he ": 8617,
      "hor": 8618,
      "hom": 8619,
      "ham": 8620,
      "hol": 8621,
      "hun": 8622,
      "hot": 8623,
      "head ": 8624,
      "ib": 8625,
      "ith": 8626,
      "ia ": 8627,
      "idu": 8628,
      "i. The ": 8629,
      "ific": 8630,
      "iant ": 8631,
      "ief": 8632,
      "ience": 8633,
      "jur": 8634,
      "jor ": 8635,
      "jay": 8636,
      "ject": 8637,
      "join": 8638,
      "jack": 8639,
      "ject ": 8640,
      "kn": 8641,
      "ks ": 8642,
      "kat": 8643,
      "kur": 8644,
      "kill": 8645,
      "key ": 8646,
      "ling": 8647,
      "lal ": 8648,
      "lea": 8649,
      "late ": 8650,
      "lass": 8651,
      "led to ": 8652,
      "leng": 8653,
      "led the ": 8654,
      "ly, the ": 8655,
      "lic, ": 8656,
      "less ": 8657,
      "mn": 8658,
      "ma ": 8659,
      "man ": 8660,
      "men ": 8661,
      "med": 8662,
      "mely ": 8663,
      "molog": 8664,
      "ne ": 8665,
      "nin": 8666,
      "non": 8667,
      "nar": 8668,
      "net": 8669,
      "nex": 8670,
      "ned to ": 8671,
      "near ": 8672,
      "o the ": 8673,
      "ot ": 8674,
      "oth ": 8675,
      "och": 8676,
      "oor ": 8677,
      "ove ": 8678,
      "por": 8679,
      "pil": 8680,
      "pul": 8681,
      "pet": 8682,
      "pect": 8683,
      "push ": 8684,
      "ring": 8685,
      "ran ": 8686,
      "rop": 8687,
      "rup": 8688,
      "ration of ": 8689,
      "rough": 8690,
      "ranges ": 8691,
      "round": 8692,
      "s\"": 8693,
      "s'": 8694,
      "sy": 8695,
      "sing ": 8696,
      "set": 8697,
      "smo": 8698,
      "s: ": 8699,
      "s.\n\n\n== ": 8700,
      "s.\nThe ": 8701,
      "slow ": 8702,
      "te": 8703,
      "tal ": 8704,
      "tel": 8705,
      "tun": 8706,
      "tex": 8707,
      "tand": 8708,
      "tea": 8709,
      "ty, ": 8710,
      "test ": 8711,
      "ta, ": 8712,
      "tub": 8713,
      "table ": 8714,
      "temper": 8715,
      "uk": 8716,
      "ut ": 8717,
      "usu": 8718,
      "ude": 8719,
      "ually ": 8720,
      "uable ": 8721,
      "ufact": 8722,
      "vat": 8723,
      "vol": 8724,
      "vir": 8725,
      "ved in ": 8726,
      "vot": 8727,
      "wat": 8728,
      "wly ": 8729,
      "wet": 8730,
      "wear": 8731,
      "way": 8732,
      "wear ": 8733,
      "wood": 8734,
      "welf": 8735,
      "xed ": 8736,
      "ying ": 8737,
      "y, and ": 8738,
      "y; ": 8739,
      "ying the ": 8740,
      "ya, or ": 8741,
      "zon": 8742,
      "zes ": 8743,
      "zation ": 8744,
      "āy": 8745,
      "νδ": 8746,
      "ं त": 8747,
      "ंते ": 8748,
      "ंनी ": 8749,
      "ंकड": 8750,
      "ं य": 8751,
      "ं नाम": 8752,
      "ंमल": 8753,
      "ंतिम": 8754,
      "ःख": 8755,
      "ःसीमा ": 8756,
      "ः ।": 8757,
      "अन": 8758,
      "अर्": 8759,
      "अंग": 8760,
      "अति": 8761,
      "अप्": 8762,
      "अल्": 8763,
      "अर्थव्यवस्थ": 8764,
      "अले": 8765,
      "अच्छ": 8766,
      "अतिक": 8767,
      "अनुसार": 8768,
      "अट्ट": 8769,
      "अणु": 8770,
      "अ‍ॅ": 8771,
      "अधिपत्य": 8772,
      "अफग": 8773,
      "अतुलन": 8774,
      "आख": 8775,
      "आढ": 8776,
      "आध": 8777,
      "आर्म": 8778,
      "आले ": 8779,
      "आकृ": 8780,
      "आला ": 8781,
      "आकड": 8782,
      "आल्य": 8783,
      "आमू": 8784,
      "आफ्र": 8785,
      "आला. ": 8786,
      "आकर्ष": 8787,
      "आली व": 8788,
      "आमदार": 8789,
      "आक्रमणे ": 8790,
      "आंबेडकर ": 8791,
      "इसे ": 8792,
      "इस्त": 8793,
      "इजरा": 8794,
      "इलाव": 8795,
      "इन (": 8796,
      "इ. मसाल": 8797,
      "ई (पूर्वीचे ": 8798,
      "ईस्ट इंडिया कंपन": 8799,
      "ईसाई": 8800,
      "उग": 8801,
      "उल": 8802,
      "उभार": 8803,
      "उर्म": 8804,
      "उड़": 8805,
      "उच्च": 8806,
      "उंच": 8807,
      "उमट": 8808,
      "ऊस": 8809,
      "ऊन ": 8810,
      "ऊपर": 8811,
      "एड": 8812,
      "एत": 8813,
      "एस": 8814,
      "एशन": 8815,
      "ए रख": 8816,
      "एशियाई": 8817,
      "ओर": 8818,
      "ओसाड": 8819,
      "औष": 8820,
      "औस": 8821,
      "कळ": 8822,
      "कॅ": 8823,
      "कौ": 8824,
      "क व": 8825,
      "कन ": 8826,
      "काने ": 8827,
      "काण": 8828,
      "कीन": 8829,
      "कथा ": 8830,
      "कमान": 8831,
      "काट": 8832,
      "क मु": 8833,
      "कलि": 8834,
      "केत": 8835,
      "केंद्र": 8836,
      "कांचे ": 8837,
      "कल्": 8838,
      "कीत": 8839,
      "काठी ": 8840,
      "क हा ": 8841,
      "क ही ": 8842,
      "केली ": 8843,
      "क पड": 8844,
      "क विद्यार्थ": 8845,
      "केन्द्र": 8846,
      "कन्या ": 8847,
      "कला ही ": 8848,
      "काबीज": 8849,
      "क मानले जाते. ": 8850,
      "कत्ता": 8851,
      "क नदी ": 8852,
      "कोलकात": 8853,
      "खट": 8854,
      "खड": 8855,
      "खल": 8856,
      "खा": 8857,
      "खर ": 8858,
      "खाली ": 8859,
      "खी अ": 8860,
      "खण्ड": 8861,
      "खात्य": 8862,
      "खजु": 8863,
      "खले अस": 8864,
      "गई": 8865,
      "गए": 8866,
      "गझ": 8867,
      "गट": 8868,
      "गढ": 8869,
      "ग़": 8870,
      "ग, ": 8871,
      "गाळ": 8872,
      "गस्त": 8873,
      "गंड": 8874,
      "ग मिल": 8875,
      "गई। ": 8876,
      "गव्ह": 8877,
      "गठबंध": 8878,
      "गीज": 8879,
      "गृह": 8880,
      "गंभ": 8881,
      "गत कर": 8882,
      "घा": 8883,
      "घरा": 8884,
      "घतात. ": 8885,
      "घोड": 8886,
      "घांस": 8887,
      "घाड": 8888,
      "चू": 8889,
      "चिक": 8890,
      "चाच": 8891,
      "चाह": 8892,
      "चीच": 8893,
      "चित ": 8894,
      "चला ": 8895,
      "चतु": 8896,
      "चीन ": 8897,
      "चाली ": 8898,
      "चे, ": 8899,
      "चा काळ": 8900,
      "चंद्र": 8901,
      "चोट": 8902,
      "च भारताच्या ": 8903,
      "च आप": 8904,
      "च अनेक ": 8905,
      "चपात": 8906,
      "च संब": 8907,
      "छाद": 8908,
      "छाय": 8909,
      "छित ": 8910,
      "छूट": 8911,
      "जश": 8912,
      "जि": 8913,
      "जिक": 8914,
      "ज्या ": 8915,
      "जास": 8916,
      "जाव": 8917,
      "जाप": 8918,
      "जा, ": 8919,
      "जिन्": 8920,
      "जाग": 8921,
      "जिन": 8922,
      "ज प्रदेश": 8923,
      "ज देश": 8924,
      "जी अ": 8925,
      "जीड": 8926,
      "जेच": 8927,
      "जवान": 8928,
      "जबकि": 8929,
      "जात आहे. ": 8930,
      "जात अस": 8931,
      "जमात": 8932,
      "जुन्या ": 8933,
      "ज वरील ": 8934,
      "जवाहरलाल नेहरू": 8935,
      "जम्मू आणि का": 8936,
      "झ प": 8937,
      "झिक": 8938,
      "झांड": 8939,
      "झेदार": 8940,
      "टस": 8941,
      "टो": 8942,
      "ट्र": 8943,
      "टक्": 8944,
      "ट (": 8945,
      "टून ": 8946,
      "टोक": 8947,
      "टये": 8948,
      "टिळ": 8949,
      "टेकड": 8950,
      "टंक": 8951,
      "ट्वे": 8952,
      "टेलीवि": 8953,
      "ठण": 8954,
      "ठन": 8955,
      "ठ्य": 8956,
      "ठणा": 8957,
      "ठची व": 8958,
      "ठवीं": 8959,
      "ठ नृत्यप्रकार": 8960,
      "डय": 8961,
      "डॅ": 8962,
      "डो": 8963,
      "डा ": 8964,
      "डा, ": 8965,
      "डाचे ": 8966,
      "डून ": 8967,
      "डच्या ": 8968,
      "डीचे ": 8969,
      "डे, ": 8970,
      "डाप्": 8971,
      "डलेली ": 8972,
      "डण्यात आ": 8973,
      "डतो. ": 8974,
      "डला आहे. ": 8975,
      "डपड": 8976,
      "डी व ब": 8977,
      "डप्प": 8978,
      "ड ज्वालामुख": 8979,
      "ढे ": 8980,
      "ढील": 8981,
      "ढता ": 8982,
      "ढोब": 8983,
      "ढण्यात ": 8984,
      "ढला आहे. ": 8985,
      "णार": 8986,
      "ण व": 8987,
      "ण न": 8988,
      "णत्य": 8989,
      "णाव": 8990,
      "णांच्या ": 8991,
      "ण पर ": 8992,
      "णुस": 8993,
      "णा प": 8994,
      "णामुळे ": 8995,
      "णा व": 8996,
      "णारी ": 8997,
      "णांस": 8998,
      "णीचा ": 8999,
      "ण पार": 9000,
      "ण पक्ष": 9001,
      "ण करून": 9002,
      "ण परा": 9003,
      "णाली, ": 9004,
      "णी केली. ": 9005,
      "तथ": 9006,
      "ता": 9007,
      "तू": 9008,
      "तै": 9009,
      "त. ": 9010,
      "तान": 9011,
      "तील": 9012,
      "तति": 9013,
      "तक ": 9014,
      "तती ": 9015,
      "तीच": 9016,
      "ताच्या ": 9017,
      "ता, ": 9018,
      "तीचे ": 9019,
      "तशी ": 9020,
      "ते, ": 9021,
      "तों की ": 9022,
      "तत्त्व": 9023,
      "तासाठी ": 9024,
      "तीचा ": 9025,
      "तीची ": 9026,
      "तियां": 9027,
      "ता को": 9028,
      "त\nअ": 9029,
      "तंभ": 9030,
      "तळा ": 9031,
      "तान, ": 9032,
      "त' म्हणजे ": 9033,
      "ततच्या ": 9034,
      "तावादी ": 9035,
      "तन्त्र": 9036,
      "थव": 9037,
      "थीत ": 9038,
      "थाई": 9039,
      "थ वरील ": 9040,
      "थक (": 9041,
      "दळ": 9042,
      "दस": 9043,
      "दे ": 9044,
      "दर ": 9045,
      "द ब": 9046,
      "द की ": 9047,
      "दी क": 9048,
      "दचे ": 9049,
      "द आहे. ": 9050,
      "दंत": 9051,
      "दिन": 9052,
      "दविक": 9053,
      "द किया ": 9054,
      "द इतिहास": 9055,
      "द सैनिक": 9056,
      "दौर": 9057,
      "दमन ": 9058,
      "दिवाळ": 9059,
      "दुसऱ्या ": 9060,
      "दिमान": 9061,
      "दडो": 9062,
      "धो": 9063,
      "धाम": 9064,
      "धातील": 9065,
      "धी क": 9066,
      "धोक": 9067,
      "धून": 9068,
      "धामुळे ": 9069,
      "ध आहेत. ": 9070,
      "धन व": 9071,
      "धडक": 9072,
      "नन": 9073,
      "नॅ": 9074,
      "न‍": 9075,
      "न, ": 9076,
      "नाल": 9077,
      "नक्ष": 9078,
      "निल": 9079,
      "न में ": 9080,
      "नी व": 9081,
      "न कर": 9082,
      "न हो": 9083,
      "नका ": 9084,
      "नांचे ": 9085,
      "न साम्राज्य": 9086,
      "न सरकार": 9087,
      "नंतर": 9088,
      "न करणे ": 9089,
      "न क्रम": 9090,
      "नैऋत्य": 9091,
      "नानंतर": 9092,
      "नर्मदा ": 9093,
      "पप": 9094,
      "पै": 9095,
      "प ह": 9096,
      "पाच": 9097,
      "प व": 9098,
      "पत्र": 9099,
      "पदे": 9100,
      "पाद": 9101,
      "पती ": 9102,
      "पाळ": 9103,
      "पंड": 9104,
      "पली ": 9105,
      "पसर": 9106,
      "पा व": 9107,
      "पऱ्य": 9108,
      "पेक्षा ": 9109,
      "पगड": 9110,
      "पीठ": 9111,
      "प आकर्ष": 9112,
      "पाँच": 9113,
      "पीए": 9114,
      "पर्जन्य": 9115,
      "पांढऱ्या पाठ": 9116,
      "पँट": 9117,
      "पोंगल": 9118,
      "पच संब": 9119,
      "पथ वरील ": 9120,
      "फर": 9121,
      "फे ": 9122,
      "फाळ": 9123,
      "फ्ल": 9124,
      "फ्टवे": 9125,
      "बळ": 9126,
      "बस": 9127,
      "बो": 9128,
      "बा ": 9129,
      "बार": 9130,
      "बाल": 9131,
      "बने": 9132,
      "बने ": 9133,
      "बना": 9134,
      "बद्ध": 9135,
      "बना ": 9136,
      "बनी ": 9137,
      "बंद": 9138,
      "बऱ्य": 9139,
      "बीस": 9140,
      "बाजर": 9141,
      "बुद्ध": 9142,
      "बिहु": 9143,
      "बैठ": 9144,
      "बाह्य": 9145,
      "बायोस्फेअर रिझर्व": 9146,
      "बांगलादेश": 9147,
      "बिनेट": 9148,
      "बडी व ब": 9149,
      "भील": 9150,
      "भंग": 9151,
      "भद्र": 9152,
      "भील ": 9153,
      "भेट": 9154,
      "भीड": 9155,
      "भक्ति": 9156,
      "भपुत्र": 9157,
      "भवन": 9158,
      "भवाय": 9159,
      "भवान": 9160,
      "मौ": 9161,
      "म म": 9162,
      "म के ": 9163,
      "मास": 9164,
      "माने ": 9165,
      "मद्र": 9166,
      "मना": 9167,
      "म द": 9168,
      "मते ": 9169,
      "मार ": 9170,
      "माग": 9171,
      "म हे ": 9172,
      "मिस": 9173,
      "म पर ": 9174,
      "मकर": 9175,
      "मल्य": 9176,
      "मते": 9177,
      "मंज": 9178,
      "मा का ": 9179,
      "मंदिर": 9180,
      "मजल": 9181,
      "म भारतात ": 9182,
      "म्यान": 9183,
      "मधील ": 9184,
      "म व क": 9185,
      "मगध": 9186,
      "मडॉ": 9187,
      "मधून": 9188,
      "यार": 9189,
      "याव": 9190,
      "याप": 9191,
      "यीन": 9192,
      "याचा ": 9193,
      "याला ": 9194,
      "यामुळे ": 9195,
      "या। ": 9196,
      "यांचे ": 9197,
      "यांनी ": 9198,
      "यानंतर ": 9199,
      "यामध्ये ": 9200,
      "या।\n": 9201,
      "यंती ": 9202,
      "योने": 9203,
      "यचर": 9204,
      "यातून स": 9205,
      "याचे स": 9206,
      "याचे नाव": 9207,
      "यानंतर": 9208,
      "यक्रीड": 9209,
      "य आशियातील": 9210,
      "यल और ": 9211,
      "यसीन": 9212,
      "यबद्ध": 9213,
      "रल": 9214,
      "रवि": 9215,
      "रत्": 9216,
      "राच्या ": 9217,
      "रले ": 9218,
      "रच्या ": 9219,
      "र) ": 9220,
      "रेट": 9221,
      "र सर": 9222,
      "रित": 9223,
      "रेज": 9224,
      "रेश": 9225,
      "रांना ": 9226,
      "र)\n": 9227,
      "रचा ": 9228,
      "रसाय": 9229,
      "रांग": 9230,
      "रीस": 9231,
      "रण्यात आ": 9232,
      "रिवाज": 9233,
      "रीति": 9234,
      "र स्वातंत्र्य": 9235,
      "र करण्यात आ": 9236,
      "र क्षेत्रामध्ये ": 9237,
      "रणाऱ्य": 9238,
      "रैंक": 9239,
      "रिक और": 9240,
      "र मुख्यमंत्री ": 9241,
      "रनिर्वाह": 9242,
      "र' या चित्रपटाला ": 9243,
      "रत' म्हणजे ": 9244,
      "लव": 9245,
      "लै": 9246,
      "ल अ": 9247,
      "लवि": 9248,
      "लद्": 9249,
      "लड़": 9250,
      "ल आहे. ": 9251,
      "लीच्या ": 9252,
      "लवाद": 9253,
      "लक्षण": 9254,
      "लांपैकी ": 9255,
      "लम्ब": 9256,
      "लूट": 9257,
      "ली.": 9258,
      "ल इंडिया ": 9259,
      "ली.\n": 9260,
      "ल मतभे": 9261,
      "ळ, ": 9262,
      "ळ्य": 9263,
      "ळ स": 9264,
      "ळ (": 9265,
      "ळून ": 9266,
      "ळी, ": 9267,
      "ळमान": 9268,
      "ळ), ": 9269,
      "ळीव": 9270,
      "ळा व": 9271,
      "ळुरू": 9272,
      "ळपुर": 9273,
      "ळेच": 9274,
      "ळेब": 9275,
      "ळाव्या शतक": 9276,
      "ळातील सर्वाधिक": 9277,
      "ळी अथवा ": 9278,
      "ळ कोरडे ": 9279,
      "वृ": 9280,
      "वॉ": 9281,
      "व्र": 9282,
      "वां": 9283,
      "व व": 9284,
      "व ज": 9285,
      "वती ": 9286,
      "व में ": 9287,
      "व स्": 9288,
      "वीन": 9289,
      "वला ": 9290,
      "व सर": 9291,
      "वा प": 9292,
      "वजन": 9293,
      "व लोक": 9294,
      "वेली ": 9295,
      "वण्यास": 9296,
      "व अभ": 9297,
      "व ते ": 9298,
      "वला. ": 9299,
      "वत, ": 9300,
      "वाटा ": 9301,
      "व दक्षिण": 9302,
      "वापर ": 9303,
      "वीं शताब्दी ": 9304,
      "ववृत": 9305,
      "वसाह": 9306,
      "व आप": 9307,
      "व इतर": 9308,
      "वण्याची ": 9309,
      "व ईशान्य": 9310,
      "वीसाठी ": 9311,
      "व पंतप्रधान": 9312,
      "व धम्म": 9313,
      "वयीन": 9314,
      "वलीच्या ": 9315,
      "शः": 9316,
      "शो": 9317,
      "श्य": 9318,
      "शीन": 9319,
      "शी क": 9320,
      "शेव": 9321,
      "शिर": 9322,
      "शल्य": 9323,
      "शांत": 9324,
      "शेज": 9325,
      "श लोक": 9326,
      "शब्": 9327,
      "शुष्": 9328,
      "शीख": 9329,
      "शेती ": 9330,
      "षी अ": 9331,
      "षभदेव": 9332,
      "षद ही ": 9333,
      "सॉ": 9334,
      "सर ": 9335,
      "स्या ": 9336,
      "सात ": 9337,
      "सन्": 9338,
      "साचे ": 9339,
      "स ग": 9340,
      "सभी ": 9341,
      "सित": 9342,
      "सिंध": 9343,
      "सारी ": 9344,
      "सांग": 9345,
      "स होता ": 9346,
      "सार झाल": 9347,
      "सिंह": 9348,
      "संगम": 9349,
      "स ने": 9350,
      "स ऑफ": 9351,
      "सोबत": 9352,
      "सपाट": 9353,
      "सुवर्ण": 9354,
      "सामान्य": 9355,
      "सादर केले ": 9356,
      "सततच्या ": 9357,
      "हन": 9358,
      "हू": 9359,
      "ह्य": 9360,
      "हार": 9361,
      "हरा": 9362,
      "ह्म": 9363,
      "हा काळ": 9364,
      "हपुत्र": 9365,
      "ह अनेक": 9366,
      "हेम": 9367,
      "हळूहळू": 9368,
      "ही वा": 9369,
      "हॉकी ": 9370,
      "हिलेला ": 9371,
      "हारी जेवण": 9372,
      "हमद": 9373,
      "हडप्प": 9374,
      "हलवि": 9375,
      "हळेब": 9376,
      "हवेली ": 9377,
      "़िला ": 9378,
      "ा'": 9379,
      "ा’": 9380,
      "ाया ": 9381,
      "ास्त": 9382,
      "ाथा ": 9383,
      "ाकिस्तान": 9384,
      "ाकू": 9385,
      "ाध्यम": 9386,
      "ाविषय": 9387,
      "ाक्षर": 9388,
      "ा.\n\n": 9389,
      "ा\n(": 9390,
      "ा: कर": 9391,
      "िन ": 9392,
      "िने ": 9393,
      "िमें": 9394,
      "िण ": 9395,
      "िसे ": 9396,
      "िद्ध": 9397,
      "िसम": 9398,
      "िव्य": 9399,
      "िश्च": 9400,
      "िपत": 9401,
      "ि आणि": 9402,
      "िग्राम": 9403,
      "िन ग": 9404,
      "िर व": 9405,
      "िबट": 9406,
      "िस्स": 9407,
      "ितोष": 9408,
      "ी)": 9409,
      "ींग": 9410,
      "ीने ": 9411,
      "ीण ": 9412,
      "ी.\n\n\n==": 9413,
      "ीही ": 9414,
      "ीतात": 9415,
      "ीसे": 9416,
      "ीकड": 9417,
      "ीशी ": 9418,
      "ीमुळे ": 9419,
      "ीबर": 9420,
      "ीपर्यंत ": 9421,
      "ीगत ": 9422,
      "ीभवन ": 9423,
      "ी‌ (": 9424,
      "ीक दृष्ट्या ": 9425,
      "ीदृष्ट्या अतिशय पुढार": 9426,
      "ी/ ज्": 9427,
      "ीअट्ट": 9428,
      "ीगढ": 9429,
      "ीझ प": 9430,
      "ीद सैनिक": 9431,
      "ुम": 9432,
      "ुत्र": 9433,
      "ुदे": 9434,
      "ुति": 9435,
      "ुकार": 9436,
      "ुंद": 9437,
      "ुकड": 9438,
      "ुमार": 9439,
      "ुंत": 9440,
      "ुण्": 9441,
      "ुकू": 9442,
      "ुक्य": 9443,
      "ुःख": 9444,
      "ुडे, ": 9445,
      "ुण परा": 9446,
      "ून्": 9447,
      "ूला ": 9448,
      "ूचे ": 9449,
      "ू २": 9450,
      "ू लाग": 9451,
      "ू व क": 9452,
      "ू शक": 9453,
      "ू पुराण": 9454,
      "ू उत्पाद": 9455,
      "ूजा, ": 9456,
      "ूर करण्यात आ": 9457,
      "ृखल": 9458,
      "ॅक ": 9459,
      "ॅम्ब": 9460,
      "ॅनाइट": 9461,
      "ॅबिनेट": 9462,
      "ॅरीस": 9463,
      "ेग": 9464,
      "े.\n": 9465,
      "े.\n\n\n==": 9466,
      "ेही ": 9467,
      "ेमो": 9468,
      "ेष्ठ": 9469,
      "े.\n\n\n=== ": 9470,
      "ेश्व": 9471,
      "े)\n": 9472,
      "ेमुळे ": 9473,
      "ेपास": 9474,
      "ेपूर": 9475,
      "ेमधील": 9476,
      "ेगळ": 9477,
      "ेदार ": 9478,
      "ेची निवडणू": 9479,
      "े\nसुर": 9480,
      "े):\n": 9481,
      "ैविध्य": 9482,
      "ैव दक्षिण": 9483,
      "ॉर्म": 9484,
      "ॉये": 9485,
      "ॉप ह": 9486,
      "ॉफ्टवे": 9487,
      "ोत ": 9488,
      "ोर ": 9489,
      "ोती ": 9490,
      "ोचे ": 9491,
      "ोची ": 9492,
      "ोण, ": 9493,
      "ोपाठ": 9494,
      "ोयी ": 9495,
      "ोमे": 9496,
      "ोखाल": 9497,
      "ोळी ": 9498,
      "ोर्तु": 9499,
      "ो बंद": 9500,
      "ो वर्षे ": 9501,
      "ौसम": 9502,
      "ौराण": 9503,
      "ौघात ": 9504,
      "्‍": 9505,
      "्ले जाते. ": 9506,
[...]
