{
  "version": "1.0",
  "truncation": null,
  "padding": null,
  "added_tokens": [],
  "normalizer": null,
  "pre_tokenizer": {
    "type": "ByteLevel",
    "add_prefix_space": false,
    "trim_offsets": true,
    "use_regex": true
  },
  "post_processor": null,
  "decoder": {
    "type": "ByteLevel",
    "add_prefix_space": true,
    "trim_offsets": true,
    "use_regex": true
  },
  "model": {
    "type": "BPE",
    "dropout": null,
    "unk_token": null,
    "continuing_subword_prefix": null,
    "end_of_word_suffix": null,
    "fuse_unk": false,
    "byte_fallback": false,
    "ignore_merges": false,
    "vocab": {
      "\"": 0,
      "$": 1,
      "%": 2,
      "&": 3,
      "'": 4,
      "(": 5,
      ")": 6,
      "+": 7,
      ",": 8,
      "-": 9,
      ".": 10,
      "/": 11,
      "0": 12,
      "1": 13,
      "2": 14,
      "3": 15,
      "4": 16,
      "5": 17,
      "6": 18,
      "7": 19,
      "8": 20,
      "9": 21,
      ":": 22,
      ";": 23,
      "=": 24,
      "A": 25,
      "B": 26,
      "C": 27,
      "D": 28,
      "E": 29,
      "F": 30,
      "G": 31,
      "H": 32,
      "I": 33,
      "J": 34,
      "K": 35,
      "L": 36,
      "M": 37,
      "N": 38,
      "O": 39,
      "P": 40,
      "R": 41,
      "S": 42,
      "T": 43,
      "U": 44,
      "V": 45,
      "W": 46,
      "Y": 47,
      "Z": 48,
      "[": 49,
      "]": 50,
      "^": 51,
      "a": 52,
      "b": 53,
      "c": 54,
      "d": 55,
      "e": 56,
      "f": 57,
      "g": 58,
      "h": 59,
      "i": 60,
      "j": 61,
      "k": 62,
      "l": 63,
      "m": 64,
      "n": 65,
      "o": 66,
      "p": 67,
      "q": 68,
      "r": 69,
      "s": 70,
      "t": 71,
      "u": 72,
      "v": 73,
      "w": 74,
      "x": 75,
      "y": 76,
      "z": 77,
      "|": 78,
      "¡": 79,
      "¢": 80,
      "£": 81,
      "¤": 82,
      "¥": 83,
      "¦": 84,
      "§": 85,
      "¨": 86,
      "©": 87,
      "ª": 88,
      "«": 89,
      "¬": 90,
      "®": 91,
      "¯": 92,
      "°": 93,
      "±": 94,
      "²": 95,
      "³": 96,
      "´": 97,
      "µ": 98,
      "¶": 99,
      "·": 100,
      "¸": 101,
      "¹": 102,
      "¼": 103,
      "½": 104,
      "¾": 105,
      "¿": 106,
      "Â": 107,
      "Ã": 108,
      "Ä": 109,
      "Å": 110,
      "É": 111,
      "Ê": 112,
      "Ë": 113,
      "Î": 114,
      "Ï": 115,
      "à": 116,
      "á": 117,
      "â": 118,
      "Ċ": 119,
      "Ġ": 120,
      "Ģ": 121,
      "ģ": 122,
      "Ĥ": 123,
      "ĥ": 124,
      "ħ": 125,
      "Ĩ": 126,
      "ĩ": 127,
      "Ī": 128,
      "ī": 129,
      "Ĭ": 130,
      "ĭ": 131,
      "Į": 132,
      "į": 133,
      "İ": 134,
      "ı": 135,
      "Ĳ": 136,
      "ĳ": 137,
      "Ĵ": 138,
      "ĵ": 139,
      "Ķ": 140,
      "ķ": 141,
      "ĸ": 142,
      "Ĺ": 143,
      "ĺ": 144,
      "Ļ": 145,
      "ļ": 146,
      "Ľ": 147,
      "ľ": 148,
      "Ŀ": 149,
      "ŀ": 150,
      "Ł": 151,
      "ł": 152,
      "Ń": 153,
      "à¤": 154,
      "à°": 155,
      "à¥": 156,
      "Ġà¤": 157,
      "à¤¾": 158,
      "à±": 159,
      "à¥į": 160,
      "à¤°": 161,
      "à¥ĩ": 162,
      "Ġà°": 163,
      "à¤¤": 164,
      "à¥Ģ": 165,
      "à¤¿": 166,
      "à±į": 167,
      "à¤¯": 168,
      "à°¾": 169,
      "à¤Ĥ": 170,
      "à°¿": 171,
      "à¤¨": 172,
      "à¤²": 173,
      "à¤ķ": 174,
      "à°°": 175,
      "Ġà¤ķ": 176,
      "à±ģ": 177,
      "à°Ĥ": 178,
      "à¤¸": 179,
      "à°²": 180,
      "Ġà¤¸": 181,
      "à¤µ": 182,
      "à¤®": 183,
      "à°¨": 184,
      "à¥ĭ": 185,
      "à¤¹": 186,
      "Ġà¤ª": 187,
      "à°¤": 188,
      "Ġt": 189,
      "à¤ļ": 190,
      "à¤¦": 191,
      "Ġà¤®": 192,
      "an": 193,
      "he": 194,
      "à¥ģ": 195,
      "in": 196,
      "Ġà¤¹": 197,
      "à°ķ": 198,
      "à¤ª": 199,
      "Ġà¤µ": 200,
      "à°¦": 201,
      "Ġà¤Ń": 202,
      "à¤£": 203,
      "à¤°à¤¤": 204,
      "Ġà¤Ĩ": 205,
      "Ġthe": 206,
      "à¤·": 207,
      "à°¯": 208,
      "Ġà¤ħ": 209,
      "on": 210,
      "à¥Ĥ": 211,
      "er": 212,
      "à¤ľ": 213,
      "à¤§": 214,
      "à¤Ĺ": 215,
      "à¤¶": 216,
      "re": 217,
      "à±ĩ": 218,
      "à±ĭ": 219,
      "Ġà°ª": 220,
      "à°µ": 221,
      "==": 222,
      "à¤Ł": 223,
      "Ġa": 224,
      "à¥Ī": 225,
      "à¤¾à¤Ĥ": 226,
      "Ġo": 227,
      "st": 228,
      "en": 229,
      "Ġà¤ľ": 230,
      "di": 231,
      "al": 232,
      "Ġà¤¨": 233,
      "à°Ł": 234,
      "Ġà¤¬": 235,
      "at": 236,
      "Ġà¤¦": 237,
      "à°Ĺ": 238,
      "à¤¥": 239,
      "à°®": 240,
      "à¥ĩà¤Ĥ": 241,
      "Ġà¤¤": 242,
      "and": 243,
      "Ġc": 244,
      "à¤¡": 245,
      "ed": 246,
      "à±Ģ": 247,
      "ĠI": 248,
      "Ġà¤°": 249,
      "à°¸": 250,
      "ar": 251,
      "Ġof": 252,
      "it": 253,
      "Ġw": 254,
      "à°ª": 255,
      "Ġin": 256,
      "à°¡": 257,
      "ĠIn": 258,
      "Ġs": 259,
      "Ġand": 260,
      "Ġà°¸": 261,
      "Ġà¤Ĩà¤¹": 262,
      "à¥¤": 263,
      "Ġà¤¯": 264,
      "à¤³": 265,
      "Ġà°ķ": 266,
      "à¤Ń": 267,
      "or": 268,
      "Ġb": 269,
      "ion": 270,
      "à¥ĩ.": 271,
      "à°ļ": 272,
      "Ġp": 273,
      "Ġm": 274,
      "es": 275,
      "à°¶": 276,
      "ĠIndi": 277,
      "Ġf": 278,
      "à¤¬": 279,
      "ic": 280,
      "Ġà¥": 281,
      "Ġà¤Ĺ": 282,
      "Ġà°µ": 283,
      "Ġà¤¶": 284,
      "Ġà°®": 285,
      "is": 286,
      "Ġ1": 287,
      "ing": 288,
      "à¤ĸ": 289,
      "Ġà¤ĩ": 290,
      "as": 291,
      "à°§": 292,
      "à°¿à°Ĥ": 293,
      "à°°à°¤": 294,
      "à°¿.": 295,
      "Ġà¤²": 296,
      "ent": 297,
      "om": 298,
      "Ġà¤ī": 299,
      "Ġl": 300,
      "à±Ĩ": 301,
      "à¥ĭà¤Ĥ": 302,
      "à¥ĥ": 303,
      "Ġà°°": 304,
      "ou": 305,
      "âĢ": 306,
      "Ġe": 307,
      "ĠIndia": 308,
      "Ġà¤Ķ": 309,
      "Ġà°Ń": 310,
      "Ġ(": 311,
      "à±Ĥ": 312,
      "Ġà°ħ": 313,
      "Ġà¤Ķà¤°": 314,
      "à¤ł": 315,
      "à°Ń": 316,
      "à±Ī": 317,
      "à°·": 318,
      "Ġto": 319,
      "ĊĊ": 320,
      "Ġ==": 321,
      "Ġà¤ªà¤°": 322,
      "§à¥": 323,
      "à¤¤à¤°": 324,
      "Ġà¤ļ": 325,
      "Ġh": 326,
      "à°ľ": 327,
      "ly": 328,
      "Ġà°¦": 329,
      "à°£": 330,
      "Ġd": 331,
      "Ġà¤ħà¤¸": 332,
      "ec": 333,
      "ur": 334,
      "Ġà°ī": 335,
      "Ġ19": 336,
      "Ġre": 337,
      "Ġ2": 338,
      "Ġà¤ı": 339,
      "ĠT": 340,
      "à¤¼": 341,
      "Ġn": 342,
      "à¤°à¤ķ": 343,
      "à¥Īà¥¤": 344,
      "Ġg": 345,
      "Ġà¥§à¥": 346,
      "il": 347,
      "à¤µà¤°": 348,
      "th": 349,
      "00": 350,
      "à°¹": 351,
      "Ġà°¨": 352,
      "ĠA": 353,
      "à°¬": 354,
      "Ġà¤ķà¤°": 355,
      "ver": 356,
      "ĠC": 357,
      "à¥¦": 358,
      "ol": 359,
      "ra": 360,
      "ul": 361,
      "ri": 362,
      "Ġà°ļ": 363,
      "Ġà°ľ": 364,
      "Ġà¤ħà¤¨": 365,
      "à¤Ī": 366,
      "Ġà¤¸à¤®": 367,
      "à°¥": 368,
      "ĠB": 369,
      "ation": 370,
      "à°°à°¤à°¦": 371,
      "Ġà¤§": 372,
      "Ġà°ĩ": 373,
      "à±ģ,": 374,
      "Ġà¤ıà¤ķ": 375,
      "am": 376,
      "ro": 377,
      "le": 378,
      "ve": 379,
      "à¥Īà¤Ĥ": 380,
      "ĠS": 381,
      "ce": 382,
      "ĠThe": 383,
      "Ġis": 384,
      "tion": 385,
      "Ġà¤Ŀ": 386,
      "à±Ĭ": 387,
      "ist": 388,
      "à¤°à¤®": 389,
      "et": 390,
      "¯à¥": 391,
      "à¤¾,": 392,
      "Ġby": 393,
      "à°¾à°Ĥ": 394,
      "ĠIndian": 395,
      "à¤¿à¤Ĥ": 396,
      "à¤®à¤§": 397,
      "Ġà¤µà¤°": 398,
      "à¤°à¤£": 399,
      "ast": 400,
      "us": 401,
      "Ġà°Ĩ": 402,
      "im": 403,
      "à±ģ.": 404,
      "ad": 405,
      "ig": 406,
      "===": 407,
      "Ġ===": 408,
      "à¤°à¤ª": 409,
      "Ġà°¤": 410,
      "à¥Į": 411,
      "Ġth": 412,
      "ge": 413,
      "ow": 414,
      "à¤ı": 415,
      "à¥Ģ.": 416,
      "id": 417,
      "un": 418,
      "Ġà¤ĺ": 419,
      "Ġà°Ĺ": 420,
      "à±ģà°Ĥ": 421,
      "Ġà¤®à¤¹": 422,
      "Ġà¤ĩà¤¸": 423,
      "'s": 424,
      "ir": 425,
      "uc": 426,
      "ith": 427,
      "Ġfor": 428,
      "à¤¢": 429,
      "Ġà°¬": 430,
      "ĠP": 431,
      "Ġr": 432,
      "Ġbe": 433,
      "à°³": 434,
      "à¥Ģà¤Ĥ": 435,
      "Ġà¤¸à¤°": 436,
      "ment": 437,
      "ĠM": 438,
      "Ġà¤¥": 439,
      "à¤·à¤£": 440,
      "à¤«": 441,
      "à°ĸ": 442,
      "Ġà°²": 443,
      "ate": 444,
      "Ġmo": 445,
      "âĢĵ": 446,
      "Ġà¥§à¥¯à¥": 447,
      "ut": 448,
      "Ġcon": 449,
      "Ġwith": 450,
      "âĢĮ": 451,
      "em": 452,
      "ies": 453,
      "à¤ĺ": 454,
      "Ġwas": 455,
      "à¤ģ": 456,
      "op": 457,
      "ter": 458,
      "Ġà¤ĸ": 459,
      "Ġas": 460,
      "à¤¾.": 461,
      "à¤¾à¥¤": 462,
      "à¥Ģ,": 463,
      "à¤µà¤¸": 464,
      "res": 465,
      "Ġwh": 466,
      "Ġst": 467,
      "Ġà¤Ł": 468,
      "Ġà¤¬à¤¨": 469,
      "Ġ20": 470,
      "Ġà¤§à¤°": 471,
      "Ġà°İ": 472,
      "à°²à°¨": 473,
      "à±Ĩà°Ĥ": 474,
      "rom": 475,
      "ĠE": 476,
      "ong": 477,
      "Ġà¤īà¤¤": 478,
      "ain": 479,
      "Ġà°¶": 480,
      "Ġà°īà°¨": 481,
      "ts": 482,
      "Ġà¤®à¤§": 483,
      "her": 484,
      "ac": 485,
      "Ġit": 486,
      "à¤°à¤ľ": 487,
      "Ġà¤¦à¤ķ": 488,
      "ical": 489,
      "Ġex": 490,
      "à¥Īà¤Ĥà¥¤": 491,
      "est": 492,
      "Ġon": 493,
      "à°°à°®": 494,
      "Ġdi": 495,
      "à¤°à¤¦": 496,
      "à¤ªà¤¨": 497,
      "Ġà¤¬à¤¹": 498,
      "Ġà¤¤à¤¥": 499,
      "ial": 500,
      "à¥ī": 501,
      "ang": 502,
      "um": 503,
      "Ġan": 504,
      "à¤ķà¤°": 505,
      "ab": 506,
      "ld": 507,
      "à±įâĢĮ": 508,
      "à°Ĥ,": 509,
      "Ġà¤ħà¤°": 510,
      "Ġor": 511,
      "ĠD": 512,
      "à¤²à¤¯": 513,
      "Ġà¥¨": 514,
      "se": 515,
      "à¤µà¤¤": 516,
      "à°¤à°°": 517,
      "Ġfrom": 518,
      "ich": 519,
      "Ġhas": 520,
      "),": 521,
      "gh": 522,
      "ĠG": 523,
      "ĠH": 524,
      "ay": 525,
      "up": 526,
      "à¥ĩ,": 527,
      "à°¿,": 528,
      "à°°à°ª": 529,
      "à¤¹à¤°": 530,
      "ers": 531,
      "à¤°à¤ªà¤Ł": 532,
      "Ġà¤¸à¤°à¤ķ": 533,
      "ill": 534,
      "ĠN": 535,
      "Ġà°¹": 536,
      "Ġar": 537,
      "Ġà¤¤à¤°": 538,
      "ive": 539,
      "à¥«": 540,
      "à¤ªà¤°": 541,
      "Ġà¤ħà¤§": 542,
      "Ġà¤īà¤¦": 543,
      "Ġwhich": 544,
      "ud": 545,
      "Ġun": 546,
      "à¤¸à¤¦": 547,
      "ern": 548,
      "Ġare": 549,
      "ĠâĢĵ": 550,
      "ity": 551,
      "con": 552,
      "ure": 553,
      "à¤¾à¤ģ": 554,
      "à±ĥ": 555,
      "Ġà°Ī": 556,
      "à°²à°²": 557,
      "à°²à°ķ": 558,
      "à¤¦à¤²": 559,
      "à°µà°°": 560,
      "ort": 561,
      "ub": 562,
      "à¤Ĩ": 563,
      "à¤ĩ": 564,
      "Ġà¤«": 565,
      "à¤°à¤ļ": 566,
      "Ġà¤ľà¤¨": 567,
      "Ġpar": 568,
      "Ġà¤ĩà¤¤": 569,
      "à¤±": 570,
      "à±į,": 571,
      "Ġà°ªà°°": 572,
      "ult": 573,
      "ak": 574,
      "rit": 575,
      "à¥ª": 576,
      "end": 577,
      "oun": 578,
      "oc": 579,
      "Ġà°Ĵ": 580,
      "à¤¸à¤¨": 581,
      "à¤ªà¤¤": 582,
      "Ġà¤Ĩà¤£": 583,
      "Ġinc": 584,
      "iv": 585,
      "over": 586,
      "Ġà¤ĵ": 587,
      "Ġà¤ªà¤¹": 588,
      "ere": 589,
      "Ġits": 590,
      "li": 591,
      "ot": 592,
      "Ġv": 593,
      "à¤ĵ": 594,
      "à¤°à¤¸": 595,
      "Ġà¤Ĩà¤²": 596,
      "à°¯à°µ": 597,
      "à¤Ĺà¤°": 598,
      "Ġal": 599,
      "Ġcom": 600,
      "Ġà¤ħà¤¸à¤¤": 601,
      "ch": 602,
      "du": 603,
      "à¤µà¤²": 604,
      "Ġà¤¤à¤ķ": 605,
      "od": 606,
      "à¤ķà¤¡": 607,
      "à¤¸à¤®": 608,
      "à°¨à°¦": 609,
      "Ġà¤¨à¤¦": 610,
      "ary": 611,
      "Ġwere": 612,
      "Ġà¤īà¤ª": 613,
      "Ġà°ħà°¨": 614,
      "Ġà°ħà°§": 615,
      "Ġde": 616,
      "Ġ201": 617,
      "os": 618,
      "Ġà¤ªà¤¦": 619,
      "ans": 620,
      "ated": 621,
      "el": 622,
      "ĠW": 623,
      "à±Į": 624,
      "à¤¯à¤µà¤¸": 625,
      "à¥ĭ.": 626,
      "à¤¹à¤£": 627,
      "à¤Ĺà¤²": 628,
      "Ġà¤¯à¤¹": 629,
      "ear": 630,
      "à¤¥à¤µ": 631,
      "Ġcent": 632,
      "Ġà¤°à¤¹": 633,
      "Ġà¤ħà¤¸à¤²": 634,
      "à¥¦à¥¦": 635,
      "In": 636,
      "ry": 637,
      "ted": 638,
      "à¤¤à¤¨": 639,
      "Ġà¤Ĩà¤°": 640,
      "Ġà¤Ĩà¤§": 641,
      "à¤ľà¤¨": 642,
      "à¤Ĺà¤¤": 643,
      "arge": 644,
      "Ġà¤Ĺà¤¯": 645,
      "Ġà°ľà°¨": 646,
      "à¤Ľ": 647,
      "à¥¨": 648,
      "à¥¬": 649,
      "Ġsp": 650,
      "orld": 651,
      "ism": 652,
      "mp": 653,
      "og": 654,
      "à¤¯à¤¤": 655,
      "Ġà¤ķà¤°à¤¤": 656,
      "à¤¸à¤Ń": 657,
      "Ġat": 658,
      "ous": 659,
      "ough": 660,
      "ĠAs": 661,
      "Ġà¤Łà¤ķ": 662,
      "Ġà°Ĵà°ķ": 663,
      "overn": 664,
      "ag": 665,
      "fter": 666,
      "Ġ7": 667,
      "Ġk": 668,
      "à¥Ń": 669,
      "Ġà¤¡": 670,
      "Ġà¤ķà¤®": 671,
      "à¤¸à¤ķ": 672,
      "Ġà¤ªà¤¡": 673,
      "Ġch": 674,
      "Ġint": 675,
      "Ġpro": 676,
      "Ġ196": 677,
      "Ġcont": 678,
      "ĠR": 679,
      "Ġà°ı": 680,
      "à°¾,": 681,
      "à°°à°¸": 682,
      "Ġà¤ħà¤¶": 683,
      "Ġco": 684,
      "Ġà°ķà°²": 685,
      "Ġà¤Ĺà¤£": 686,
      "outh": 687,
      "âĢĶ": 688,
      "Ġ200": 689,
      "000": 690,
      "Ġà°İà°¨": 691,
      "conom": 692,
      "à°¯à°µà°¸": 693,
      "age": 694,
      "ĠU": 695,
      "Ġà¤Ī": 696,
      "Ġà¤ĳ": 697,
      "Ġà¤¸à¤¬": 698,
      "ant": 699,
      "Ġà¤Ĩà¤ľ": 700,
      "ally": 701,
      "ass": 702,
      "our": 703,
      "ame": 704,
      "ĠHin": 705,
      "overnment": 706,
      "Ġà¤¸à¤¬à¤¸": 707,
      "50": 708,
      "av": 709,
      "if": 710,
      "low": 711,
      "Ġ\"": 712,
      "à¥©": 713,
      "à¤¯à¤ª": 714,
      "à°Ĥ.": 715,
      "à¤¸à¤°": 716,
      "à¤µà¤³": 717,
      "ance": 718,
      "à°µà°¤": 719,
      "Ġà¤¤à¤¸": 720,
      "à±Ģ,": 721,
      "Ġà°¸à°®": 722,
      "Ġbec": 723,
      "Ġà°µà°ļ": 724,
      "Ġà°ħà°¤": 725,
      "uring": 726,
      "Ġpart": 727,
      "ct": 728,
      "ution": 729,
      "Ġ4": 730,
      "à¥®": 731,
      "à¤°à¤¶": 732,
      "Ġà¤ħà¤¤": 733,
      "ions": 734,
      "Ġmar": 735,
      "ish": 736,
      "Ġle": 737,
      "Ġeconom": 738,
      "Ġform": 739,
      "ress": 740,
      "angu": 741,
      "Ġinto": 742,
      "aj": 743,
      "ap": 744,
      "Ġ3": 745,
      "à¤°à¤§": 746,
      "à¤¯à¤ķ": 747,
      "Ġà¤ķà¤²": 748,
      "à°²à°¤": 749,
      "à¤µà¤¨": 750,
      "any": 751,
      "Ġà¤ľà¤Ĺ": 752,
      "Ġà¤¶à¤¹à¤°": 753,
      "Ġà°®à°¤": 754,
      "Ġà°¦à°ķ": 755,
      "Ġreg": 756,
      "illion": 757,
      "hi": 758,
      "ore": 759,
      "ĠF": 760,
      "ĠJ": 761,
      "à¥Ģà¥¤": 762,
      "à¤¨à¤®": 763,
      "Ġà¤¸à¤¹": 764,
      "Ġà¤ªà¤¶": 765,
      "Ġad": 766,
      "à¥Ī,": 767,
      "stit": 768,
      "dia": 769,
      "ates": 770,
      "Ġcl": 771,
      "Ġse": 772,
      "Ġsub": 773,
      "Ġpl": 774,
      "à¤¬à¤°": 775,
      "Ġlarge": 776,
      "Ġrel": 777,
      "Ġcentur": 778,
      "ces": 779,
      "ia": 780,
      "me": 781,
      "Ġy": 782,
      "à¤ħ": 783,
      "à¥§à¥": 784,
      "à¤°à¤Ń": 785,
      "à¤¯à¤¨": 786,
      "à¤²à¤¨": 787,
      "à°°à°ķ": 788,
      "à°°à°¦": 789,
      "à°°à°§": 790,
      "inist": 791,
      "Ġà¤¹à¤µ": 792,
      "à°ķà°°": 793,
      "à°¯à°®": 794,
      "eral": 795,
      "à¤¶à¤ķ": 796,
      "reas": 797,
      "Ġà°¸à°°": 798,
      "à¤³à¤¤": 799,
      "Ġper": 800,
      "Ġpop": 801,
      "Ġà¥«": 802,
      "à°¹à°¦": 803,
      "Ġà¤ķà¤°à¤£": 804,
      "ĠCh": 805,
      "The": 806,
      "ire": 807,
      "mer": 808,
      "ok": 809,
      "so": 810,
      "ther": 811,
      "ĠV": 812,
      "à¤¯à¤®": 813,
      "Ġtra": 814,
      "reat": 815,
      "ence": 816,
      "Ġà¤¬à¤¡": 817,
      "Ġlangu": 818,
      "Ġel": 819,
      "Ġ199": 820,
      "à¤¼à¥Ģ": 821,
      "Ġgovernment": 822,
      "India": 823,
      "lud": 824,
      "qu": 825,
      "yst": 826,
      "ĠK": 827,
      "Ġà¤Ľ": 828,
      "à¤®à¤°": 829,
      "à¤®à¤¨": 830,
      "à¤¦à¤°": 831,
      "ine": 832,
      "Ġà¤µà¤¨": 833,
      "Ġà¤Ĩà¤ª": 834,
      "Ġà¤ħà¤Ń": 835,
      "à¤ľà¤°": 836,
      "à±ĭ,": 837,
      "à¤Łà¤ķ": 838,
      "dition": 839,
      "Ġà¤¬à¤¦à¤²": 840,
      "Ġworld": 841,
      "Ġpri": 842,
      "Ġà°®à°§": 843,
      "Ġà¤ĩà¤¤à¤°": 844,
      "Ġdec": 845,
      "à°¬à°¡": 846,
      "Ġà¤ķà¤°à¤¨": 847,
      "Ġà°ľà°°": 848,
      "Ġà¤ĩà¤¸à¤ķ": 849,
      "Ġpopul": 850,
      "19": 851,
      "ave": 852,
      "cc": 853,
      "duc": 854,
      "à¤¤à¤ķ": 855,
      "à¤¨à¤ļ": 856,
      "Ġà¤ħà¤²": 857,
      "à¤Łà¤¨": 858,
      "Ġag": 859,
      "Ġà¤¤à¤®": 860,
      "ĠInd": 861,
      "Ġfir": 862,
      "ome": 863,
      "Ġ194": 864,
      "ign": 865,
      "Ġ202": 866,
      "Ġcomp": 867,
      "Ġyear": 868,
      "ystem": 869,
      "Ġfirst": 870,
      "der": 871,
      "ff": 872,
      "ian": 873,
      "oth": 874,
      "pp": 875,
      "Ġ5": 876,
      "Ġend": 877,
      "à¤¨à¤µ": 878,
      "à¤ķà¤¤": 879,
      "à°°à°Ń": 880,
      "à°°à°ľ": 881,
      "Ġà¤¸à¤£": 882,
      "à°¯à°ķ": 883,
      "Ġà¤ħà¤ªà¤¨": 884,
      "à¤Ĺà¤³": 885,
      "red": 886,
      "Ġà°ªà°Ł": 887,
      "all": 888,
      "à°Ĺà°°": 889,
      "Ġsh": 890,
      "Ġà°ħà°¯": 891,
      "ection": 892,
      "Ġ197": 893,
      "Ġà°ĩà°¤à°°": 894,
      "row": 895,
      "uch": 896,
      "Ġmost": 897,
      "Ġexp": 898,
      "Ġart": 899,
      "Ġinclud": 900,
      "ĠHindu": 901,
      "ber": 902,
      "gan": 903,
      "ved": 904,
      "we": 905,
      "Ġ8": 906,
      "à¤Ĭ": 907,
      "à¤ŀ": 908,
      "à¤¤à¤ª": 909,
      "à¤¨à¤ķ": 910,
      "à¤ķà¤²": 911,
      "Ġà¤ªà¤ķ": 912,
      "Ġà¤ªà¤ł": 913,
      "à¥ģà¤Ĥ": 914,
      "Ġà¤Ĩà¤ķ": 915,
      "à¤·à¤Ń": 916,
      "Ġà¤ħà¤ľ": 917,
      "à¤¶à¤¨": 918,
      "Ġover": 919,
      "Ġsystem": 920,
      "âĢį": 921,
      "Ġduring": 922,
      "ect": 923,
      "Ġres": 924,
      "à¤¼à¤¾": 925,
      "used": 926,
      "igh": 927,
      "ide": 928,
      "ages": 929,
      "Ġbecame": 930,
      "stitution": 931,
      "ew": 932,
      "har": 933,
      "ral": 934,
      "Ġri": 935,
      "à°ĺ": 936,
      "à¥§": 937,
      "à¥ħ": 938,
      "Ġà°¯": 939,
      "à°¨à°µ": 940,
      "à°¦à°°": 941,
      "Ġà¤¬à¤¢": 942,
      "à¤¡à¤²": 943,
      "Ġà°¸à°Ń": 944,
      "ord": 945,
      "Ġbut": 946,
      "Ġhad": 947,
      "Ġhave": 948,
      "Ġrep": 949,
      "Ġgen": 950,
      "ational": 951,
      "Ġà°Ĩà°°": 952,
      "à¤°à¤ªà¤¤": 953,
      "Ġbeen": 954,
      "Ġmod": 955,
      "estern": 956,
      "Ġalso": 957,
      "Ġà¤ªà¤¦à¤µ": 958,
      "mpire": 959,
      "ajor": 960,
      "dh": 961,
      "ric": 962,
      "ĠL": 963,
      "à¤ī": 964,
      "à¤Ŀ": 965,
      "Ġà¤ł": 966,
      "Ġà¤¸à¤Ń": 967,
      "à¤®à¤¤": 968,
      "à¤¹à¤°à¤£": 969,
      "Ġà¤ħà¤ª": 970,
      "Ġinf": 971,
      "Ġsup": 972,
      "Ġme": 973,
      "ics": 974,
      "à¤ĸà¤²": 975,
      "ural": 976,
      "Ġmore": 977,
      "Ġcons": 978,
      "ongress": 979,
      "Ġà¤Īà¤¸": 980,
      "Ġrelig": 981,
      "Ġtradition": 982,
      ").": 983,
      "CE": 984,
      "ep": 985,
      "ty": 986,
      "wo": 987,
      "Ġ6": 988,
      "ĠO": 989,
      "à°«": 990,
      "Ġà¤ĭ": 991,
      "à¤°à¤²": 992,
      "à¤®à¤¦": 993,
      "à¤ļà¤¨": 994,
      "à°¦à°Ł": 995,
      "à¤§à¤¤": 996,
      "à±ĩà°Ĥ": 997,
      "Ġà°ªà°¦": 998,
      "à°µà°²": 999,
      "Ġafter": 1000,
      "ens": 1001,
      "Ġà¤¦à¤°": 1002,
      "à°Ĺà°²": 1003,
      "Ġsuch": 1004,
      "ory": 1005,
      "Ġpe": 1006,
      "Ġpol": 1007,
      "Ġmillion": 1008,
      "Ġminist": 1009,
      "à¤¬à¤¦": 1010,
      "Ġà¥ª": 1011,
      "Ġ18": 1012,
      "Ġlat": 1013,
      "Ġà°°à°µ": 1014,
      "Ġà°īà°¤": 1015,
      "Ġnum": 1016,
      "vers": 1017,
      "Ġà¤¸à¤®à¤¯": 1018,
      "ĠSouth": 1019,
      "à¤°à¤®à¤£": 1020,
      "Ġà°¤à°°": 1021,
      "Ġthat": 1022,
      "ower": 1023,
      "ound": 1024,
      "ount": 1025,
      "Ġincreas": 1026,
      "Ġclass": 1027,
      "Ġcentury": 1028,
      "Ġyears": 1029,
      "Ġmodern": 1030,
      "20": 1031,
      "mong": 1032,
      "tin": 1033,
      "ust": 1034,
      "ures": 1035,
      "Ġ,": 1036,
      "Ġhe": 1037,
      "Ġim": 1038,
      "à¤ĥ": 1039,
      "à¤¤à¤¤": 1040,
      "à¤²à¤ļ": 1041,
      "à¤ķà¤¸": 1042,
      "Ġtwo": 1043,
      "Ġà¤®à¤¸": 1044,
      "hed": 1045,
      "à¤ľà¤µ": 1046,
      "Ġca": 1047,
      "orth": 1048,
      "Ġboth": 1049,
      "à¤¬à¤¤": 1050,
      "Ġlong": 1051,
      "Ġ1950": 1052,
      "ĠCongress": 1053,
      "à¥Īà¤Ĥ,": 1054,
      "imal": 1055,
      "Ġrul": 1056,
      "Ġdis": 1057,
      "Ġ2011": 1058,
      "Ġregion": 1059,
      "Ġprime": 1060,
      "Ġ1947": 1061,
      "ban": 1062,
      "ef": 1063,
      "les": 1064,
      "lic": 1065,
      "ph": 1066,
      "Ġà¤Ĭ": 1067,
      "à¤¤à¤µ": 1068,
      "à¤¤à¤®": 1069,
      "à°Ĥ:": 1070,
      "à°¨à°®": 1071,
      "à¤¶à¤¯": 1072,
      "ren": 1073,
      "à±ĩ.": 1074,
      "Ġà¤¦à¤¶à¤ķ": 1075,
      "Ġcast": 1076,
      "à°ªà°Ł": 1077,
      "Ġsc": 1078,
      "Ġser": 1079,
      "Ġsoc": 1080,
      "Ġà°ķà°¨": 1081,
      "Ġmajor": 1082,
      "Ġà¤ĩà¤®": 1083,
      "Ġà¤²à¤Ĺ": 1084,
      "Ġhum": 1085,
      "à°ľà°ķ": 1086,
      "urban": 1087,
      "Ġà°īà°ª": 1088,
      "olog": 1089,
      "ĠBCE": 1090,
      "Ġà°ĩà°¦": 1091,
      "istan": 1092,
      "etwe": 1093,
      "Ġà°¬à°¹": 1094,
      "Ġà°İà°ķ": 1095,
      "Ġà¤ħà¤°à¤¬": 1096,
      "ulture": 1097,
      "Ġà¤ĵà¤³": 1098,
      "ĠAsia": 1099,
      "Ġà°ıà°°": 1100,
      "etween": 1101,
      "ik": 1102,
      "mon": 1103,
      "ose": 1104,
      "rough": 1105,
      "Ġra": 1106,
      "Ġup": 1107,
      "Ġurban": 1108,
      "à¥¯": 1109,
      "à¤°à¤µ": 1110,
      "à¤¯à¤¦": 1111,
      "à¤²à¤Ĺ": 1112,
      "à¤ķà¤¸à¤Ń": 1113,
      "Ġà¤ķà¤Ī": 1114,
      "à¤®à¤ķ": 1115,
      "Ġà¤®à¤¤": 1116,
      "ince": 1117,
      "à¤ªà¤£": 1118,
      "Ġtheir": 1119,
      "Ġà¤¨à¤¹": 1120,
      "Ġoff": 1121,
      "isation": 1122,
      "Ġhist": 1123,
      "Ġ198": 1124,
      "Ġ26": 1125,
      "Ġà¤ıà¤¶": 1126,
      "Ġnot": 1127,
      "Ġgrow": 1128,
      "ĠBud": 1129,
      "ĠBrit": 1130,
      "ament": 1131,
      "lear": 1132,
      "vel": 1133,
      "Ġthis": 1134,
      "uclear": 1135,
      "ĠEmpire": 1136,
      "Ġunder": 1137,
      "Ġà¤ªà¤¹à¤²": 1138,
      "ĠUn": 1139,
      "Ġlanguage": 1140,
      "Ġelection": 1141,
      "Ġpopulation": 1142,
      "Ġminister": 1143,
      "Ġcaste": 1144,
      "ĠBuddh": 1145,
      "ĠBritish": 1146,
      "ace": 1147,
      "lo": 1148,
      "pt": 1149,
      "Ġen": 1150,
      "Ġà°Ł": 1151,
      "à¤¯à¤¸à¤Ń": 1152,
      "à¤¨à¤²": 1153,
      "à¤²à¤¤": 1154,
      "à¤²à¤µ": 1155,
      "à°²à°¯": 1156,
      "Ġà¤¸à¤¦": 1157,
      "à¤µà¤¡": 1158,
      "à¤®à¤¹": 1159,
      "à¤¹à¤¤": 1160,
      "Ġter": 1161,
      "Ġà¤®à¤°": 1162,
      "Ġà¤¹à¤°": 1163,
      "à°ķà°²": 1164,
      "Ġà¤Ńà¤°à¤¤": 1165,
      "Ġà¤Ĩà¤¦": 1166,
      "Ġà¤Ĩà¤¢": 1167,
      "à°¯à°§": 1168,
      "Ġà¤ħà¤¥à¤µ": 1169,
      "à¤§à¤¨": 1170,
      "à¤Ĺà¤¡": 1171,
      "ree": 1172,
      "Ġà¤¨à¤®": 1173,
      "à¥ĩà¤Ĥ,": 1174,
      "Ġà¤¤à¤¯": 1175,
      "à±Ģ;": 1176,
      "ari": 1177,
      "à°ªà°¡": 1178,
      "Ġsouth": 1179,
      "Ġbetween": 1180,
      "Ġmany": 1181,
      "à°¶à°ª": 1182,
      "Ġfol": 1183,
      "Ġà¥©": 1184,
      "Ġà°µà°°": 1185,
      "Ġà°®à°¹": 1186,
      "Ġ12": 1187,
      "omet": 1188,
      "Ġland": 1189,
      "out": 1190,
      "Ġear": 1191,
      "à°·à°²": 1192,
      "Ġdance": 1193,
      "Ġrec": 1194,
      "Ġnort": 1195,
      "Ġnorth": 1196,
      "Ġà°¨à°¡": 1197,
      "ĠCE": 1198,
      "ĠCon": 1199,
      "rib": 1200,
      "ations": 1201,
      "Ġà°ĩà°µ": 1202,
      "à±Ĭà°Ĥ": 1203,
      "Ġà°Ĩà°§": 1204,
      "Ġà°Ĺà°²": 1205,
      "Ġbegan": 1206,
      "Ġà¥§à¥¯à¥Ń": 1207,
      "à¤ĺà¤²": 1208,
      "ically": 1209,
      "ially": 1210,
      "anges": 1211,
      "à°°à°ªà°¤": 1212,
      "contin": 1213,
      "akistan": 1214,
      "ell": 1215,
      "Ġà¤ĳà¤«": 1216,
      "lowing": 1217,
      "Ġsupp": 1218,
      "ountry": 1219,
      "continent": 1220,
      "ci": 1221,
      "gen": 1222,
      "gal": 1223,
      "lu": 1224,
      "ni": 1225,
      "sh": 1226,
      "vi": 1227,
      "Ġ9": 1228,
      "Ġj": 1229,
      "à¥įâĢį": 1230,
      "Ġtim": 1231,
      "Ġà¤ħà¤®": 1232,
      "Ġà¤ħà¤Ĺ": 1233,
      "ond": 1234,
      "Ġapp": 1235,
      "als": 1236,
      "atic": 1237,
      "ĠIt": 1238,
      "ite": 1239,
      "ited": 1240,
      "ition": 1241,
      "Ġmat": 1242,
      "Ġfore": 1243,
      "Ġà¥Ń": 1244,
      "Ġà¤¶à¤ķ": 1245,
      "omp": 1246,
      "Ġeast": 1247,
      "Ġà¤ªà¤°à¤®": 1248,
      "ech": 1249,
      "Ġ195": 1250,
      "Ġà¤ıà¤µ": 1251,
      "Ġà¥§à¥¦": 1252,
      "Ġà¥§à¥¨": 1253,
      "Ġà¥§à¥®": 1254,
      "ilit": 1255,
      "ĠAl": 1256,
      "ĠAn": 1257,
      "ade": 1258,
      "ĠPakistan": 1259,
      "hern": 1260,
      "ack": 1261,
      "able": 1262,
      "ublic": 1263,
      "Ġeconomy": 1264,
      "Ġlater": 1265,
      "versity": 1266,
      "Ġimp": 1267,
      "Ġnorthern": 1268,
      "%.": 1269,
      "aw": 1270,
      "cy": 1271,
      "gin": 1272,
      "ting": 1273,
      "ugh": 1274,
      "ĠâĢĶ": 1275,
      "à°¢": 1276,
      "à¤¯à¤µ": 1277,
      "Ġà¤ķà¤¡": 1278,
      "à°²à°µ": 1279,
      "Ġà¤¸à¤§": 1280,
      "à¤µà¤µ": 1281,
      "à¤µà¤£": 1282,
      "à¤µà¤¶": 1283,
      "à°¨à°²": 1284,
      "à°¨à°ª": 1285,
      "à°¤à°®": 1286,
      "à¤ļà¤²": 1287,
      "à¤ªà¤¦": 1288,
      "Ġthere": 1289,
      "à°¯à°¨": 1290,
      "à°¯à°¤": 1291,
      "ered": 1292,
      "à¤ľà¤ķ": 1293,
      "à¤§à¤²": 1294,
      "à¤Ĺà¤®": 1295,
      "Ġà°ªà°¤": 1296,
      "à°µà°¹": 1297,
      "Ġab": 1298,
      "Ġà¤ľà¤µ": 1299,
      "Ġà¤ľà¤®": 1300,
      "dic": 1301,
      "Ġà¤¨à¤µ": 1302,
      "à°Łà°£": 1303,
      "Ġà¤¦à¤ĸ": 1304,
      "à°®à°¨": 1305,
      "ard": 1306,
      "iter": 1307,
      "Ġwestern": 1308,
      "Ġsec": 1309,
      "Ġsince": 1310,
      "à¤³à¤¨": 1311,
      "à¤³à¤µà¤³": 1312,
      "ice": 1313,
      "Ġà¥¬": 1314,
      "Ġà¤¶à¤¤à¤ķ": 1315,
      "Ġ10": 1316,
      "omin": 1317,
      "Ġà°°à°ķ": 1318,
      "Ġà°°à°¹à°¦": 1319,
      "Ġemer": 1320,
      "à°·à°£": 1321,
      "Ġà¤ļà¤³à¤µà¤³": 1322,
      "à°ľà°¨": 1323,
      "Ġnon": 1324,
      "raph": 1325,
      "ular": 1326,
      "à°¥à°²": 1327,
      "Ġrate": 1328,
      "Ġà°²à°ķ": 1329,
      "Ġà¥§à¥¯à¥¯à¥": 1330,
      "Ġext": 1331,
      "à¥īà¤Ĥ": 1332,
      "Ġà¥¨à¥¦à¥¦": 1333,
      "Ġà¤ľà¤¨à¤ľ": 1334,
      "à¤¹à¤£à¤ľ": 1335,
      "Ġspec": 1336,
      "Ġà°Ĵà°ķà°Ł": 1337,
      "Ġ1965": 1338,
      "Ġà¤Ĺà¤£à¤²": 1339,
      "Ġeconomic": 1340,
      "Ġsubcontinent": 1341,
      "Ġà¤Ĩà¤ªà¤²": 1342,
      "Ġinflu": 1343,
      "Ġpeop": 1344,
      "Ġincreased": 1345,
      "Ġclassical": 1346,
      "Ġhuman": 1347,
      "Ġà¤ĵà¤³à¤ĸà¤²": 1348,
      "velop": 1349,
      "%,": 1350,
      "%;": 1351,
      "ced": 1352,
      "ex": 1353,
      "ever": 1354,
      "hm": 1355,
      "iod": 1356,
      "lim": 1357,
      "rol": 1358,
      "sl": 1359,
      "ta": 1360,
      "vent": 1361,
      "Ġ%": 1362,
      "Ġ-": 1363,
      "à¥ĩà¥¤": 1364,
      "à¤¨à¤¨": 1365,
      "à¤²à¤°": 1366,
      "hem": 1367,
      "Ġà¤Ĩà¤¯": 1368,
      "Ġà¤Ĩà¤Ĺ": 1369,
      "Ġà¤Ĩà¤ķà¤°": 1370,
      "Ġamong": 1371,
      "Ġocc": 1372,
      "ative": 1373,
      "Ġcour": 1374,
      "Ġwar": 1375,
      "à¤Ńà¤°": 1376,
      "ork": 1377,
      "orm": 1378,
      "Ġpower": 1379,
      "Ġmus": 1380,
      "Ġmid": 1381,
      "Ġmilit": 1382,
      "esp": 1383,
      "Ġà¤¶à¤¤": 1384,
      "ise": 1385,
      "ised": 1386,
      "Ġ15": 1387,
      "Ġlif": 1388,
      "Ġliter": 1389,
      "ected": 1390,
      "ĠTh": 1391,
      "à¤¼à¥ĩ": 1392,
      "Ġnew": 1393,
      "Ġnuclear": 1394,
      "Ġgr": 1395,
      "Ġà¥§à¥«": 1396,
      "ĠAr": 1397,
      "amil": 1398,
      "Ġthan": 1399,
      "own": 1400,
      "ĠPl": 1401,
      "ĠMugh": 1402,
      "ately": 1403,
      "tern": 1404,
      "Ġstate": 1405,
      "ains": 1406,
      "Ġparli": 1407,
      "Ġdevelop": 1408,
      "ĠWorld": 1409,
      "Ġlargest": 1410,
      "Ġperiod": 1411,
      "Ġgeneral": 1412,
      "Ġnumber": 1413,
      "cient": 1414,
      "Ġspecies": 1415,
      "Ġpeople": 1416,
      "Ġlife": 1417,
      "Ġparliament": 1418,
      "42": 1419,
      "dle": 1420,
      "fe": 1421,
      "jab": 1422,
      "ket": 1423,
      "krit": 1424,
      "ron": 1425,
      "ruc": 1426,
      "ten": 1427,
      "til": 1428,
      "ya": 1429,
      "Ġ'": 1430,
      "à°ĩ": 1431,
      "à¤°à¤¯": 1432,
      "Ġà°Ĳ": 1433,
      "Ġà°ĸ": 1434,
      "à¤¯à¤°": 1435,
      "à¤¨à¤¹": 1436,
      "à°°à°µ": 1437,
      "à°°à°£": 1438,
      "Ġà¤ķà¤¨": 1439,
      "à±ģ:": 1440,
      "à¤¸à¤±": 1441,
      "Ġà¤¸à¤¸": 1442,
      "à°¨à°¤": 1443,
      "à¤¹à¤³": 1444,
      "Ġà¤®à¤¨": 1445,
      "hen": 1446,
      "ina": 1447,
      "Ġà¤¹à¤³": 1448,
      "à°ķà°¤": 1449,
      "à°¦à°²": 1450,
      "Ġà¤Ńà¤µà¤¨": 1451,
      "Ġthem": 1452,
      "à°¯à°²": 1453,
      "à¤ľà¤¸": 1454,
      "à¤ľà¤ª": 1455,
      "à¤Ĺà¤£": 1456,
      "à±ĩ,": 1457,
      "à°µà°Ĺ": 1458,
      "à°µà°¸": 1459,
      "à°µà°¡": 1460,
      "engal": 1461,
      "enni": 1462,
      "à°Łà°®": 1463,
      "à°Ĺà°®": 1464,
      "Ġà¤¤à¤¤": 1465,
      "Ġcountry": 1466,
      "Ġà¤°à¤ļà¤¨": 1467,
      "à°¸à°°": 1468,
      "ities": 1469,
      "à°ªà°°": 1470,
      "Ġset": 1471,
      "à¤³à¤ķ": 1472,
      "à¤³à¤µ": 1473,
      "Ġbas": 1474,
      "Ġbir": 1475,
      "à¤¬à¤Ī": 1476,
      "Ġà¤Ĺà¤Ī": 1477,
      "Ġà°®à°°": 1478,
      "Ġ17": 1479,
      "à¤ĸà¤¨à¤ļ": 1480,
      "à°§à°¤": 1481,
      "Ġà¤īà¤¨à¤ķ": 1482,
      "Ġest": 1483,
      "Ġà°ħà°Ń": 1484,
      "à°·à°°": 1485,
      "Ġà¤ļà¤²": 1486,
      "urop": 1487,
      "Ġref": 1488,
      "Ġgreat": 1489,
      "ild": 1490,
      "Ġà°¨à°Ĺà°°": 1491,
      "Ġà°ļà°°": 1492,
      "ĠBengal": 1493,
      "vement": 1494,
      "ĠSans": 1495,
      "Ġà°Ĩà°ķ": 1496,
      "Ġà°¤à°®": 1497,
      "Ġthough": 1498,
      "Ġthrough": 1499,
      "unjab": 1500,
      "Ġà¤®à¤¹à¤¤": 1501,
      "ĠPunjab": 1502,
      "ĠMa": 1503,
      "Ġconstitution": 1504,
      "Ġà¤¬à¤¨à¤²": 1505,
      "ĠEast": 1506,
      "Ġà°¶à°¤": 1507,
      "act": 1508,
      "illenni": 1509,
      "à°µà°°à°£": 1510,
      "Ġà¤ľà¤¨à¤¸": 1511,
      "ultan": 1512,
      "Ġà¤Ĩà¤£à¤²": 1513,
      "ived": 1514,
      "Ġà¤ĵà¤°": 1515,
      "Ġà¤īà¤ªà¤¸": 1516,
      "ograph": 1517,
      "Ġà¤ªà¤¡à¤²": 1518,
      "Ġà¤Ĺà¤£à¤°": 1519,
      "ĠUS": 1520,
      "Ġlead": 1521,
      "Ġlanguages": 1522,
      "Ġà¤µà¤¨à¤¸": 1523,
      "ĠIndo": 1524,
      "à°°à°ľà°²": 1525,
      "Ġincluding": 1526,
      "Ġcaused": 1527,
      "Ġrule": 1528,
      "Ġsocial": 1529,
      "Ġemerg": 1530,
      "Ġmilitary": 1531,
      "ĠMughal": 1532,
      "urope": 1533,
      "ĠSanskrit": 1534,
      "illennium": 1535,
      "30": 1536,
      "ai": 1537,
      "ared": 1538,
      "ib": 1539,
      "ied": 1540,
      "ians": 1541,
      "large": 1542,
      "nolog": 1543,
      "ost": 1544,
      "odi": 1545,
      "ood": 1546,
      "per": 1547,
      "Äģ": 1548,
      "à¤°à¤ĸ": 1549,
      "à¤°à¤Ĺà¤¤": 1550,
      "à¥Ģ)": 1551,
      "à¤¯à¤¸": 1552,
      "à¤ķà¤¨": 1553,
      "à¤ķà¤°à¤£": 1554,
      "Ġà¤ķà¤ļ": 1555,
      "à¤¸à¤µ": 1556,
      "Ġà¤¸à¤¤": 1557,
      "à¤®à¤£": 1558,
      "Ġà¤ªà¤¤": 1559,
      "Ġtr": 1560,
      "ange": 1561,
      "hes": 1562,
      "heast": 1563,
      "Ġà¤Ĩà¤¨": 1564,
      "Ġà¤ħà¤®à¤°": 1565,
      "à¤¶à¤¸": 1566,
      "rew": 1567,
      "read": 1568,
      "à¤Łà¤°": 1569,
      "à¤Łà¤µ": 1570,
      "Ġother": 1571,
      "Ġà¤ľà¤¯": 1572,
      "Ġà¤ľà¤¬": 1573,
      "Ġà¤¨à¤°": 1574,
      "ati": 1575,
      "Ġà¤¦à¤²": 1576,
      "Ġà¤°à¤ķ": 1577,
      "Ġsome": 1578,
      "Ġsign": 1579,
      "à¤Ńà¤Ĺ": 1580,
      "orn": 1581,
      "ors": 1582,
      "orts": 1583,
      "Ġbillion": 1584,
      "Ġpre": 1585,
      "Ġmain": 1586,
      "Ġmillennium": 1587,
      "Ġfar": 1588,
      "Ġà¤Ĺà¤¤": 1589,
      "Ġà¤Ĺà¤ł": 1590,
      "Ġà¤ĩà¤¨": 1591,
      "entral": 1592,
      "Ġà¤īà¤°": 1593,
      "Ġà¤īà¤ł": 1594,
      "Ġled": 1595,
      "ould": 1596,
      "Ġemp": 1597,
      "à¤¼à¥ĭ": 1598,
      "Ġgra": 1599,
      "Ġà¥§à¥¬": 1600,
      "ilomet": 1601,
      "ĠAfter": 1602,
      "ĠComp": 1603,
      "ĠBy": 1604,
      "roc": 1605,
      "ĠSt": 1606,
      "ĠSik": 1607,
      "uslim": 1608,
      "owever": 1609,
      "ident": 1610,
      "Ġrural": 1611,
      "ments": 1612,
      "Ġà¥§à¥¯à¥®": 1613,
      "Ġwho": 1614,
      "Ġsty": 1615,
      "ach": 1616,
      "Ġone": 1617,
      "Ġdire": 1618,
      "ĠHimal": 1619,
      "Ġà¤ľà¤¨à¤¤": 1620,
      "ivil": 1621,
      "Ġall": 1622,
      "dust": 1623,
      "Ġkilomet": 1624,
      "Ġcenturies": 1625,
      "ĠChina": 1626,
      "duced": 1627,
      "ĠIndus": 1628,
      "Ġ1971": 1629,
      "à¤·à¤Ńà¤¦": 1630,
      "Ġriver": 1631,
      "ording": 1632,
      "Ġreligi": 1633,
      "Ġpolit": 1634,
      "Ġserved": 1635,
      "Ġà¤¸à¤¦à¤¸": 1636,
      "Ġmathem": 1637,
      "Ġforest": 1638,
      "Ġmusic": 1639,
      "ĠPlate": 1640,
      "largest": 1641,
      "Ġà¤Ĺà¤łà¤¬": 1642,
      "ĠHimalay": 1643,
      "%),": 1644,
      ");": 1645,
      "..": 1646,
      "200": 1647,
      "cri": 1648,
      "day": 1649,
      "eh": 1650,
      "eat": 1651,
      "gl": 1652,
      "ked": 1653,
      "led": 1654,
      "mit": 1655,
      "ple": 1656,
      "put": 1657,
      "ru": 1658,
      "«à¥¦": 1659,
      "Ġ$": 1660,
      "Ġus": 1661,
      "Ġused": 1662,
      "à°Ĩ": 1663,
      "à°ł": 1664,
      "à¤¾)": 1665,
      "Ġà°«": 1666,
      "Ġà°ĺ": 1667,
      "à¤¤à¤²": 1668,
      "à¤¤à¤¹": 1669,
      "à¤¤à¤ļ": 1670,
      "à¤¤à¤³": 1671,
      "à¥Ģ:": 1672,
      "à°¿:": 1673,
      "à°°à°¯": 1674,
      "Ġà¤ķà¤Ł": 1675,
      "Ġà¤ķà¤¥": 1676,
      "à¤¸à¤¤": 1677,
      "à°²à°®": 1678,
      "à¤®à¤²": 1679,
      "à°¨à°¨": 1680,
      "à°¨à°Ł": 1681,
      "à¤¹à¤ľ": 1682,
      "à°¤à°²": 1683,
      "Ġtech": 1684,
      "anu": 1685,
      "ants": 1686,
      "ances": 1687,
      "ins": 1688,
      "ines": 1689,
      "Ġà¤¹à¤¥": 1690,
      "à°ķà°¨": 1691,
      "à°ķà°Ł": 1692,
      "à°ķà°®": 1693,
      "à¤ªà¤¸à¤®": 1694,
      "à°¦à°¨": 1695,
      "à°¦à°Ĺ": 1696,
      "Ġà¤Ĩà¤¶": 1697,
      "à¤·à¤¯": 1698,
      "à¤§à¤ķ": 1699,
      "Ġà°ªà°²": 1700,
      "Ġà°ªà°ķ": 1701,
      "Ġà°ªà°¶": 1702,
      "à°µà°ļ": 1703,
      "à¤Łà¤²": 1704,
      "Ġac": 1705,
      "Ġout": 1706,
      "Ġà¤ľà¤²": 1707,
      "Ġà¤ľà¤µà¤³": 1708,
      "à°Łà°°": 1709,
      "ata": 1710,
      "ats": 1711,
      "à°®à°°": 1712,
      "ands": 1713,
      "andhi": 1714,
      "Ġcol": 1715,
      "Ġculture": 1716,
      "à±Ģ.": 1717,
      "ĠIsl": 1718,
      "arn": 1719,
      "ars": 1720,
      "Ġwe": 1721,
      "Ġwom": 1722,
      "Ġwide": 1723,
      "à°ªà°ķ": 1724,
      "à°¡à°°": 1725,
      "à°¡à°²": 1726,
      "à°¡à°®": 1727,
      "Ġsur": 1728,
      "ories": 1729,
      "Ġmade": 1730,
      "à°¶à°®": 1731,
      "Ġfound": 1732,
      "Ġà°µà°¹": 1733,
      "Ġ16": 1734,
      "Ġà¤īà¤·": 1735,
      "Ġloc": 1736,
      "à±Ĥ.": 1737,
      "Ġà°ħà°µ": 1738,
      "Ġhigh": 1739,
      "Ġà¤ħà¤¸à¤£": 1740,
      "à¤¼à¤¿": 1741,
      "Ġno": 1742,
      "very": 1743,
      "ĠCentral": 1744,
      "à°¥à°ķ": 1745,
      "ĠSh": 1746,
      "ĠIndians": 1747,
      "Ġà°Ĩà°«": 1748,
      "Ġà°¤à°¨": 1749,
      "Ġthir": 1750,
      "Ġà¤ĺà¤°": 1751,
      "Ġà¤ĺà¤¡à¤²": 1752,
      "à¤¢à¤²": 1753,
      "ĠMuslim": 1754,
      "Ġà¥§à¥¯à¥¬": 1755,
      "Ġass": 1756,
      "ĠEn": 1757,
      "Ġà°¶à°ķ": 1758,
      "acy": 1759,
      "ĠDel": 1760,
      "Ġà¥¨à¥¬": 1761,
      "ĠGandhi": 1762,
      "à¤°à¤ªà¤Łà¤¸": 1763,
      "Ġareas": 1764,
      "ives": 1765,
      "Ġà¤īà¤ªà¤¯": 1766,
      "à¤¹à¤£à¤¤": 1767,
      "Ġcentral": 1768,
      "Ġ1962": 1769,
      "Ġcontrib": 1770,
      "Ġcontrol": 1771,
      "à°°à°¸à°¤": 1772,
      "Ġcoal": 1773,
      "Ġcoast": 1774,
      "Ġcook": 1775,
      "Ġ40": 1776,
      "Ġleg": 1777,
      "à°ķà°°à°£": 1778,
      "Ġ1991": 1779,
      "ccording": 1780,
      "Ġagric": 1781,
      "Ġinclude": 1782,
      "ĠHinduism": 1783,
      "ensus": 1784,
      "Ġhistory": 1785,
      "Ġgrowth": 1786,
      "à¤µà¤¡à¤£": 1787,
      "Ġterrit": 1788,
      "Ġà¤Ĩà¤¢à¤³à¤¤": 1789,
      "Ġfollowing": 1790,
      "Ġtime": 1791,
      "Ġà°ªà°¤à°ķ": 1792,
      "Ġinfluen": 1793,
      "ultanate": 1794,
      "Ġemerged": 1795,
      "Ġtrans": 1796,
      "ĠCompany": 1797,
      "ĠSikh": 1798,
      "Ġreligious": 1799,
      "Ġpolitical": 1800,
      "Ġwomen": 1801,
      "Ġthird": 1802,
      "ĠDelhi": 1803,
      "17": 1804,
      "35": 1805,
      "JP": 1806,
      "au": 1807,
      "are": 1808,
      "fore": 1809,
      "iz": 1810,
      "main": 1811,
      "minist": 1812,
      "oin": 1813,
      "ook": 1814,
      "pl": 1815,
      "ue": 1816,
      "ually": 1817,
      "ven": 1818,
      "ving": 1819,
      "vol": 1820,
      "vid": 1821,
      "west": 1822,
      "work": 1823,
      "ªà¥Ń": 1824,
      "Ġà¥¤": 1825,
      "Ġent": 1826,
      "Ġher": 1827,
      "Ġ50": 1828,
      "Ġesp": 1829,
      "Ġà¤¢": 1830,
      "à¤¨à¤ª": 1831,
      "à¤ķà¤ª": 1832,
      "Ġà¤¸à¤²": 1833,
      "Ġà¤¸à¤ķ": 1834,
      "à¤µà¤¯": 1835,
      "à¤µà¤§": 1836,
      "ank": 1837,
      "à¤ªà¤ķ": 1838,
      "Ġà¤µà¤¸": 1839,
      "Ġà¤Ĩà¤¸": 1840,
      "Ġthey": 1841,
      "Ġà¤ħà¤ķ": 1842,
      "Ġà¤ħà¤«": 1843,
      "ons": 1844,
      "eration": 1845,
      "à¤ľà¤§": 1846,
      "reated": 1847,
      "Ġori": 1848,
      "dian": 1849,
      "alle": 1850,
      "Ġà¤¨à¤Ĺà¤°": 1851,
      "Ġcult": 1852,
      "Ġcap": 1853,
      "Ġcensus": 1854,
      "ĠIts": 1855,
      "Ġà¤°à¤ĸ": 1856,
      "ites": 1857,
      "Ġindust": 1858,
      "Ġbi": 1859,
      "Ġpain": 1860,
      "ess": 1861,
      "Ġfed": 1862,
      "Ġfig": 1863,
      "Ġfeat": 1864,
      "icial": 1865,
      "Ġà¥¯": 1866,
      "Ġà¤Ĺà¤ı": 1867,
      "oms": 1868,
      "Ġà¤īà¤¨": 1869,
      "Ġlast": 1870,
      "Ġdra": 1871,
      "ecially": 1872,
      "Ġremain": 1873,
      "Ġne": 1874,
      "Ġgrew": 1875,
      "Ġà¥§à¥Ń": 1876,
      "ĠAct": 1877,
      "verse": 1878,
      "ulpt": 1879,
      "ists": 1880,
      "istic": 1881,
      "ades": 1882,
      "und": 1883,
      "ĠPro": 1884,
      "Ġrates": 1885,
      "Ġmovement": 1886,
      "Ġà¥§à¥¯à¥«à¥¦": 1887,
      "Ġà¥§à¥¯à¥ªà¥Ń": 1888,
      "emoc": 1889,
      "à¤ĺà¤°": 1890,
      "Ġstates": 1891,
      "ĠEurope": 1892,
      "Ġdiff": 1893,
      "Ġdiversity": 1894,
      "Ġanimal": 1895,
      "Ġancient": 1896,
      "abl": 1897,
      "ĠGanges": 1898,
      "ĠNeh": 1899,
      "Ġarm": 1900,
      "Ġarch": 1901,
      "à¤Ĩà¤¤": 1902,
      "other": 1903,
      "Ġdev": 1904,
      "à¤¤à¤¨à¤¤": 1905,
      "ĠHindi": 1906,
      "ific": 1907,
      "Ġparty": 1908,
      "Ġmarri": 1909,
      "Ġregions": 1910,
      "ĠJain": 1911,
      "Ġà¤¸à¤¹à¤¯": 1912,
      "cess": 1913,
      "Ġà¤ħà¤²à¤Ĺ": 1914,
      "Ġago": 1915,
      "Ġrigh": 1916,
      "à¤īà¤¤": 1917,
      "Ġreligions": 1918,
      "Ġà¤ĭà¤·à¤Ńà¤¦": 1919,
      "Ġ185": 1920,
      "Ġsculpt": 1921,
      "Ġmajority": 1922,
      "Ġà¤²à¤Ĺà¤Ńà¤Ĺ": 1923,
      "ĠUnited": 1924,
      "Ġearly": 1925,
      "ĠConstitution": 1926,
      "Ġsupport": 1927,
      "Ġsecond": 1928,
      "Ġoccup": 1929,
      "Ġliteracy": 1930,
      "Ġparliamentary": 1931,
      "Ġbirth": 1932,
      "Ġà¤¦à¤²à¤¦à¤²": 1933,
      "Ġdirect": 1934,
      "Ġmathemat": 1935,
      "glish": 1936,
      "Ġlocal": 1937,
      "ĠEnglish": 1938,
      "Ġespecially": 1939,
      "Ġorigin": 1940,
      "Ġpainting": 1941,
      "ĠNehru": 1942,
      "\".": 1943,
      "26": 1944,
      "40": 1945,
      "61": 1946,
      "80": 1947,
      "BN": 1948,
      "DP": 1949,
      "SBN": 1950,
      "bal": 1951,
      "cent": 1952,
      "ched": 1953,
      "de": 1954,
      "dam": 1955,
      "ft": 1956,
      "ix": 1957,
      "iet": 1958,
      "min": 1959,
      "mar": 1960,
      "ned": 1961,
      "ning": 1962,
      "ped": 1963,
      "ration": 1964,
      "tou": 1965,
      "ual": 1966,
      "wn": 1967,
      "wan": 1968,
      "yan": 1969,
      "Â°": 1970,
      "Ġed": 1971,
      "Ġroc": 1972,
      "à°ħ": 1973,
      "à¤°à¤¬": 1974,
      "à¥ĩ-": 1975,
      "Ġà°¡": 1976,
      "Ġà°¢": 1977,
      "à¤¯à¤Łà¤¨": 1978,
      "à¤¨à¤°": 1979,
      "à°°à°²": 1980,
      "à°²à°¸": 1981,
      "Ġà¤¸à¤¨": 1982,
      "Ġà¤¸à¤ķà¤¤": 1983,
      "à°¨à°¡": 1984,
      "à¤¹à¤¨": 1985,
      "à¤¹à¤¶": 1986,
      "Ġà¤ªà¤¸": 1987,
      "à¤ļà¤µ": 1988,
      "Ġà¤®à¤²": 1989,
      "Ġà¤¹à¤¸": 1990,
      "à¤ªà¤²": 1991,
      "à¤ªà¤ķà¤²": 1992,
      "Ġà¤Ńà¤°": 1993,
      "Ġà¤Ĩà¤¤": 1994,
      "Ġà¤Ĩà¤°à¤ķ": 1995,
      "Ġà¤Ĩà¤®à¤¦": 1996,
      "à°¯à°¸": 1997,
      "Ġà¤ħà¤¹": 1998,
      "Ġà¤ħà¤£": 1999,
      "Ġà¤ħà¤¬": 2000,
      "ert": 2001,
      "erial": 2002,
      "à¤Ĺà¤µ": 2003,
      "à¤¶à¤¤": 2004,
      "Ġair": 2005,
      "enins": 2006,
      "Ġà¤ľà¤²à¤µ": 2007,
      "alth": 2008,
      "à°Łà°²": 2009,
      "à°Łà°ķ": 2010,
      "Ġà¤¬à¤°": 2011,
      "Ġà¤¬à¤ľ": 2012,
      "ating": 2013,
      "Ġà¤¦à¤Ĺà¤¡": 2014,
      "Ġà¤¦à¤¹à¤¶": 2015,
      "à°Ĺà°£": 2016,
      "à¤¥à¤¨": 2017,
      "à°®à°²": 2018,
      "à°®à°¤": 2019,
      "à°®à°¦": 2020,
      "Ġcr": 2021,
      "Ġcar": 2022,
      "Ġcities": 2023,
      "Ġcreated": 2024,
      "à¤¡à¤ª": 2025,
      "à±Ģ-": 2026,
      "à±Ģà°Ĥ": 2027,
      "à°¸à°Ń": 2028,
      "arat": 2029,
      "Ġoften": 2030,
      "Ġwon": 2031,
      "Ġwell": 2032,
      "Ġind": 2033,
      "Ġinter": 2034,
      "à°¡à°µ": 2035,
      "Ġsm": 2036,
      "Ġsou": 2037,
      "Ġsultanate": 2038,
      "Ġà°¸à°¹": 2039,
      "à¤³à¤ļ": 2040,
      "à¤Ńà¤²": 2041,
      "à°ļà°¨": 2042,
      "à°ļà°¬à°¡": 2043,
      "Ġpres": 2044,
      "Ġprom": 2045,
      "Ġpenins": 2046,
      "Ġman": 2047,
      "Ġà¥²": 2048,
      "Ġà¤Ĺà¤°à¤ľ": 2049,
      "Ġà¤¶à¤ķà¤¤": 2050,
      "Ġà°®à°¨à°¦": 2051,
      "ished": 2052,
      "ingd": 2053,
      "à¤ĸà¤ķ": 2054,
      "Ġà¤īà¤¸": 2055,
      "Ġà¤īà¤ļ": 2056,
      "Ġà¤īà¤Ń": 2057,
      "Ġlow": 2058,
      "Ġlower": 2059,
      "oup": 2060,
      "Ġà°ħà°²": 2061,
      "Ġà°ħà°ķ": 2062,
      "Ġà°ħà°®": 2063,
      "Ġà¤ªà¤°à¤¦": 2064,
      "ecut": 2065,
      "urther": 2066,
      "Ġ21": 2067,
      "Ġ22": 2068,
      "ĠTamil": 2069,
      "à¤¼à¥į": 2070,
      "Ġnational": 2071,
      "Ġà¥§à¥§": 2072,
      "ract": 2073,
      "Ġà¤¸à¤®à¤°": 2074,
      "à°¥à°¨": 2075,
      "ĠBJP": 2076,
      "Ġà°ĩà°¸": 2077,
      "amm": 2078,
      "rop": 2079,
      "ĠThere": 2080,
      "ĠThese": 2081,
      "tions": 2082,
      "etic": 2083,
      "à¤°à¤£à¤ªà¤£": 2084,
      "Ġà°Ĩà°¹": 2085,
      "Ġà°¤à°ķ": 2086,
      "Ġà¤ĺà¤Łà¤¨": 2087,
      "Ġà°Ĺà°£": 2088,
      "ucation": 2089,
      "ĠPers": 2090,
      "à°³à°²": 2091,
      "Ġà¤¸à¤°à¤¸": 2092,
      "à¤·à¤£à¤ªà¤¦": 2093,
      "à¤«à¤²": 2094,
      "Ġà¥§à¥¯à¥¨": 2095,
      "Ġà¥§à¥¯à¥§à¥": 2096,
      "Ġwhose": 2097,
      "Ġstat": 2098,
      "Ġà¤¬à¤¨à¤µ": 2099,
      "Ġexecut": 2100,
      "à°°à°®à°²": 2101,
      "ĠDuring": 2102,
      "sequ": 2103,
      "à¤¹à¤°à¤²": 2104,
      "ĠNational": 2105,
      "ively": 2106,
      "Ġà¤īà¤¦à¤¯": 2107,
      "Ġunion": 2108,
      "ured": 2109,
      "Ġà°Ĵà°²": 2110,
      "Ġà¤ĵà¤ĺ": 2111,
      "Ġcommer": 2112,
      "Ġcommon": 2113,
      "ody": 2114,
      "osed": 2115,
      "ĠWar": 2116,
      "ĠWestern": 2117,
      "à¥¦à¥¦à¥¦": 2118,
      "Ġspe": 2119,
      "Ġà¤ªà¤¡à¤¤": 2120,
      "Ġcontin": 2121,
      "Ġ2001": 2122,
      "Ġ2003": 2123,
      "Ġà¤Īà¤¶": 2124,
      "Ġà¤ĳà¤¸": 2125,
      "Ġbecome": 2126,
      "Ġmarket": 2127,
      "Ġforms": 2128,
      "Ġ30": 2129,
      "Ġadminist": 2130,
      "Ġsever": 2131,
      "thern": 2132,
      "Ġdecl": 2133,
      "Ġpopular": 2134,
      "Ġ55": 2135,
      "Ġendem": 2136,
      "alled": 2137,
      "à¤Ĭà¤¨": 2138,
      "ight": 2139,
      "Ġrepublic": 2140,
      "Ġgener": 2141,
      "Ġà¤ĭà¤¤": 2142,
      "201": 2143,
      "à¤ľà¤µà¤Ł": 2144,
      "Ġlonger": 2145,
      "Ġregional": 2146,
      "Ġà°īà°ªà°¯": 2147,
      "Ġà°īà°ªà°ĸ": 2148,
      "Ġhistor": 2149,
      "Ġelections": 2150,
      "ĠBuddhism": 2151,
      "outheast": 2152,
      "Ġearli": 2153,
      "Ġeastern": 2154,
      "Ġ1951": 2155,
      "ĠAll": 2156,
      "ĠAndam": 2157,
      "à°µà°¹à°£": 2158,
      "Ġà¤Ĩà¤Ĺà¤®à¤¨": 2159,
      "ĠArch": 2160,
      "ternal": 2161,
      "Ġbased": 2162,
      "Ġà¤ľà¤¬à¤ķ": 2163,
      "ĠStates": 2164,
      "Ġstyles": 2165,
      "Ġkilometers": 2166,
      "ĠHimalayas": 2167,
      "à¤¹à¤ľà¤¹": 2168,
      "Ġtechnolog": 2169,
      "Ġwidely": 2170,
      "alley": 2171,
      "Ġfederal": 2172,
      "ificant": 2173,
      "Ġeducation": 2174,
      "Ġà¤¦à¤¹à¤¶à¤¤à¤µ": 2175,
      "Ġsouthern": 2176,
      "sequent": 2177,
      "ĠAndaman": 2178,
      "\",": 2179,
      "%)": 2180,
      "21": 2181,
      "91": 2182,
      "ah": 2183,
      "ax": 2184,
      "adi": 2185,
      "bar": 2186,
      "bers": 2187,
      "back": 2188,
      "book": 2189,
      "can": 2190,
      "cial": 2191,
      "ded": 2192,
      "dra": 2193,
      "eograph": 2194,
      "gth": 2195,
      "mb": 2196,
      "mary": 2197,
      "nown": 2198,
      "ool": 2199,
      "ss": 2200,
      "tle": 2201,
      "val": 2202,
      "yp": 2203,
      "á¹": 2204,
      "Ġ0": 2205,
      "Ġz": 2206,
      "ĠĊ": 2207,
      "ĠĠ": 2208,
      "ĠâĢ": 2209,
      "Ġà¤Ĳ": 2210,
      "à¤°à¤¨": 2211,
      "à¤°à¤µà¤°": 2212,
      "à¤¤à¤Ĺ": 2213,
      "à¥Ģ-": 2214,
      "à¤¯à¤¹": 2215,
      "à¤¯à¤ľ": 2216,
      "à¤¨à¤¤": 2217,
      "à¤¨à¤¸": 2218,
      "à¤¨à¤¡": 2219,
      "à¤¨à¤¸à¤Ń": 2220,
      "à¤²à¤¬": 2221,
      "à¤ķà¤Ł": 2222,
      "Ġà¤ķà¤¹": 2223,
      "Ġà¤ķà¤ª": 2224,
      "Ġà¤ķà¤¹à¤¤": 2225,
      "à¤¸à¤ļ": 2226,
      "à¤µà¤ª": 2227,
      "à¥ĭ-": 2228,
      "Ġà¤ªà¤¤à¤¨": 2229,
      "Ġtem": 2230,
      "Ġtrib": 2231,
      "Ġtex": 2232,
      "à¤¦à¤ķ": 2233,
      "Ġà¤®à¤ľ": 2234,
      "à¥ģà¤ģ": 2235,
      "ined": 2236,
      "à¤ªà¤¶": 2237,
      "à¤£à¤¤": 2238,
      "à¤£à¤¯": 2239,
      "à¤£à¤®": 2240,
      "Ġà¤Ĩà¤®": 2241,
      "à¤·à¤¦": 2242,
      "à¤ľà¤®à¤¹": 2243,
      "à¤Ĺà¤¢": 2244,
      "redi": 2245,
      "Ġaff": 2246,
      "Ġob": 2247,
      "Ġold": 2248,
      "struc": 2249,
      "Ġà¤ľà¤¹": 2250,
      "ale": 2251,
      "ales": 2252,
      "ality": 2253,
      "Ġà¤¬à¤²": 2254,
      "ather": 2255,
      "ature": 2256,
      "à¤¥à¤²": 2257,
      "Ġà¤¤à¤Ł": 2258,
      "andm": 2259,
      "Ġcur": 2260,
      "Ġcivil": 2261,
      "à¤¡à¤ķà¤°": 2262,
      "Ġwin": 2263,
      "Ġwest": 2264,
      "Ġwild": 2265,
      "Ġworn": 2266,
      "Ġindi": 2267,
      "Ġsa": 2268,
      "Ġsing": 2269,
      "Ġsch": 2270,
      "Ġà¤¯à¤¤": 2271,
      "Ġà¤¯à¤®": 2272,
      "Ġbl": 2273,
      "Ġmen": 2274,
      "Ġmem": 2275,
      "Ġmak": 2276,
      "Ġfl": 2277,
      "Ġfast": 2278,
      "Ġfive": 2279,
      "Ġfour": 2280,
      "Ġfamil": 2281,
      "Ġfurther": 2282,
      "ices": 2283,
      "isl": 2284,
      "iss": 2285,
      "ising": 2286,
      "Ġ13": 2287,
      "ingly": 2288,
      "ashm": 2289,
      "Ġà¤²à¤ķ": 2290,
      "Ġà¤²à¤¡": 2291,
      "Ġà¤īà¤®": 2292,
      "Ġà¤īà¤¸à¤ķ": 2293,
      "Ġà¤īà¤Ńà¤°": 2294,
      "ouse": 2295,
      "âĢī": 2296,
      "Ġeth": 2297,
      "Ġempire": 2298,
      "Ġevery": 2299,
      "Ġhowever": 2300,
      "Ġdomin": 2301,
      "Ġdances": 2302,
      "Ġren": 2303,
      "Ġ25": 2304,
      "Ġ29": 2305,
      "Ġnow": 2306,
      "Ġgar": 2307,
      "Ġglo": 2308,
      "ile": 2309,
      "ility": 2310,
      "though": 2311,
      "ĠAf": 2312,
      "ĠAra": 2313,
      "ĠAmong": 2314,
      "ĠAccording": 2315,
      "à¥¦à¥§à¥": 2316,
      "rahm": 2317,
      "ĠBi": 2318,
      "ĠBhar": 2319,
      "ĠBrahm": 2320,
      "amp": 2321,
      "ross": 2322,
      "leg": 2323,
      "ĠSe": 2324,
      "ĠSoutheast": 2325,
      "Ġthree": 2326,
      "Ġrise": 2327,
      "Ġconduc": 2328,
      "à¤ĺà¤Łà¤¨": 2329,
      "Ġdist": 2330,
      "angered": 2331,
      "Ġann": 2332,
      "ĠDes": 2333,
      "Ġà¥¨à¥®": 2334,
      "ĠGDP": 2335,
      "ays": 2336,
      "Ġaround": 2337,
      "à¥«à¥Ń": 2338,
      "Ġuntil": 2339,
      "ortant": 2340,
      "à¤Ĩà¤¸": 2341,
      "à¤ĩà¤¨": 2342,
      "à¤ĩà¤Ł": 2343,
      "à¤°à¤ļà¤²": 2344,
      "Ġà¤ľà¤¨à¤µà¤°": 2345,
      "lief": 2346,
      "Ġvast": 2347,
      "Ġvill": 2348,
      "Ġvari": 2349,
      "Ġalong": 2350,
      "Ġà¤īà¤ªà¤®à¤¹": 2351,
      "Ġdef": 2352,
      "Ġ2013": 2353,
      "oss": 2354,
      "Ġspread": 2355,
      "Ġkingd": 2356,
      "Ġchar": 2357,
      "Ġchanges": 2358,
      "Ġprot": 2359,
      "Ġ1960": 2360,
      "ĠRaj": 2361,
      "Ġà¤Ĺà¤£à¤¤": 2362,
      "Ġ2008": 2363,
      "Ġà¤Īà¤¦": 2364,
      "à¥©à¥®": 2365,
      "Ġleft": 2366,
      "Ġformed": 2367,
      "ĠFact": 2368,
      "ĠJanu": 2369,
      "Ġsubsequent": 2370,
      "Ġplain": 2371,
      "à¤ħà¤°": 2372,
      "à¤ħà¤²": 2373,
      "à¥§à¥¯à¥": 2374,
      "Ġ1998": 2375,
      "Ġ1999": 2376,
      "ĠKashm": 2377,
      "Ġà¤¬à¤¦à¤²à¤¤": 2378,
      "Ġ2023": 2379,
      "Ġcomple": 2380,
      "Ġendangered": 2381,
      "Ġ1977": 2382,
      "Ġresp": 2383,
      "Ġconsid": 2384,
      "Ġtraditions": 2385,
      "Ġtraditional": 2386,
      "epend": 2387,
      "Ġpolic": 2388,
      "Ġheld": 2389,
      "Ġcaus": 2390,
      "Ġà¤®à¤¤à¤¦": 2391,
      "Ġofficial": 2392,
      "ĠUnion": 2393,
      "ĠBuddhist": 2394,
      "loy": 2395,
      "Ġterm": 2396,
      "Ġrecord": 2397,
      "gency": 2398,
      "Ġtimes": 2399,
      "ards": 2400,
      "Ġcourt": 2401,
      "Ġcourts": 2402,
      "Ġmiddle": 2403,
      "ĠThis": 2404,
      "Ġgroup": 2405,
      "Ġdeveloped": 2406,
      "Ġestim": 2407,
      "Ġestabl": 2408,
      "Ġthought": 2409,
      "Ġleading": 2410,
      "Ġsignificant": 2411,
      "Ġemploy": 2412,
      "Ġà¥§à¥¯à¥®à¥ª": 2413,
      "ĠIslam": 2414,
      "Ġsurv": 2415,
      "Ġcoalition": 2416,
      "Ġlegisl": 2417,
      "Ġterritories": 2418,
      "Ġinfluenced": 2419,
      "Ġindustry": 2420,
      "Ġfigures": 2421,
      "Ġdiffer": 2422,
      "ĠJainism": 2423,
      "Ġsculpture": 2424,
      "Ġrock": 2425,
      "Ġindepend": 2426,
      "Ġpeninsular": 2427,
      "ĠPersian": 2428,
      "Ġexecutive": 2429,
      "Ġearliest": 2430,
      "Ġtechnology": 2431,
      "Ġfamilies": 2432,
      "Ġkingdoms": 2433,
      "ĠFactbook": 2434,
      "ĠJanuary": 2435,
      "):": 2436,
      "01": 2437,
      "04": 2438,
      "14": 2439,
      "15": 2440,
      "22": 2441,
      "24": 2442,
      "62": 2443,
      "64": 2444,
      "IA": 2445,
      "ail": 2446,
      "aist": 2447,
      "bian": 2448,
      "cast": 2449,
      "ds": 2450,
      "ely": 2451,
      "equ": 2452,
      "file": 2453,
      "gu": 2454,
      "gy": 2455,
      "han": 2456,
      "has": 2457,
      "hats": 2458,
      "ie": 2459,
      "ks": 2460,
      "line": 2461,
      "mas": 2462,
      "mace": 2463,
      "miss": 2464,
      "otion": 2465,
      "ots": 2466,
      "ran": 2467,
      "ring": 2468,
      "ratic": 2469,
      "sc": 2470,
      "te": 2471,
      "ti": 2472,
      "tal": 2473,
      "tic": 2474,
      "tive": 2475,
      "ture": 2476,
      "uj": 2477,
      "ued": 2478,
      "ues": 2479,
      "ves": 2480,
      "xim": 2481,
      "§à°°": 2482,
      "¯à¥¦": 2483,
      "Ġ=": 2484,
      "ĠY": 2485,
      "Ġer": 2486,
      "Ġve": 2487,
      "Ġqu": 2488,
      "ĭà¤¤": 2489,
      "Ĵà°ķ": 2490,
      "à¤ĭà¤¤": 2491,
      "à°Ĵà°ķ": 2492,
      "à¥¯à¥": 2493,
      "à¤¾'": 2494,
      "à¤¾-": 2495,
      "à¤°à¤¹": 2496,
      "à¤°à¤¡": 2497,
      "à¤°à¤³": 2498,
      "Ġà°¥": 2499,
      "Ġà°ĵ": 2500,
      "Ġà°§à°°": 2501,
      "à¤¿,": 2502,
      "à¤¿.": 2503,
      "à±į-": 2504,
      "à±į:": 2505,
      "à¤¯à¤²": 2506,
      "à¤¯à¤£": 2507,
      "à¤¯à¤¶": 2508,
      "à¤¯à¤ķà¤°": 2509,
      "à¤¯à¤ĺà¤Łà¤¨": 2510,
      "à°¾)": 2511,
      "à°¾-": 2512,
      "à°¿;": 2513,
      "à¤¨à¤Ĺà¤³": 2514,
      "à¤²à¤®": 2515,
      "à¤²à¤Ĺà¤¤": 2516,
      "à¤ķà¤£": 2517,
      "à¤ķà¤¶": 2518,
      "Ġà¤ķà¤¶": 2519,
      "à±ģ;": 2520,
      "à°Ĥ;": 2521,
      "à¤¸à¤¹": 2522,
      "à¤¸à¤ľ": 2523,
      "à¤¸à¤ķà¤°": 2524,
      "à°²à°ª": 2525,
      "Ġà¤¸à¤°à¤ªà¤Ł": 2526,
      "Ġà¤¸à¤ķà¤²": 2527,
      "Ġà¤¸à¤«à¤²": 2528,
      "à¤µà¤ľ": 2529,
      "à¤µà¤¡à¤²": 2530,
      "à¤®à¤¸": 2531,
      "à¤®à¤®": 2532,
      "à¤®à¤ļ": 2533,
      "à¤®à¤ª": 2534,
      "à¤®à¤¶": 2535,
      "Ġte": 2536,
      "Ġtur": 2537,
      "Ġtax": 2538,
      "à¤ļà¤°": 2539,
      "à¤ļà¤¸": 2540,
      "à¤¦à¤®": 2541,
      "Ġà¤®à¤Ĺ": 2542,
      "ani": 2543,
      "anted": 2544,
      "here": 2545,
      "à¥ģà¤ĥ": 2546,
      "inc": 2547,
      "ining": 2548,
      "Ġà¤¹à¤ľ": 2549,
      "à°ķà°¡": 2550,
      "à¤ªà¤®": 2551,
      "à°¦à°ķ": 2552,
      "à¤°à¤¤à¤Ńà¤°": 2553,
      "Ġà¤Ĩà¤ł": 2554,
      "Ġà¤Ĩà¤ĺ": 2555,
      "Ġà¤Ĩà¤ķà¤¡": 2556,
      "à°¯à°°": 2557,
      "Ġà¤ħà¤ĸ": 2558,
      "Ġà¤ħà¤µà¤²": 2559,
      "Ġà¤ħà¤ľà¤¨": 2560,
      "Ġà¤ħà¤µà¤¶": 2561,
      "ones": 2562,
      "à¥Ĥ,": 2563,
      "à¥Ĥ-": 2564,
      "erc": 2565,
      "ering": 2566,
      "ergy": 2567,
      "à¤ľà¤¯à¤¨": 2568,
      "à¤§à¤ļ": 2569,
      "à¤§à¤£": 2570,
      "à¤Ĺà¤¸": 2571,
      "à¤Ĺà¤ª": 2572,
      "à¤Ĺà¤ł": 2573,
      "reme": 2574,
      "à±ĭ-": 2575,
      "à±ĭà°Ĥ": 2576,
      "Ġà°ªà°µ": 2577,
      "Ġà°ªà°°à°®": 2578,
      "à°µà°¨": 2579,
      "à¤Łà¤¤": 2580,
      "Ġacc": 2581,
      "dis": 2582,
      "ali": 2583,
      "Ġà¤¨à¤¯": 2584,
      "Ġà¤¨à¤·": 2585,
      "à°Łà°¨": 2586,
      "à¤¥à¤ķ": 2587,
      "à°®à°¹": 2588,
      "Ġà¤¤à¤¨": 2589,
      "Ġcan": 2590,
      "Ġche": 2591,
      "Ġcreat": 2592,
      "Ġcalled": 2593,
      "à¤¡à¤°": 2594,
      "à¤¡à¤¤": 2595,
      "à¤¡à¤ķ": 2596,
      "à¤¡à¤³": 2597,
      "à¤¡à¤µà¤¨": 2598,
      "ĠISBN": 2599,
      "Ġà¤°à¤¤": 2600,
      "Ġà¤°à¤£": 2601,
      "Ġà¤°à¤®à¤®": 2602,
      "à°¸à°¨": 2603,
      "à°¸à°®": 2604,
      "ara": 2605,
      "aries": 2606,
      "itect": 2607,
      "Ġwrit": 2608,
      "Ġwear": 2609,
      "Ġwork": 2610,
      "Ġwhen": 2611,
      "Ġwaist": 2612,
      "à°ªà°¤": 2613,
      "à°ªà°¬à°¡": 2614,
      "Ġinvol": 2615,
      "à°¡à°Ł": 2616,
      "à°¡à°²à°²": 2617,
      "Ġso": 2618,
      "Ġsum": 2619,
      "Ġsari": 2620,
      "Ġà°¸à°²": 2621,
      "Ġà¤¯à¤¶à¤¸": 2622,
      "à¤³à¤®": 2623,
      "à¤³à¤£": 2624,
      "Ġà°ķà°°": 2625,
      "Ġà°ķà°®": 2626,
      "Ġà°ķà°¬à°¡": 2627,
      "Ġà°ķà°¥à°ķ": 2628,
      "Ġà°ķà°³à°²": 2629,
      "à¤Ńà¤µ": 2630,
      "à¤Ńà¤µà¤°": 2631,
      "ortion": 2632,
      "orter": 2633,
      "orial": 2634,
      "Ġbody": 2635,
      "à°ļà°¯": 2636,
      "à°ļà°®": 2637,
      "à°ļà°¨à°²": 2638,
      "à°ļà°µà°ļ": 2639,
      "Ġphar": 2640,
      "Ġpublic": 2641,
      "Ġpract": 2642,
      "Ġmon": 2643,
      "Ġmult": 2644,
      "à°¶à°ķ": 2645,
      "Ġfam": 2646,
      "Ġflow": 2647,
      "Ġfund": 2648,
      "à¤¬à¤Ł": 2649,
      "Ġà¥®": 2650,
      "Ġà¥ł": 2651,
      "Ġà¤Ĺà¤µ": 2652,
      "Ġà°µà°²": 2653,
      "Ġà°µà°¨": 2654,
      "Ġà°µà°²à°¨": 2655,
      "Ġà¤¶à¤¬": 2656,
      "Ġà°®à°²à°¯": 2657,
      "Ġ11": 2658,
      "Ġ100": 2659,
      "ingh": 2660,
      "à¤ĸà¤°": 2661,
      "à¤ĸà¤¨": 2662,
      "Ġà¤ĩà¤°": 2663,
      "ash": 2664,
      "Ġà¤²à¤¯": 2665,
      "ommon": 2666,
      "Ġlo": 2667,
      "Ġlay": 2668,
      "à¥ĭà¤Ĥ,": 2669,
      "Ġà°°à°ļà°¯": 2670,
      "âĢ²": 2671,
      "âĢĻ": 2672,
      "Ġequ": 2673,
      "Ġà°Ńà°ķ": 2674,
      "à±Ĥ,": 2675,
      "Ġà°ħà°°": 2676,
      "Ġà°ħà°¦": 2677,
      "Ġà°ħà°ª": 2678,
      "Ġà°ħà°£": 2679,
      "Ġà°ħà°¹": 2680,
      "à¤łà¤ķ": 2681,
      "à°Ńà°µ": 2682,
      "à°Ńà°°à°¤": 2683,
      "à°·à°¨": 2684,
      "à°·à°¯": 2685,
      "à°·à°²à°¨": 2686,
      "Ġtook": 2687,
      "à¤¤à¤°à¤ļ": 2688,
      "Ġà¤ļà¤¤": 2689,
      "Ġhis": 2690,
      "à°£à°¦": 2691,
      "Ġder": 2692,
      "Ġdemoc": 2693,
      "Ġà¤ħà¤¸à¤®": 2694,
      "Ġret": 2695,
      "Ġreduced": 2696,
      "Ġ28": 2697,
      "Ġnat": 2698,
      "Ġnear": 2699,
      "à°¹à°¨": 2700,
      "ĠCivil": 2701,
      "old": 2702,
      "ole": 2703,
      "olid": 2704,
      "olence": 2705,
      "ravi": 2706,
      "rial": 2707,
      "Ġà°ļà°µ": 2708,
      "Ġà°ľà°®": 2709,
      "Ġà¤¸à¤®à¤ľ": 2710,
      "Ġà¤¸à¤®à¤Ŀ": 2711,
      "Ġà¤§à¤°à¤¤": 2712,
      "Ġà°ĩà°¨": 2713,
      "Ġà°ĩà°¤": 2714,
      "Ġà°ĩà°ķ": 2715,
      "Ġà°ĩà°Ł": 2716,
      "Ġà¤ıà¤ķà¤¨": 2717,
      "Ġà¤ıà¤ķà¤ļ": 2718,
      "roxim": 2719,
      "à¥Īà¤Ĥ:": 2720,
      "ĠSingh": 2721,
      "ĠTheir": 2722,
      "ets": 2723,
      "etwork": 2724,
      "astri": 2725,
      "Ġà°Ĩà°¨": 2726,
      "Ġà°Ĩà°¦": 2727,
      "Ġà°Ĩà°Ĺ": 2728,
      "Ġà°Ĩà°¸": 2729,
      "Ġà°¤à°¤": 2730,
      "Ġà¤ĺà¤¡": 2731,
      "Ġà°Ĺà°¤": 2732,
      "Ġà°Ĺà°®à°¨": 2733,
      "Ġà¤ĩà¤¸à¤®": 2734,
      "à¤¢à¤¤": 2735,
      "à¤¢à¤±": 2736,
      "Ġà°¬à°¡": 2737,
      "ĠPar": 2738,
      "Ġbelow": 2739,
      "Ġbefore": 2740,
      "à¥Ģà¤Ĥà¥¤": 2741,
      "ĠMo": 2742,
      "à°ĸà°®": 2743,
      "Ġà¥§à¥¯à¥¯à¥¦": 2744,
      "uted": 2745,
      "utical": 2746,
      "Ġwithin": 2747,
      "operation": 2748,
      "Ġste": 2749,
      "Ġstr": 2750,
      "Ġà°İà°Ĺ": 2751,
      "Ġà°İà°²à°ķ": 2752,
      "à°²à°¨à°²": 2753,
      "ained": 2754,
      "acted": 2755,
      "Ġexc": 2756,
      "Ġexch": 2757,
      "Ġexternal": 2758,
      "Ġonly": 2759,
      "Ġdiverse": 2760,
      "à¤°à¤¦à¤°": 2761,
      "ably": 2762,
      "ability": 2763,
      "ĠDe": 2764,
      "ĠDec": 2765,
      "ĠDravi": 2766,
      "Ġà¥¨à¥ª": 2767,
      "Ġà¥¨à¥¦à¥§à¥": 2768,
      "ĠGup": 2769,
      "ĠGovernment": 2770,
      "ĠGree": 2771,
      "ĠGhats": 2772,
      "ĠGuj": 2773,
      "ĠHowever": 2774,
      "ayback": 2775,
      "à°°à°ªà°¡": 2776,
      "ĠNuclear": 2777,
      "Ġà¤¤à¤°à¤¹": 2778,
      "à¥«à¥¦": 2779,
      "Ġà°Īà°¸": 2780,
      "Ġà°Īà°¶": 2781,
      "à¤Ĩà¤§": 2782,
      "à¤ĩà¤µ": 2783,
      "Ġà¤«à¤³": 2784,
      "Ġà¤ĩà¤¤à¤ķ": 2785,
      "ulting": 2786,
      "ultural": 2787,
      "aking": 2788,
      "aksh": 2789,
      "à¥ªà¥®": 2790,
      "oci": 2791,
      "iving": 2792,
      "Ġà¤ĵà¤¡": 2793,
      "lied": 2794,
      "liance": 2795,
      "life": 2796,
      "à¤ĵà¤¡": 2797,
      "dually": 2798,
      "Ġà¤īà¤ªà¤ª": 2799,
      "Ġà¤īà¤ªà¤²à¤¬": 2800,
      "Ġ2014": 2801,
      "elf": 2802,
      "ĠWest": 2803,
      "Ġà°ľà°¨à°¤": 2804,
      "Ġà°ľà°¨à°µà°°": 2805,
      "Ġà°ľà°¨à°Ĺà°£": 2806,
      "à¤Ľà¤ļ": 2807,
      "ously": 2808,
      "ĠAss": 2809,
      "ĠAsian": 2810,
      "Ġknown": 2811,
      "Ġintro": 2812,
      "Ġprov": 2813,
      "Ġproduc": 2814,
      "Ġprocess": 2815,
      "ĠRep": 2816,
      "Ġà°ıà°ª": 2817,
      "Ġà°ıà°¡": 2818,
      "Ġà¤ĳà¤Ĺà¤¸": 2819,
      "Ġà¤Ĩà¤ľà¤¹": 2820,
      "Ġà¤Ĩà¤ľà¤ļ": 2821,
      "aving": 2822,
      "ified": 2823,
      "à¥©à¥Ń": 2824,
      "Ġà°¸à°®à°°": 2825,
      "Ġpartition": 2826,
      "anguages": 2827,
      "Ġ36": 2828,
      "Ġà°®à°¤à°®": 2829,
      "ĠFore": 2830,
      "Ġplate": 2831,
      "Ġplace": 2832,
      "Ġrelations": 2833,
      "à¥§à¥Ń": 2834,
      "Ġà¥«à¥¦": 2835,
      "Ġà¥«à¥«": 2836,
      "Ġà¥«à¥ª": 2837,
      "soon": 2838,
      "ĠValley": 2839,
      "Ġelites": 2840,
      "Ġdecades": 2841,
      "à°¬à°¡à°¤": 2842,
      "Ġagain": 2843,
      "Ġ2020": 2844,
      "Ġ2022": 2845,
      "Ġ2026": 2846,
      "Ġcomposed": 2847,
      "à°¯à°ķà°¤": 2848,
      "Ġshow": 2849,
      "Ġà°ĩà°¤à°°à°¦": 2850,
      "Ġexports": 2851,
      "Ġ83": 2852,
      "Ġà¤ªà¤łà¤£": 2853,
      "âĢįà¥ħ": 2854,
      "Ġresulting": 2855,
      "à°ĺà°¨": 2856,
      "à°¦à°°à°£": 2857,
      "Ġà°¸à°Ńà°¨": 2858,
      "Ġreport": 2859,
      "rica": 2860,
      "à¤īà¤¨": 2861,
      "à¤Ŀà¤°": 2862,
      "Ġmeat": 2863,
      "Ġconsolid": 2864,
      "Ġtraditionally": 2865,
      "à°«à°°": 2866,
      "Ġà°ªà°¦à°µ": 2867,
      "Ġpoll": 2868,
      "Ġnumbers": 2869,
      "Ġhead": 2870,
      "à¤¬à¤¤à¤ļ": 2871,
      "Ġdisput": 2872,
      "Ġà¤Ĭà¤°": 2873,
      "Ġà¤Ĭà¤ªà¤°": 2874,
      "Ġscri": 2875,
      "Ġsociet": 2876,
      "Ġà¤ĵà¤³à¤ĸ": 2877,
      "Ġupper": 2878,
      "à¤®à¤ķà¤¥": 2879,
      "Ġ1980": 2880,
      "Ġgrowing": 2881,
      "amental": 2882,
      "Ġenacted": 2883,
      "à¤µà¤¡à¤¤": 2884,
      "Ġ1200": 2885,
      "ĠConstit": 2886,
      "Ġà¥§à¥¯à¥Ńà¥§": 2887,
      "genous": 2888,
      "Ġjust": 2889,
      "Ġapproxim": 2890,
      "Ġmaterial": 2891,
      "Ġforeign": 2892,
      "ĠAlthough": 2893,
      "Ġimportant": 2894,
      "Ġà¤ķà¤¡à¤§": 2895,
      "Ġabout": 2896,
      "Ġsecular": 2897,
      "Ġà¥§à¥¯à¥¯à¥§": 2898,
      "Ġà¥§à¥¯à¥¯à¥®": 2899,
      "Ġextant": 2900,
      "Ġextens": 2901,
      "Ġà¥¨à¥¦à¥¦à¥ª": 2902,
      "Ġà¥¨à¥¦à¥¦à¥¯": 2903,
      "Ġinfluence": 2904,
      "vention": 2905,
      "ternational": 2906,
      "Ġdevelopment": 2907,
      "à°ĩà°¦": 2908,
      "Ġà°Ĳà°°": 2909,
      "Ġà°Ĳà°ķ": 2910,
      "Ġà°ĸà°¨": 2911,
      "à°¦à°²à°Ĺ": 2912,
      "Ġreform": 2913,
      "Ġgreater": 2914,
      "ĠMaur": 2915,
      "Ġleader": 2916,
      "odiversity": 2917,
      "Ġà¥§à¥¬à¥©à¥®": 2918,
      "Ġà¥§à¥¬à¥ªà¥®": 2919,
      "ĠPlateau": 2920,
      "à°Ĩà°°": 2921,
      "à°łà°Ń": 2922,
      "Ġà°«à°²": 2923,
      "à°¦à°¨à°ķ": 2924,
      "Ġà¤ľà¤µà¤³à¤ª": 2925,
      "Ġcontribution": 2926,
      "Ġcooked": 2927,
      "Ġcooking": 2928,
      "à°ķà°°à°£à°²": 2929,
      "Ġagriculture": 2930,
      "Ġagricultural": 2931,
      "vided": 2932,
      "Ġcapit": 2933,
      "Ġfeatures": 2934,
      "ĠProfile": 2935,
      "ĠEuropean": 2936,
      "Ġarchitect": 2937,
      "Ġrights": 2938,
      "Ġdirectly": 2939,
      "Ġmathematics": 2940,
      "touch": 2941,
      "Ġà¤¬à¤ľà¤Ł": 2942,
      "Ġcrust": 2943,
      "Ġsmall": 2944,
      "Ġà°¸à°¹à°¸": 2945,
      "ropical": 2946,
      "Ġà°Ĺà°£à°¤": 2947,
      "Ġà¥§à¥¯à¥¨à¥¦": 2948,
      "Ġà¥§à¥¯à¥§à¥©": 2949,
      "Ġcommercial": 2950,
      "Ġcommonly": 2951,
      "Ġcontinued": 2952,
      "ĠArchived": 2953,
      "dramas": 2954,
      "Ġà¤Ĳà¤¸": 2955,
      "Ġoldest": 2956,
      "andmother": 2957,
      "Ġcurren": 2958,
      "Ġindigenous": 2959,
      "Ġsingle": 2960,
      "Ġschool": 2961,
      "Ġmember": 2962,
      "Ġrenew": 2963,
      "Ġglobal": 2964,
      "ĠAfrica": 2965,
      "ĠBharat": 2966,
      "ĠSea": 2967,
      "Ġconducted": 2968,
      "ĠKashmir": 2969,
      "Ġrecorded": 2970,
      "Ġestimated": 2971,
      "Ġestablished": 2972,
      "Ġdifferent": 2973,
      "maceutical": 2974,
      "Ġera": 2975,
      "Ġà¤¸à¤°à¤ªà¤Łà¤£": 2976,
      "Ġpharmaceutical": 2977,
      "Ġfundamental": 2978,
      "ĠDravidian": 2979,
      "Ġapproximately": 2980,
      "Ġmaterials": 2981,
      "16": 2982,
      "23": 2983,
      "300": 2984,
      "46": 2985,
      "47": 2986,
      "400": 2987,
      "59": 2988,
      "500": 2989,
      "517": 2990,
      "72": 2991,
      "87": 2992,
      "93": 2993,
      "Ary": 2994,
      "After": 2995,
      "BC": 2996,
      "By": 2997,
      "CN": 2998,
      "DA": 2999,
      "Europe": 3000,
      "HO": 3001,
      "PA": 3002,
      "PI": 3003,
      "UCN": 3004,
      "af": 3005,
      "aic": 3006,
      "after": 3007,
      "aren": 3008,
      "bly": 3009,
      "ble": 3010,
      "bell": 3011,
      "dar": 3012,
      "des": 3013,
      "ders": 3014,
      "ey": 3015,
      "ez": 3016,
      "eign": 3017,
      "edic": 3018,
      "eval": 3019,
      "form": 3020,
      "gr": 3021,
      "ger": 3022,
      "gation": 3023,
      "get": 3024,
      "ha": 3025,
      "hok": 3026,
      "hÄģ": 3027,
      "ii": 3028,
      "ily": 3029,
      "iqu": 3030,
      "iber": 3031,
      "jo": 3032,
      "ject": 3033,
      "kh": 3034,
      "ken": 3035,
      "la": 3036,
      "land": 3037,
      "long": 3038,
      "lades": 3039,
      "mers": 3040,
      "mend": 3041,
      "no": 3042,
      "ns": 3043,
      "nam": 3044,
      "obar": 3045,
      "pen": 3046,
      "pic": 3047,
      "pur": 3048,
      "ption": 3049,
      "pts": 3050,
      "pay": 3051,
      "pend": 3052,
      "rin": 3053,
      "rat": 3054,
      "ser": 3055,
      "set": 3056,
      "the": 3057,
      "tom": 3058,
      "uis": 3059,
      "uent": 3060,
      "uous": 3061,
      "van": 3062,
      "vas": 3063,
      "wards": 3064,
      "yal": 3065,
      "Ġ)": 3066,
      "ĠĊĊ": 3067,
      "Ġir": 3068,
      "Ġvery": 3069,
      "à¤¾),": 3070,
      "à¤°à¤Ĺ": 3071,
      "à¤°à¤¥": 3072,
      "à¥Ģ),": 3073,
      "à¤Ĥ,": 3074,
      "à¤¨à¤Ī": 3075,
      "à¤¨à¤¤à¤®": 3076,
      "à¤²à¤ķ": 3077,
      "à¤²à¤¦": 3078,
      "à¤¸à¤¸": 3079,
      "à¤¸à¤¶": 3080,
      "Ġà¤¸à¤ª": 3081,
      "Ġà¤¸à¤¤à¤ª": 3082,
      "Ġà¤¸à¤¶à¤¸": 3083,
      "à¤µà¤Ł": 3084,
      "à¤®à¤Ĺ": 3085,
      "à¤®à¤¬": 3086,
      "à¤®à¤¸à¤®": 3087,
      "à¤¹à¤®": 3088,
      "Ġtest": 3089,
      "Ġtropical": 3090,
      "à¤¦à¤¡": 3091,
      "Ġà¤®à¤¦": 3092,
      "Ġà¤®à¤¨à¤®": 3093,
      "anies": 3094,
      "anch": 3095,
      "anism": 3096,
      "anata": 3097,
      "Ġà¤¹à¤¤": 3098,
      "Ġà¤¹à¤¡": 3099,
      "à¤ªà¤ı": 3100,
      "à¤£à¤¨": 3101,
      "Ġà¤Ĩà¤µ": 3102,
      "Ġà¤Ĩà¤¦à¤°": 3103,
      "Ġthen": 3104,
      "Ġthese": 3105,
      "à¤·à¤°à¤¤": 3106,
      "Ġà¤ħà¤ļ": 3107,
      "Ġà¤ħà¤µà¤¸": 3108,
      "Ġà¤ħà¤µà¤§": 3109,
      "one": 3110,
      "onom": 3111,
      "onial": 3112,
      "à¥Ĥà¤Ĥ": 3113,
      "eri": 3114,
      "erch": 3115,
      "à¤ľà¤Ń": 3116,
      "à¤Ĺà¤µà¤¤": 3117,
      "à¤¶à¤²": 3118,
      "reen": 3119,
      "à¤Łà¤¸": 3120,
      "à¤Łà¤®": 3121,
      "Ġaver": 3122,
      "Ġage": 3123,
      "Ġopp": 3124,
      "ened": 3125,
      "ense": 3126,
      "Ġà¤ľà¤¡": 3127,
      "diately": 3128,
      "dieval": 3129,
      "alw": 3130,
      "Ġà¤¨à¤µà¤°": 3131,
      "Ġà¤¬à¤¦": 3132,
      "à¥ĩà¤Ĥà¥¤": 3133,
      "Ġà¤¤à¤¦": 3134,
      "Ġà¤¤à¤¬": 3135,
      "anding": 3136,
      "Ġcal": 3137,
      "Ġcor": 3138,
      "Ġcra": 3139,
      "Ġcle": 3140,
      "Ġcrit": 3141,
      "Ġcoun": 3142,
      "Ġcos": 3143,
      "Ġcame": 3144,
      "Ġcruc": 3145,
      "Ġcould": 3146,
      "à¤¡à¤¸": 3147,
      "à¤¡à¤µ": 3148,
      "ĠIUCN": 3149,
      "arly": 3150,
      "ither": 3151,
      "itud": 3152,
      "itions": 3153,
      "Ġwent": 3154,
      "Ġwould": 3155,
      "Ġinst": 3156,
      "Ġinit": 3157,
      "Ġinstitution": 3158,
      "Ġinequ": 3159,
      "Ġsil": 3160,
      "Ġsim": 3161,
      "Ġsover": 3162,
      "Ġsav": 3163,
      "Ġslow": 3164,
      "Ġsect": 3165,
      "Ġsomet": 3166,
      "Ġsites": 3167,
      "Ġsix": 3168,
      "Ġà¤¯à¤ķ": 3169,
      "Ġà¤¯à¤¦": 3170,
      "à¤Ńà¤°à¤¤": 3171,
      "orce": 3172,
      "Ġbu": 3173,
      "Ġband": 3174,
      "Ġbri": 3175,
      "Ġbro": 3176,
      "Ġback": 3177,
      "Ġpat": 3178,
      "Ġpet": 3179,
      "Ġpers": 3180,
      "Ġpover": 3181,
      "Ġpred": 3182,
      "Ġmi": 3183,
      "Ġmin": 3184,
      "Ġmig": 3185,
      "Ġmuch": 3186,
      "Ġmamm": 3187,
      "Ġmerch": 3188,
      "esc": 3189,
      "ĠIndira": 3190,
      "Ġfra": 3191,
      "Ġfem": 3192,
      "Ġfall": 3193,
      "Ġfact": 3194,
      "à¤¬à¤¨": 3195,
      "à¤¬à¤²": 3196,
      "ict": 3197,
      "icobar": 3198,
      "Ġà¥¦": 3199,
      "Ġà¤Ĺà¤°": 3200,
      "Ġà¤¶à¤¸": 3201,
      "Ġà¤¶à¤¤à¤°": 3202,
      "isen": 3203,
      "ises": 3204,
      "Ġ14": 3205,
      "Ġ1000": 3206,
      "ings": 3207,
      "à¤ĸà¤¦": 3208,
      "à¤ĸà¤¨à¤¨": 3209,
      "Ġà¤ĩà¤²": 3210,
      "Ġà¤ĩà¤ļ": 3211,
      "oming": 3212,
      "omest": 3213,
      "Ġà¤īà¤ªà¤¨": 3214,
      "Ġlim": 3215,
      "Ġlik": 3216,
      "Ġlaw": 3217,
      "Ġlib": 3218,
      "Ġloss": 3219,
      "Ġec": 3220,
      "Ġeff": 3221,
      "Ġeight": 3222,
      "Ġà¤Ķà¤¦": 3223,
      "Ġtoday": 3224,
      "Ġtown": 3225,
      "Ġtotal": 3226,
      "à¤¤à¤°à¤°": 3227,
      "Ġhy": 3228,
      "Ġhig": 3229,
      "Ġhab": 3230,
      "Ġhub": 3231,
      "Ġhaving": 3232,
      "Ġdri": 3233,
      "uras": 3234,
      "urid": 3235,
      "urred": 3236,
      "Ġ1930": 3237,
      "Ġ1935": 3238,
      "Ġreac": 3239,
      "Ġreven": 3240,
      "Ġà¤ıà¤¨": 3241,
      "ĠTri": 3242,
      "ĠTem": 3243,
      "ĠTreat": 3244,
      "ĠThar": 3245,
      "à¤¼,": 3246,
      "à¤¼à¤¾à¥¤": 3247,
      "Ġnation": 3248,
      "Ġname": 3249,
      "Ġnomin": 3250,
      "Ġgas": 3251,
      "Ġgend": 3252,
      "Ġgod": 3253,
      "Ġgave": 3254,
      "Ġgood": 3255,
      "Ġà¥§à¥ª": 3256,
      "ilw": 3257,
      "ĠAk": 3258,
      "Ġà¤ķà¤°à¤µ": 3259,
      "ĠCl": 3260,
      "à¥¦à¥®": 3261,
      "oli": 3262,
      "olit": 3263,
      "racy": 3264,
      "uled": 3265,
      "ries": 3266,
      "ĠBh": 3267,
      "ĠBang": 3268,
      "ĠBay": 3269,
      "ĠBBC": 3270,
      "Ġà¤§à¤®": 3271,
      "Ġà¤ıà¤ķà¤¤": 3272,
      "ams": 3273,
      "ample": 3274,
      "ĠSI": 3275,
      "ĠShe": 3276,
      "ĠSri": 3277,
      "cean": 3278,
      "Ġisol": 3279,
      "eter": 3280,
      "ush": 3281,
      "uscri": 3282,
      "ime": 3283,
      "imes": 3284,
      "ada": 3285,
      "Ġthreat": 3286,
      "Ġthose": 3287,
      "à¤ıà¤¶à¤¨": 3288,
      "idly": 3289,
      "iddle": 3290,
      "une": 3291,
      "ung": 3292,
      "irt": 3293,
      "ĠPall": 3294,
      "Ġrich": 3295,
      "Ġrange": 3296,
      "Ġrather": 3297,
      "Ġbeing": 3298,
      "Ġbelief": 3299,
      "Ġbelong": 3300,
      "ĠMal": 3301,
      "ĠMod": 3302,
      "ĠMany": 3303,
      "ĠMach": 3304,
      "ĠMyan": 3305,
      "ĠMiddle": 3306,
      "Ġmoist": 3307,
      "ute": 3308,
      "Ġconce": 3309,
      "emograph": 3310,
      "embly": 3311,
      "à¤ĺà¤ķ": 3312,
      "resent": 3313,
      "resident": 3314,
      "Ġstren": 3315,
      "Ġà¤¬à¤¨à¤¨": 3316,
      "romise": 3317,
      "ĠEx": 3318,
      "ĠEconom": 3319,
      "ĠEarly": 3320,
      "ĠEuras": 3321,
      "aced": 3322,
      "acter": 3323,
      "Ġextin": 3324,
      "Ġexample": 3325,
      "Ġdiv": 3326,
      "anged": 3327,
      "Ġanother": 3328,
      "abad": 3329,
      "ables": 3330,
      "Ġorgan": 3331,
      "ĠDal": 3332,
      "ĠDemoc": 3333,
      "ĠDemograph": 3334,
      "Ġà¥¨à¥¨": 3335,
      "ĠGeograph": 3336,
      "ayed": 3337,
      "ĠNon": 3338,
      "ĠNorth": 3339,
      "ĠNicobar": 3340,
      "Ġarts": 3341,
      "à¥«à¥¦à¥¦": 3342,
      "à¥«à¥¨": 3343,
      "Ġunit": 3344,
      "à¤¸à¤¦à¤¨": 3345,
      "Ġarea": 3346,
      "à¤Ĩà¤°": 3347,
      "à¤ĩà¤¸": 3348,
      "Ġà¤ľà¤¨à¤ķ": 3349,
      "Ġparts": 3350,
      "à¥ªà¥¦": 3351,
      "ivity": 3352,
      "Ġà¤ĵà¤£à¤®": 3353,
      "oted": 3354,
      "Ġvi": 3355,
      "Ġval": 3356,
      "Ġvis": 3357,
      "Ġvarn": 3358,
      "Ġvict": 3359,
      "Ġdefe": 3360,
      "Ġ2010": 3361,
      "Ġ2012": 3362,
      "Ġ2018": 3363,
      "osen": 3364,
      "ĠWayback": 3365,
      "à¥¨à¥¬": 3366,
      "à¥¨à¥©": 3367,
      "ogn": 3368,
      "Ġatt": 3369,
      "ĠAshok": 3370,
      "Ġ70": 3371,
      "Ġ74": 3372,
      "Ġ75": 3373,
      "Ġ7000": 3374,
      "Ġkame": 3375,
      "Ġà¤¡à¤ļ": 3376,
      "Ġchurid": 3377,
      "Ġchosen": 3378,
      "Ġprovided": 3379,
      "Ġ1967": 3380,
      "Ġcontain": 3381,
      "Ġcontains": 3382,
      "ĠRe": 3383,
      "Ġ2004": 3384,
      "Ġ2007": 3385,
      "Ġà¤ĳà¤ªà¤°": 3386,
      "anta": 3387,
      "assing": 3388,
      "ources": 3389,
      "lows": 3390,
      "à¥©à¥¦": 3391,
      "Ġbecoming": 3392,
      "Ġpartic": 3393,
      "Ġ400": 3394,
      "Ġmargin": 3395,
      "Ġmarked": 3396,
      "Ġlevel": 3397,
      "Ġformal": 3398,
      "ressed": 3399,
      "apons": 3400,
      "Ġ31": 3401,
      "Ġ32": 3402,
      "ĠFor": 3403,
      "ĠFron": 3404,
      "ĠJanata": 3405,
      "Ġadop": 3406,
      "Ġaddition": 3407,
      "Ġadded": 3408,
      "Ġclim": 3409,
      "Ġsep": 3410,
      "Ġseals": 3411,
      "Ġplains": 3412,
      "mediately": 3413,
      "à¥§à¥®": 3414,
      "reasing": 3415,
      "ĠVa": 3416,
      "Ġtrade": 3417,
      "reath": 3418,
      "Ġelected": 3419,
      "Ġ1996": 3420,
      "Ġgovernments": 3421,
      "ĠKal": 3422,
      "Ġà¤Ľà¤¤": 3423,
      "Ġà¤Ľà¤¹": 3424,
      "Ġà¤Ĩà¤ªà¤ķ": 3425,
      "Ġprimary": 3426,
      "Ġdecade": 3427,
      "Ġpopulous": 3428,
      "1991": 3429,
      "1947": 3430,
      "ĠIndones": 3431,
      "Ġ1948": 3432,
      "Ġ2021": 3433,
      "Ġ2024": 3434,
      "Ġcompanies": 3435,
      "Ġcompromise": 3436,
      "Ġshare": 3437,
      "ections": 3438,
      "Ġ1974": 3439,
      "Ġ1975": 3440,
      "Ġexport": 3441,
      "Ġexpans": 3442,
      "Ġexpress": 3443,
      "ĠHindust": 3444,
      "Ġ82": 3445,
      "Ġreser": 3446,
      "Ġresident": 3447,
      "Ġrivers": 3448,
      "ricket": 3449,
      "ĠLank": 3450,
      "ĠLanguages": 3451,
      "Ġconsum": 3452,
      "Ġconsists": 3453,
      "Ġreligion": 3454,
      "Ġministers": 3455,
      "Ġlatter": 3456,
      "Ġincreasingly": 3457,
      "Ġclasses": 3458,
      "Ġheredi": 3459,
      "Ġdishes": 3460,
      "Ġdispl": 3461,
      "Ġserv": 3462,
      "Ġrailw": 3463,
      "Ġurbanisation": 3464,
      "Ġà¤®à¤¤à¤Ń": 3465,
      "Ġoffice": 3466,
      "Ġ1984": 3467,
      "ĠBuddha": 3468,
      "Ġenergy": 3469,
      "Ġà¤Ńà¤°à¤¤à¤¨": 3470,
      "Ġfolk": 3471,
      "Ġ121": 3472,
      "Ġrecent": 3473,
      "Ġrecogn": 3474,
      "Ġnorthwest": 3475,
      "Ġsuppl": 3476,
      "sha": 3477,
      "Ġà¤ħà¤Ĺà¤¸": 3478,
      "Ġappear": 3479,
      "Ġ1956": 3480,
      "ĠAncient": 3481,
      "Ġimpro": 3482,
      "Ġà¥§à¥¯à¥¯à¥¯": 3483,
      "422": 3484,
      "henjo": 3485,
      "Ġsetting": 3486,
      "Ġbasin": 3487,
      "Ġrefer": 3488,
      "Ġconstitutional": 3489,
      "Ġothers": 3490,
      "Ġsigned": 3491,
      "Ġmaint": 3492,
      "oulder": 3493,
      "Ġgradually": 3494,
      "Ġstyle": 3495,
      "Ġkilometres": 3496,
      "Ġforests": 3497,
      "ĠHimalayan": 3498,
      "...": 3499,
      "2004": 3500,
      "crimin": 3501,
      "mitted": 3502,
      "Ġuse": 3503,
      "Ġacross": 3504,
      "Ġcoll": 3505,
      "ĠIslands": 3506,
      "Ġweapons": 3507,
      "Ġà¥§à¥¯à¥¬à¥«": 3508,
      "Ġassert": 3509,
      "Ġassoci": 3510,
      "Ġinfluences": 3511,
      "Ġtransmitted": 3512,
      "ĠSikhism": 3513,
      "place": 3514,
      "Ġenter": 3515,
      "Ġà¤Ĩà¤¸à¤ª": 3516,
      "Ġcultural": 3517,
      "Ġcultures": 3518,
      "Ġdrain": 3519,
      "Ġremaining": 3520,
      "Ġanimals": 3521,
      "Ġarmies": 3522,
      "Ġdevotion": 3523,
      "Ġmarriages": 3524,
      "Ġright": 3525,
      "Ġ1857": 3526,
      "Ġsupported": 3527,
      "Ġbirthplace": 3528,
      "Ġmathematical": 3529,
      "Ġoriginally": 3530,
      "nings": 3531,
      "Ġmanuscri": 3532,
      "Ġstatus": 3533,
      "Ġadministration": 3534,
      "Ġendemic": 3535,
      "ĠâĢĺ": 3536,
      "Ġà¤ķà¤ªà¤¡": 3537,
      "Ġtemp": 3538,
      "Ġtribal": 3539,
      "Ġtexts": 3540,
      "structive": 3541,
      "Ġwildlife": 3542,
      "Ġsafe": 3543,
      "Ġmakes": 3544,
      "ĠArabian": 3545,
      "ĠDesert": 3546,
      "Ġvillage": 3547,
      "Ġcharacter": 3548,
      "Ġprotected": 3549,
      "Ġconsider": 3550,
      "Ġpolicies": 3551,
      "Ġcause": 3552,
      "Ġemployed": 3553,
      "Ġindependence": 3554,
      "guard": 3555,
      "Ġveget": 3556,
      "Ġwritten": 3557,
      "Ġsummer": 3558,
      "Ġpractices": 3559,
      "Ġmulti": 3560,
      "Ġloose": 3561,
      "Ġretur": 3562,
      "Ġnatal": 3563,
      "ĠCivilisation": 3564,
      "ĠMohenjo": 3565,
      "Ġstrong": 3566,
      "Ġexchange": 3567,
      "ĠDeccan": 3568,
      "ĠGupta": 3569,
      "ĠGreek": 3570,
      "ĠAssembly": 3571,
      "Ġintroduced": 3572,
      "ĠRepublic": 3573,
      "Ġà¥«à¥ªà¥«": 3574,
      "Ġdisputes": 3575,
      "Ġscript": 3576,
      "Ġsociety": 3577,
      "ĠConstituent": 3578,
      "ĠMaurya": 3579,
      "Ġcontributions": 3580,
      "Ġcapita": 3581,
      "Ġarchitecture": 3582,
      "touchability": 3583,
      "Ġcurrency": 3584,
      "Ġschools": 3585,
      "Aryan": 3586,
      "European": 3587,
      "bellion": 3588,
      "daro": 3589,
      "eignty": 3590,
      "ladesh": 3591,
      "Ġaverage": 3592,
      "Ġcrucial": 3593,
      "Ġinequality": 3594,
      "Ġsovereignty": 3595,
      "Ġsector": 3596,
      "Ġsometimes": 3597,
      "Ġbroad": 3598,
      "Ġpoverty": 3599,
      "Ġpredomin": 3600,
      "Ġmammals": 3601,
      "omestic": 3602,
      "Ġlaws": 3603,
      "Ġliberal": 3604,
      "Ġhabit": 3605,
      "Ġreached": 3606,
      "Ġrevenues": 3607,
      "ĠTreaty": 3608,
      "Ġgoods": 3609,
      "ĠBangladesh": 3610,
      "ĠPallav": 3611,
      "ĠMachine": 3612,
      "ĠMyanmar": 3613,
      "Ġstrength": 3614,
      "ĠDemographics": 3615,
      "ĠAshoka": 3616,
      "Ġkameez": 3617,
      "Ġchuridars": 3618,
      "Ġmargins": 3619,
      "ĠFront": 3620,
      "ĠIndonesia": 3621,
      "Ġresidents": 3622,
      "\")": 3623,
      "%).": 3624,
      ",\"": 3625,
      "05": 3626,
      "07": 3627,
      "10": 3628,
      "100": 3629,
      "31": 3630,
      "36": 3631,
      "461": 3632,
      "52": 3633,
      "562": 3634,
      "70": 3635,
      "740": 3636,
      "94": 3637,
      "900": 3638,
      "AL": 3639,
      "Al": 3640,
      "Ar": 3641,
      "Aust": 3642,
      "Ch": 3643,
      "Congress": 3644,
      "Country": 3645,
      "CIA": 3646,
      "Eth": 3647,
      "Gang": 3648,
      "Government": 3649,
      "ISBN": 3650,
      "PP": 3651,
      "Prol": 3652,
      "Zor": 3653,
      "aË": 3654,
      "aver": 3655,
      "air": 3656,
      "aith": 3657,
      "aem": 3658,
      "ares": 3659,
      "aism": 3660,
      "ahar": 3661,
      "ba": 3662,
      "buc": 3663,
      "bour": 3664,
      "bai": 3665,
      "body": 3666,
      "bably": 3667,
      "co": 3668,
      "cing": 3669,
      "cil": 3670,
      "ction": 3671,
      "cover": 3672,
      "ctions": 3673,
      "common": 3674,
      "dd": 3675,
      "dent": 3676,
      "dus": 3677,
      "down": 3678,
      "eb": 3679,
      "ee": 3680,
      "ees": 3681,
      "eas": 3682,
      "eth": 3683,
      "east": 3684,
      "ead": 3685,
      "eated": 3686,
      "eolog": 3687,
      "ealth": 3688,
      "eously": 3689,
      "fl": 3690,
      "fer": 3691,
      "fast": 3692,
      "fort": 3693,
      "fact": 3694,
      "fied": 3695,
      "ga": 3696,
      "gon": 3697,
      "grow": 3698,
      "gadi": 3699,
      "gather": 3700,
      "ho": 3701,
      "hav": 3702,
      "hau": 3703,
      "house": 3704,
      "ij": 3705,
      "ip": 3706,
      "ira": 3707,
      "ires": 3708,
      "iant": 3709,
      "janta": 3710,
      "kn": 3711,
      "key": 3712,
      "ls": 3713,
      "lal": 3714,
      "ling": 3715,
      "lus": 3716,
      "lect": 3717,
      "lands": 3718,
      "ma": 3719,
      "ms": 3720,
      "major": 3721,
      "molog": 3722,
      "mns": 3723,
      "nd": 3724,
      "nic": 3725,
      "oor": 3726,
      "ove": 3727,
      "ores": 3728,
      "ober": 3729,
      "ovi": 3730,
      "oetic": 3731,
      "oastri": 3732,
      "pro": 3733,
      "ptions": 3734,
      "pots": 3735,
      "phere": 3736,
      "pidly": 3737,
      "passing": 3738,
      "rical": 3739,
      "rup": 3740,
      "rdu": 3741,
      "rgan": 3742,
      "round": 3743,
      "rative": 3744,
      "rising": 3745,
      "sp": 3746,
      "sur": 3747,
      "side": 3748,
      "tr": 3749,
      "tt": 3750,
      "tu": 3751,
      "tre": 3752,
      "tent": 3753,
      "tary": 3754,
      "tell": 3755,
      "tled": 3756,
      "tified": 3757,
      "uk": 3758,
      "uable": 3759,
      "vative": 3760,
      "wing": 3761,
      "western": 3762,
      "yn": 3763,
      "ying": 3764,
      "yth": 3765,
      "yle": 3766,
      "year": 3767,
      "zed": 3768,
      "©à¥§": 3769,
      "¸Î": 3770,
      "¼¸Î": 3771,
      "½Î": 3772,
      "ËĪ": 3773,
      "á¼¸Î": 3774,
      "âĤ": 3775,
      "ĊĠĊ": 3776,
      "Ġ&": 3777,
      "Ġ.": 3778,
      "Ġro": 3779,
      "ĠâĢĮ": 3780,
      "Ġide": 3781,
      "Ġess": 3782,
      "ĠÂ°": 3783,
      "ĠZor": 3784,
      "ĠâĤ": 3785,
      "īà°¦": 3786,
      "ĭà°¤": 3787,
      "ĳà¤¸": 3788,
      "Ķà°Ł": 3789,
      "à¤ĳà¤¸": 3790,
      "à°ĥ": 3791,
      "à°Ī": 3792,
      "à°ı": 3793,
      "à°Ľ": 3794,
      "à°ŀ": 3795,
      "à°īà°¦": 3796,
      "à¤¾:": 3797,
      "à¤¾à¥ħ": 3798,
      "à¤¾âĢĻ": 3799,
      "à¥į.": 3800,
      "à¥įâĢĮ": 3801,
      "à¤°à¤«": 3802,
      "à¤°à¤¯à¤¤": 3803,
      "à¥ĩ)": 3804,
      "à¥ĩ).": 3805,
      "à¥ĩ):": 3806,
      "Ġà°ĭà°¤": 3807,
      "Ġà°Ķà°Ł": 3808,
      "à¤¤à¤¸": 3809,
      "à¤¤à¤¦": 3810,
      "à¤¤à¤ľ": 3811,
      "à¤¤à¤ĸ": 3812,
      "à¤¤à¤Ĺà¤¤": 3813,
      "à¤¤à¤¸à¤°": 3814,
      "à¥Ģ/": 3815,
      "à¥ĢâĢĮ": 3816,
      "à¤¿-": 3817,
      "à¤¿à¤ĥ": 3818,
      "à±į)": 3819,
      "à±į.": 3820,
      "à±į;": 3821,
      "à±į).": 3822,
      "à¤¯à¤¯": 3823,
      "à¤¯à¤Ń": 3824,
      "à¤¯à¤µà¤°": 3825,
      "à¤¯à¤¦à¤²": 3826,
      "à¤¯à¤Ľ": 3827,
      "à¤¯à¤¶à¤¸": 3828,
      "à¤¯à¤ļà¤°": 3829,
      "à¤¯à¤Łà¤¸": 3830,
      "à°¾.": 3831,
      "à°¾:": 3832,
      "à°¾;": 3833,
      "à°¾),": 3834,
      "à°¿).": 3835,
      "à¤¨à¤¯": 3836,
      "à¤¨à¤¦": 3837,
      "à¤¨à¤£": 3838,
      "à¤¨à¤µà¤¤": 3839,
      "à¤¨à¤¨à¤ļ": 3840,
      "à¤²à¤¸": 3841,
      "à¤²à¤ª": 3842,
      "à¤²à¤®à¤§": 3843,
      "à¤ķà¤®": 3844,
      "à¤ķà¤ļ": 3845,
      "à¤ķà¤¦": 3846,
      "à¤ķà¤°à¤¤": 3847,
      "à¤ķà¤ľ": 3848,
      "à¤ķà¤ķà¤²": 3849,
      "à°°à°¨": 3850,
      "à°°à°Ĺ": 3851,
      "à°°à°¹": 3852,
      "à°°à°¥": 3853,
      "à°°à°ĸ": 3854,
      "à°°à°µà°°": 3855,
      "à°°à°²à°¤": 3856,
      "Ġà¤ķà¤¸": 3857,
      "Ġà¤ķà¤³": 3858,
      "à±ģ\"": 3859,
      "à±ģ)": 3860,
      "à±ģà°¾": 3861,
      "à±ģ),": 3862,
      "à±ģ\".": 3863,
      "à°Ĥ\"": 3864,
      "à°Ĥ)": 3865,
      "à°Ĥ\",": 3866,
      "à¤¸à¤§": 3867,
      "à¤¸à¤³": 3868,
      "à°²à°°": 3869,
      "à°²à°Ĺ": 3870,
      "à°²à°¡": 3871,
      "à°²à°ļ": 3872,
      "à°²à°ľ": 3873,
      "à°²à°¬": 3874,
      "à°²à°ªà°°": 3875,
      "Ġà¤¸à¤µ": 3876,
      "Ġà¤¸à¤°à¤¤": 3877,
      "Ġà¤¸à¤¤à¤°": 3878,
      "Ġà¤¸à¤°à¤®": 3879,
      "Ġà¤¸à¤¤à¤¤": 3880,
      "Ġà¤¸à¤²à¤µ": 3881,
      "Ġà¤¸à¤µà¤¯": 3882,
      "à¤µà¤Ī": 3883,
      "à¤µà¤ľà¤¨": 3884,
      "à¤®à¤¯": 3885,
      "à¤®à¤°à¤£": 3886,
      "à°¨à°°": 3887,
      "à°¨à°¸": 3888,
      "à°¨à°¹": 3889,
      "à°¨à°¬à°¡": 3890,
      "à°¨à°ķà°²": 3891,
      "à¥ĭ,": 3892,
      "à¤¹à¤ķ": 3893,
      "à¤¹à¤¦": 3894,
      "à¤¹à¤ª": 3895,
      "à¤¹à¤Ł": 3896,
      "à¤¹à¤®à¤¦": 3897,
      "Ġà¤ªà¤£": 3898,
      "Ġà¤ªà¤¸à¤¨": 3899,
      "Ġà¤ªà¤¸à¤°": 3900,
      "Ġà¤ªà¤Ĺà¤¡": 3901,
      "à°¤à°¦": 3902,
      "à°¤à°µ": 3903,
      "à°¤à°Ł": 3904,
      "à°¤à°¥": 3905,
      "à°¤à°°à°®": 3906,
      "Ġten": 3907,
      "Ġtal": 3908,
      "Ġtand": 3909,
      "Ġtri": 3910,
      "Ġtun": 3911,
      "Ġtub": 3912,
      "Ġtak": 3913,
      "Ġtreas": 3914,
      "Ġtyp": 3915,
      "à¤ļà¤£": 3916,
      "à¤ļà¤¡": 3917,
      "à¤¦à¤¨": 3918,
      "à¤¦à¤¹": 3919,
      "à¤¦à¤ª": 3920,
      "à¤¦à¤³": 3921,
      "Ġà¤®à¤£": 3922,
      "Ġà¤®à¤¶": 3923,
      "Ġà¤®à¤°à¤£": 3924,
      "Ġà¤®à¤ķà¤°": 3925,
      "Ġà¤®à¤¤à¤ª": 3926,
      "Ġà¤®à¤ľà¤ķ": 3927,
      "ana": 3928,
      "ann": 3929,
      "aning": 3930,
      "anag": 3931,
      "hest": 3932,
      "head": 3933,
      "hereas": 3934,
      "hered": 3935,
      "heren": 3936,
      "à¥ģ,": 3937,
      "à¥ģ-": 3938,
      "inth": 3939,
      "inated": 3940,
      "inct": 3941,
      "indh": 3942,
      "Ġà¤¹à¤²": 3943,
      "Ġà¤¹à¤°à¤ª": 3944,
      "Ġà¤¹à¤²à¤µ": 3945,
      "Ġà¤¹à¤¨à¤¨": 3946,
      "Ġà¤¹à¤¡à¤ª": 3947,
      "à°ķà°£": 3948,
      "à°ķà°°à°®": 3949,
      "à°ķà°²à°²": 3950,
      "à°ķà°µà°°": 3951,
      "à¤ªà¤ļ": 3952,
      "à¤ªà¤Ł": 3953,
      "à¤ªà¤¥": 3954,
      "à¤ªà¤±": 3955,
      "à¤ªà¤¡à¤²": 3956,
      "Ġà¤µà¤ķ": 3957,
      "Ġà¤µà¤ľ": 3958,
      "à°¦à°ª": 3959,
      "à°¦à°²à°µ": 3960,
      "à°¦à°¨à°²": 3961,
      "Ġà¤Ńà¤ķ": 3962,
      "Ġà¤Ńà¤µ": 3963,
      "Ġà¤Ńà¤°à¤²": 3964,
      "Ġà¤Ńà¤Ĺà¤µ": 3965,
      "à¤£à¤ķ": 3966,
      "à¤£à¤ļ": 3967,
      "à¤£à¤®à¤§": 3968,
      "à¤°à¤¤à¤ļ": 3969,
      "à¤°à¤¤à¤°à¤¤": 3970,
      "à¤°à¤¤à¤Ń": 3971,
      "à¤°à¤¤à¤µà¤°": 3972,
      "Ġà¤Ĩà¤Ī": 3973,
      "Ġà¤Ĩà¤ı": 3974,
      "Ġà¤Ĩà¤«": 3975,
      "Ġà¤Ĩà¤ĸà¤²": 3976,
      "Ġà¤Ĩà¤µà¤¡": 3977,
      "Ġà¤Ĩà¤µà¤¶": 3978,
      "à¤·à¤°": 3979,
      "à¤·à¤¤": 3980,
      "à¤·à¤ķ": 3981,
      "à¤·à¤µ": 3982,
      "à¤·à¤®": 3983,
      "à¤·à¤§": 3984,
      "à¤·à¤°à¤§": 3985,
      "à¤·à¤¯à¤ķ": 3986,
      "à¤·à¤®à¤¤": 3987,
      "à¤·à¤²à¤µ": 3988,
      "à¤·à¤µà¤µ": 3989,
      "à¤·à¤Ĺà¤£": 3990,
      "à°¯à°¯": 3991,
      "à°¯à°Ł": 3992,
      "à°¯à°ª": 3993,
      "à°¯à°¡": 3994,
      "à°¯à°ļ": 3995,
      "à°¯à°ľ": 3996,
      "à°¯à°£": 3997,
      "à°¯à°µà°°": 3998,
      "à°¯à°¬à°¡": 3999,
      "à°¯à°ªà°¡": 4000,
      "à°¯à°ªà°°": 4001,
      "Ġà¤ħà¤µ": 4002,
      "Ġà¤ħà¤¦": 4003,
      "Ġà¤ħà¤¥à¤ķ": 4004,
      "Ġà¤ħà¤¯à¤¶à¤¸": 4005,
      "onic": 4006,
      "onse": 4007,
      "à¥Ĥ),": 4008,
      "eror": 4009,
      "erly": 4010,
      "erous": 4011,
      "ercontinent": 4012,
      "à¤ľà¤¯": 4013,
      "à¤ľà¤Ĺ": 4014,
      "à¤ľà¤¡": 4015,
      "à¤ľà¤ªà¤¤": 4016,
      "à¤ľà¤µà¤³": 4017,
      "à¤ľà¤²à¤ļ": 4018,
      "à¤Ĺà¤¨": 4019,
      "à¤Ĺà¤Ń": 4020,
      "à¤Ĺà¤°à¤ļ": 4021,
      "à¤Ĺà¤®à¤°": 4022,
      "à¤¶à¤¦": 4023,
      "à¤¶à¤Ń": 4024,
      "à¤¶à¤µà¤¤": 4025,
      "à¤¶à¤¹à¤°": 4026,
      "reg": 4027,
      "ret": 4028,
      "ream": 4029,
      "reak": 4030,
      "à±ĩ:": 4031,
      "à±ĩ),": 4032,
      "à±ĭ)": 4033,
      "à±ĭà°ĥ": 4034,
      "Ġà°ªà°¸": 4035,
      "Ġà°ªà°¡": 4036,
      "Ġà°ªà°ļ": 4037,
      "à°µà°¦": 4038,
      "à°µà°ª": 4039,
      "à°µà°³": 4040,
      "à°µà°²à°¨": 4041,
      "à°µà°¬à°¡": 4042,
      "====": 4043,
      "à¤Łà¤¯": 4044,
      "à¤Łà¤ļ": 4045,
      "à¤Łà¤µà¤²": 4046,
      "à¤Łà¤¸à¤®": 4047,
      "Ġaut": 4048,
      "Ġamp": 4049,
      "Ġaccording": 4050,
      "Ġamend": 4051,
      "Ġown": 4052,
      "Ġopen": 4053,
      "sted": 4054,
      "stant": 4055,
      "stian": 4056,
      "string": 4057,
      "style": 4058,
      "ening": 4059,
      "ences": 4060,
      "eneral": 4061,
      "ength": 4062,
      "Ġà¤ľà¤°": 4063,
      "Ġà¤ľà¤¤": 4064,
      "Ġà¤ľà¤¶": 4065,
      "div": 4066,
      "dient": 4067,
      "diment": 4068,
      "dified": 4069,
      "alf": 4070,
      "aled": 4071,
      "Ġà¤¨à¤ķ": 4072,
      "Ġà¤¨à¤Ī": 4073,
      "à°Łà°¸": 4074,
      "à°Łà°¡": 4075,
      "à°Łà°ļ": 4076,
      "à°Łà°²à°ķ": 4077,
      "à°Łà°¨à°²": 4078,
      "Ġà¤¬à¤ĺ": 4079,
      "Ġà¤¬à¤±": 4080,
      "Ġà¤¬à¤¸à¤µ": 4081,
      "ath": 4082,
      "atom": 4083,
      "atts": 4084,
      "atak": 4085,
      "atory": 4086,
      "atures": 4087,
      "atives": 4088,
      "attle": 4089,
      "Ġà¤¦à¤¸à¤°": 4090,
      "Ġà¤¦à¤®à¤¨": 4091,
      "Ġà¤¦à¤¶à¤¹à¤°": 4092,
      "à°Ĺà°¸": 4093,
      "à°Ĺà°ª": 4094,
      "à¤¥à¤ª": 4095,
      "à¤¥à¤³": 4096,
      "à¤¥à¤®à¤§": 4097,
      "à°®à°¸": 4098,
      "à°®à°ª": 4099,
      "à°®à°§": 4100,
      "à°®à°¨à°µ": 4101,
      "à¥ĩà¤Ĥ)": 4102,
      "Ġà¤¤à¤²": 4103,
      "Ġà¤¤à¤¶": 4104,
      "andy": 4105,
      "anded": 4106,
      "andar": 4107,
      "Ġcin": 4108,
      "Ġcit": 4109,
      "Ġcut": 4110,
      "Ġcity": 4111,
      "Ġcere": 4112,
      "Ġcrow": 4113,
      "Ġcount": 4114,
      "Ġcust": 4115,
      "Ġcuis": 4116,
      "Ġcattle": 4117,
      "à¤¡à¤¯": 4118,
      "à¤¡à¤ļ": 4119,
      "à¤¡à¤£": 4120,
      "à¤¡à¤®à¤§": 4121,
      "à¤¡à¤°à¤ļ": 4122,
      "à¤¡à¤ķà¤²": 4123,
      "edd": 4124,
      "ĠII": 4125,
      "Ġà¤°à¤¸": 4126,
      "Ġà¤°à¤µ": 4127,
      "à°¸à°Ĺ": 4128,
      "aras": 4129,
      "arrow": 4130,
      "arger": 4131,
      "ital": 4132,
      "itus": 4133,
      "Ġwet": 4134,
      "Ġway": 4135,
      "Ġwelf": 4136,
      "Ġwhereas": 4137,
      "à°ªà°²": 4138,
      "à°ªà°¸": 4139,
      "à°ªà°ķà°²": 4140,
      "à°ªà°µà°¨": 4141,
      "Ġinternational": 4142,
      "Ġinno": 4143,
      "Ġinstructive": 4144,
      "à°¡à°¯": 4145,
      "à°¡à°Ĺ": 4146,
      "à°¡à°ª": 4147,
      "ĠInc": 4148,
      "ĠInternational": 4149,
      "Ġsw": 4150,
      "Ġshe": 4151,
      "Ġsuc": 4152,
      "Ġsaw": 4153,
      "Ġsiz": 4154,
      "Ġsole": 4155,
      "Ġself": 4156,
      "Ġà°¸à°¤": 4157,
      "Ġà°¸à°µ": 4158,
      "Ġà¤¯à¤¶": 4159,
      "à¤³à¤ª": 4160,
      "à¤³à¤µà¤¤": 4161,
      "à¤³à¤µà¤£": 4162,
      "Ġà°ķà°Ł": 4163,
      "Ġà°ķà°·": 4164,
      "Ġà°ķà°²à°ķ": 4165,
      "Ġà°ķà°¥à°¨": 4166,
      "à¤Ńà¤µà¤¨": 4167,
      "oral": 4168,
      "oration": 4169,
      "ority": 4170,
      "organ": 4171,
      "Ġban": 4172,
      "Ġbal": 4173,
      "Ġbar": 4174,
      "Ġbul": 4175,
      "Ġbot": 4176,
      "Ġbord": 4177,
      "Ġbrough": 4178,
      "Ġbond": 4179,
      "Ġbron": 4180,
      "Ġbread": 4181,
      "Ġbreath": 4182,
      "Ġbreak": 4183,
      "à°ļà°°": 4184,
      "à°ļà°²": 4185,
      "à°ļà°¦": 4186,
      "à°ļà°Ł": 4187,
      "à°ļà°Ĺ": 4188,
      "à°ļà°ľ": 4189,
      "à°ļà°¦à°°": 4190,
      "à°ļà°Ĺà°²": 4191,
      "à°ļà°Łà°®": 4192,
      "Ġpur": 4193,
      "Ġpil": 4194,
      "Ġpul": 4195,
      "Ġple": 4196,
      "Ġpast": 4197,
      "Ġport": 4198,
      "Ġpot": 4199,
      "Ġpass": 4200,
      "Ġpants": 4201,
      "Ġpoin": 4202,
      "Ġportion": 4203,
      "Ġparen": 4204,
      "Ġprin": 4205,
      "Ġpush": 4206,
      "Ġmand": 4207,
      "Ġmay": 4208,
      "Ġmanu": 4209,
      "Ġmix": 4210,
      "Ġmales": 4211,
      "ese": 4212,
      "à°¶à°°": 4213,
      "à°¶à°²": 4214,
      "à°¶à°°à°¦": 4215,
      "Ġfil": 4216,
      "Ġfac": 4217,
      "Ġfest": 4218,
      "Ġfav": 4219,
      "Ġfish": 4220,
      "Ġflo": 4221,
      "Ġfood": 4222,
      "Ġfash": 4223,
      "Ġfoetic": 4224,
      "à¤¬à¤¹": 4225,
      "à¤¬à¤§": 4226,
      "à¤¬à¤¡": 4227,
      "à¤¬à¤®à¤§": 4228,
      "à¤¬à¤°à¤ļ": 4229,
      "à¤¬à¤³à¤®": 4230,
      "à¤¬à¤³à¤ª": 4231,
      "icken": 4232,
      "Ġà¥§": 4233,
      "Ġà¥¯à¥": 4234,
      "Ġà¤Ĺà¤ļ": 4235,
      "Ġà¤Ĺà¤Ł": 4236,
      "Ġà¤Ĺà¤°à¤®": 4237,
      "Ġà¤Ĺà¤³à¤¤": 4238,
      "Ġà¤Ĺà¤Ŀ": 4239,
      "Ġà°µà°¦": 4240,
      "Ġà°µà°ľ": 4241,
      "Ġà°µà°°à°ķ": 4242,
      "Ġà°µà°²à°¸": 4243,
      "Ġà¤¶à¤°": 4244,
      "Ġà¤¶à¤¹": 4245,
      "Ġà°®à°¨": 4246,
      "Ġà°®à°¦": 4247,
      "Ġà°®à°¸": 4248,
      "Ġà°®à°£": 4249,
      "Ġà°®à°¨à°®": 4250,
      "Ġà°®à°¯à°¨": 4251,
      "ision": 4252,
      "isans": 4253,
      "isions": 4254,
      "isdic": 4255,
      "Ġ142": 4256,
      "Ġ140": 4257,
      "à¤ĸà¤¤": 4258,
      "à¤ĸà¤Ł": 4259,
      "à¤ĸà¤µà¤²": 4260,
      "Ġà¤ĩà¤£": 4261,
      "Ġà¤ĩà¤ľà¤°": 4262,
      "Ġà¤ĩà¤¨à¤ķ": 4263,
      "ase": 4264,
      "ased": 4265,
      "asions": 4266,
      "asures": 4267,
      "à°§à°¨": 4268,
      "à°§à°²à°¤": 4269,
      "à°°à°¤à°°": 4270,
      "à°°à°¤à°¨": 4271,
      "à°°à°¤à°®": 4272,
      "Ġà¤²à¤µ": 4273,
      "Ġà¤²à¤¦": 4274,
      "ential": 4275,
      "omm": 4276,
      "Ġà¤īà¤²": 4277,
      "Ġà¤īà¤¡": 4278,
      "Ġà¤īà¤Ĺà¤®": 4279,
      "Ġling": 4280,
      "Ġlate": 4281,
      "Ġlies": 4282,
      "Ġlab": 4283,
      "Ġlive": 4284,
      "Ġless": 4285,
      "Ġliving": 4286,
      "Ġliber": 4287,
      "Ġlength": 4288,
      "Ġlarger": 4289,
      "à±Ĩ,": 4290,
      "oury": 4291,
      "âĢĿ": 4292,
      "Ġedic": 4293,
      "Ġevent": 4294,
      "Ġevol": 4295,
      "Ġemb": 4296,
      "Ġemiss": 4297,
      "Ġeither": 4298,
      "Ġà¤Ķà¤¸à¤¤": 4299,
      "Ġà¤Ķà¤·à¤§": 4300,
      "Ġà°Ńà°°à°¤à°¨": 4301,
      "Ġ(\"": 4302,
      "à±Ĥ;": 4303,
      "à±ĤâĢĶ": 4304,
      "Ġà°ħà°¸": 4305,
      "Ġà°ħà°¶": 4306,
      "Ġà°ħà°ĸ": 4307,
      "Ġà°ħà°µà°°": 4308,
      "Ġà°ħà°°à°µ": 4309,
      "Ġà°ħà°µà°¸": 4310,
      "à¤łà¤²": 4311,
      "à¤łà¤ļ": 4312,
      "à°Ńà°¦": 4313,
      "à°Ńà°®": 4314,
      "à°Ńà°ľ": 4315,
      "à±Īà°Ĥ": 4316,
      "à°·à°ķ": 4317,
      "à°·à°®": 4318,
      "à°·à°²à°²": 4319,
      "à°·à°²à°¤": 4320,
      "Ġtop": 4321,
      "ĊĊĠĊ": 4322,
      "Ġ====": 4323,
      "Ġà¤ªà¤°à¤¨": 4324,
      "à¤¤à¤°à¤¦": 4325,
      "à¤¤à¤°à¤£": 4326,
      "Ġà¤ļà¤ķ": 4327,
      "Ġà¤ļà¤µ": 4328,
      "Ġà¤ļà¤ª": 4329,
      "Ġà¤ļà¤°à¤®": 4330,
      "Ġà¤ļà¤²à¤¨": 4331,
      "Ġhun": 4332,
      "Ġhous": 4333,
      "Ġhost": 4334,
      "Ġhouse": 4335,
      "Ġhots": 4336,
      "Ġhalf": 4337,
      "à°ľà°²": 4338,
      "à°ľà°¯": 4339,
      "à°ľà°®": 4340,
      "à°ľà°ª": 4341,
      "à°ľà°§": 4342,
      "Ġà°¦à°°": 4343,
      "Ġà°¦à°Ĺ": 4344,
      "Ġà°¦à°¸à°°": 4345,
      "Ġà°¦à°¶à°²": 4346,
      "Ġdh": 4347,
      "Ġdo": 4348,
      "Ġdem": 4349,
      "Ġdest": 4350,
      "Ġdoc": 4351,
      "Ġdry": 4352,
      "Ġdown": 4353,
      "Ġdrew": 4354,
      "Ġdata": 4355,
      "Ġdue": 4356,
      "Ġdense": 4357,
      "Ġdesc": 4358,
      "Ġdomestic": 4359,
      "Ġà¤ħà¤¸à¤«à¤²": 4360,
      "econom": 4361,
      "ury": 4362,
      "urta": 4363,
      "urisdic": 4364,
      "Ġà°īà°°": 4365,
      "Ġà°īà°¦": 4366,
      "Ġà°īà°·": 4367,
      "Ġrest": 4368,
      "Ġrece": 4369,
      "Ġrelief": 4370,
      "Ġrebellion": 4371,
      "Ġ24": 4372,
      "Ġ27": 4373,
      "Ġ230": 4374,
      "Ġà¤ıà¤¸": 4375,
      "Ġà¤ıà¤¡à¤µ": 4376,
      "Ġà¤ıà¤¤à¤¦": 4377,
      "ĠTo": 4378,
      "ĠTer": 4379,
      "ĠTib": 4380,
      "ĠTyp": 4381,
      "ĠTitus": 4382,
      "à¤¼à¥ĭà¤Ĥ": 4383,
      "à¤¼à¤¾,": 4384,
      "à¤¼),": 4385,
      "Ġnex": 4386,
      "Ġnetwork": 4387,
      "Ġninth": 4388,
      "Ġnarrow": 4389,
      "à¤°à¤ķà¤¨": 4390,
      "à¤°à¤ķà¤²": 4391,
      "à¤°à¤ķà¤¡": 4392,
      "Ġgro": 4393,
      "Ġgig": 4394,
      "Ġgive": 4395,
      "Ġgovern": 4396,
      "Ġgeograph": 4397,
      "Ġgained": 4398,
      "Ġgreen": 4399,
      "Ġgeolog": 4400,
      "Ġà¥§à¥©": 4401,
      "ili": 4402,
      "ils": 4403,
      "ilar": 4404,
      "à¤µà¤°à¤ļ": 4405,
      "à°¹à°°": 4406,
      "à°¹à°ķ": 4407,
      "à°¹à°®": 4408,
      "à°¹à°ª": 4409,
      "Ġà°¨à°¦": 4410,
      "ĠAc": 4411,
      "ĠAt": 4412,
      "ĠAch": 4413,
      "ĠAgency": 4414,
      "ĠAjanta": 4415,
      "à°¬à°²": 4416,
      "à°¬à°¦": 4417,
      "Ġà¤ķà¤°à¤ª": 4418,
      "ĠCup": 4419,
      "ĠCav": 4420,
      "ĠCulture": 4421,
      "ĠCountry": 4422,
      "ĠClim": 4423,
      "ĠChes": 4424,
      "ĠCarn": 4425,
      "ĠCIA": 4426,
      "ĠCommon": 4427,
      "à¥¦à¥¬": 4428,
      "à¥¦à¥¯à¥": 4429,
      "olent": 4430,
      "olved": 4431,
      "ollowing": 4432,
      "olcan": 4433,
      "ule": 4434,
      "ulos": 4435,
      "riya": 4436,
      "riors": 4437,
      "ristian": 4438,
      "Ġà°ļà°ķ": 4439,
      "Ġà°ļà°Ł": 4440,
      "Ġà°ļà°®": 4441,
      "Ġà°ļà°¦à°°": 4442,
      "Ġà°ľà°²": 4443,
      "Ġà°ľà°µà°¹": 4444,
      "à¤Īà¤¡": 4445,
      "Ġà¤¸à¤®à¤¤": 4446,
      "Ġà¤¸à¤®à¤¸": 4447,
      "Ġà¤¸à¤®à¤µ": 4448,
      "à°¥à°Ĺ": 4449,
      "ĠBS": 4450,
      "ĠBal": 4451,
      "ĠBah": 4452,
      "Ġà¤§à¤¡à¤ª": 4453,
      "Ġà¤§à¤¡à¤ķà¤²": 4454,
      "Ġà°ĩà°®": 4455,
      "Ġà°ĩà°ª": 4456,
      "Ġà°ĩà°ļ": 4457,
      "Ġà°ĩà°¯à°°": 4458,
      "amy": 4459,
      "amed": 4460,
      "ropp": 4461,
      "lements": 4462,
      "ĠSim": 4463,
      "ĠSab": 4464,
      "ĠSant": 4465,
      "ĠSome": 4466,
      "ĠSarn": 4467,
      "ĠSultanate": 4468,
      "ĠSovi": 4469,
      "ceed": 4470,
      "ĠThey": 4471,
      "Ġà¤Ŀà¤ª": 4472,
      "Ġà¤Ŀà¤Ĺà¤¡": 4473,
      "isting": 4474,
      "istent": 4475,
      "istory": 4476,
      "à¤°à¤®à¤¶": 4477,
      "ety": 4478,
      "etah": 4479,
      "Ġà¤µà¤°à¤³": 4480,
      "à¤°à¤£à¤¯à¤ķ": 4481,
      "Ġà°Ĩà°²": 4482,
      "Ġà°Ĩà°¯": 4483,
      "Ġà°Ĩà°µ": 4484,
      "Ġà°Ĩà°¡": 4485,
      "Ġà°Ĩà°ļ": 4486,
      "Ġà°Ĩà°£": 4487,
      "Ġà°Ĩà°µà°²": 4488,
      "Ġà°Ĩà°²à°¸": 4489,
      "Ġà°Ĩà°Łà°²": 4490,
      "iming": 4491,
      "adem": 4492,
      "adwe": 4493,
      "iger": 4494,
      "igion": 4495,
      "Ġà°¤à°²": 4496,
      "Ġà°¤à°¦": 4497,
      "Ġà°¤à°Ĺ": 4498,
      "Ġà°¤à°²à°²": 4499,
      "Ġà°¤à°¨à°²": 4500,
      "Ġà°¤à°°à°¤à°°": 4501,
      "Ġthorn": 4502,
      "à¤ıà¤¸à¤ľ": 4503,
      "à¥Ģ.\"": 4504,
      "à¥Ģ./": 4505,
      "iding": 4506,
      "idel": 4507,
      "idesp": 4508,
      "iduous": 4509,
      "untou": 4510,
      "Ġà¤ĺà¤¨": 4511,
      "Ġà°Ĺà°¨": 4512,
      "Ġà¤ĩà¤¸à¤¨": 4513,
      "Ġà¤ĩà¤¸à¤µ": 4514,
      "irm": 4515,
      "Ġfortified": 4516,
      "à¤¢à¤£": 4517,
      "ĠPolit": 4518,
      "ĠPresident": 4519,
      "ĠPAL": 4520,
      "Ġranges": 4521,
      "Ġrati": 4522,
      "Ġrole": 4523,
      "Ġbest": 4524,
      "Ġbegin": 4525,
      "à°³à°¨": 4526,
      "à°³à°µ": 4527,
      "à°³à°ª": 4528,
      "mental": 4529,
      "mented": 4530,
      "ĠMem": 4531,
      "ĠMum": 4532,
      "ĠModi": 4533,
      "ĠMarat": 4534,
      "à¤·à¤£à¤¸": 4535,
      "à¤·à¤£à¤¹": 4536,
      "à¤·à¤£à¤¤à¤ľ": 4537,
      "à¤«à¤Ĺ": 4538,
      "à°ĸà°ķ": 4539,
      "à°ĸà°ªà°Ł": 4540,
      "Ġà°²à°Ń": 4541,
      "Ġà°²à°ĺ": 4542,
      "Ġmother": 4543,
      "Ġà¥§à¥¯à¥©à¥§": 4544,
      "utes": 4545,
      "utra": 4546,
      "ters": 4547,
      "Ġà¤ĸà¤ľ": 4548,
      "Ġà¤ĸà¤¡à¤ķ": 4549,
      "resolved": 4550,
      "Ġwhat": 4551,
      "Ġstri": 4552,
      "Ġstud": 4553,
      "Ġstif": 4554,
      "Ġstandar": 4555,
      "Ġà¤¬à¤¨à¤µà¤¤": 4556,
      "Ġà¤¬à¤¨à¤µà¤²": 4557,
      "Ġà°İà°²": 4558,
      "Ġà°İà°¦": 4559,
      "Ġà°İà°¡": 4560,
      "Ġà°İà°®à°°": 4561,
      "Ġà°İà°¡à°®": 4562,
      "ĠEl": 4563,
      "ĠEmer": 4564,
      "ĠEty": 4565,
      "Ġexerc": 4566,
      "Ġonset": 4567,
      "à°°à°®à°£à°¦": 4568,
      "Ġdid": 4569,
      "Ġdied": 4570,
      "Ġdise": 4571,
      "Ġà¤¬à¤¹à¤¤": 4572,
      "à¥ī.": 4573,
      "angra": 4574,
      "Ġany": 4575,
      "Ġanatom": 4576,
      "à±įâĢĮ)": 4577,
      "à±įâĢĮ,": 4578,
      "Ġorally": 4579,
      "ĠDis": 4580,
      "ĠDance": 4581,
      "Ġà¥¨à¥«": 4582,
      "Ġà¥¨à¥¯": 4583,
      "Ġà¥¨à¥«à¥Ń": 4584,
      "à¤µà¤¤à¤¨": 4585,
      "à¤µà¤¤à¤®": 4586,
      "à¤µà¤¤à¤¶": 4587,
      "ĠGond": 4588,
      "ĠHZ": 4589,
      "ĠHealth": 4590,
      "ĠHistory": 4591,
      "ayat": 4592,
      "ayanag": 4593,
      "illed": 4594,
      "ĠNi": 4595,
      "ĠNort": 4596,
      "ĠNew": 4597,
      "ĠNep": 4598,
      "ĠNetwork": 4599,
      "ĠNDA": 4600,
      "Ġà°¹à°ķ": 4601,
      "Ġà°¹à°¸": 4602,
      "Ġarisen": 4603,
      "à¥«à¥§à¥Ń": 4604,
      "à¤ªà¤°à¤²": 4605,
      "Ġà¤īà¤¦à¤°à¤¨": 4606,
      "Ġunited": 4607,
      "Ġuntouchability": 4608,
      "Ġuncommon": 4609,
      "Ġunresolved": 4610,
      "à¤¸à¤¦à¤¹": 4611,
      "à¤¦à¤²à¤¹": 4612,
      "à¤¦à¤²à¤ļ": 4613,
      "à°µà°°à°²": 4614,
      "à¤Ĩà¤ķ": 4615,
      "à¤ĩà¤¯": 4616,
      "à¤ĩà¤¸à¤µ": 4617,
      "Ġà¤«à¤°à¤ķ": 4618,
      "à¤°à¤ļà¤²à¤¨": 4619,
      "Ġà¤ľà¤¨à¤ªà¤¥": 4620,
      "ake": 4621,
      "akh": 4622,
      "akers": 4623,
      "à¥ªà¥¨à¥©": 4624,
      "ends": 4625,
      "och": 4626,
      "Ġà°Ĵà°°": 4627,
      "Ġà°Ĵà°¡": 4628,
      "à¤¸à¤¨à¤¨": 4629,
      "à¤ªà¤¤à¤ļ": 4630,
      "Ġà¤Ĩà¤£à¤ĸ": 4631,
      "Ġincome": 4632,
      "iva": 4633,
      "ival": 4634,
      "Ġà¤ĵà¤¸": 4635,
      "Ġà¤ĵà¤µ": 4636,
      "otech": 4637,
      "Ġvary": 4638,
      "Ġvalley": 4639,
      "Ġvoted": 4640,
      "Ġvolcan": 4641,
      "à¤ĵà¤¸": 4642,
      "à°¯à°µà°¹": 4643,
      "Ġalliance": 4644,
      "Ġcommit": 4645,
      "Ġcomfort": 4646,
      "duce": 4647,
      "à¤ķà¤¡à¤ļ": 4648,
      "à¤¸à¤®à¤¯": 4649,
      "Ġà¤īà¤ªà¤Ĺ": 4650,
      "Ġdeleg": 4651,
      "Ġdepend": 4652,
      "Ġ2017": 4653,
      "Ġ2019": 4654,
      "osa": 4655,
      "osi": 4656,
      "osing": 4657,
      "osystem": 4658,
      "osition": 4659,
      "osphere": 4660,
      "eligion": 4661,
      "ĠWHO": 4662,
      "à¤¹à¤£à¤²": 4663,
      "Ġcentre": 4664,
      "Ġà¤°à¤¹à¤¤": 4665,
      "Indian": 4666,
      "à¥¬à¥¬": 4667,
      "à¥¬à¥Ń": 4668,
      "Ġsport": 4669,
      "Ġsports": 4670,
      "ogamy": 4671,
      "ought": 4672,
      "ĠAsians": 4673,
      "agana": 4674,
      "Ġ72": 4675,
      "Ġkho": 4676,
      "Ġkurta": 4677,
      "à¥Ńà¥¯": 4678,
      "Ġà¤ªà¤¡à¤¸": 4679,
      "Ġà¤ªà¤¡à¤£": 4680,
      "Ġchap": 4681,
      "Ġchains": 4682,
      "Ġchild": 4683,
      "Ġproj": 4684,
      "Ġprop": 4685,
      "Ġproduced": 4686,
      "Ġprobably": 4687,
      "Ġproduce": 4688,
      "Ġ1964": 4689,
      "Ġ1966": 4690,
      "Ġcontra": 4691,
      "ĠRed": 4692,
      "Ġà°ıà°ķ": 4693,
      "Ġà°ıà°Ł": 4694,
      "Ġà°ıà°³": 4695,
      "Ġà°ıà°ķà°¤": 4696,
      "Ġcost": 4697,
      "Ġà°ķà°²à°¦": 4698,
      "Ġà°ķà°²à°Ĺà°²": 4699,
      "Ġ2005": 4700,
      "Ġ2009": 4701,
      "ĠUPA": 4702,
      "ĠUrdu": 4703,
      "Ġà¤ĳà¤²": 4704,
      "Ġà¤ĳà¤ķ": 4705,
      "Ġà¤Ĩà¤ľà¤µà¤°à¤ļ": 4706,
      "assical": 4707,
      "assinated": 4708,
      "ĠHindus": 4709,
      "aval": 4710,
      "avated": 4711,
      "iferation": 4712,
      "lowed": 4713,
      "à°Ĥ....": 4714,
      "Ġà°¸à°®à°¯": 4715,
      "Ġà°¸à°®à°¶": 4716,
      "Ġà°¸à°®à°·": 4717,
      "Ġparties": 4718,
      "Ġpartially": 4719,
      "ctober": 4720,
      "Ġ41": 4721,
      "Ġ42": 4722,
      "Ġ45": 4723,
      "à¥®à¥«": 4724,
      "Ġmarry": 4725,
      "Ġmarsh": 4726,
      "Ġeconomies": 4727,
      "Ġformally": 4728,
      "ressive": 4729,
      "ajpay": 4730,
      "app": 4731,
      "aps": 4732,
      "aputra": 4733,
      "Ġ34": 4734,
      "Ġ300": 4735,
      "Ġ361": 4736,
      "Ġà¤ķà¤²à¤ķà¤¤": 4737,
      "Ġà¤ľà¤Ĺà¤¹": 4738,
      "Ġà°®à°¤à°¸": 4739,
      "Ġregist": 4740,
      "hip": 4741,
      "hief": 4742,
      "ĠFort": 4743,
      "ĠFollowing": 4744,
      "ĠJhar": 4745,
      "ĠJaw": 4746,
      "ĠJamm": 4747,
      "ĠJune": 4748,
      "Ġà¤¸à¤¹à¤ķ": 4749,
      "Ġà¤¸à¤¹à¤¸": 4750,
      "Ġadvent": 4751,
      "Ġadvan": 4752,
      "stitutes": 4753,
      "Ġcloth": 4754,
      "Ġclose": 4755,
      "Ġsex": 4756,
      "Ġseats": 4757,
      "Ġsediment": 4758,
      "Ġsubduc": 4759,
      "Ġsubstant": 4760,
      "Ġplant": 4761,
      "Ġplayed": 4762,
      "Ġlargely": 4763,
      "Ġrelated": 4764,
      "Ġrelative": 4765,
      "mework": 4766,
      "à¤ħà¤®": 4767,
      "à¤ħà¤§": 4768,
      "à¤ħà¤Ł": 4769,
      "à¤ħà¤®à¤°": 4770,
      "à¤ħà¤¹à¤®à¤¦": 4771,
      "à¤ħà¤«à¤Ĺ": 4772,
      "à¥§à¥§": 4773,
      "à¥§à¥©": 4774,
      "à¥§à¥«": 4775,
      "à°°à°ķà°³": 4776,
      "erala": 4777,
      "erals": 4778,
      "Ġà°¸à°°à°«à°°": 4779,
      "Ġpercent": 4780,
      "Ġà¥«à¥¦à¥¦": 4781,
      "ĠChand": 4782,
      "ĠChol": 4783,
      "ĠChamp": 4784,
      "ĠChhau": 4785,
      "ĠChristian": 4786,
      "ĠVis": 4787,
      "ĠVedic": 4788,
      "ĠVij": 4789,
      "ĠVajpay": 4790,
      "à¤¯à¤®à¤µà¤°": 4791,
      "Ġelect": 4792,
      "Ġ1990": 4793,
      "luding": 4794,
      "ĠKaver": 4795,
      "ĠKosi": 4796,
      "ĠKerala": 4797,
      "à¤®à¤¨à¤¦": 4798,
      "Ġà¤Ĩà¤ªà¤ªà¤²": 4799,
      "Ġà¤ħà¤Ńà¤¯": 4800,
      "Ġà¤¬à¤¦à¤²à¤²": 4801,
      "Ġdecreasing": 4802,
      "Ġdeciduous": 4803,
      "197": 4804,
      "199": 4805,
      "1961": 4806,
      "à¤¤à¤ķà¤¥": 4807,
      "Ġagree": 4808,
      "Ġ1949": 4809,
      "Ġcompos": 4810,
      "Ġcompany": 4811,
      "Ġcomprising": 4812,
      "fficial": 4813,
      "Ġ53": 4814,
      "Ġ500": 4815,
      "Ġ546": 4816,
      "Ġending": 4817,
      "à¤¨à¤µà¤ľ": 4818,
      "à°°à°ľà°²à°ķ": 4819,
      "Ġà¤¸à¤£à¤µ": 4820,
      "à°¯à°ķà°®": 4821,
      "à°Ĺà°°à°²": 4822,
      "Ġshort": 4823,
      "Ġshared": 4824,
      "Ġshalw": 4825,
      "Ġshoulder": 4826,
      "Ġshores": 4827,
      "Ġexporter": 4828,
      "Ġexpanding": 4829,
      "Ġartic": 4830,
      "Ġartists": 4831,
      "Ġartistic": 4832,
      "Ġartisans": 4833,
      "Ġincluded": 4834,
      "Ġincludes": 4835,
      "wealth": 4836,
      "Ġ81": 4837,
      "à¤Ĭà¤¸": 4838,
      "à¤¤à¤ªà¤£": 4839,
      "à¤·à¤Ńà¤°": 4840,
      "à¤·à¤Ńà¤ª": 4841,
      "Ġà¤ħà¤ľà¤¸": 4842,
      "à¤¶à¤¨à¤²": 4843,
      "à¤¶à¤¨à¤ªà¤Ł": 4844,
      "Ġoverran": 4845,
      "Ġsystems": 4846,
      "âĢįâĢį": 4847,
      "ectively": 4848,
      "Ġresources": 4849,
      "ighbour": 4850,
      "ralian": 4851,
      "à°ĺà°°": 4852,
      "à°ĺà°®": 4853,
      "Ġà°¯à°®": 4854,
      "Ġà°¯à°¥": 4855,
      "à°¨à°µà°ļ": 4856,
      "Ġreptil": 4857,
      "Ġrepresent": 4858,
      "Ġrepeated": 4859,
      "Ġmodel": 4860,
      "ĠLat": 4861,
      "ĠLaksh": 4862,
      "à¤īà¤¸": 4863,
      "à¤īà¤·": 4864,
      "Ġà¤łà¤¸": 4865,
      "Ġà¤łà¤°à¤²": 4866,
      "Ġà¤ħà¤ªà¤Ń": 4867,
      "Ġinform": 4868,
      "Ġsupreme": 4869,
      "Ġsupercontinent": 4870,
      "Ġmedic": 4871,
      "Ġmedieval": 4872,
      "Ġmegadi": 4873,
      "Ġmeaning": 4874,
      "CEE": 4875,
      "Ġ62": 4876,
      "Ġ63": 4877,
      "ĠOur": 4878,
      "ĠOld": 4879,
      "ĠOcean": 4880,
      "ĠOrgan": 4881,
      "ĠOctober": 4882,
      "à°«à°²": 4883,
      "Ġà¤ĭà¤·": 4884,
      "Ġà¤ĭà¤·à¤Ńà¤ª": 4885,
      "à°µà°²à°¸": 4886,
      "Ġpeace": 4887,
      "Ġà¥ªà¥¦": 4888,
      "Ġà¥ªà¥«": 4889,
      "Ġà¥ªà¥¬": 4890,
      "Ġà¥ªà¥©": 4891,
      "Ġà¥ªà¥«à¥¦": 4892,
      "Ġlatitud": 4893,
      "Ġnumerals": 4894,
      "Ġincreasing": 4895,
      "2022": 4896,
      "Ġimmediately": 4897,
      "heduled": 4898,
      "à¤ľà¤µà¤£": 4899,
      "Ġruled": 4900,
      "Ġruling": 4901,
      "Ġrulers": 4902,
      "Ġdiscrimin": 4903,
      "efly": 4904,
      "à±ĩ...": 4905,
      "Ġscen": 4906,
      "Ġscheduled": 4907,
      "Ġseries": 4908,
      "Ġhumans": 4909,
      "Ġà°īà°ªà°°": 4910,
      "ological": 4911,
      "monsoon": 4912,
      "Ġrace": 4913,
      "Ġrapidly": 4914,
      "à¤°à¤µà¤¯": 4915,
      "à¤²à¤Ĺà¤Ńà¤Ĺ": 4916,
      "Ġ1985": 4917,
      "Ġ1989": 4918,
      "Ġnotable": 4919,
      "Ġenc": 4920,
      "Ġà¤¸à¤¦à¤¨": 4921,
      "Ġà¤Ĩà¤¢à¤³": 4922,
      "Ġà¤Ĩà¤¢à¤°à¤£": 4923,
      "Ġà¤Ĩà¤¢à¤³à¤£": 4924,
      "Ġsouthwest": 4925,
      "Ġfollowed": 4926,
      "Ġà¥©à¥©": 4927,
      "Ġà¥©à¥«à¥¦à¥¦": 4928,
      "Ġà¥©à¥ªà¥¦": 4929,
      "Ġ1250": 4930,
      "Ġlands": 4931,
      "ĠCEE": 4932,
      "Ġà°ĩà°µà°¨": 4933,
      "Ġà¥§à¥¯à¥Ńà¥¦": 4934,
      "Ġà¥§à¥¯à¥Ńà¥«": 4935,
      "Ġà¥§à¥¯à¥Ńà¥ª": 4936,
      "Ġà¥§à¥¯à¥Ńà¥¨": 4937,
      "Ġà¥§à¥¯à¥Ńà¥Ń": 4938,
      "à¤ĺà¤²à¤ķ": 4939,
      "gener": 4940,
      "niqu": 4941,
      "violence": 4942,
      "violent": 4943,
      "Ġjack": 4944,
      "Ġjurisdic": 4945,
      "Ġà¤ħà¤Ĺà¤¦": 4946,
      "Ġappoin": 4947,
      "Ġapplied": 4948,
      "aticians": 4949,
      "Ġà¥Ńà¥«": 4950,
      "Ġà¥Ńà¥¯": 4951,
      "omphe": 4952,
      "Ġà¤ıà¤µà¤®": 4953,
      "Ġà¥§à¥¦à¥¦": 4954,
      "Ġà¥§à¥¦à¥¦à¥¦": 4955,
      "Ġà¥§à¥¨à¥¦à¥®": 4956,
      "Ġà¥§à¥®à¥«à¥Ń": 4957,
      "Ġà¥§à¥®à¥«à¥¦": 4958,
      "Ġà¥§à¥®à¥§à¥®": 4959,
      "ilitated": 4960,
      "ĠAlliance": 4961,
      "ackbuc": 4962,
      "Ġimperial": 4963,
      "awatts": 4964,
      "à°¢à°µ": 4965,
      "Ġà¤ķà¤¡à¤ķ": 4966,
      "à°¨à°ªà°¦": 4967,
      "Ġtherefore": 4968,
      "Ġthereafter": 4969,
      "à°¯à°¤à°¨": 4970,
      "Ġabs": 4971,
      "Ġable": 4972,
      "Ġabove": 4973,
      "Ġà¤ľà¤®à¤²": 4974,
      "Ġ1010": 4975,
      "à°·à°£à°¨": 4976,
      "à°·à°£à°²à°¨": 4977,
      "à°ľà°¨à°Ĺà°£": 4978,
      "à°ľà°¨à°ķà°°à°®": 4979,
      "Ġnonviolent": 4980,
      "Ġextreme": 4981,
      "Ġextends": 4982,
      "Ġà¥¨à¥¦à¥¦à¥§": 4983,
      "everal": 4984,
      "Ġoccurred": 4985,
      "Ġoccasions": 4986,
      "Ġwars": 4987,
      "Ġwarriors": 4988,
      "espite": 4989,
      "Ġliterary": 4990,
      "Ġliterature": 4991,
      "ĠThail": 4992,
      "Ġgrandmother": 4993,
      "Ġà¥§à¥«à¥¦à¥¦": 4994,
      "ĠArc": 4995,
      "ĠPlain": 4996,
      "421": 4997,
      "ronic": 4998,
      "à°ĩà°¸": 4999,
      "à¤°à¤¯à¤¶à¤ķ": 5000,
      "Ġà°Ĳà°¦": 5001,
      "Ġà°ĸà°°": 5002,
      "Ġà°ĸà°Ĺ": 5003,
      "à°ķà°¤à°ķ": 5004,
      "à°µà°¸à°¤": 5005,
      "à°ªà°°à°ļ": 5006,
      "Ġsettle": 5007,
      "à°·à°°à°¬à°¦": 5008,
      "ilding": 5009,
      "ĠPunjabi": 5010,
      "ĠEastern": 5011,
      "ultaneously": 5012,
      "à°°à°ľà°²à°ļ": 5013,
      "ible": 5014,
      "nologue": 5015,
      "à¤¸à¤µà¤ª": 5016,
      "orne": 5017,
      "orship": 5018,
      "Ġprevent": 5019,
      "Ġmainly": 5020,
      "Ġfarmers": 5021,
      "Ġemphas": 5022,
      "Ġemperor": 5023,
      "Ġgradient": 5024,
      "ĠStill": 5025,
      "Ġà¥§à¥¯à¥®à¥¦": 5026,
      "Ġà¥§à¥¯à¥®à¥¯": 5027,
      "Ġmathematicians": 5028,
      "puts": 5029,
      "Ġusually": 5030,
      "à°Ĩà°¤": 5031,
      "Ġà°ĺà°°": 5032,
      "Ġà°ĺà°Ł": 5033,
      "Ġà°ĺà°¨à°¤": 5034,
      "Ġà¤ķà¤¥à¤ķà¤²": 5035,
      "Ġtechniqu": 5036,
      "Ġaction": 5037,
      "Ġaccess": 5038,
      "Ġcolleg": 5039,
      "Ġcolonial": 5040,
      "Ġweb": 5041,
      "à°ªà°ķà°³": 5042,
      "à°¡à°®à°¸": 5043,
      "Ġ1652": 5044,
      "Ġà°ħà°µà°¤à°°": 5045,
      "Ġhighly": 5046,
      "ĠShastri": 5047,
      "ĠShiva": 5048,
      "ĠMuslims": 5049,
      "Ġà¥§à¥¯à¥¬à¥¨": 5050,
      "Ġassassinated": 5051,
      "Ġcontribut": 5052,
      "Ġcontributed": 5053,
      "Ġcoasts": 5054,
      "Ġcoastal": 5055,
      "Ġcoastline": 5056,
      "Ġlegend": 5057,
      "à°ķà°°à°£à°²à°¤": 5058,
      "Ġterritorial": 5059,
      "Ġtransform": 5060,
      "ĠSikhs": 5061,
      "359": 5062,
      "ization": 5063,
      "izens": 5064,
      "vene": 5065,
      "vidence": 5066,
      "Ġà¥¤à¥¤": 5067,
      "à¤µà¤§à¤°": 5068,
      "Ġà¤°à¤ĸà¤¨": 5069,
      "Ġindustrial": 5070,
      "Ġbiodiversity": 5071,
      "Ġbiotech": 5072,
      "Ġfigure": 5073,
      "Ġfeature": 5074,
      "Ġà¥¯à¥¦": 5075,
      "Ġà¥¯à¥¦à¥¦à¥¦": 5076,
      "Ġlasted": 5077,
      "Ġremained": 5078,
      "Ġneighbour": 5079,
      "Ġdiffused": 5080,
      "Ġarms": 5081,
      "Ġarchaic": 5082,
      "Ġdevast": 5083,
      "Ġmarried": 5084,
      "Ġ1853": 5085,
      "Ġ1858": 5086,
      "Ġoccupation": 5087,
      "Ġbirths": 5088,
      "Ġoriginal": 5089,
      "Ġpaintings": 5090,
      "263": 5091,
      "century": 5092,
      "wana": 5093,
      "à°ħà°¤": 5094,
      "à°ħà°§": 5095,
      "à°ħà°¹à°®": 5096,
      "à¤°à¤¬à¤³": 5097,
      "Ġà°¡à°¬": 5098,
      "à°¯à°¸à°®": 5099,
      "Ġcarved": 5100,
      "à°¸à°Ńà°²": 5101,
      "Ġintervention": 5102,
      "Ġpresent": 5103,
      "Ġpresence": 5104,
      "Ġpresident": 5105,
      "Ġpromin": 5106,
      "Ġà¥²à¤ķ": 5107,
      "Ġà¥²à¤£": 5108,
      "Ġà¤īà¤Ńà¤¯à¤ļà¤°": 5109,
      "Ġà°ħà°®à°²à°µ": 5110,
      "Ġnationalist": 5111,
      "à°¥à°¨à°²à°²": 5112,
      "Ġà¥§à¥¯à¥¨à¥¯": 5113,
      "Ġà¥§à¥¯à¥§à¥¨": 5114,
      "Ġcommerce": 5115,
      "Ġspeech": 5116,
      "Ġspeakers": 5117,
      "Ġmarkets": 5118,
      "Ġseveral": 5119,
      "Ġseverely": 5120,
      "Ġdeclared": 5121,
      "Ġendemism": 5122,
      "Ġgenerated": 5123,
      "Ġgenerally": 5124,
      "2011": 5125,
      "Ġhistorical": 5126,
      "Ġhistorically": 5127,
      "Ġhistorians": 5128,
      "à°µà°¹à°£à°²": 5129,
      "á¹ĩ": 5130,
      "ĠâĢľ": 5131,
      "Ġà¤ķà¤¹à¤²": 5132,
      "Ġtextil": 5133,
      "Ġà¤®à¤ľà¤²": 5134,
      "Ġà¤®à¤ľà¤¬": 5135,
      "à¤£à¤¤à¤ľ": 5136,
      "Ġaffair": 5137,
      "Ġaffirm": 5138,
      "Ġcivilian": 5139,
      "Ġwinds": 5140,
      "Ġblackbuc": 5141,
      "Ġmake": 5142,
      "Ġflour": 5143,
      "Ġà¤īà¤®à¤Łà¤²": 5144,
      "Ġà¤īà¤®à¤Łà¤µà¤²": 5145,
      "Ġethical": 5146,
      "Ġeveryday": 5147,
      "Ġdominion": 5148,
      "Ġdominance": 5149,
      "Ġgarment": 5150,
      "Ġgarlic": 5151,
      "ĠBihar": 5152,
      "ĠBiodiversity": 5153,
      "ĠBrahmaputra": 5154,
      "Ġdistinct": 5155,
      "Ġannually": 5156,
      "Ġannual": 5157,
      "Ġvillages": 5158,
      "Ġvarious": 5159,
      "Ġdefin": 5160,
      "Ġspreading": 5161,
      "ĠRajiv": 5162,
      "ĠRajputs": 5163,
      "Ġà¤Īà¤¦à¤ļ": 5164,
      "Ġsubsequently": 5165,
      "à¥§à¥¯à¥¯à¥": 5166,
      "Ġcomplex": 5167,
      "Ġresponse": 5168,
      "Ġpolicy": 5169,
      "Ġgroups": 5170,
      "ĠIslamic": 5171,
      "Ġsurvives": 5172,
      "Ġlegislature": 5173,
      "Ġindependent": 5174,
      "castes": 5175,
      "mission": 5176,
      "scale": 5177,
      "ĠYaksh": 5178,
      "Ġà°ĵà°¡": 5179,
      "Ġà°ĵà°Łà°°": 5180,
      "à¤²à¤®à¤¡": 5181,
      "à¤²à¤Ĺà¤¤à¤ļ": 5182,
      "à¤µà¤ľà¤¯": 5183,
      "à¤®à¤ļà¤ķ": 5184,
      "Ġturned": 5185,
      "Ġtaxes": 5186,
      "Ġà¤®à¤Ĺà¤§": 5187,
      "Ġà¤®à¤Ĺà¤§à¤ļ": 5188,
      "including": 5189,
      "Ġà¤Ĩà¤łà¤µ": 5190,
      "Ġà¤ħà¤ĸà¤¤": 5191,
      "erculos": 5192,
      "à¤ľà¤¯à¤¨à¤Ĺà¤°": 5193,
      "à¤ľà¤¯à¤¨à¤Ĺà¤°à¤ļ": 5194,
      "à¤Ĺà¤łà¤¨": 5195,
      "dised": 5196,
      "à°®à°¹à°²": 5197,
      "Ġcheetah": 5198,
      "Ġcreating": 5199,
      "Ġcreativity": 5200,
      "Ġworks": 5201,
      "Ġinvolved": 5202,
      "Ġinvolving": 5203,
      "Ġsoon": 5204,
      "Ġà°¸à°²à°¹": 5205,
      "Ġà°ķà°®à°²à°®": 5206,
      "Ġà°ķà°¥à°ķà°³": 5207,
      "Ġfamily": 5208,
      "Ġflowering": 5209,
      "Ġà¥łà¤Ĺ": 5210,
      "Ġà¥łà¤·à¤Ńà¤¦": 5211,
      "Ġà¤²à¤¯à¤¬à¤¦": 5212,
      "Ġlayer": 5213,
      "à°Ńà°°à°¤à°µà°°": 5214,
      "Ġdemocratic": 5215,
      "Ġdemocracy": 5216,
      "Ġà¤¸à¤®à¤ľà¤£": 5217,
      "Ġà°ĩà°¤à°¨": 5218,
      "Ġà°Ĩà°Ĺà°·": 5219,
      "Ġà¤ĺà¤¡à¤µà¤²": 5220,
      "Ġà°¬à°¡à°¤": 5221,
      "ĠParty": 5222,
      "Ġsteamed": 5223,
      "Ġexcavated": 5224,
      "Ġà¥¨à¥¦à¥§à¥§": 5225,
      "Ġà¥¨à¥¦à¥§à¥ª": 5226,
      "ĠGujarat": 5227,
      "Ġà¤«à¤³à¤Ń": 5228,
      "Ġà°ľà°¨à°Ĺà°£à°¨": 5229,
      "Ġà°ľà°¨à°Ĺà°£à°®à°¨": 5230,
      "Ġproducer": 5231,
      "Ġà°ıà°¡à°µà°¸": 5232,
      "à¥©à¥Ńà¥¦": 5233,
      "ĠForeign": 5234,
      "Ġagainst": 5235,
      "Ġpollution": 5236,
      "Ġextensively": 5237,
      "Ġreforms": 5238,
      "Ġrenewable": 5239,
      "PIN": 5240,
      "grandmother": 5241,
      "khand": 5242,
      "laiming": 5243,
      "vasive": 5244,
      "yalty": 5245,
      "à¤°à¤¥à¤®": 5246,
      "à¤®à¤¸à¤®à¤Ń": 5247,
      "Ġà¤ľà¤¡à¤Ńà¤°à¤¤": 5248,
      "Ġcalend": 5249,
      "Ġcradle": 5250,
      "Ġcleared": 5251,
      "Ġcosine": 5252,
      "Ġiniti": 5253,
      "Ġsimilar": 5254,
      "Ġsavoury": 5255,
      "Ġbuilding": 5256,
      "Ġbriefly": 5257,
      "Ġpatron": 5258,
      "Ġmigration": 5259,
      "Ġmerchants": 5260,
      "Ġframework": 5261,
      "Ġfemales": 5262,
      "Ġfactor": 5263,
      "Ġà¤īà¤ªà¤¨à¤¦": 5264,
      "Ġlimited": 5265,
      "Ġlike": 5266,
      "Ġecosystem": 5267,
      "Ġtowns": 5268,
      "Ġhymns": 5269,
      "Ġhighest": 5270,
      "Ġhubs": 5271,
      "ĠTriomphe": 5272,
      "ĠTemple": 5273,
      "Ġnominal": 5274,
      "Ġgender": 5275,
      "Ġgods": 5276,
      "ĠAkbar": 5277,
      "ĠClassical": 5278,
      "Ġisolation": 5279,
      "Ġthreatened": 5280,
      "ĠModern": 5281,
      "ĠEconomy": 5282,
      "ĠEurasia": 5283,
      "Ġextinct": 5284,
      "Ġdivorce": 5285,
      "Ġorganisation": 5286,
      "ĠDemocratic": 5287,
      "ĠGeography": 5288,
      "Ġunitary": 5289,
      "Ġviolence": 5290,
      "Ġvaluable": 5291,
      "Ġvarna": 5292,
      "Ġvictories": 5293,
      "Ġdefeated": 5294,
      "Ġattract": 5295,
      "à¥©à¥¦à¥§": 5296,
      "Ġparticular": 5297,
      "Ġlevels": 5298,
      "Ġadopted": 5299,
      "Ġadditional": 5300,
      "Ġclimatic": 5301,
      "Ġseparat": 5302,
      "Ġexported": 5303,
      "Ġexpansion": 5304,
      "Ġexpression": 5305,
      "ĠHindustani": 5306,
      "ĠLankan": 5307,
      "Ġconsumption": 5308,
      "Ġhereditary": 5309,
      "Ġservice": 5310,
      "Ġrailways": 5311,
      "Ġsupplanted": 5312,
      "Ġassociated": 5313,
      "Ġmanuscript": 5314,
      "Ġtemples": 5315,
      "Ġsafeguard": 5316,
      "Ġcharacteristic": 5317,
      "Ġreturned": 5318,
      "Ġstrongly": 5319,
      "Ġliberalisation": 5320,
      "Ġhabitat": 5321,
      "ĠPallavas": 5322,
      "562359": 5323,
      "74059": 5324,
      "900461": 5325,
      "Artic": 5326,
      "Australian": 5327,
      "Ethnologue": 5328,
      "Gangetic": 5329,
      "Proliferation": 5330,
      "aËĲ": 5331,
      "aemen": 5332,
      "aharlal": 5333,
      "gonomet": 5334,
      "growing": 5335,
      "gatherers": 5336,
      "knit": 5337,
      "majority": 5338,
      "mology": 5339,
      "oastrianism": 5340,
      "½Î´": 5341,
      "á¼¸Î½Î´": 5342,
      "ĠâĢĮ(": 5343,
      "Ġessential": 5344,
      "ĠZoroastrianism": 5345,
      "ĠâĤ¹": 5346,
      "à¤°à¤«à¤³": 5347,
      "à°°à°Ĺà°¤": 5348,
      "à°°à°¥à°®": 5349,
      "Ġà¤ķà¤³à¤¸": 5350,
      "Ġà¤¸à¤µà¤¦": 5351,
      "Ġà¤¸à¤¤à¤¤à¤ļ": 5352,
      "Ġà¤ªà¤¸à¤°à¤²": 5353,
      "Ġtandoor": 5354,
      "Ġtuberculos": 5355,
      "Ġtreasured": 5356,
      "Ġà¤®à¤ķà¤°à¤¸": 5357,
      "Ġà¤µà¤ľà¤¹": 5358,
      "à¤ľà¤²à¤ļà¤°": 5359,
      "à¤Ĺà¤Ńà¤¦": 5360,
      "à¤Ĺà¤®à¤°à¤µà¤°": 5361,
      "Ġamphi": 5362,
      "Ġamendments": 5363,
      "à°Łà°¨à°²à°¬": 5364,
      "Ġà¤¬à¤ĺà¤¤": 5365,
      "à°®à°¨à°µà°®": 5366,
      "Ġcitizens": 5367,
      "Ġcereal": 5368,
      "Ġcountries": 5369,
      "Ġwelfare": 5370,
      "Ġà°ķà°²à°ķà°¤": 5371,
      "Ġbulk": 5372,
      "Ġbottom": 5373,
      "Ġborders": 5374,
      "Ġbrought": 5375,
      "Ġbonds": 5376,
      "Ġbronz": 5377,
      "Ġbreathing": 5378,
      "Ġpoints": 5379,
      "Ġparents": 5380,
      "Ġprinces": 5381,
      "Ġmanufact": 5382,
      "Ġflood": 5383,
      "Ġfoeticide": 5384,
      "Ġà¤Ĺà¤Ŀà¤¨": 5385,
      "Ġedicts": 5386,
      "Ġeventually": 5387,
      "Ġemissions": 5388,
      "Ġà°ħà°µà°¸à°°à°®": 5389,
      "Ġhunter": 5390,
      "Ġhouses": 5391,
      "Ġhotspots": 5392,
      "economic": 5393,
      "ĠTibet": 5394,
      "ĠType": 5395,
      "Ġnext": 5396,
      "Ġgigawatts": 5397,
      "Ġgreenhouse": 5398,
      "ĠAchaemen": 5399,
      "ĠCups": 5400,
      "ĠCaves": 5401,
      "ĠClimate": 5402,
      "ĠChess": 5403,
      "ĠCarnatic": 5404,
      "ĠCommonwealth": 5405,
      "à¥¦à¥¯à¥ª": 5406,
      "Ġà°ľà°µà°¹à°°": 5407,
      "Ġà¤§à¤¡à¤ªà¤¡à¤¤": 5408,
      "ĠSimultaneously": 5409,
      "ĠSabha": 5410,
      "ĠSoviet": 5411,
      "Ġà¤Ŀà¤Ĺà¤¡à¤¤": 5412,
      "ademi": 5413,
      "adweep": 5414,
      "idespread": 5415,
      "untouched": 5416,
      "ĠPolitics": 5417,
      "Ġbeginnings": 5418,
      "ĠMemorial": 5419,
      "ĠMumbai": 5420,
      "Ġstudy": 5421,
      "Ġstandardised": 5422,
      "ĠEmergency": 5423,
      "ĠEtymology": 5424,
      "Ġdisease": 5425,
      "ĠGondwana": 5426,
      "ayanagara": 5427,
      "ĠNortheast": 5428,
      "Ġcommitte": 5429,
      "Ġcomfortable": 5430,
      "Ġdelegates": 5431,
      "Ġdependent": 5432,
      "à¥¬à¥Ńà¥§": 5433,
      "Ġmarshy": 5434,
      "ĠJharkhand": 5435,
      "ĠJawaharlal": 5436,
      "ĠJammu": 5437,
      "Ġadvanced": 5438,
      "Ġsubstantially": 5439,
      "Ġpercentage": 5440,
      "ĠChristianity": 5441,
      "ĠVijayanagara": 5442,
      "ĠVajpayee": 5443,
      "ĠKaveri": 5444,
      "Ġrepeatedly": 5445,
      "ĠLakshadweep": 5446,
      "Ġinformation": 5447,
      "Ġmegadiverse": 5448,
      "ĠOrganization": 5449,
      "à±ĩ...).": 5450,
      "Ġjackets": 5451,
      "Ġjurisdiction": 5452,
      "à°ľà°¨à°Ĺà°£à°¨": 5453,
      "Ġextremely": 5454,
      "ĠThailand": 5455,
      "Ġsettlement": 5456,
      "Ġcolleges": 5457,
      "Ġtransformed": 5458,
      "Ġaffairs": 5459,
      "Ġblackbuck": 5460,
      "ĠYakshagana": 5461,
      "Ġecosystems": 5462,
      "Ġtuberculosis": 5463
    },
    "merges": [
      [
        "à",
        "¤"
      ],
      [
        "à",
        "°"
      ],
      [
        "à",
        "¥"
      ],
      [
        "Ġ",
        "à¤"
      ],
      [
        "à¤",
        "¾"
      ],
      [
        "à",
        "±"
      ],
      [
        "à¥",
        "į"
      ],
      [
        "à¤",
        "°"
      ],
      [
        "à¥",
        "ĩ"
      ],
      [
        "Ġ",
        "à°"
      ],
      [
        "à¤",
        "¤"
      ],
      [
        "à¥",
        "Ģ"
      ],
      [
        "à¤",
        "¿"
      ],
      [
        "à±",
        "į"
      ],
      [
        "à¤",
        "¯"
      ],
      [
        "à°",
        "¾"
      ],
      [
        "à¤",
        "Ĥ"
      ],
      [
        "à°",
        "¿"
      ],
      [
        "à¤",
        "¨"
      ],
      [
        "à¤",
        "²"
      ],
      [
        "à¤",
        "ķ"
      ],
      [
        "à°",
        "°"
      ],
      [
        "Ġà¤",
        "ķ"
      ],
      [
        "à±",
        "ģ"
      ],
      [
        "à°",
        "Ĥ"
      ],
      [
        "à¤",
        "¸"
      ],
      [
        "à°",
        "²"
      ],
      [
        "Ġà¤",
        "¸"
      ],
      [
        "à¤",
        "µ"
      ],
      [
        "à¤",
        "®"
      ],
      [
        "à°",
        "¨"
      ],
      [
        "à¥",
        "ĭ"
      ],
      [
        "à¤",
        "¹"
      ],
      [
        "Ġà¤",
        "ª"
      ],
      [
        "à°",
        "¤"
      ],
      [
        "Ġ",
        "t"
      ],
      [
        "à¤",
        "ļ"
      ],
      [
        "à¤",
        "¦"
      ],
      [
        "Ġà¤",
        "®"
      ],
      [
        "a",
        "n"
      ],
      [
        "h",
        "e"
      ],
      [
        "à¥",
        "ģ"
      ],
      [
        "i",
        "n"
      ],
      [
        "Ġà¤",
        "¹"
      ],
      [
        "à°",
        "ķ"
      ],
      [
        "à¤",
        "ª"
      ],
      [
        "Ġà¤",
        "µ"
      ],
      [
        "à°",
        "¦"
      ],
      [
        "Ġà¤",
        "Ń"
      ],
      [
        "à¤",
        "£"
      ],
      [
        "à¤°",
        "à¤¤"
      ],
      [
        "Ġà¤",
        "Ĩ"
      ],
      [
        "Ġt",
        "he"
      ],
      [
        "à¤",
        "·"
      ],
      [
        "à°",
        "¯"
      ],
      [
        "Ġà¤",
        "ħ"
      ],
      [
        "o",
        "n"
      ],
      [
        "à¥",
        "Ĥ"
      ],
      [
        "e",
        "r"
      ],
      [
        "à¤",
        "ľ"
      ],
      [
        "à¤",
        "§"
      ],
      [
        "à¤",
        "Ĺ"
      ],
      [
        "à¤",
        "¶"
      ],
      [
        "r",
        "e"
      ],
      [
        "à±",
        "ĩ"
      ],
      [
        "à±",
        "ĭ"
      ],
      [
        "Ġà°",
        "ª"
      ],
      [
        "à°",
        "µ"
      ],
      [
        "=",
        "="
      ],
      [
        "à¤",
        "Ł"
      ],
      [
        "Ġ",
        "a"
      ],
      [
        "à¥",
        "Ī"
      ],
      [
        "à¤¾",
        "à¤Ĥ"
      ],
      [
        "Ġ",
        "o"
      ],
      [
        "s",
        "t"
      ],
      [
        "e",
        "n"
      ],
      [
        "Ġà¤",
        "ľ"
      ],
      [
        "d",
        "i"
      ],
      [
        "a",
        "l"
      ],
      [
        "Ġà¤",
        "¨"
      ],
      [
        "à°",
        "Ł"
      ],
      [
        "Ġà¤",
        "¬"
      ],
      [
        "a",
        "t"
      ],
      [
        "Ġà¤",
        "¦"
      ],
      [
        "à°",
        "Ĺ"
      ],
      [
        "à¤",
        "¥"
      ],
      [
        "à°",
        "®"
      ],
      [
        "à¥ĩ",
        "à¤Ĥ"
      ],
      [
        "Ġà¤",
        "¤"
      ],
      [
        "an",
        "d"
      ],
      [
        "Ġ",
        "c"
      ],
      [
        "à¤",
        "¡"
      ],
      [
        "e",
        "d"
      ],
      [
        "à±",
        "Ģ"
      ],
      [
        "Ġ",
        "I"
      ],
      [
        "Ġà¤",
        "°"
      ],
      [
        "à°",
        "¸"
      ],
      [
        "a",
        "r"
      ],
      [
        "Ġo",
        "f"
      ],
      [
        "i",
        "t"
      ],
      [
        "Ġ",
        "w"
      ],
      [
        "à°",
        "ª"
      ],
      [
        "Ġ",
        "in"
      ],
      [
        "à°",
        "¡"
      ],
      [
        "ĠI",
        "n"
      ],
      [
        "Ġ",
        "s"
      ],
      [
        "Ġ",
        "and"
      ],
      [
        "Ġà°",
        "¸"
      ],
      [
        "Ġà¤Ĩ",
        "à¤¹"
      ],
      [
        "à¥",
        "¤"
      ],
      [
        "Ġà¤",
        "¯"
      ],
      [
        "à¤",
        "³"
      ],
      [
        "Ġà°",
        "ķ"
      ],
      [
        "à¤",
        "Ń"
      ],
      [
        "o",
        "r"
      ],
      [
        "Ġ",
        "b"
      ],
      [
        "i",
        "on"
      ],
      [
        "à¥ĩ",
        "."
      ],
      [
        "à°",
        "ļ"
      ],
      [
        "Ġ",
        "p"
      ],
      [
        "Ġ",
        "m"
      ],
      [
        "e",
        "s"
      ],
      [
        "à°",
        "¶"
      ],
      [
        "ĠIn",
        "di"
      ],
      [
        "Ġ",
        "f"
      ],
      [
        "à¤",
        "¬"
      ],
      [
        "i",
        "c"
      ],
      [
        "Ġ",
        "à¥"
      ],
      [
        "Ġà¤",
        "Ĺ"
      ],
      [
        "Ġà°",
        "µ"
      ],
      [
        "Ġà¤",
        "¶"
      ],
      [
        "Ġà°",
        "®"
      ],
      [
        "i",
        "s"
      ],
      [
        "Ġ",
        "1"
      ],
      [
        "in",
        "g"
      ],
      [
        "à¤",
        "ĸ"
      ],
      [
        "Ġà¤",
        "ĩ"
      ],
      [
        "a",
        "s"
      ],
      [
        "à°",
        "§"
      ],
      [
        "à°¿",
        "à°Ĥ"
      ],
      [
        "à°°",
        "à°¤"
      ],
      [
        "à°¿",
        "."
      ],
      [
        "Ġà¤",
        "²"
      ],
      [
        "en",
        "t"
      ],
      [
        "o",
        "m"
      ],
      [
        "Ġà¤",
        "ī"
      ],
      [
        "Ġ",
        "l"
      ],
      [
        "à±",
        "Ĩ"
      ],
      [
        "à¥ĭ",
        "à¤Ĥ"
      ],
      [
        "à¥",
        "ĥ"
      ],
      [
        "Ġà°",
        "°"
      ],
      [
        "o",
        "u"
      ],
      [
        "â",
        "Ģ"
      ],
      [
        "Ġ",
        "e"
      ],
      [
        "ĠIndi",
        "a"
      ],
      [
        "Ġà¤",
        "Ķ"
      ],
      [
        "Ġà°",
        "Ń"
      ],
      [
        "Ġ",
        "("
      ],
      [
        "à±",
        "Ĥ"
      ],
      [
        "Ġà°",
        "ħ"
      ],
      [
        "Ġà¤Ķ",
        "à¤°"
      ],
      [
        "à¤",
        "ł"
      ],
      [
        "à°",
        "Ń"
      ],
      [
        "à±",
        "Ī"
      ],
      [
        "à°",
        "·"
      ],
      [
        "Ġt",
        "o"
      ],
      [
        "Ċ",
        "Ċ"
      ],
      [
        "Ġ",
        "=="
      ],
      [
        "Ġà¤ª",
        "à¤°"
      ],
      [
        "§",
        "à¥"
      ],
      [
        "à¤¤",
        "à¤°"
      ],
      [
        "Ġà¤",
        "ļ"
      ],
      [
        "Ġ",
        "h"
      ],
      [
        "à°",
        "ľ"
      ],
      [
        "l",
        "y"
      ],
      [
        "Ġà°",
        "¦"
      ],
      [
        "à°",
        "£"
      ],
      [
        "Ġ",
        "d"
      ],
      [
        "Ġà¤ħ",
        "à¤¸"
      ],
      [
        "e",
        "c"
      ],
      [
        "u",
        "r"
      ],
      [
        "Ġà°",
        "ī"
      ],
      [
        "Ġ1",
        "9"
      ],
      [
        "Ġ",
        "re"
      ],
      [
        "Ġ",
        "2"
      ],
      [
        "Ġà¤",
        "ı"
      ],
      [
        "Ġ",
        "T"
      ],
      [
        "à¤",
        "¼"
      ],
      [
        "Ġ",
        "n"
      ],
      [
        "à¤°",
        "à¤ķ"
      ],
      [
        "à¥Ī",
        "à¥¤"
      ],
      [
        "Ġ",
        "g"
      ],
      [
        "Ġà¥",
        "§à¥"
      ],
      [
        "i",
        "l"
      ],
      [
        "à¤µ",
        "à¤°"
      ],
      [
        "t",
        "h"
      ],
      [
        "0",
        "0"
      ],
      [
        "à°",
        "¹"
      ],
      [
        "Ġà°",
        "¨"
      ],
      [
        "Ġ",
        "A"
      ],
      [
        "à°",
        "¬"
      ],
      [
        "Ġà¤ķ",
        "à¤°"
      ],
      [
        "v",
        "er"
      ],
      [
        "Ġ",
        "C"
      ],
      [
        "à¥",
        "¦"
      ],
      [
        "o",
        "l"
      ],
      [
        "r",
        "a"
      ],
      [
        "u",
        "l"
      ],
      [
        "r",
        "i"
      ],
      [
        "Ġà°",
        "ļ"
      ],
      [
        "Ġà°",
        "ľ"
      ],
      [
        "Ġà¤ħ",
        "à¤¨"
      ],
      [
        "à¤",
        "Ī"
      ],
      [
        "Ġà¤¸",
        "à¤®"
      ],
      [
        "à°",
        "¥"
      ],
      [
        "Ġ",
        "B"
      ],
      [
        "at",
        "ion"
      ],
      [
        "à°°à°¤",
        "à°¦"
      ],
      [
        "Ġà¤",
        "§"
      ],
      [
        "Ġà°",
        "ĩ"
      ],
      [
        "à±ģ",
        ","
      ],
      [
        "Ġà¤ı",
        "à¤ķ"
      ],
      [
        "a",
        "m"
      ],
      [
        "r",
        "o"
      ],
      [
        "l",
        "e"
      ],
      [
        "v",
        "e"
      ],
      [
        "à¥Ī",
        "à¤Ĥ"
      ],
      [
        "Ġ",
        "S"
      ],
      [
        "c",
        "e"
      ],
      [
        "ĠT",
        "he"
      ],
      [
        "Ġ",
        "is"
      ],
      [
        "t",
        "ion"
      ],
      [
        "Ġà¤",
        "Ŀ"
      ],
      [
        "à±",
        "Ĭ"
      ],
      [
        "i",
        "st"
      ],
      [
        "à¤°",
        "à¤®"
      ],
      [
        "e",
        "t"
      ],
      [
        "¯",
        "à¥"
      ],
      [
        "à¤¾",
        ","
      ],
      [
        "Ġb",
        "y"
      ],
      [
        "à°¾",
        "à°Ĥ"
      ],
      [
        "ĠIndi",
        "an"
      ],
      [
        "à¤¿",
        "à¤Ĥ"
      ],
      [
        "à¤®",
        "à¤§"
      ],
      [
        "Ġà¤µ",
        "à¤°"
      ],
      [
        "à¤°",
        "à¤£"
      ],
      [
        "a",
        "st"
      ],
      [
        "u",
        "s"
      ],
      [
        "Ġà°",
        "Ĩ"
      ],
      [
        "i",
        "m"
      ],
      [
        "à±ģ",
        "."
      ],
      [
        "a",
        "d"
      ],
      [
        "i",
        "g"
      ],
      [
        "==",
        "="
      ],
      [
        "Ġ==",
        "="
      ],
      [
        "à¤°",
        "à¤ª"
      ],
      [
        "Ġà°",
        "¤"
      ],
      [
        "à¥",
        "Į"
      ],
      [
        "Ġt",
        "h"
      ],
      [
        "g",
        "e"
      ],
      [
        "o",
        "w"
      ],
      [
        "à¤",
        "ı"
      ],
      [
        "à¥Ģ",
        "."
      ],
      [
        "i",
        "d"
      ],
      [
        "u",
        "n"
      ],
      [
        "Ġà¤",
        "ĺ"
      ],
      [
        "Ġà°",
        "Ĺ"
      ],
      [
        "à±ģ",
        "à°Ĥ"
      ],
      [
        "Ġà¤®",
        "à¤¹"
      ],
      [
        "Ġà¤ĩ",
        "à¤¸"
      ],
      [
        "'",
        "s"
      ],
      [
        "i",
        "r"
      ],
      [
        "u",
        "c"
      ],
      [
        "it",
        "h"
      ],
      [
        "Ġf",
        "or"
      ],
      [
        "à¤",
        "¢"
      ],
      [
        "Ġà°",
        "¬"
      ],
      [
        "Ġ",
        "P"
      ],
      [
        "Ġ",
        "r"
      ],
      [
        "Ġb",
        "e"
      ],
      [
        "à°",
        "³"
      ],
      [
        "à¥Ģ",
        "à¤Ĥ"
      ],
      [
        "Ġà¤¸",
        "à¤°"
      ],
      [
        "m",
        "ent"
      ],
      [
        "Ġ",
        "M"
      ],
      [
        "Ġà¤",
        "¥"
      ],
      [
        "à¤·",
        "à¤£"
      ],
      [
        "à¤",
        "«"
      ],
      [
        "à°",
        "ĸ"
      ],
      [
        "Ġà°",
        "²"
      ],
      [
        "at",
        "e"
      ],
      [
        "Ġm",
        "o"
      ],
      [
        "âĢ",
        "ĵ"
      ],
      [
        "Ġà¥§à¥",
        "¯à¥"
      ],
      [
        "u",
        "t"
      ],
      [
        "Ġc",
        "on"
      ],
      [
        "Ġw",
        "ith"
      ],
      [
        "âĢ",
        "Į"
      ],
      [
        "e",
        "m"
      ],
      [
        "i",
        "es"
      ],
      [
        "à¤",
        "ĺ"
      ],
      [
        "Ġw",
        "as"
      ],
      [
        "à¤",
        "ģ"
      ],
      [
        "o",
        "p"
      ],
      [
        "t",
        "er"
      ],
      [
        "Ġà¤",
        "ĸ"
      ],
      [
        "Ġa",
        "s"
      ],
      [
        "à¤¾",
        "."
      ],
      [
        "à¤¾",
        "à¥¤"
      ],
      [
        "à¥Ģ",
        ","
      ],
      [
        "à¤µ",
        "à¤¸"
      ],
      [
        "re",
        "s"
      ],
      [
        "Ġw",
        "h"
      ],
      [
        "Ġ",
        "st"
      ],
      [
        "Ġà¤",
        "Ł"
      ],
      [
        "Ġà¤¬",
        "à¤¨"
      ],
      [
        "Ġ2",
        "0"
      ],
      [
        "Ġà¤§",
        "à¤°"
      ],
      [
        "Ġà°",
        "İ"
      ],
      [
        "à°²",
        "à°¨"
      ],
      [
        "à±Ĩ",
        "à°Ĥ"
      ],
      [
        "r",
        "om"
      ],
      [
        "Ġ",
        "E"
      ],
      [
        "on",
        "g"
      ],
      [
        "Ġà¤ī",
        "à¤¤"
      ],
      [
        "a",
        "in"
      ],
      [
        "Ġà°",
        "¶"
      ],
      [
        "Ġà°ī",
        "à°¨"
      ],
      [
        "t",
        "s"
      ],
      [
        "Ġà¤®",
        "à¤§"
      ],
      [
        "he",
        "r"
      ],
      [
        "a",
        "c"
      ],
      [
        "Ġ",
        "it"
      ],
      [
        "à¤°",
        "à¤ľ"
      ],
      [
        "Ġà¤¦",
        "à¤ķ"
      ],
      [
        "ic",
        "al"
      ],
      [
        "Ġe",
        "x"
      ],
      [
        "à¥Īà¤Ĥ",
        "à¥¤"
      ],
      [
        "e",
        "st"
      ],
      [
        "Ġ",
        "on"
      ],
      [
        "à°°",
        "à°®"
      ],
      [
        "Ġ",
        "di"
      ],
      [
        "à¤°",
        "à¤¦"
      ],
      [
        "à¤ª",
        "à¤¨"
      ],
      [
        "Ġà¤¬",
        "à¤¹"
      ],
      [
        "Ġà¤¤",
        "à¤¥"
      ],
      [
        "i",
        "al"
      ],
      [
        "à¥",
        "ī"
      ],
      [
        "an",
        "g"
      ],
      [
        "u",
        "m"
      ],
      [
        "Ġ",
        "an"
      ],
      [
        "à¤ķ",
        "à¤°"
      ],
      [
        "a",
        "b"
      ],
      [
        "l",
        "d"
      ],
      [
        "à±į",
        "âĢĮ"
      ],
      [
        "à°Ĥ",
        ","
      ],
      [
        "Ġà¤ħ",
        "à¤°"
      ],
      [
        "Ġo",
        "r"
      ],
      [
        "Ġ",
        "D"
      ],
      [
        "à¤²",
        "à¤¯"
      ],
      [
        "Ġà¥",
        "¨"
      ],
      [
        "s",
        "e"
      ],
      [
        "à¤µ",
        "à¤¤"
      ],
      [
        "à°¤",
        "à°°"
      ],
      [
        "Ġf",
        "rom"
      ],
      [
        "ic",
        "h"
      ],
      [
        "Ġh",
        "as"
      ],
      [
        ")",
        ","
      ],
      [
        "g",
        "h"
      ],
      [
        "Ġ",
        "G"
      ],
      [
        "Ġ",
        "H"
      ],
      [
        "a",
        "y"
      ],
      [
        "u",
        "p"
      ],
      [
        "à¥ĩ",
        ","
      ],
      [
        "à°¿",
        ","
      ],
      [
        "à°°",
        "à°ª"
      ],
      [
        "à¤¹",
        "à¤°"
      ],
      [
        "er",
        "s"
      ],
      [
        "à¤°à¤ª",
        "à¤Ł"
      ],
      [
        "Ġà¤¸",
        "à¤°à¤ķ"
      ],
      [
        "il",
        "l"
      ],
      [
        "Ġ",
        "N"
      ],
      [
        "Ġà°",
        "¹"
      ],
      [
        "Ġa",
        "r"
      ],
      [
        "Ġà¤¤",
        "à¤°"
      ],
      [
        "i",
        "ve"
      ],
      [
        "à¥",
        "«"
      ],
      [
        "à¤ª",
        "à¤°"
      ],
      [
        "Ġà¤ħ",
        "à¤§"
      ],
      [
        "Ġà¤ī",
        "à¤¦"
      ],
      [
        "Ġwh",
        "ich"
      ],
      [
        "u",
        "d"
      ],
      [
        "Ġ",
        "un"
      ],
      [
        "à¤¸",
        "à¤¦"
      ],
      [
        "er",
        "n"
      ],
      [
        "Ġa",
        "re"
      ],
      [
        "Ġ",
        "âĢĵ"
      ],
      [
        "it",
        "y"
      ],
      [
        "c",
        "on"
      ],
      [
        "u",
        "re"
      ],
      [
        "à¤¾",
        "à¤ģ"
      ],
      [
        "à±",
        "ĥ"
      ],
      [
        "Ġà°",
        "Ī"
      ],
      [
        "à°²",
        "à°²"
      ],
      [
        "à°²",
        "à°ķ"
      ],
      [
        "à¤¦",
        "à¤²"
      ],
      [
        "à°µ",
        "à°°"
      ],
      [
        "or",
        "t"
      ],
      [
        "u",
        "b"
      ],
      [
        "à¤",
        "Ĩ"
      ],
      [
        "à¤",
        "ĩ"
      ],
      [
        "Ġà¤",
        "«"
      ],
      [
        "à¤°",
        "à¤ļ"
      ],
      [
        "Ġà¤ľ",
        "à¤¨"
      ],
      [
        "Ġp",
        "ar"
      ],
      [
        "Ġà¤ĩ",
        "à¤¤"
      ],
      [
        "à¤",
        "±"
      ],
      [
        "à±į",
        ","
      ],
      [
        "Ġà°ª",
        "à°°"
      ],
      [
        "ul",
        "t"
      ],
      [
        "a",
        "k"
      ],
      [
        "r",
        "it"
      ],
      [
        "à¥",
        "ª"
      ],
      [
        "en",
        "d"
      ],
      [
        "ou",
        "n"
      ],
      [
        "o",
        "c"
      ],
      [
        "Ġà°",
        "Ĵ"
      ],
      [
        "à¤¸",
        "à¤¨"
      ],
      [
        "à¤ª",
        "à¤¤"
      ],
      [
        "Ġà¤Ĩ",
        "à¤£"
      ],
      [
        "Ġin",
        "c"
      ],
      [
        "i",
        "v"
      ],
      [
        "o",
        "ver"
      ],
      [
        "Ġà¤",
        "ĵ"
      ],
      [
        "Ġà¤ª",
        "à¤¹"
      ],
      [
        "er",
        "e"
      ],
      [
        "Ġit",
        "s"
      ],
      [
        "l",
        "i"
      ],
      [
        "o",
        "t"
      ],
      [
        "Ġ",
        "v"
      ],
      [
        "à¤",
        "ĵ"
      ],
      [
        "à¤°",
        "à¤¸"
      ],
      [
        "Ġà¤Ĩ",
        "à¤²"
      ],
      [
        "à°¯",
        "à°µ"
      ],
      [
        "à¤Ĺ",
        "à¤°"
      ],
      [
        "Ġa",
        "l"
      ],
      [
        "Ġc",
        "om"
      ],
      [
        "Ġà¤ħà¤¸",
        "à¤¤"
      ],
      [
        "c",
        "h"
      ],
      [
        "d",
        "u"
      ],
      [
        "à¤µ",
        "à¤²"
      ],
      [
        "Ġà¤¤",
        "à¤ķ"
      ],
      [
        "o",
        "d"
      ],
      [
        "à¤ķ",
        "à¤¡"
      ],
      [
        "à¤¸",
        "à¤®"
      ],
      [
        "à°¨",
        "à°¦"
      ],
      [
        "Ġà¤¨",
        "à¤¦"
      ],
      [
        "ar",
        "y"
      ],
      [
        "Ġw",
        "ere"
      ],
      [
        "Ġà¤ī",
        "à¤ª"
      ],
      [
        "Ġà°ħ",
        "à°¨"
      ],
      [
        "Ġà°ħ",
        "à°§"
      ],
      [
        "Ġd",
        "e"
      ],
      [
        "Ġ20",
        "1"
      ],
      [
        "o",
        "s"
      ],
      [
        "Ġà¤ª",
        "à¤¦"
      ],
      [
        "an",
        "s"
      ],
      [
        "at",
        "ed"
      ],
      [
        "e",
        "l"
      ],
      [
        "Ġ",
        "W"
      ],
      [
        "à±",
        "Į"
      ],
      [
        "à¤¯",
        "à¤µà¤¸"
      ],
      [
        "à¥ĭ",
        "."
      ],
      [
        "à¤¹",
        "à¤£"
      ],
      [
        "à¤Ĺ",
        "à¤²"
      ],
      [
        "Ġà¤¯",
        "à¤¹"
      ],
      [
        "e",
        "ar"
      ],
      [
        "à¤¥",
        "à¤µ"
      ],
      [
        "Ġc",
        "ent"
      ],
      [
        "Ġà¤°",
        "à¤¹"
      ],
      [
        "Ġà¤ħà¤¸",
        "à¤²"
      ],
      [
        "à¥¦",
        "à¥¦"
      ],
      [
        "I",
        "n"
      ],
      [
        "r",
        "y"
      ],
      [
        "t",
        "ed"
      ],
      [
        "à¤¤",
        "à¤¨"
      ],
      [
        "Ġà¤Ĩ",
        "à¤°"
      ],
      [
        "Ġà¤Ĩ",
        "à¤§"
      ],
      [
        "à¤ľ",
        "à¤¨"
      ],
      [
        "à¤Ĺ",
        "à¤¤"
      ],
      [
        "ar",
        "ge"
      ],
      [
        "Ġà¤Ĺ",
        "à¤¯"
      ],
      [
        "Ġà°ľ",
        "à°¨"
      ],
      [
        "à¤",
        "Ľ"
      ],
      [
        "à¥",
        "¨"
      ],
      [
        "à¥",
        "¬"
      ],
      [
        "Ġs",
        "p"
      ],
      [
        "or",
        "ld"
      ],
      [
        "is",
        "m"
      ],
      [
        "m",
        "p"
      ],
      [
        "o",
        "g"
      ],
      [
        "à¤¯",
        "à¤¤"
      ],
      [
        "Ġà¤ķ",
        "à¤°à¤¤"
      ],
      [
        "à¤¸",
        "à¤Ń"
      ],
      [
        "Ġa",
        "t"
      ],
      [
        "ou",
        "s"
      ],
      [
        "ou",
        "gh"
      ],
      [
        "ĠA",
        "s"
      ],
      [
        "Ġà¤Ł",
        "à¤ķ"
      ],
      [
        "Ġà°Ĵ",
        "à°ķ"
      ],
      [
        "over",
        "n"
      ],
      [
        "a",
        "g"
      ],
      [
        "f",
        "ter"
      ],
      [
        "Ġ",
        "7"
      ],
      [
        "Ġ",
        "k"
      ],
      [
        "à¥",
        "Ń"
      ],
      [
        "Ġà¤",
        "¡"
      ],
      [
        "Ġà¤ķ",
        "à¤®"
      ],
      [
        "à¤¸",
        "à¤ķ"
      ],
      [
        "Ġà¤ª",
        "à¤¡"
      ],
      [
        "Ġc",
        "h"
      ],
      [
        "Ġin",
        "t"
      ],
      [
        "Ġp",
        "ro"
      ],
      [
        "Ġ19",
        "6"
      ],
      [
        "Ġcon",
        "t"
      ],
      [
        "Ġ",
        "R"
      ],
      [
        "Ġà°",
        "ı"
      ],
      [
        "à°¾",
        ","
      ],
      [
        "à°°",
        "à°¸"
      ],
      [
        "Ġà¤ħ",
        "à¤¶"
      ],
      [
        "Ġc",
        "o"
      ],
      [
        "Ġà°ķ",
        "à°²"
      ],
      [
        "Ġà¤Ĺ",
        "à¤£"
      ],
      [
        "ou",
        "th"
      ],
      [
        "âĢ",
        "Ķ"
      ],
      [
        "Ġ2",
        "00"
      ],
      [
        "00",
        "0"
      ],
      [
        "Ġà°İ",
        "à°¨"
      ],
      [
        "con",
        "om"
      ],
      [
        "à°¯à°µ",
        "à°¸"
      ],
      [
        "a",
        "ge"
      ],
      [
        "Ġ",
        "U"
      ],
      [
        "Ġà¤",
        "Ī"
      ],
      [
        "Ġà¤",
        "ĳ"
      ],
      [
        "Ġà¤¸",
        "à¤¬"
      ],
      [
        "an",
        "t"
      ],
      [
        "Ġà¤Ĩ",
        "à¤ľ"
      ],
      [
        "al",
        "ly"
      ],
      [
        "as",
        "s"
      ],
      [
        "ou",
        "r"
      ],
      [
        "am",
        "e"
      ],
      [
        "ĠH",
        "in"
      ],
      [
        "overn",
        "ment"
      ],
      [
        "Ġà¤¸à¤¬",
        "à¤¸"
      ],
      [
        "5",
        "0"
      ],
      [
        "a",
        "v"
      ],
      [
        "i",
        "f"
      ],
      [
        "l",
        "ow"
      ],
      [
        "Ġ",
        "\""
      ],
      [
        "à¥",
        "©"
      ],
      [
        "à¤¯",
        "à¤ª"
      ],
      [
        "à°Ĥ",
        "."
      ],
      [
        "à¤¸",
        "à¤°"
      ],
      [
        "à¤µ",
        "à¤³"
      ],
      [
        "an",
        "ce"
      ],
      [
        "à°µ",
        "à°¤"
      ],
      [
        "Ġà¤¤",
        "à¤¸"
      ],
      [
        "à±Ģ",
        ","
      ],
      [
        "Ġà°¸",
        "à°®"
      ],
      [
        "Ġb",
        "ec"
      ],
      [
        "Ġà°µ",
        "à°ļ"
      ],
      [
        "Ġà°ħ",
        "à°¤"
      ],
      [
        "ur",
        "ing"
      ],
      [
        "Ġpar",
        "t"
      ],
      [
        "c",
        "t"
      ],
      [
        "u",
        "tion"
      ],
      [
        "Ġ",
        "4"
      ],
      [
        "à¥",
        "®"
      ],
      [
        "à¤°",
        "à¤¶"
      ],
      [
        "Ġà¤ħ",
        "à¤¤"
      ],
      [
        "ion",
        "s"
      ],
      [
        "Ġm",
        "ar"
      ],
      [
        "is",
        "h"
      ],
      [
        "Ġl",
        "e"
      ],
      [
        "Ġe",
        "conom"
      ],
      [
        "Ġfor",
        "m"
      ],
      [
        "res",
        "s"
      ],
      [
        "ang",
        "u"
      ],
      [
        "Ġint",
        "o"
      ],
      [
        "a",
        "j"
      ],
      [
        "a",
        "p"
      ],
      [
        "Ġ",
        "3"
      ],
      [
        "à¤°",
        "à¤§"
      ],
      [
        "à¤¯",
        "à¤ķ"
      ],
      [
        "Ġà¤ķ",
        "à¤²"
      ],
      [
        "à°²",
        "à°¤"
      ],
      [
        "à¤µ",
        "à¤¨"
      ],
      [
        "an",
        "y"
      ],
      [
        "Ġà¤ľ",
        "à¤Ĺ"
      ],
      [
        "Ġà¤¶",
        "à¤¹à¤°"
      ],
      [
        "Ġà°®",
        "à°¤"
      ],
      [
        "Ġà°¦",
        "à°ķ"
      ],
      [
        "Ġre",
        "g"
      ],
      [
        "ill",
        "ion"
      ],
      [
        "h",
        "i"
      ],
      [
        "o",
        "re"
      ],
      [
        "Ġ",
        "F"
      ],
      [
        "Ġ",
        "J"
      ],
      [
        "à¥Ģ",
        "à¥¤"
      ],
      [
        "à¤¨",
        "à¤®"
      ],
      [
        "Ġà¤¸",
        "à¤¹"
      ],
      [
        "Ġà¤ª",
        "à¤¶"
      ],
      [
        "Ġa",
        "d"
      ],
      [
        "à¥Ī",
        ","
      ],
      [
        "st",
        "it"
      ],
      [
        "di",
        "a"
      ],
      [
        "at",
        "es"
      ],
      [
        "Ġc",
        "l"
      ],
      [
        "Ġs",
        "e"
      ],
      [
        "Ġs",
        "ub"
      ],
      [
        "Ġp",
        "l"
      ],
      [
        "à¤¬",
        "à¤°"
      ],
      [
        "Ġl",
        "arge"
      ],
      [
        "Ġre",
        "l"
      ],
      [
        "Ġcent",
        "ur"
      ],
      [
        "c",
        "es"
      ],
      [
        "i",
        "a"
      ],
      [
        "m",
        "e"
      ],
      [
        "Ġ",
        "y"
      ],
      [
        "à¤",
        "ħ"
      ],
      [
        "à¥",
        "§à¥"
      ],
      [
        "à¤°",
        "à¤Ń"
      ],
      [
        "à¤¯",
        "à¤¨"
      ],
      [
        "à¤²",
        "à¤¨"
      ],
      [
        "à°°",
        "à°ķ"
      ],
      [
        "à°°",
        "à°¦"
      ],
      [
        "à°°",
        "à°§"
      ],
      [
        "in",
        "ist"
      ],
      [
        "Ġà¤¹",
        "à¤µ"
      ],
      [
        "à°ķ",
        "à°°"
      ],
      [
        "à°¯",
        "à°®"
      ],
      [
        "er",
        "al"
      ],
      [
        "à¤¶",
        "à¤ķ"
      ],
      [
        "re",
        "as"
      ],
      [
        "Ġà°¸",
        "à°°"
      ],
      [
        "à¤³",
        "à¤¤"
      ],
      [
        "Ġp",
        "er"
      ],
      [
        "Ġp",
        "op"
      ],
      [
        "Ġà¥",
        "«"
      ],
      [
        "à°¹",
        "à°¦"
      ],
      [
        "Ġà¤ķà¤°",
        "à¤£"
      ],
      [
        "ĠC",
        "h"
      ],
      [
        "T",
        "he"
      ],
      [
        "i",
        "re"
      ],
      [
        "m",
        "er"
      ],
      [
        "o",
        "k"
      ],
      [
        "s",
        "o"
      ],
      [
        "t",
        "her"
      ],
      [
        "Ġ",
        "V"
      ],
      [
        "à¤¯",
        "à¤®"
      ],
      [
        "Ġt",
        "ra"
      ],
      [
        "re",
        "at"
      ],
      [
        "en",
        "ce"
      ],
      [
        "Ġà¤¬",
        "à¤¡"
      ],
      [
        "Ġl",
        "angu"
      ],
      [
        "Ġe",
        "l"
      ],
      [
        "Ġ19",
        "9"
      ],
      [
        "à¤¼",
        "à¥Ģ"
      ],
      [
        "Ġg",
        "overnment"
      ],
      [
        "In",
        "dia"
      ],
      [
        "l",
        "ud"
      ],
      [
        "q",
        "u"
      ],
      [
        "y",
        "st"
      ],
      [
        "Ġ",
        "K"
      ],
      [
        "Ġà¤",
        "Ľ"
      ],
      [
        "à¤®",
        "à¤°"
      ],
      [
        "à¤®",
        "à¤¨"
      ],
      [
        "à¤¦",
        "à¤°"
      ],
      [
        "in",
        "e"
      ],
      [
        "Ġà¤µ",
        "à¤¨"
      ],
      [
        "Ġà¤Ĩ",
        "à¤ª"
      ],
      [
        "Ġà¤ħ",
        "à¤Ń"
      ],
      [
        "à¤ľ",
        "à¤°"
      ],
      [
        "à±ĭ",
        ","
      ],
      [
        "à¤Ł",
        "à¤ķ"
      ],
      [
        "di",
        "tion"
      ],
      [
        "Ġà¤¬",
        "à¤¦à¤²"
      ],
      [
        "Ġw",
        "orld"
      ],
      [
        "Ġp",
        "ri"
      ],
      [
        "Ġà°®",
        "à°§"
      ],
      [
        "Ġà¤ĩ",
        "à¤¤à¤°"
      ],
      [
        "Ġd",
        "ec"
      ],
      [
        "à°¬",
        "à°¡"
      ],
      [
        "Ġà¤ķà¤°",
        "à¤¨"
      ],
      [
        "Ġà°ľ",
        "à°°"
      ],
      [
        "Ġà¤ĩà¤¸",
        "à¤ķ"
      ],
      [
        "Ġpop",
        "ul"
      ],
      [
        "1",
        "9"
      ],
      [
        "a",
        "ve"
      ],
      [
        "c",
        "c"
      ],
      [
        "d",
        "uc"
      ],
      [
        "à¤¤",
        "à¤ķ"
      ],
      [
        "à¤¨",
        "à¤ļ"
      ],
      [
        "Ġà¤ħ",
        "à¤²"
      ],
      [
        "à¤Ł",
        "à¤¨"
      ],
      [
        "Ġa",
        "g"
      ],
      [
        "Ġà¤¤",
        "à¤®"
      ],
      [
        "ĠIn",
        "d"
      ],
      [
        "Ġf",
        "ir"
      ],
      [
        "om",
        "e"
      ],
      [
        "Ġ19",
        "4"
      ],
      [
        "ig",
        "n"
      ],
      [
        "Ġ20",
        "2"
      ],
      [
        "Ġcom",
        "p"
      ],
      [
        "Ġy",
        "ear"
      ],
      [
        "yst",
        "em"
      ],
      [
        "Ġfir",
        "st"
      ],
      [
        "d",
        "er"
      ],
      [
        "f",
        "f"
      ],
      [
        "i",
        "an"
      ],
      [
        "o",
        "th"
      ],
      [
        "p",
        "p"
      ],
      [
        "Ġ",
        "5"
      ],
      [
        "Ġ",
        "end"
      ],
      [
        "à¤¨",
        "à¤µ"
      ],
      [
        "à¤ķ",
        "à¤¤"
      ],
      [
        "à°°",
        "à°Ń"
      ],
      [
        "à°°",
        "à°ľ"
      ],
      [
        "Ġà¤¸",
        "à¤£"
      ],
      [
        "à°¯",
        "à°ķ"
      ],
      [
        "Ġà¤ħ",
        "à¤ªà¤¨"
      ],
      [
        "à¤Ĺ",
        "à¤³"
      ],
      [
        "re",
        "d"
      ],
      [
        "Ġà°ª",
        "à°Ł"
      ],
      [
        "al",
        "l"
      ],
      [
        "à°Ĺ",
        "à°°"
      ],
      [
        "Ġs",
        "h"
      ],
      [
        "Ġà°ħ",
        "à°¯"
      ],
      [
        "ec",
        "tion"
      ],
      [
        "Ġ19",
        "7"
      ],
      [
        "Ġà°ĩ",
        "à°¤à°°"
      ],
      [
        "ro",
        "w"
      ],
      [
        "uc",
        "h"
      ],
      [
        "Ġmo",
        "st"
      ],
      [
        "Ġex",
        "p"
      ],
      [
        "Ġar",
        "t"
      ],
      [
        "Ġinc",
        "lud"
      ],
      [
        "ĠHin",
        "du"
      ],
      [
        "b",
        "er"
      ],
      [
        "g",
        "an"
      ],
      [
        "v",
        "ed"
      ],
      [
        "w",
        "e"
      ],
      [
        "Ġ",
        "8"
      ],
      [
        "à¤",
        "Ĭ"
      ],
      [
        "à¤",
        "ŀ"
      ],
      [
        "à¤¤",
        "à¤ª"
      ],
      [
        "à¤¨",
        "à¤ķ"
      ],
      [
        "à¤ķ",
        "à¤²"
      ],
      [
        "Ġà¤ª",
        "à¤ķ"
      ],
      [
        "Ġà¤ª",
        "à¤ł"
      ],
      [
        "à¥ģ",
        "à¤Ĥ"
      ],
      [
        "Ġà¤Ĩ",
        "à¤ķ"
      ],
      [
        "à¤·",
        "à¤Ń"
      ],
      [
        "Ġà¤ħ",
        "à¤ľ"
      ],
      [
        "à¤¶",
        "à¤¨"
      ],
      [
        "Ġo",
        "ver"
      ],
      [
        "Ġs",
        "ystem"
      ],
      [
        "âĢ",
        "į"
      ],
      [
        "Ġd",
        "uring"
      ],
      [
        "ec",
        "t"
      ],
      [
        "Ġre",
        "s"
      ],
      [
        "à¤¼",
        "à¤¾"
      ],
      [
        "us",
        "ed"
      ],
      [
        "ig",
        "h"
      ],
      [
        "id",
        "e"
      ],
      [
        "ag",
        "es"
      ],
      [
        "Ġbec",
        "ame"
      ],
      [
        "stit",
        "ution"
      ],
      [
        "e",
        "w"
      ],
      [
        "h",
        "ar"
      ],
      [
        "r",
        "al"
      ],
      [
        "Ġ",
        "ri"
      ],
      [
        "à°",
        "ĺ"
      ],
      [
        "à¥",
        "§"
      ],
      [
        "à¥",
        "ħ"
      ],
      [
        "Ġà°",
        "¯"
      ],
      [
        "à°¨",
        "à°µ"
      ],
      [
        "à°¦",
        "à°°"
      ],
      [
        "Ġà¤¬",
        "à¤¢"
      ],
      [
        "à¤¡",
        "à¤²"
      ],
      [
        "Ġà°¸",
        "à°Ń"
      ],
      [
        "or",
        "d"
      ],
      [
        "Ġb",
        "ut"
      ],
      [
        "Ġh",
        "ad"
      ],
      [
        "Ġh",
        "ave"
      ],
      [
        "Ġre",
        "p"
      ],
      [
        "Ġg",
        "en"
      ],
      [
        "ation",
        "al"
      ],
      [
        "Ġà°Ĩ",
        "à°°"
      ],
      [
        "à¤°à¤ª",
        "à¤¤"
      ],
      [
        "Ġbe",
        "en"
      ],
      [
        "Ġmo",
        "d"
      ],
      [
        "est",
        "ern"
      ],
      [
        "Ġal",
        "so"
      ],
      [
        "Ġà¤ªà¤¦",
        "à¤µ"
      ],
      [
        "mp",
        "ire"
      ],
      [
        "aj",
        "or"
      ],
      [
        "d",
        "h"
      ],
      [
        "r",
        "ic"
      ],
      [
        "Ġ",
        "L"
      ],
      [
        "à¤",
        "ī"
      ],
      [
        "à¤",
        "Ŀ"
      ],
      [
        "Ġà¤",
        "ł"
      ],
      [
        "Ġà¤¸",
        "à¤Ń"
      ],
      [
        "à¤®",
        "à¤¤"
      ],
      [
        "à¤¹",
        "à¤°à¤£"
      ],
      [
        "Ġà¤ħ",
        "à¤ª"
      ],
      [
        "Ġin",
        "f"
      ],
      [
        "Ġs",
        "up"
      ],
      [
        "Ġm",
        "e"
      ],
      [
        "ic",
        "s"
      ],
      [
        "à¤ĸ",
        "à¤²"
      ],
      [
        "ur",
        "al"
      ],
      [
        "Ġmo",
        "re"
      ],
      [
        "Ġcon",
        "s"
      ],
      [
        "ong",
        "ress"
      ],
      [
        "Ġà¤Ī",
        "à¤¸"
      ],
      [
        "Ġrel",
        "ig"
      ],
      [
        "Ġtra",
        "dition"
      ],
      [
        ")",
        "."
      ],
      [
        "C",
        "E"
      ],
      [
        "e",
        "p"
      ],
      [
        "t",
        "y"
      ],
      [
        "w",
        "o"
      ],
      [
        "Ġ",
        "6"
      ],
      [
        "Ġ",
        "O"
      ],
      [
        "à°",
        "«"
      ],
      [
        "Ġà¤",
        "ĭ"
      ],
      [
        "à¤°",
        "à¤²"
      ],
      [
        "à¤®",
        "à¤¦"
      ],
      [
        "à¤ļ",
        "à¤¨"
      ],
      [
        "à°¦",
        "à°Ł"
      ],
      [
        "à¤§",
        "à¤¤"
      ],
      [
        "à±ĩ",
        "à°Ĥ"
      ],
      [
        "Ġà°ª",
        "à°¦"
      ],
      [
        "à°µ",
        "à°²"
      ],
      [
        "Ġa",
        "fter"
      ],
      [
        "en",
        "s"
      ],
      [
        "Ġà¤¦",
        "à¤°"
      ],
      [
        "à°Ĺ",
        "à°²"
      ],
      [
        "Ġs",
        "uch"
      ],
      [
        "or",
        "y"
      ],
      [
        "Ġp",
        "e"
      ],
      [
        "Ġp",
        "ol"
      ],
      [
        "Ġm",
        "illion"
      ],
      [
        "Ġm",
        "inist"
      ],
      [
        "à¤¬",
        "à¤¦"
      ],
      [
        "Ġà¥",
        "ª"
      ],
      [
        "Ġ1",
        "8"
      ],
      [
        "Ġl",
        "at"
      ],
      [
        "Ġà°°",
        "à°µ"
      ],
      [
        "Ġà°ī",
        "à°¤"
      ],
      [
        "Ġn",
        "um"
      ],
      [
        "ver",
        "s"
      ],
      [
        "Ġà¤¸à¤®",
        "à¤¯"
      ],
      [
        "ĠS",
        "outh"
      ],
      [
        "à¤°à¤®",
        "à¤£"
      ],
      [
        "Ġà°¤",
        "à°°"
      ],
      [
        "Ġth",
        "at"
      ],
      [
        "ow",
        "er"
      ],
      [
        "oun",
        "d"
      ],
      [
        "oun",
        "t"
      ],
      [
        "Ġinc",
        "reas"
      ],
      [
        "Ġcl",
        "ass"
      ],
      [
        "Ġcentur",
        "y"
      ],
      [
        "Ġyear",
        "s"
      ],
      [
        "Ġmod",
        "ern"
      ],
      [
        "2",
        "0"
      ],
      [
        "m",
        "ong"
      ],
      [
        "t",
        "in"
      ],
      [
        "u",
        "st"
      ],
      [
        "u",
        "res"
      ],
      [
        "Ġ",
        ","
      ],
      [
        "Ġ",
        "he"
      ],
      [
        "Ġ",
        "im"
      ],
      [
        "à¤",
        "ĥ"
      ],
      [
        "à¤¤",
        "à¤¤"
      ],
      [
        "à¤²",
        "à¤ļ"
      ],
      [
        "à¤ķ",
        "à¤¸"
      ],
      [
        "Ġt",
        "wo"
      ],
      [
        "Ġà¤®",
        "à¤¸"
      ],
      [
        "he",
        "d"
      ],
      [
        "à¤ľ",
        "à¤µ"
      ],
      [
        "Ġc",
        "a"
      ],
      [
        "or",
        "th"
      ],
      [
        "Ġb",
        "oth"
      ],
      [
        "à¤¬",
        "à¤¤"
      ],
      [
        "Ġl",
        "ong"
      ],
      [
        "Ġ19",
        "50"
      ],
      [
        "ĠC",
        "ongress"
      ],
      [
        "à¥Īà¤Ĥ",
        ","
      ],
      [
        "im",
        "al"
      ],
      [
        "Ġr",
        "ul"
      ],
      [
        "Ġdi",
        "s"
      ],
      [
        "Ġ201",
        "1"
      ],
      [
        "Ġreg",
        "ion"
      ],
      [
        "Ġpri",
        "me"
      ],
      [
        "Ġ194",
        "7"
      ],
      [
        "b",
        "an"
      ],
      [
        "e",
        "f"
      ],
      [
        "l",
        "es"
      ],
      [
        "l",
        "ic"
      ],
      [
        "p",
        "h"
      ],
      [
        "Ġà¤",
        "Ĭ"
      ],
      [
        "à¤¤",
        "à¤µ"
      ],
      [
        "à¤¤",
        "à¤®"
      ],
      [
        "à°Ĥ",
        ":"
      ],
      [
        "à°¨",
        "à°®"
      ],
      [
        "à¤¶",
        "à¤¯"
      ],
      [
        "re",
        "n"
      ],
      [
        "à±ĩ",
        "."
      ],
      [
        "Ġà¤¦",
        "à¤¶à¤ķ"
      ],
      [
        "Ġc",
        "ast"
      ],
      [
        "à°ª",
        "à°Ł"
      ],
      [
        "Ġs",
        "c"
      ],
      [
        "Ġs",
        "er"
      ],
      [
        "Ġs",
        "oc"
      ],
      [
        "Ġà°ķ",
        "à°¨"
      ],
      [
        "Ġm",
        "ajor"
      ],
      [
        "Ġà¤ĩ",
        "à¤®"
      ],
      [
        "Ġà¤²",
        "à¤Ĺ"
      ],
      [
        "Ġh",
        "um"
      ],
      [
        "à°ľ",
        "à°ķ"
      ],
      [
        "ur",
        "ban"
      ],
      [
        "Ġà°ī",
        "à°ª"
      ],
      [
        "ol",
        "og"
      ],
      [
        "ĠB",
        "CE"
      ],
      [
        "Ġà°ĩ",
        "à°¦"
      ],
      [
        "ist",
        "an"
      ],
      [
        "et",
        "we"
      ],
      [
        "Ġà°¬",
        "à°¹"
      ],
      [
        "Ġà°İ",
        "à°ķ"
      ],
      [
        "Ġà¤ħà¤°",
        "à¤¬"
      ],
      [
        "ult",
        "ure"
      ],
      [
        "Ġà¤ĵ",
        "à¤³"
      ],
      [
        "ĠAs",
        "ia"
      ],
      [
        "Ġà°ı",
        "à°°"
      ],
      [
        "etwe",
        "en"
      ],
      [
        "i",
        "k"
      ],
      [
        "m",
        "on"
      ],
      [
        "o",
        "se"
      ],
      [
        "r",
        "ough"
      ],
      [
        "Ġ",
        "ra"
      ],
      [
        "Ġ",
        "up"
      ],
      [
        "Ġ",
        "urban"
      ],
      [
        "à¥",
        "¯"
      ],
      [
        "à¤°",
        "à¤µ"
      ],
      [
        "à¤¯",
        "à¤¦"
      ],
      [
        "à¤²",
        "à¤Ĺ"
      ],
      [
        "à¤ķ",
        "à¤¸à¤Ń"
      ],
      [
        "Ġà¤ķ",
        "à¤Ī"
      ],
      [
        "à¤®",
        "à¤ķ"
      ],
      [
        "Ġà¤®",
        "à¤¤"
      ],
      [
        "in",
        "ce"
      ],
      [
        "à¤ª",
        "à¤£"
      ],
      [
        "Ġthe",
        "ir"
      ],
      [
        "Ġà¤¨",
        "à¤¹"
      ],
      [
        "Ġof",
        "f"
      ],
      [
        "is",
        "ation"
      ],
      [
        "Ġh",
        "ist"
      ],
      [
        "Ġ19",
        "8"
      ],
      [
        "Ġ2",
        "6"
      ],
      [
        "Ġà¤ı",
        "à¤¶"
      ],
      [
        "Ġn",
        "ot"
      ],
      [
        "Ġg",
        "row"
      ],
      [
        "ĠB",
        "ud"
      ],
      [
        "ĠB",
        "rit"
      ],
      [
        "am",
        "ent"
      ],
      [
        "le",
        "ar"
      ],
      [
        "ve",
        "l"
      ],
      [
        "Ġth",
        "is"
      ],
      [
        "uc",
        "lear"
      ],
      [
        "ĠE",
        "mpire"
      ],
      [
        "Ġun",
        "der"
      ],
      [
        "Ġà¤ªà¤¹",
        "à¤²"
      ],
      [
        "ĠU",
        "n"
      ],
      [
        "Ġlangu",
        "age"
      ],
      [
        "Ġel",
        "ection"
      ],
      [
        "Ġpopul",
        "ation"
      ],
      [
        "Ġminist",
        "er"
      ],
      [
        "Ġcast",
        "e"
      ],
      [
        "ĠBud",
        "dh"
      ],
      [
        "ĠBrit",
        "ish"
      ],
      [
        "a",
        "ce"
      ],
      [
        "l",
        "o"
      ],
      [
        "p",
        "t"
      ],
      [
        "Ġ",
        "en"
      ],
      [
        "Ġà°",
        "Ł"
      ],
      [
        "à¤¯",
        "à¤¸à¤Ń"
      ],
      [
        "à¤¨",
        "à¤²"
      ],
      [
        "à¤²",
        "à¤¤"
      ],
      [
        "à¤²",
        "à¤µ"
      ],
      [
        "à°²",
        "à°¯"
      ],
      [
        "Ġà¤¸",
        "à¤¦"
      ],
      [
        "à¤µ",
        "à¤¡"
      ],
      [
        "à¤®",
        "à¤¹"
      ],
      [
        "à¤¹",
        "à¤¤"
      ],
      [
        "Ġt",
        "er"
      ],
      [
        "Ġà¤®",
        "à¤°"
      ],
      [
        "Ġà¤¹",
        "à¤°"
      ],
      [
        "à°ķ",
        "à°²"
      ],
      [
        "Ġà¤Ń",
        "à¤°à¤¤"
      ],
      [
        "Ġà¤Ĩ",
        "à¤¦"
      ],
      [
        "Ġà¤Ĩ",
        "à¤¢"
      ],
      [
        "à°¯",
        "à°§"
      ],
      [
        "Ġà¤ħ",
        "à¤¥à¤µ"
      ],
      [
        "à¤§",
        "à¤¨"
      ],
      [
        "à¤Ĺ",
        "à¤¡"
      ],
      [
        "re",
        "e"
      ],
      [
        "Ġà¤¨",
        "à¤®"
      ],
      [
        "à¥ĩà¤Ĥ",
        ","
      ],
      [
        "Ġà¤¤",
        "à¤¯"
      ],
      [
        "à±Ģ",
        ";"
      ],
      [
        "ar",
        "i"
      ],
      [
        "à°ª",
        "à°¡"
      ],
      [
        "Ġs",
        "outh"
      ],
      [
        "Ġb",
        "etween"
      ],
      [
        "Ġm",
        "any"
      ],
      [
        "à°¶",
        "à°ª"
      ],
      [
        "Ġf",
        "ol"
      ],
      [
        "Ġà¥",
        "©"
      ],
      [
        "Ġà°µ",
        "à°°"
      ],
      [
        "Ġà°®",
        "à°¹"
      ],
      [
        "Ġ1",
        "2"
      ],
      [
        "om",
        "et"
      ],
      [
        "Ġl",
        "and"
      ],
      [
        "ou",
        "t"
      ],
      [
        "Ġe",
        "ar"
      ],
      [
        "à°·",
        "à°²"
      ],
      [
        "Ġd",
        "ance"
      ],
      [
        "Ġre",
        "c"
      ],
      [
        "Ġn",
        "ort"
      ],
      [
        "Ġn",
        "orth"
      ],
      [
        "Ġà°¨",
        "à°¡"
      ],
      [
        "ĠC",
        "E"
      ],
      [
        "ĠC",
        "on"
      ],
      [
        "ri",
        "b"
      ],
      [
        "ation",
        "s"
      ],
      [
        "Ġà°ĩ",
        "à°µ"
      ],
      [
        "à±Ĭ",
        "à°Ĥ"
      ],
      [
        "Ġà°Ĩ",
        "à°§"
      ],
      [
        "Ġà°Ĺ",
        "à°²"
      ],
      [
        "Ġbe",
        "gan"
      ],
      [
        "Ġà¥§à¥¯à¥",
        "Ń"
      ],
      [
        "à¤ĺ",
        "à¤²"
      ],
      [
        "ical",
        "ly"
      ],
      [
        "ial",
        "ly"
      ],
      [
        "ang",
        "es"
      ],
      [
        "à°°à°ª",
        "à°¤"
      ],
      [
        "con",
        "tin"
      ],
      [
        "ak",
        "istan"
      ],
      [
        "el",
        "l"
      ],
      [
        "Ġà¤ĳ",
        "à¤«"
      ],
      [
        "low",
        "ing"
      ],
      [
        "Ġsup",
        "p"
      ],
      [
        "ount",
        "ry"
      ],
      [
        "contin",
        "ent"
      ],
      [
        "c",
        "i"
      ],
      [
        "g",
        "en"
      ],
      [
        "g",
        "al"
      ],
      [
        "l",
        "u"
      ],
      [
        "n",
        "i"
      ],
      [
        "s",
        "h"
      ],
      [
        "v",
        "i"
      ],
      [
        "Ġ",
        "9"
      ],
      [
        "Ġ",
        "j"
      ],
      [
        "à¥į",
        "âĢį"
      ],
      [
        "Ġt",
        "im"
      ],
      [
        "Ġà¤ħ",
        "à¤®"
      ],
      [
        "Ġà¤ħ",
        "à¤Ĺ"
      ],
      [
        "on",
        "d"
      ],
      [
        "Ġa",
        "pp"
      ],
      [
        "al",
        "s"
      ],
      [
        "at",
        "ic"
      ],
      [
        "ĠI",
        "t"
      ],
      [
        "it",
        "e"
      ],
      [
        "it",
        "ed"
      ],
      [
        "it",
        "ion"
      ],
      [
        "Ġm",
        "at"
      ],
      [
        "Ġf",
        "ore"
      ],
      [
        "Ġà¥",
        "Ń"
      ],
      [
        "Ġà¤¶",
        "à¤ķ"
      ],
      [
        "om",
        "p"
      ],
      [
        "Ġe",
        "ast"
      ],
      [
        "Ġà¤ªà¤°",
        "à¤®"
      ],
      [
        "ec",
        "h"
      ],
      [
        "Ġ19",
        "5"
      ],
      [
        "Ġà¤ı",
        "à¤µ"
      ],
      [
        "Ġà¥§à¥",
        "¦"
      ],
      [
        "Ġà¥§à¥",
        "¨"
      ],
      [
        "Ġà¥§à¥",
        "®"
      ],
      [
        "il",
        "it"
      ],
      [
        "ĠA",
        "l"
      ],
      [
        "ĠA",
        "n"
      ],
      [
        "ad",
        "e"
      ],
      [
        "ĠP",
        "akistan"
      ],
      [
        "her",
        "n"
      ],
      [
        "ac",
        "k"
      ],
      [
        "ab",
        "le"
      ],
      [
        "ub",
        "lic"
      ],
      [
        "Ġeconom",
        "y"
      ],
      [
        "Ġlat",
        "er"
      ],
      [
        "vers",
        "ity"
      ],
      [
        "Ġim",
        "p"
      ],
      [
        "Ġnort",
        "hern"
      ],
      [
        "%",
        "."
      ],
      [
        "a",
        "w"
      ],
      [
        "c",
        "y"
      ],
      [
        "g",
        "in"
      ],
      [
        "t",
        "ing"
      ],
      [
        "u",
        "gh"
      ],
      [
        "Ġ",
        "âĢĶ"
      ],
      [
        "à°",
        "¢"
      ],
      [
        "à¤¯",
        "à¤µ"
      ],
      [
        "Ġà¤ķ",
        "à¤¡"
      ],
      [
        "à°²",
        "à°µ"
      ],
      [
        "Ġà¤¸",
        "à¤§"
      ],
      [
        "à¤µ",
        "à¤µ"
      ],
      [
        "à¤µ",
        "à¤£"
      ],
      [
        "à¤µ",
        "à¤¶"
      ],
      [
        "à°¨",
        "à°²"
      ],
      [
        "à°¨",
        "à°ª"
      ],
      [
        "à°¤",
        "à°®"
      ],
      [
        "à¤ļ",
        "à¤²"
      ],
      [
        "à¤ª",
        "à¤¦"
      ],
      [
        "Ġthe",
        "re"
      ],
      [
        "à°¯",
        "à°¨"
      ],
      [
        "à°¯",
        "à°¤"
      ],
      [
        "er",
        "ed"
      ],
      [
        "à¤ľ",
        "à¤ķ"
      ],
      [
        "à¤§",
        "à¤²"
      ],
      [
        "à¤Ĺ",
        "à¤®"
      ],
      [
        "Ġà°ª",
        "à°¤"
      ],
      [
        "à°µ",
        "à°¹"
      ],
      [
        "Ġa",
        "b"
      ],
      [
        "Ġà¤ľ",
        "à¤µ"
      ],
      [
        "Ġà¤ľ",
        "à¤®"
      ],
      [
        "di",
        "c"
      ],
      [
        "Ġà¤¨",
        "à¤µ"
      ],
      [
        "à°Ł",
        "à°£"
      ],
      [
        "Ġà¤¦",
        "à¤ĸ"
      ],
      [
        "à°®",
        "à°¨"
      ],
      [
        "ar",
        "d"
      ],
      [
        "it",
        "er"
      ],
      [
        "Ġw",
        "estern"
      ],
      [
        "Ġs",
        "ec"
      ],
      [
        "Ġs",
        "ince"
      ],
      [
        "à¤³",
        "à¤¨"
      ],
      [
        "à¤³",
        "à¤µà¤³"
      ],
      [
        "ic",
        "e"
      ],
      [
        "Ġà¥",
        "¬"
      ],
      [
        "Ġà¤¶",
        "à¤¤à¤ķ"
      ],
      [
        "Ġ1",
        "0"
      ],
      [
        "om",
        "in"
      ],
      [
        "Ġà°°",
        "à°ķ"
      ],
      [
        "Ġà°°",
        "à°¹à°¦"
      ],
      [
        "Ġe",
        "mer"
      ],
      [
        "à°·",
        "à°£"
      ],
      [
        "Ġà¤ļ",
        "à¤³à¤µà¤³"
      ],
      [
        "à°ľ",
        "à°¨"
      ],
      [
        "Ġn",
        "on"
      ],
      [
        "ra",
        "ph"
      ],
      [
        "ul",
        "ar"
      ],
      [
        "à°¥",
        "à°²"
      ],
      [
        "Ġr",
        "ate"
      ],
      [
        "Ġà°²",
        "à°ķ"
      ],
      [
        "Ġà¥§à¥¯à¥",
        "¯à¥"
      ],
      [
        "Ġex",
        "t"
      ],
      [
        "à¥ī",
        "à¤Ĥ"
      ],
      [
        "Ġà¥¨",
        "à¥¦à¥¦"
      ],
      [
        "Ġà¤ľà¤¨",
        "à¤ľ"
      ],
      [
        "à¤¹à¤£",
        "à¤ľ"
      ],
      [
        "Ġsp",
        "ec"
      ],
      [
        "Ġà°Ĵà°ķ",
        "à°Ł"
      ],
      [
        "Ġ196",
        "5"
      ],
      [
        "Ġà¤Ĺà¤£",
        "à¤²"
      ],
      [
        "Ġeconom",
        "ic"
      ],
      [
        "Ġsub",
        "continent"
      ],
      [
        "Ġà¤Ĩà¤ª",
        "à¤²"
      ],
      [
        "Ġinf",
        "lu"
      ],
      [
        "Ġpe",
        "op"
      ],
      [
        "Ġincreas",
        "ed"
      ],
      [
        "Ġclass",
        "ical"
      ],
      [
        "Ġhum",
        "an"
      ],
      [
        "Ġà¤ĵà¤³",
        "à¤ĸà¤²"
      ],
      [
        "vel",
        "op"
      ],
      [
        "%",
        ","
      ],
      [
        "%",
        ";"
      ],
      [
        "c",
        "ed"
      ],
      [
        "e",
        "x"
      ],
      [
        "e",
        "ver"
      ],
      [
        "h",
        "m"
      ],
      [
        "i",
        "od"
      ],
      [
        "l",
        "im"
      ],
      [
        "r",
        "ol"
      ],
      [
        "s",
        "l"
      ],
      [
        "t",
        "a"
      ],
      [
        "v",
        "ent"
      ],
      [
        "Ġ",
        "%"
      ],
      [
        "Ġ",
        "-"
      ],
      [
        "à¥ĩ",
        "à¥¤"
      ],
      [
        "à¤¨",
        "à¤¨"
      ],
      [
        "à¤²",
        "à¤°"
      ],
      [
        "he",
        "m"
      ],
      [
        "Ġà¤Ĩ",
        "à¤¯"
      ],
      [
        "Ġà¤Ĩ",
        "à¤Ĺ"
      ],
      [
        "Ġà¤Ĩ",
        "à¤ķà¤°"
      ],
      [
        "Ġa",
        "mong"
      ],
      [
        "Ġo",
        "cc"
      ],
      [
        "at",
        "ive"
      ],
      [
        "Ġc",
        "our"
      ],
      [
        "Ġw",
        "ar"
      ],
      [
        "à¤Ń",
        "à¤°"
      ],
      [
        "or",
        "k"
      ],
      [
        "or",
        "m"
      ],
      [
        "Ġp",
        "ower"
      ],
      [
        "Ġm",
        "us"
      ],
      [
        "Ġm",
        "id"
      ],
      [
        "Ġm",
        "ilit"
      ],
      [
        "es",
        "p"
      ],
      [
        "Ġà¤¶",
        "à¤¤"
      ],
      [
        "is",
        "e"
      ],
      [
        "is",
        "ed"
      ],
      [
        "Ġ1",
        "5"
      ],
      [
        "Ġl",
        "if"
      ],
      [
        "Ġl",
        "iter"
      ],
      [
        "ec",
        "ted"
      ],
      [
        "ĠT",
        "h"
      ],
      [
        "à¤¼",
        "à¥ĩ"
      ],
      [
        "Ġn",
        "ew"
      ],
      [
        "Ġn",
        "uclear"
      ],
      [
        "Ġg",
        "r"
      ],
      [
        "Ġà¥§à¥",
        "«"
      ],
      [
        "ĠA",
        "r"
      ],
      [
        "am",
        "il"
      ],
      [
        "Ġth",
        "an"
      ],
      [
        "ow",
        "n"
      ],
      [
        "ĠP",
        "l"
      ],
      [
        "ĠM",
        "ugh"
      ],
      [
        "ate",
        "ly"
      ],
      [
        "ter",
        "n"
      ],
      [
        "Ġst",
        "ate"
      ],
      [
        "ain",
        "s"
      ],
      [
        "Ġpar",
        "li"
      ],
      [
        "Ġde",
        "velop"
      ],
      [
        "ĠW",
        "orld"
      ],
      [
        "Ġlarge",
        "st"
      ],
      [
        "Ġper",
        "iod"
      ],
      [
        "Ġgen",
        "eral"
      ],
      [
        "Ġnum",
        "ber"
      ],
      [
        "ci",
        "ent"
      ],
      [
        "Ġspec",
        "ies"
      ],
      [
        "Ġpeop",
        "le"
      ],
      [
        "Ġlif",
        "e"
      ],
      [
        "Ġparli",
        "ament"
      ],
      [
        "4",
        "2"
      ],
      [
        "d",
        "le"
      ],
      [
        "f",
        "e"
      ],
      [
        "j",
        "ab"
      ],
      [
        "k",
        "et"
      ],
      [
        "k",
        "rit"
      ],
      [
        "r",
        "on"
      ],
      [
        "r",
        "uc"
      ],
      [
        "t",
        "en"
      ],
      [
        "t",
        "il"
      ],
      [
        "y",
        "a"
      ],
      [
        "Ġ",
        "'"
      ],
      [
        "à°",
        "ĩ"
      ],
      [
        "à¤°",
        "à¤¯"
      ],
      [
        "Ġà°",
        "Ĳ"
      ],
      [
        "Ġà°",
        "ĸ"
      ],
      [
        "à¤¯",
        "à¤°"
      ],
      [
        "à¤¨",
        "à¤¹"
      ],
      [
        "à°°",
        "à°µ"
      ],
      [
        "à°°",
        "à°£"
      ],
      [
        "Ġà¤ķ",
        "à¤¨"
      ],
      [
        "à±ģ",
        ":"
      ],
      [
        "à¤¸",
        "à¤±"
      ],
      [
        "Ġà¤¸",
        "à¤¸"
      ],
      [
        "à°¨",
        "à°¤"
      ],
      [
        "à¤¹",
        "à¤³"
      ],
      [
        "Ġà¤®",
        "à¤¨"
      ],
      [
        "he",
        "n"
      ],
      [
        "in",
        "a"
      ],
      [
        "Ġà¤¹",
        "à¤³"
      ],
      [
        "à°ķ",
        "à°¤"
      ],
      [
        "à°¦",
        "à°²"
      ],
      [
        "Ġà¤Ń",
        "à¤µà¤¨"
      ],
      [
        "Ġthe",
        "m"
      ],
      [
        "à°¯",
        "à°²"
      ],
      [
        "à¤ľ",
        "à¤¸"
      ],
      [
        "à¤ľ",
        "à¤ª"
      ],
      [
        "à¤Ĺ",
        "à¤£"
      ],
      [
        "à±ĩ",
        ","
      ],
      [
        "à°µ",
        "à°Ĺ"
      ],
      [
        "à°µ",
        "à°¸"
      ],
      [
        "à°µ",
        "à°¡"
      ],
      [
        "en",
        "gal"
      ],
      [
        "en",
        "ni"
      ],
      [
        "à°Ł",
        "à°®"
      ],
      [
        "à°Ĺ",
        "à°®"
      ],
      [
        "Ġà¤¤",
        "à¤¤"
      ],
      [
        "Ġc",
        "ountry"
      ],
      [
        "Ġà¤°",
        "à¤ļà¤¨"
      ],
      [
        "à°¸",
        "à°°"
      ],
      [
        "it",
        "ies"
      ],
      [
        "à°ª",
        "à°°"
      ],
      [
        "Ġs",
        "et"
      ],
      [
        "à¤³",
        "à¤ķ"
      ],
      [
        "à¤³",
        "à¤µ"
      ],
      [
        "Ġb",
        "as"
      ],
      [
        "Ġb",
        "ir"
      ],
      [
        "à¤¬",
        "à¤Ī"
      ],
      [
        "Ġà¤Ĺ",
        "à¤Ī"
      ],
      [
        "Ġà°®",
        "à°°"
      ],
      [
        "Ġ1",
        "7"
      ],
      [
        "à¤ĸ",
        "à¤¨à¤ļ"
      ],
      [
        "à°§",
        "à°¤"
      ],
      [
        "Ġà¤ī",
        "à¤¨à¤ķ"
      ],
      [
        "Ġe",
        "st"
      ],
      [
        "Ġà°ħ",
        "à°Ń"
      ],
      [
        "à°·",
        "à°°"
      ],
      [
        "Ġà¤ļ",
        "à¤²"
      ],
      [
        "ur",
        "op"
      ],
      [
        "Ġre",
        "f"
      ],
      [
        "Ġg",
        "reat"
      ],
      [
        "il",
        "d"
      ],
      [
        "Ġà°¨",
        "à°Ĺà°°"
      ],
      [
        "Ġà°ļ",
        "à°°"
      ],
      [
        "ĠB",
        "engal"
      ],
      [
        "ve",
        "ment"
      ],
      [
        "ĠS",
        "ans"
      ],
      [
        "Ġà°Ĩ",
        "à°ķ"
      ],
      [
        "Ġà°¤",
        "à°®"
      ],
      [
        "Ġth",
        "ough"
      ],
      [
        "Ġth",
        "rough"
      ],
      [
        "un",
        "jab"
      ],
      [
        "Ġà¤®à¤¹",
        "à¤¤"
      ],
      [
        "ĠP",
        "unjab"
      ],
      [
        "ĠM",
        "a"
      ],
      [
        "Ġcon",
        "stitution"
      ],
      [
        "Ġà¤¬à¤¨",
        "à¤²"
      ],
      [
        "ĠE",
        "ast"
      ],
      [
        "Ġà°¶",
        "à°¤"
      ],
      [
        "ac",
        "t"
      ],
      [
        "ill",
        "enni"
      ],
      [
        "à°µà°°",
        "à°£"
      ],
      [
        "Ġà¤ľà¤¨",
        "à¤¸"
      ],
      [
        "ult",
        "an"
      ],
      [
        "Ġà¤Ĩà¤£",
        "à¤²"
      ],
      [
        "iv",
        "ed"
      ],
      [
        "Ġà¤ĵ",
        "à¤°"
      ],
      [
        "Ġà¤īà¤ª",
        "à¤¸"
      ],
      [
        "og",
        "raph"
      ],
      [
        "Ġà¤ªà¤¡",
        "à¤²"
      ],
      [
        "Ġà¤Ĺà¤£",
        "à¤°"
      ],
      [
        "ĠU",
        "S"
      ],
      [
        "Ġle",
        "ad"
      ],
      [
        "Ġlangu",
        "ages"
      ],
      [
        "Ġà¤µà¤¨",
        "à¤¸"
      ],
      [
        "ĠInd",
        "o"
      ],
      [
        "à°°à°ľ",
        "à°²"
      ],
      [
        "Ġinclud",
        "ing"
      ],
      [
        "Ġca",
        "used"
      ],
      [
        "Ġrul",
        "e"
      ],
      [
        "Ġsoc",
        "ial"
      ],
      [
        "Ġemer",
        "g"
      ],
      [
        "Ġmilit",
        "ary"
      ],
      [
        "ĠMugh",
        "al"
      ],
      [
        "urop",
        "e"
      ],
      [
        "ĠSans",
        "krit"
      ],
      [
        "illenni",
        "um"
      ],
      [
        "3",
        "0"
      ],
      [
        "a",
        "i"
      ],
      [
        "a",
        "red"
      ],
      [
        "i",
        "b"
      ],
      [
        "i",
        "ed"
      ],
      [
        "i",
        "ans"
      ],
      [
        "l",
        "arge"
      ],
      [
        "n",
        "olog"
      ],
      [
        "o",
        "st"
      ],
      [
        "o",
        "di"
      ],
      [
        "o",
        "od"
      ],
      [
        "p",
        "er"
      ],
      [
        "Ä",
        "ģ"
      ],
      [
        "à¤°",
        "à¤ĸ"
      ],
      [
        "à¤°",
        "à¤Ĺà¤¤"
      ],
      [
        "à¥Ģ",
        ")"
      ],
      [
        "à¤¯",
        "à¤¸"
      ],
      [
        "à¤ķ",
        "à¤¨"
      ],
      [
        "à¤ķ",
        "à¤°à¤£"
      ],
      [
        "Ġà¤ķ",
        "à¤ļ"
      ],
      [
        "à¤¸",
        "à¤µ"
      ],
      [
        "Ġà¤¸",
        "à¤¤"
      ],
      [
        "à¤®",
        "à¤£"
      ],
      [
        "Ġà¤ª",
        "à¤¤"
      ],
      [
        "Ġt",
        "r"
      ],
      [
        "an",
        "ge"
      ],
      [
        "he",
        "s"
      ],
      [
        "he",
        "ast"
      ],
      [
        "Ġà¤Ĩ",
        "à¤¨"
      ],
      [
        "Ġà¤ħ",
        "à¤®à¤°"
      ],
      [
        "à¤¶",
        "à¤¸"
      ],
      [
        "re",
        "w"
      ],
      [
        "re",
        "ad"
      ],
      [
        "à¤Ł",
        "à¤°"
      ],
      [
        "à¤Ł",
        "à¤µ"
      ],
      [
        "Ġo",
        "ther"
      ],
      [
        "Ġà¤ľ",
        "à¤¯"
      ],
      [
        "Ġà¤ľ",
        "à¤¬"
      ],
      [
        "Ġà¤¨",
        "à¤°"
      ],
      [
        "at",
        "i"
      ],
      [
        "Ġà¤¦",
        "à¤²"
      ],
      [
        "Ġà¤°",
        "à¤ķ"
      ],
      [
        "Ġs",
        "ome"
      ],
      [
        "Ġs",
        "ign"
      ],
      [
        "à¤Ń",
        "à¤Ĺ"
      ],
      [
        "or",
        "n"
      ],
      [
        "or",
        "s"
      ],
      [
        "or",
        "ts"
      ],
      [
        "Ġb",
        "illion"
      ],
      [
        "Ġp",
        "re"
      ],
      [
        "Ġm",
        "ain"
      ],
      [
        "Ġm",
        "illennium"
      ],
      [
        "Ġf",
        "ar"
      ],
      [
        "Ġà¤Ĺ",
        "à¤¤"
      ],
      [
        "Ġà¤Ĺ",
        "à¤ł"
      ],
      [
        "Ġà¤ĩ",
        "à¤¨"
      ],
      [
        "ent",
        "ral"
      ],
      [
        "Ġà¤ī",
        "à¤°"
      ],
      [
        "Ġà¤ī",
        "à¤ł"
      ],
      [
        "Ġl",
        "ed"
      ],
      [
        "ou",
        "ld"
      ],
      [
        "Ġe",
        "mp"
      ],
      [
        "à¤¼",
        "à¥ĭ"
      ],
      [
        "Ġg",
        "ra"
      ],
      [
        "Ġà¥§à¥",
        "¬"
      ],
      [
        "il",
        "omet"
      ],
      [
        "ĠA",
        "fter"
      ],
      [
        "ĠC",
        "omp"
      ],
      [
        "ĠB",
        "y"
      ],
      [
        "ro",
        "c"
      ],
      [
        "ĠS",
        "t"
      ],
      [
        "ĠS",
        "ik"
      ],
      [
        "us",
        "lim"
      ],
      [
        "ow",
        "ever"
      ],
      [
        "id",
        "ent"
      ],
      [
        "Ġr",
        "ural"
      ],
      [
        "ment",
        "s"
      ],
      [
        "Ġà¥§à¥¯à¥",
        "®"
      ],
      [
        "Ġwh",
        "o"
      ],
      [
        "Ġst",
        "y"
      ],
      [
        "ac",
        "h"
      ],
      [
        "Ġon",
        "e"
      ],
      [
        "Ġdi",
        "re"
      ],
      [
        "ĠH",
        "imal"
      ],
      [
        "Ġà¤ľà¤¨",
        "à¤¤"
      ],
      [
        "iv",
        "il"
      ],
      [
        "Ġal",
        "l"
      ],
      [
        "du",
        "st"
      ],
      [
        "Ġk",
        "ilomet"
      ],
      [
        "Ġcentur",
        "ies"
      ],
      [
        "ĠCh",
        "ina"
      ],
      [
        "duc",
        "ed"
      ],
      [
        "ĠInd",
        "us"
      ],
      [
        "Ġ197",
        "1"
      ],
      [
        "à¤·à¤Ń",
        "à¤¦"
      ],
      [
        "Ġri",
        "ver"
      ],
      [
        "ord",
        "ing"
      ],
      [
        "Ġrelig",
        "i"
      ],
      [
        "Ġpol",
        "it"
      ],
      [
        "Ġser",
        "ved"
      ],
      [
        "Ġà¤¸à¤¦",
        "à¤¸"
      ],
      [
        "Ġmat",
        "hem"
      ],
      [
        "Ġfore",
        "st"
      ],
      [
        "Ġmus",
        "ic"
      ],
      [
        "ĠPl",
        "ate"
      ],
      [
        "large",
        "st"
      ],
      [
        "Ġà¤Ĺà¤ł",
        "à¤¬"
      ],
      [
        "ĠHimal",
        "ay"
      ],
      [
        "%",
        "),"
      ],
      [
        ")",
        ";"
      ],
      [
        ".",
        "."
      ],
      [
        "2",
        "00"
      ],
      [
        "c",
        "ri"
      ],
      [
        "d",
        "ay"
      ],
      [
        "e",
        "h"
      ],
      [
        "e",
        "at"
      ],
      [
        "g",
        "l"
      ],
      [
        "k",
        "ed"
      ],
      [
        "l",
        "ed"
      ],
      [
        "m",
        "it"
      ],
      [
        "p",
        "le"
      ],
      [
        "p",
        "ut"
      ],
      [
        "r",
        "u"
      ],
      [
        "«",
        "à¥¦"
      ],
      [
        "Ġ",
        "$"
      ],
      [
        "Ġ",
        "us"
      ],
      [
        "Ġ",
        "used"
      ],
      [
        "à°",
        "Ĩ"
      ],
      [
        "à°",
        "ł"
      ],
      [
        "à¤¾",
        ")"
      ],
      [
        "Ġà°",
        "«"
      ],
      [
        "Ġà°",
        "ĺ"
      ],
      [
        "à¤¤",
        "à¤²"
      ],
      [
        "à¤¤",
        "à¤¹"
      ],
      [
        "à¤¤",
        "à¤ļ"
      ],
      [
        "à¤¤",
        "à¤³"
      ],
      [
        "à¥Ģ",
        ":"
      ],
      [
        "à°¿",
        ":"
      ],
      [
        "à°°",
        "à°¯"
      ],
      [
        "Ġà¤ķ",
        "à¤Ł"
      ],
      [
        "Ġà¤ķ",
        "à¤¥"
      ],
      [
        "à¤¸",
        "à¤¤"
      ],
      [
        "à°²",
        "à°®"
      ],
      [
        "à¤®",
        "à¤²"
      ],
      [
        "à°¨",
        "à°¨"
      ],
      [
        "à°¨",
        "à°Ł"
      ],
      [
        "à¤¹",
        "à¤ľ"
      ],
      [
        "à°¤",
        "à°²"
      ],
      [
        "Ġt",
        "ech"
      ],
      [
        "an",
        "u"
      ],
      [
        "an",
        "ts"
      ],
      [
        "an",
        "ces"
      ],
      [
        "in",
        "s"
      ],
      [
        "in",
        "es"
      ],
      [
        "Ġà¤¹",
        "à¤¥"
      ],
      [
        "à°ķ",
        "à°¨"
      ],
      [
        "à°ķ",
        "à°Ł"
      ],
      [
        "à°ķ",
        "à°®"
      ],
      [
        "à¤ª",
        "à¤¸à¤®"
      ],
      [
        "à°¦",
        "à°¨"
      ],
      [
        "à°¦",
        "à°Ĺ"
      ],
      [
        "Ġà¤Ĩ",
        "à¤¶"
      ],
      [
        "à¤·",
        "à¤¯"
      ],
      [
        "à¤§",
        "à¤ķ"
      ],
      [
        "Ġà°ª",
        "à°²"
      ],
      [
        "Ġà°ª",
        "à°ķ"
      ],
      [
        "Ġà°ª",
        "à°¶"
      ],
      [
        "à°µ",
        "à°ļ"
      ],
      [
        "à¤Ł",
        "à¤²"
      ],
      [
        "Ġa",
        "c"
      ],
      [
        "Ġo",
        "ut"
      ],
      [
        "Ġà¤ľ",
        "à¤²"
      ],
      [
        "Ġà¤ľ",
        "à¤µà¤³"
      ],
      [
        "à°Ł",
        "à°°"
      ],
      [
        "at",
        "a"
      ],
      [
        "at",
        "s"
      ],
      [
        "à°®",
        "à°°"
      ],
      [
        "and",
        "s"
      ],
      [
        "and",
        "hi"
      ],
      [
        "Ġc",
        "ol"
      ],
      [
        "Ġc",
        "ulture"
      ],
      [
        "à±Ģ",
        "."
      ],
      [
        "ĠI",
        "sl"
      ],
      [
        "ar",
        "n"
      ],
      [
        "ar",
        "s"
      ],
      [
        "Ġw",
        "e"
      ],
      [
        "Ġw",
        "om"
      ],
      [
        "Ġw",
        "ide"
      ],
      [
        "à°ª",
        "à°ķ"
      ],
      [
        "à°¡",
        "à°°"
      ],
      [
        "à°¡",
        "à°²"
      ],
      [
        "à°¡",
        "à°®"
      ],
      [
        "Ġs",
        "ur"
      ],
      [
        "or",
        "ies"
      ],
      [
        "Ġm",
        "ade"
      ],
      [
        "à°¶",
        "à°®"
      ],
      [
        "Ġf",
        "ound"
      ],
      [
        "Ġà°µ",
        "à°¹"
      ],
      [
        "Ġ1",
        "6"
      ],
      [
        "Ġà¤ī",
        "à¤·"
      ],
      [
        "Ġl",
        "oc"
      ],
      [
        "à±Ĥ",
        "."
      ],
      [
        "Ġà°ħ",
        "à°µ"
      ],
      [
        "Ġh",
        "igh"
      ],
      [
        "Ġà¤ħà¤¸",
        "à¤£"
      ],
      [
        "à¤¼",
        "à¤¿"
      ],
      [
        "Ġn",
        "o"
      ],
      [
        "ver",
        "y"
      ],
      [
        "ĠC",
        "entral"
      ],
      [
        "à°¥",
        "à°ķ"
      ],
      [
        "ĠS",
        "h"
      ],
      [
        "ĠIndian",
        "s"
      ],
      [
        "Ġà°Ĩ",
        "à°«"
      ],
      [
        "Ġà°¤",
        "à°¨"
      ],
      [
        "Ġth",
        "ir"
      ],
      [
        "Ġà¤ĺ",
        "à¤°"
      ],
      [
        "Ġà¤ĺ",
        "à¤¡à¤²"
      ],
      [
        "à¤¢",
        "à¤²"
      ],
      [
        "ĠM",
        "uslim"
      ],
      [
        "Ġà¥§à¥¯à¥",
        "¬"
      ],
      [
        "Ġas",
        "s"
      ],
      [
        "ĠE",
        "n"
      ],
      [
        "Ġà°¶",
        "à°ķ"
      ],
      [
        "ac",
        "y"
      ],
      [
        "ĠD",
        "el"
      ],
      [
        "Ġà¥¨",
        "à¥¬"
      ],
      [
        "ĠG",
        "andhi"
      ],
      [
        "à¤°à¤ªà¤Ł",
        "à¤¸"
      ],
      [
        "Ġare",
        "as"
      ],
      [
        "iv",
        "es"
      ],
      [
        "Ġà¤īà¤ª",
        "à¤¯"
      ],
      [
        "à¤¹à¤£",
        "à¤¤"
      ],
      [
        "Ġcent",
        "ral"
      ],
      [
        "Ġ196",
        "2"
      ],
      [
        "Ġcont",
        "rib"
      ],
      [
        "Ġcont",
        "rol"
      ],
      [
        "à°°à°¸",
        "à°¤"
      ],
      [
        "Ġco",
        "al"
      ],
      [
        "Ġco",
        "ast"
      ],
      [
        "Ġco",
        "ok"
      ],
      [
        "Ġ4",
        "0"
      ],
      [
        "Ġle",
        "g"
      ],
      [
        "à°ķà°°",
        "à°£"
      ],
      [
        "Ġ199",
        "1"
      ],
      [
        "cc",
        "ording"
      ],
      [
        "Ġag",
        "ric"
      ],
      [
        "Ġinclud",
        "e"
      ],
      [
        "ĠHindu",
        "ism"
      ],
      [
        "ens",
        "us"
      ],
      [
        "Ġhist",
        "ory"
      ],
      [
        "Ġgrow",
        "th"
      ],
      [
        "à¤µà¤¡",
        "à¤£"
      ],
      [
        "Ġter",
        "rit"
      ],
      [
        "Ġà¤Ĩà¤¢",
        "à¤³à¤¤"
      ],
      [
        "Ġfol",
        "lowing"
      ],
      [
        "Ġtim",
        "e"
      ],
      [
        "Ġà°ªà°¤",
        "à°ķ"
      ],
      [
        "Ġinflu",
        "en"
      ],
      [
        "ultan",
        "ate"
      ],
      [
        "Ġemerg",
        "ed"
      ],
      [
        "Ġtr",
        "ans"
      ],
      [
        "ĠComp",
        "any"
      ],
      [
        "ĠSik",
        "h"
      ],
      [
        "Ġreligi",
        "ous"
      ],
      [
        "Ġpolit",
        "ical"
      ],
      [
        "Ġwom",
        "en"
      ],
      [
        "Ġthir",
        "d"
      ],
      [
        "ĠDel",
        "hi"
      ],
      [
        "1",
        "7"
      ],
      [
        "3",
        "5"
      ],
      [
        "J",
        "P"
      ],
      [
        "a",
        "u"
      ],
      [
        "a",
        "re"
      ],
      [
        "f",
        "ore"
      ],
      [
        "i",
        "z"
      ],
      [
        "m",
        "ain"
      ],
      [
        "m",
        "inist"
      ],
      [
        "o",
        "in"
      ],
      [
        "o",
        "ok"
      ],
      [
        "p",
        "l"
      ],
      [
        "u",
        "e"
      ],
      [
        "u",
        "ally"
      ],
      [
        "v",
        "en"
      ],
      [
        "v",
        "ing"
      ],
      [
        "v",
        "ol"
      ],
      [
        "v",
        "id"
      ],
      [
        "w",
        "est"
      ],
      [
        "w",
        "ork"
      ],
      [
        "ª",
        "à¥Ń"
      ],
      [
        "Ġ",
        "à¥¤"
      ],
      [
        "Ġ",
        "ent"
      ],
      [
        "Ġ",
        "her"
      ],
      [
        "Ġ",
        "50"
      ],
      [
        "Ġ",
        "esp"
      ],
      [
        "Ġà¤",
        "¢"
      ],
      [
        "à¤¨",
        "à¤ª"
      ],
      [
        "à¤ķ",
        "à¤ª"
      ],
      [
        "Ġà¤¸",
        "à¤²"
      ],
      [
        "Ġà¤¸",
        "à¤ķ"
      ],
      [
        "à¤µ",
        "à¤¯"
      ],
      [
        "à¤µ",
        "à¤§"
      ],
      [
        "an",
        "k"
      ],
      [
        "à¤ª",
        "à¤ķ"
      ],
      [
        "Ġà¤µ",
        "à¤¸"
      ],
      [
        "Ġà¤Ĩ",
        "à¤¸"
      ],
      [
        "Ġthe",
        "y"
      ],
      [
        "Ġà¤ħ",
        "à¤ķ"
      ],
      [
        "Ġà¤ħ",
        "à¤«"
      ],
      [
        "on",
        "s"
      ],
      [
        "er",
        "ation"
      ],
      [
        "à¤ľ",
        "à¤§"
      ],
      [
        "re",
        "ated"
      ],
      [
        "Ġo",
        "ri"
      ],
      [
        "di",
        "an"
      ],
      [
        "al",
        "le"
      ],
      [
        "Ġà¤¨",
        "à¤Ĺà¤°"
      ],
      [
        "Ġc",
        "ult"
      ],
      [
        "Ġc",
        "ap"
      ],
      [
        "Ġc",
        "ensus"
      ],
      [
        "ĠI",
        "ts"
      ],
      [
        "Ġà¤°",
        "à¤ĸ"
      ],
      [
        "it",
        "es"
      ],
      [
        "Ġin",
        "dust"
      ],
      [
        "Ġb",
        "i"
      ],
      [
        "Ġp",
        "ain"
      ],
      [
        "es",
        "s"
      ],
      [
        "Ġf",
        "ed"
      ],
      [
        "Ġf",
        "ig"
      ],
      [
        "Ġf",
        "eat"
      ],
      [
        "ic",
        "ial"
      ],
      [
        "Ġà¥",
        "¯"
      ],
      [
        "Ġà¤Ĺ",
        "à¤ı"
      ],
      [
        "om",
        "s"
      ],
      [
        "Ġà¤ī",
        "à¤¨"
      ],
      [
        "Ġl",
        "ast"
      ],
      [
        "Ġd",
        "ra"
      ],
      [
        "ec",
        "ially"
      ],
      [
        "Ġre",
        "main"
      ],
      [
        "Ġn",
        "e"
      ],
      [
        "Ġg",
        "rew"
      ],
      [
        "Ġà¥§à¥",
        "Ń"
      ],
      [
        "ĠA",
        "ct"
      ],
      [
        "ver",
        "se"
      ],
      [
        "ul",
        "pt"
      ],
      [
        "ist",
        "s"
      ],
      [
        "ist",
        "ic"
      ],
      [
        "ad",
        "es"
      ],
      [
        "un",
        "d"
      ],
      [
        "ĠP",
        "ro"
      ],
      [
        "Ġr",
        "ates"
      ],
      [
        "Ġmo",
        "vement"
      ],
      [
        "Ġà¥§à¥¯à¥",
        "«à¥¦"
      ],
      [
        "Ġà¥§à¥¯à¥",
        "ªà¥Ń"
      ],
      [
        "em",
        "oc"
      ],
      [
        "à¤ĺ",
        "à¤°"
      ],
      [
        "Ġst",
        "ates"
      ],
      [
        "ĠE",
        "urope"
      ],
      [
        "Ġdi",
        "ff"
      ],
      [
        "Ġdi",
        "versity"
      ],
      [
        "Ġan",
        "imal"
      ],
      [
        "Ġan",
        "cient"
      ],
      [
        "ab",
        "l"
      ],
      [
        "ĠG",
        "anges"
      ],
      [
        "ĠN",
        "eh"
      ],
      [
        "Ġar",
        "m"
      ],
      [
        "Ġar",
        "ch"
      ],
      [
        "à¤Ĩ",
        "à¤¤"
      ],
      [
        "ot",
        "her"
      ],
      [
        "Ġde",
        "v"
      ],
      [
        "à¤¤à¤¨",
        "à¤¤"
      ],
      [
        "ĠHin",
        "di"
      ],
      [
        "if",
        "ic"
      ],
      [
        "Ġpart",
        "y"
      ],
      [
        "Ġmar",
        "ri"
      ],
      [
        "Ġreg",
        "ions"
      ],
      [
        "ĠJ",
        "ain"
      ],
      [
        "Ġà¤¸à¤¹",
        "à¤¯"
      ],
      [
        "ces",
        "s"
      ],
      [
        "Ġà¤ħà¤²",
        "à¤Ĺ"
      ],
      [
        "Ġag",
        "o"
      ],
      [
        "Ġri",
        "gh"
      ],
      [
        "à¤ī",
        "à¤¤"
      ],
      [
        "Ġrelig",
        "ions"
      ],
      [
        "Ġà¤ĭ",
        "à¤·à¤Ńà¤¦"
      ],
      [
        "Ġ18",
        "5"
      ],
      [
        "Ġsc",
        "ulpt"
      ],
      [
        "Ġmajor",
        "ity"
      ],
      [
        "Ġà¤²à¤Ĺ",
        "à¤Ńà¤Ĺ"
      ],
      [
        "ĠUn",
        "ited"
      ],
      [
        "Ġear",
        "ly"
      ],
      [
        "ĠCon",
        "stitution"
      ],
      [
        "Ġsupp",
        "ort"
      ],
      [
        "Ġsec",
        "ond"
      ],
      [
        "Ġocc",
        "up"
      ],
      [
        "Ġliter",
        "acy"
      ],
      [
        "Ġparliament",
        "ary"
      ],
      [
        "Ġbir",
        "th"
      ],
      [
        "Ġà¤¦à¤²",
        "à¤¦à¤²"
      ],
      [
        "Ġdire",
        "ct"
      ],
      [
        "Ġmathem",
        "at"
      ],
      [
        "gl",
        "ish"
      ],
      [
        "Ġloc",
        "al"
      ],
      [
        "ĠEn",
        "glish"
      ],
      [
        "Ġesp",
        "ecially"
      ],
      [
        "Ġori",
        "gin"
      ],
      [
        "Ġpain",
        "ting"
      ],
      [
        "ĠNeh",
        "ru"
      ],
      [
        "\"",
        "."
      ],
      [
        "2",
        "6"
      ],
      [
        "4",
        "0"
      ],
      [
        "6",
        "1"
      ],
      [
        "8",
        "0"
      ],
      [
        "B",
        "N"
      ],
      [
        "D",
        "P"
      ],
      [
        "S",
[...]
