{
  "version": "1.0",
  "truncation": null,
  "padding": null,
  "added_tokens": [
    {
      "id": 0,
      "content": "[UNK]",
      "single_word": false,
      "lstrip": false,
      "rstrip": false,
      "normalized": false,
      "special": true
    }
  ],
  "normalizer": {
    "type": "NFKC"
  },
  "pre_tokenizer": {
    "type": "Metaspace",
    "replacement": "▁",
    "prepend_scheme": "always",
    "split": true
  },
  "post_processor": null,
  "decoder": {
    "type": "Metaspace",
    "replacement": "▁",
    "prepend_scheme": "always",
    "split": true
  },
  "model": {
    "type": "BPE",
    "dropout": null,
    "unk_token": "[UNK]",
    "continuing_subword_prefix": null,
    "end_of_word_suffix": null,
    "fuse_unk": false,
    "byte_fallback": false,
    "ignore_merges": false,
    "vocab": {
      "[UNK]": 0,
      "\n": 1,
      "!": 2,
      "\"": 3,
      "#": 4,
      "$": 5,
      "%": 6,
      "&": 7,
      "'": 8,
      "(": 9,
      ")": 10,
      "*": 11,
      "+": 12,
      ",": 13,
      "-": 14,
      ".": 15,
      "/": 16,
      "0": 17,
      "1": 18,
      "2": 19,
      "3": 20,
      "4": 21,
      "5": 22,
      "6": 23,
      "7": 24,
      "8": 25,
      "9": 26,
      ":": 27,
      ";": 28,
      "<": 29,
      "=": 30,
      ">": 31,
      "?": 32,
      "A": 33,
      "B": 34,
      "C": 35,
      "D": 36,
      "E": 37,
      "F": 38,
      "G": 39,
      "H": 40,
      "I": 41,
      "J": 42,
      "K": 43,
      "L": 44,
      "M": 45,
      "N": 46,
      "O": 47,
      "P": 48,
      "Q": 49,
      "R": 50,
      "S": 51,
      "T": 52,
      "U": 53,
      "V": 54,
      "W": 55,
      "X": 56,
      "Y": 57,
      "Z": 58,
      "[": 59,
      "\\": 60,
      "]": 61,
      "^": 62,
      "_": 63,
      "`": 64,
      "a": 65,
      "b": 66,
      "c": 67,
      "d": 68,
      "e": 69,
      "f": 70,
      "g": 71,
      "h": 72,
      "i": 73,
      "j": 74,
      "k": 75,
      "l": 76,
      "m": 77,
      "n": 78,
      "o": 79,
      "p": 80,
      "q": 81,
      "r": 82,
      "s": 83,
      "t": 84,
      "u": 85,
      "v": 86,
      "w": 87,
      "x": 88,
      "y": 89,
      "z": 90,
      "{": 91,
      "|": 92,
      "}": 93,
      "~": 94,
      "°": 95,
      "·": 96,
      "Ö": 97,
      "á": 98,
      "â": 99,
      "æ": 100,
      "ç": 101,
      "è": 102,
      "é": 103,
      "í": 104,
      "ñ": 105,
      "ö": 106,
      "ü": 107,
      "ā": 108,
      "ī": 109,
      "İ": 110,
      "Ś": 111,
      "ś": 112,
      "ū": 113,
      "ș": 114,
      "ə": 115,
      "ɦ": 116,
      "ɪ": 117,
      "ɾ": 118,
      "ʊ": 119,
      "ʼ": 120,
      "ˈ": 121,
      "ː": 122,
      "ί": 123,
      "α": 124,
      "δ": 125,
      "θ": 126,
      "ν": 127,
      "π": 128,
      "ς": 129,
      "ό": 130,
      "ँ": 131,
      "ं": 132,
      "ः": 133,
      "अ": 134,
      "आ": 135,
      "इ": 136,
      "ई": 137,
      "उ": 138,
      "ऊ": 139,
      "ऋ": 140,
      "ऍ": 141,
      "ए": 142,
      "ऐ": 143,
      "ऑ": 144,
      "ओ": 145,
      "औ": 146,
      "क": 147,
      "ख": 148,
      "ग": 149,
      "घ": 150,
      "ङ": 151,
      "च": 152,
      "छ": 153,
      "ज": 154,
      "झ": 155,
      "ञ": 156,
      "ट": 157,
      "ठ": 158,
      "ड": 159,
      "ढ": 160,
      "ण": 161,
      "त": 162,
      "थ": 163,
      "द": 164,
      "ध": 165,
      "न": 166,
      "प": 167,
      "फ": 168,
      "ब": 169,
      "भ": 170,
      "म": 171,
      "य": 172,
      "र": 173,
      "ऱ": 174,
      "ल": 175,
      "ळ": 176,
      "व": 177,
      "श": 178,
      "ष": 179,
      "स": 180,
      "ह": 181,
      "़": 182,
      "ा": 183,
      "ि": 184,
      "ी": 185,
      "ु": 186,
      "ू": 187,
      "ृ": 188,
      "ॅ": 189,
      "े": 190,
      "ै": 191,
      "ॉ": 192,
      "ॊ": 193,
      "ो": 194,
      "ौ": 195,
      "्": 196,
      "ॠ": 197,
      "।": 198,
      "०": 199,
      "१": 200,
      "२": 201,
      "३": 202,
      "४": 203,
      "५": 204,
      "६": 205,
      "७": 206,
      "८": 207,
      "९": 208,
      "॰": 209,
      "ॲ": 210,
      "ం": 211,
      "ః": 212,
      "అ": 213,
      "ఆ": 214,
      "ఇ": 215,
      "ఈ": 216,
      "ఉ": 217,
      "ఋ": 218,
      "ఎ": 219,
      "ఏ": 220,
      "ఐ": 221,
      "ఒ": 222,
      "ఓ": 223,
      "ఔ": 224,
      "క": 225,
      "ఖ": 226,
      "గ": 227,
      "ఘ": 228,
      "చ": 229,
      "ఛ": 230,
      "జ": 231,
      "ఞ": 232,
      "ట": 233,
      "ఠ": 234,
      "డ": 235,
      "ఢ": 236,
      "ణ": 237,
      "త": 238,
      "థ": 239,
      "ద": 240,
      "ధ": 241,
      "న": 242,
      "ప": 243,
      "ఫ": 244,
      "బ": 245,
      "భ": 246,
      "మ": 247,
      "య": 248,
      "ర": 249,
      "ల": 250,
      "ళ": 251,
      "వ": 252,
      "శ": 253,
      "ష": 254,
      "స": 255,
      "హ": 256,
      "ా": 257,
      "ి": 258,
      "ీ": 259,
      "ు": 260,
      "ూ": 261,
      "ృ": 262,
      "ె": 263,
      "ే": 264,
      "ై": 265,
      "ొ": 266,
      "ో": 267,
      "ౌ": 268,
      "్": 269,
      "ṅ": 270,
      "ṇ": 271,
      "Ṛ": 272,
      "ṣ": 273,
      "ṭ": 274,
      "Ἰ": 275,
      "‌": 276,
      "‍": 277,
      "‎": 278,
      "–": 279,
      "—": 280,
      "‘": 281,
      "’": 282,
      "“": 283,
      "”": 284,
      "†": 285,
      "•": 286,
      "′": 287,
      "‹": 288,
      "›": 289,
      "⁡": 290,
      "₹": 291,
      "↑": 292,
      "−": 293,
      "▁": 294,
      "▲": 295,
      "﻿": 296,
      "wi": 297,
      "ki": 298,
      "wiki": 299,
      "ia": 300,
      "dia": 301,
      "or": 302,
      "tt": 303,
      "](": 304,
      ":/": 305,
      "htt": 306,
      "http": 307,
      "pe": 308,
      "://": 309,
      "](http": 310,
      "s://": 311,
      "](https://": 312,
      "g/": 313,
      ".or": 314,
      ".org/": 315,
      "pedia": 316,
      ".wiki": 317,
      ".org/wiki": 318,
      ".org/wiki/": 319,
      ".wikipedia": 320,
      ".wikipedia.org/wiki/": 321,
      "▁[": 322,
      "te": 323,
      "▁\"": 324,
      "\")": 325,
      "en": 326,
      "in": 327,
      "an": 328,
      "on": 329,
      "In": 330,
      "th": 331,
      "ार": 332,
      "ti": 333,
      "India": 334,
      "](https://en": 335,
      "](https://en.wikipedia.org/wiki/": 336,
      "er": 337,
      "्र": 338,
      "ar": 339,
      "20": 340,
      "al": 341,
      "re": 342,
      "hi": 343,
      "्य": 344,
      "▁|": 345,
      "es": 346,
      "of": 347,
      "▁क": 348,
      "ारत": 349,
      "भारत": 350,
      "▁स": 351,
      "ci": 352,
      "tion": 353,
      "is": 354,
      "the": 355,
      "ed": 356,
      "▁-": 357,
      "](https://hi": 358,
      "](https://hi.wikipedia.org/wiki/": 359,
      "te_": 360,
      "mr": 361,
      "om": 362,
      "](https://mr": 363,
      "](https://mr.wikipedia.org/wiki/": 364,
      "▁प": 365,
      "and": 366,
      "#ci": 367,
      "#cite_": 368,
      "▁(": 369,
      "it": 370,
      "్ర": 371,
      "▁of": 372,
      "▁the": 373,
      "](https://te": 374,
      "](https://te.wikipedia.org/wiki/": 375,
      "ou": 376,
      "as": 377,
      "रा": 378,
      "▁म": 379,
      "र्": 380,
      "ान": 381,
      "19": 382,
      "](https://en.wikipedia.org/wiki/India": 383,
      "ార": 384,
      "ic": 385,
      "्या": 386,
      "▁India": 387,
      "le": 388,
      "no": 389,
      "201": 390,
      "**": 391,
      "या": 392,
      "oo": 393,
      "▁in": 394,
      "ra": 395,
      "OT": 396,
      "id": 397,
      "▁ह": 398,
      "▁व": 399,
      "▁आ": 400,
      "्त": 401,
      "\n\n": 402,
      "200": 403,
      "▁s": 404,
      "▁p": 405,
      "-0": 406,
      "ent": 407,
      "](https://en.wikipedia.org/wiki/India#cite_": 408,
      "ate": 409,
      "▁and": 410,
      "ాల": 411,
      "ri": 412,
      "िक": 413,
      "ac": 414,
      "▁अ": 415,
      "ge": 416,
      "ात": 417,
      "ation": 418,
      "ref": 419,
      "-1": 420,
      "ing": 421,
      "am": 422,
      "▁c": 423,
      "us": 424,
      "note": 425,
      "్య": 426,
      "ाल": 427,
      "▁C": 428,
      "\\_": 429,
      "▁A": 430,
      "at": 431,
      "[[": 432,
      "ीय": 433,
      ").": 434,
      "భార": 435,
      "ref-": 436,
      "note-": 437,
      "భారత": 438,
      "▁S": 439,
      "దే": 440,
      "ेश": 441,
      "et": 442,
      "ad": 443,
      "దేశ": 444,
      "స్": 445,
      "ook": 446,
      "▁f": 447,
      "▁प्र": 448,
      "ें": 449,
      "▁ప": 450,
      "\"),": 451,
      "li": 452,
      "lo": 453,
      "ve": 454,
      "▁द": 455,
      "▁b": 456,
      "సా": 457,
      "ang": 458,
      "▁t": 459,
      "ना": 460,
      "um": 461,
      "ंग": 462,
      "▁के": 463,
      "78": 464,
      "ర్": 465,
      "▁m": 466,
      "ch": 467,
      "ur": 468,
      "▁ज": 469,
      "त्र": 470,
      "्ष": 471,
      "▁भारत": 472,
      "న్": 473,
      "com": 474,
      "िया": 475,
      "▁1": 476,
      "▁P": 477,
      "lin": 478,
      "ist": 479,
      "ver": 480,
      "▁[↑": 481,
      "ww": 482,
      "ला": 483,
      "we": 484,
      "of_": 485,
      "ul": 486,
      "_of_": 487,
      "स्": 488,
      "राज": 489,
      "IS": 490,
      "](https://hi.wikipedia.org/wiki/भारत": 491,
      "he": 492,
      "st": 493,
      "भा": 494,
      "il": 495,
      "ro": 496,
      "ial": 497,
      "▁त": 498,
      "FO": 499,
      "NOT": 500,
      "OTNOT": 501,
      "FOOTNOT": 502,
      "FOOTNOTE": 503,
      "un": 504,
      "ory": 505,
      "ons": 506,
      "ce": 507,
      "ष्": 508,
      "978": 509,
      "BN": 510,
      "ास": 511,
      "ां": 512,
      "▁न": 513,
      "ISBN": 514,
      "00": 515,
      "red": 516,
      "▁**": 517,
      "ची": 518,
      "ter": 519,
      "▁ब": 520,
      "లు": 521,
      "\n|": 522,
      "▁d": 523,
      ".\n": 524,
      "▁|\n|": 525,
      "▁w": 526,
      "link": 527,
      "our": 528,
      "రా": 529,
      "fi": 530,
      "]](https://en.wikipedia.org/wiki/India#cite_": 531,
      "ol": 532,
      "▁T": 533,
      "21": 534,
      "=1": 535,
      "edit": 536,
      "](https://en.wikipedia.org/wiki/India#cite_ref-": 537,
      "]](https://en.wikipedia.org/wiki/India#cite_note-": 538,
      "▁R": 539,
      "enti": 540,
      "ले": 541,
      "action": 542,
      "action=": 543,
      "jp": 544,
      "▁M": 545,
      "భారతదేశ": 546,
      "action=edit": 547,
      "tic": 548,
      "-0)": 549,
      "&red": 550,
      "?action=edit": 551,
      "link=1": 552,
      "&redlink=1": 553,
      "?action=edit&redlink=1": 554,
      "identi": 555,
      "▁a": 556,
      ".శ": 557,
      ".శ.": 558,
      "देश": 559,
      "లో": 560,
      "fier": 561,
      "identifier": 562,
      "्व": 563,
      "ित": 564,
      "సా.శ.": 565,
      ".jp": 566,
      "▁201": 567,
      "age": 568,
      "दी": 569,
      "web": 570,
      "हे": 571,
      "▁में": 572,
      "identifier)": 573,
      "res": 574,
      "em": 575,
      "chi": 576,
      "क्ष": 577,
      "▁క": 578,
      "),": 579,
      "▁to": 580,
      "ni": 581,
      "25": 582,
      "book": 583,
      "ment": 584,
      "न्": 585,
      "ig": 586,
      "▁B": 587,
      "es/": 588,
      "త్ర": 589,
      "ील": 590,
      "cial": 591,
      "ष्ट": 592,
      "ాలు": 593,
      "ों": 594,
      ".[[": 595,
      "_(": 596,
      "▁का": 597,
      "वा": 598,
      "▁आहे": 599,
      "రి": 600,
      "10": 601,
      "23": 602,
      "క్": 603,
      "angu": 604,
      "वि": 605,
      "ంద": 606,
      "▁l": 607,
      "ity": 608,
      "26": 609,
      "ind": 610,
      "ని": 611,
      "ली": 612,
      "▁D": 613,
      "▁వ": 614,
      ".g": 615,
      "ir": 616,
      "▁*": 617,
      "books": 618,
      "ay": 619,
      "sia": 620,
      "IT": 621,
      "▁\"S": 622,
      "ag": 623,
      "चे": 624,
      "▁India\")": 625,
      "▁•": 626,
      "ER": 627,
      "me": 628,
      ".com": 629,
      "_क": 630,
      "24": 631,
      "▁e": 632,
      "स्त": 633,
      "सा": 634,
      "](https://mr.wikipedia.org/wiki/भारत": 635,
      "EF": 636,
      "षा": 637,
      "ITER": 638,
      "ల్": 639,
      "199": 640,
      "·**": 641,
      "▁**·**": 642,
      "ITEREF": 643,
      "ly": 644,
      "▁ग": 645,
      "▁श": 646,
      "భారతదేశం": 647,
      "pecial": 648,
      ".com/": 649,
      "up": 650,
      "▁[↑](https://en.wikipedia.org/wiki/India#cite_ref-": 651,
      "india": 652,
      "राज्य": 653,
      "con": 654,
      "सं": 655,
      "in_": 656,
      "▁है": 657,
      "ourc": 658,
      "ంగ": 659,
      "ष्ट्र": 660,
      "▁E": 661,
      "tu": 662,
      "ld": 663,
      "▁స": 664,
      "al_": 665,
      "ion": 666,
      "च्या": 667,
      "pecial:": 668,
      "ती": 669,
      "](https://hi.wikipedia.org/wiki/भारत#cite_": 670,
      "ber": 671,
      "प्र": 672,
      "री": 673,
      "▁మ": 674,
      "28": 675,
      "ha": 676,
      "चि": 677,
      "oun": 678,
      "#C": 679,
      "▁20": 680,
      "भाषा": 681,
      "चा": 682,
      "ources/": 683,
      "#CITEREF": 684,
      "Uni": 685,
      "్రా": 686,
      "▁G": 687,
      "Book": 688,
      "मा": 689,
      "g)": 690,
      "▁उ": 691,
      "ved": 692,
      "द्र": 693,
      "www": 694,
      "▁H": 695,
      "▁इ": 696,
      "Sources/": 697,
      "pecial:Book": 698,
      "pecial:BookSources/": 699,
      "ने": 700,
      "\n-": 701,
      "ain": 702,
      "outh": 703,
      "पु": 704,
      "ీయ": 705,
      "▁200": 706,
      "11": 707,
      "gory": 708,
      "ategory": 709,
      "▁N": 710,
      "▁\"भारत": 711,
      "और": 712,
      "pecial:BookSources/978": 713,
      "-3": 714,
      "ategory:": 715,
      "www.": 716,
      "ता": 717,
      "मु": 718,
      "ండ": 719,
      "▁सं": 720,
      "rom": 721,
      "anguage": 722,
      "▁की": 723,
      "-4": 724,
      "त्त": 725,
      "र्व": 726,
      "ry": 727,
      "्रे": 728,
      "_in_": 729,
      "cal": 730,
      "for": 731,
      "▁से": 732,
      "\").": 733,
      "ct": 734,
      "el": 735,
      "op": 736,
      "sh": 737,
      "జ్య": 738,
      "n_": 739,
      "▁చ": 740,
      "ंड": 741,
      "--": 742,
      "0%": 743,
      "##": 744,
      "archi": 745,
      "▁---": 746,
      "हि": 747,
      "vers": 748,
      "ress": 749,
      "ति": 750,
      "ary": 751,
      "50": 752,
      "ew": 753,
      "ून": 754,
      "▁on": 755,
      "_S": 756,
      "తా": 757,
      "▁और": 758,
      "णी": 759,
      "ము": 760,
      "ి.": 761,
      "నా": 762,
      "ab": 763,
      "था": 764,
      "▁g": 765,
      "▁re": 766,
      "్ట": 767,
      "ak": 768,
      "ub": 769,
      "▁वि": 770,
      "తి": 771,
      "The": 772,
      "-8": 773,
      "▁h": 774,
      "rit": 775,
      "▁[म": 776,
      ".jpg)": 777,
      "ast": 778,
      "mp": 779,
      "▁सा": 780,
      "▁th": 781,
      "archive": 782,
      "](https://en.wikipedia.org/wiki/India#CITEREF": 783,
      "_of_India": 784,
      "▁या": 785,
      "od": 786,
      "22": 787,
      "30": 788,
      "సి": 789,
      "calf": 790,
      "िल": 791,
      "राष्ट्र": 792,
      "త్": 793,
      "est": 794,
      "18": 795,
      "▁.": 796,
      "ted": 797,
      "etcalf": 798,
      "▁F": 799,
      ".in": 800,
      "▁19": 801,
      "▁or": 802,
      "▁[\"": 803,
      "](https://mr.wikipedia.org/wiki/भारत#cite_": 804,
      "द्": 805,
      "▁n": 806,
      "▁र": 807,
      "▁p.": 808,
      "_A": 809,
      "-0-": 810,
      "ap": 811,
      "का": 812,
      "▁[S": 813,
      "▁J": 814,
      "29": 815,
      "ध्य": 816,
      "List": 817,
      "▁(సా.శ.": 818,
      "umb": 819,
      "▁ए": 820,
      "]](https://en.wikipedia.org/wiki/India#cite_note-FOOTNOTE": 821,
      "os": 822,
      "orld": 823,
      "archive.org/": 824,
      "मी": 825,
      "యా": 826,
      "▁from": 827,
      "ులు": 828,
      "▁రా": 829,
      "ish": 830,
      "▁([": 831,
      "40": 832,
      "▁(identifier)": 833,
      "_(identifier)": 834,
      "▁(identifier)\")": 835,
      "पा": 836,
      "with": 837,
      "gh": 838,
      "▁य": 839,
      "ount": 840,
      "ov": 841,
      "–సా.శ.": 842,
      "▁by": 843,
      "over": 844,
      "▁అ": 845,
      "har": 846,
      "▁./": 847,
      "mons": 848,
      "15": 849,
      "कार": 850,
      "web.": 851,
      "ep": 852,
      "](https://web.": 853,
      "र्म": 854,
      "ते": 855,
      "ust": 856,
      "/http": 857,
      "web/": 858,
      "archive.org/web/": 859,
      "](https://web.archive.org/web/": 860,
      "▁for": 861,
      "▁\"म": 862,
      "▁ప్ర": 863,
      "versity": 864,
      "▁पर": 865,
      "ud": 866,
      "ृत": 867,
      "ిక": 868,
      "▁In": 869,
      "▁आहे.": 870,
      "media": 871,
      "13": 872,
      "ts": 873,
      "णि": 874,
      "Metcalf": 875,
      "E0%": 876,
      "म्": 877,
      "im": 878,
      "తం": 879,
      "ational": 880,
      "px": 881,
      "▁[A": 882,
      "27": 883,
      "▁ar": 884,
      "\"))": 885,
      "▁\"C": 886,
      "ी_": 887,
      "16": 888,
      "17": 889,
      "gle": 890,
      "conom": 891,
      "▁is": 892,
      "्रा": 893,
      "commons": 894,
      "▁को": 895,
      "AA": 896,
      "ిన": 897,
      "జ్యం": 898,
      "▁Indian": 899,
      "▁O": 900,
      "](https://en.wikipedia.org/wiki/S": 901,
      "4%": 902,
      "ec": 903,
      ".wikimedia": 904,
      "Har": 905,
      "_and": 906,
      "▁ल": 907,
      "జా": 908,
      "हा": 909,
      "*.": 910,
      "ors": 911,
      "E0%A": 912,
      "ens": 913,
      "err": 914,
      ".gov": 915,
      "load": 916,
      "CS": 917,
      "▁१": 918,
      "upload": 919,
      "ంచ": 920,
      "కు": 921,
      "▁L": 922,
      "id=": 923,
      "पू": 924,
      "14": 925,
      "_C": 926,
      "▁W": 927,
      "oogle": 928,
      "ीय_": 929,
      "![": 930,
      "से": 931,
      "▁प्रदेश": 932,
      "pedia/": 933,
      ".org/wikipedia/": 934,
      ".wikimedia.org/wikipedia/": 935,
      "upload.wikimedia.org/wikipedia/": 936,
      "](https://te.wikipedia.org/wiki/భారతదేశం": 937,
      "](https://upload.wikimedia.org/wikipedia/": 938,
      "thumb": 939,
      "'s": 940,
      "▁हो": 941,
      "श्": 942,
      "▁[ISBN": 943,
      "/thumb": 944,
      "▁K": 945,
      "/thumb/": 946,
      "_P": 947,
      "og": 948,
      "](https://upload.wikimedia.org/wikipedia/commons": 949,
      "ను": 950,
      "పూ": 951,
      "▁Asia": 952,
      "द्ध": 953,
      "uc": 954,
      "late": 955,
      "ंद": 956,
      "?id=": 957,
      "\n\n##": 958,
      "-9": 959,
      "▁[C": 960,
      "px-": 961,
      "](https://upload.wikimedia.org/wikipedia/commons/thumb/": 962,
      "▁भ": 963,
      ".google": 964,
      "books.google": 965,
      ".com/books": 966,
      "books.google.com/books": 967,
      "nd": 968,
      "ोक": 969,
      "हार": 970,
      "భా": 971,
      "_in_India": 972,
      "books.google.com/books?id=": 973,
      "ma": 974,
      "▁\"ISBN": 975,
      "ISBN_(identifier)": 976,
      "शिया": 977,
      "ప్ర": 978,
      "▁[978": 979,
      "inal": 980,
      "ద్": 981,
      "ింద": 982,
      "per": 983,
      "](https://en.wikipedia.org/wiki/C": 984,
      "चित्र": 985,
      "o-": 986,
      "p.": 987,
      "▁राज्य": 988,
      "▁[*": 989,
      "मान": 990,
      "▁भाषा": 991,
      "ther": 992,
      ".p": 993,
      "स्तान": 994,
      "े_": 995,
      "▁ఉ": 996,
      "ం:": 997,
      "](https://books.google.com/books?id=": 998,
      "▁The": 999,
      "ort": 1000,
      ".in/": 1001,
      "ut": 1002,
      "िय": 1003,
      "▁\"M": 1004,
      "s/": 1005,
      "University": 1006,
      "नी": 1007,
      "](S": 1008,
      "▁pp.": 1009,
      "▁ఆ": 1010,
      "▁ध": 1011,
      "]](https://hi.wikipedia.org/wiki/भारत#cite_": 1012,
      "di": 1013,
      "कि": 1014,
      "ff": 1015,
      "ेत्र": 1016,
      "%E0%A": 1017,
      "log": 1018,
      ")[[": 1019,
      "वर्": 1020,
      "av": 1021,
      "art": 1022,
      "▁देश": 1023,
      "%20": 1024,
      "de": 1025,
      "ंत": 1026,
      "▁ర": 1027,
      "br": 1028,
      "▁\"स": 1029,
      "▁[M": 1030,
      "ng": 1031,
      "47": 1032,
      "▁कर": 1033,
      "▁[↑](https://en.wikipedia.org/wiki/India#cite_ref-FOOTNOTE": 1034,
      "aj": 1035,
      "▁be": 1036,
      "-2": 1037,
      "ड़": 1038,
      "మా": 1039,
      "▁సా": 1040,
      "భారతీయ": 1041,
      "िण": 1042,
      "▁\"क": 1043,
      "a_": 1044,
      "धान": 1045,
      "▁स्": 1046,
      "వా": 1047,
      "umm": 1048,
      "ow": 1049,
      "\")\n-": 1050,
      "ंध": 1051,
      "ys": 1052,
      "oc": 1053,
      "రు": 1054,
      "ong": 1055,
      "](https://en.wikipedia.org/wiki/M": 1056,
      "ही": 1057,
      "ुर": 1058,
      "बा": 1059,
      "ance": 1060,
      "ages": 1061,
      "ans": 1062,
      "▁है।": 1063,
      "rie": 1064,
      "▁भारतीय": 1065,
      "▁orig": 1066,
      "వి": 1067,
      "ష్ట": 1068,
      "ార్": 1069,
      ".jpg/": 1070,
      "పూ.": 1071,
      "s,": 1072,
      "गर": 1073,
      "und": 1074,
      "_D": 1075,
      "क्षिण": 1076,
      "](Special:BookSources/978": 1077,
      "35": 1078,
      "la": 1079,
      "క్ష": 1080,
      "2.": 1081,
      "_म": 1082,
      "ot": 1083,
      "lig": 1084,
      "ear": 1085,
      "हर": 1086,
      "ुस": 1087,
      "](http://": 1088,
      "ार्": 1089,
      "](https://en.wikipedia.org/wiki/ISBN_(identifier)": 1090,
      "▁[ISBN](https://en.wikipedia.org/wiki/ISBN_(identifier)": 1091,
      "जी": 1092,
      "वे": 1093,
      "PA": 1094,
      "cy": 1095,
      "्यां": 1096,
      "స్థ": 1097,
      "రిత్ర": 1098,
      "▁\"Special:BookSources/978": 1099,
      "▁&": 1100,
      "▁as": 1101,
      "1.": 1102,
      "▁[B": 1103,
      "all": 1104,
      "▁\"B": 1105,
      "ence": 1106,
      "-7": 1107,
      "श्रे": 1108,
      "▁I": 1109,
      "▁[क": 1110,
      "ाली": 1111,
      "_के_": 1112,
      "▁original": 1113,
      "Category:": 1114,
      "tate": 1115,
      "श्रेणी": 1116,
      "-5": 1117,
      "_M": 1118,
      "&p": 1119,
      "న్న": 1120,
      "\n\n[": 1121,
      "ture": 1122,
      "36": 1123,
      "श्रेणी:": 1124,
      "ंत्र": 1125,
      "tern": 1126,
      "emp": 1127,
      "%E0%A4%": 1128,
      "▁राज": 1129,
      "errors": 1130,
      "▁[स": 1131,
      "िल्": 1132,
      "38": 1133,
      "_India": 1134,
      "ht": 1135,
      "ोल": 1136,
      "ile": 1137,
      "▁\"P": 1138,
      "ana": 1139,
      "जा": 1140,
      "%2": 1141,
      "▁\"A": 1142,
      "its": 1143,
      "म्रा": 1144,
      "िश": 1145,
      "](https://hi.wikipedia.org/wiki/भारत#cite_ref-": 1146,
      "Harv": 1147,
      "]](https://hi.wikipedia.org/wiki/भारत#cite_note-": 1148,
      "land": 1149,
      "दा": 1150,
      "स्क": 1151,
      "ensus": 1152,
      "ore": 1153,
      "▁[अ": 1154,
      "▁Category:": 1155,
      "tein": 1156,
      "▁Ret": 1157,
      "rchi": 1158,
      "णा": 1159,
      "g=": 1160,
      "les": 1161,
      "rieved": 1162,
      "&pg=": 1163,
      "▁Retrieved": 1164,
      "_T": 1165,
      "▁\"अ": 1166,
      "ातील": 1167,
      "opul": 1168,
      "](https://te.wikipedia.org/wiki/భారతదేశం#cite_": 1169,
      "titu": 1170,
      "ss": 1171,
      "▁with": 1172,
      "ex": 1173,
      "ere": 1174,
      "ाने": 1175,
      "గా": 1176,
      "▁एक": 1177,
      "overn": 1178,
      "▁[भारत": 1179,
      "▁Press": 1180,
      "▁te": 1181,
      "ai": 1182,
      "ంట": 1183,
      "కి": 1184,
      "se": 1185,
      "](https://en.wikipedia.org/wiki/B": 1186,
      ".\n-": 1187,
      "▁ex": 1188,
      "▁ख": 1189,
      "▁ना": 1190,
      "2006": 1191,
      "t:": 1192,
      "మ్రా": 1193,
      "ష్ట్ర": 1194,
      "ुसार": 1195,
      "त्": 1196,
      "▁अस": 1197,
      "language": 1198,
      "थान": 1199,
      "omm": 1200,
      "ll": 1201,
      "7.": 1202,
      "fn": 1203,
      "ంత": 1204,
      "▁प्रा": 1205,
      "](https://en.wikipedia.org/wiki/P": 1206,
      "ख्य": 1207,
      "िस": 1208,
      "&pg=PA": 1209,
      "ord": 1210,
      "Ind": 1211,
      "▁आहेत": 1212,
      "39": 1213,
      "ज़": 1214,
      "2018": 1215,
      "▁language": 1216,
      "▁पु": 1217,
      "48": 1218,
      "Indian": 1219,
      "▁*[": 1220,
      "के": 1221,
      "పు": 1222,
      "2011": 1223,
      "▁\"T": 1224,
      "70": 1225,
      "▁[P": 1226,
      "त्तर": 1227,
      "oi": 1228,
      "▁న": 1229,
      "ries": 1230,
      "]](https://mr.wikipedia.org/wiki/भारत#cite_": 1231,
      "ik": 1232,
      "वर": 1233,
      "शास": 1234,
      "▁घ": 1235,
      "opulation": 1236,
      "ire": 1237,
      "मि": 1238,
      "ism": 1239,
      "-10": 1240,
      "rchived": 1241,
      "_प्र": 1242,
      "మి": 1243,
      "ాన": 1244,
      "▁University": 1245,
      "ubl": 1246,
      "पी": 1247,
      "istory": 1248,
      "overnment": 1249,
      "hin": 1250,
      "nic": 1251,
      "पर": 1252,
      "▁de": 1253,
      "राष्ट्रीय": 1254,
      "ric": 1255,
      "పా": 1256,
      "▁ఇ": 1257,
      "▁త": 1258,
      "ass": 1259,
      "భాష": 1260,
      "▁no": 1261,
      "ue": 1262,
      "](https://web.archive.org/web/201": 1263,
      "![](https://upload.wikimedia.org/wikipedia/commons/thumb/": 1264,
      "_G": 1265,
      "ations": 1266,
      "4.": 1267,
      "▁was": 1268,
      "ies": 1269,
      "मन": 1270,
      "ard": 1271,
      "चीन": 1272,
      "म्राज": 1273,
      "/https://": 1274,
      "की": 1275,
      "वी": 1276,
      "పాల": 1277,
      "లీ": 1278,
      "▁झ": 1279,
      "](https://www.": 1280,
      "ank": 1281,
      "arge": 1282,
      "45": 1283,
      "als": 1284,
      "_and_": 1285,
      "*](https://books.google.com/books?id=": 1286,
      "हास": 1287,
      "indu": 1288,
      "CS1": 1289,
      "-6": 1290,
      "▁–": 1291,
      "▁దేశ": 1292,
      "▁[D": 1293,
      "▁\"E": 1294,
      "స్తా": 1295,
      ")\")": 1296,
      "60": 1297,
      "टी": 1298,
      "▁[ब": 1299,
      "ेंद्र": 1300,
      "▁are": 1301,
      "3.": 1302,
      "▁an": 1303,
      "▁मु": 1304,
      "onstitu": 1305,
      "6.": 1306,
      "धिक": 1307,
      "వర్": 1308,
      "ాయ": 1309,
      "▁हे": 1310,
      "गु": 1311,
      "](https://mr.wikipedia.org/wiki/म": 1312,
      "](https://mr.wikipedia.org/wiki/भारत#cite_ref-": 1313,
      "]](https://mr.wikipedia.org/wiki/भारत#cite_note-": 1314,
      "hm": 1315,
      "anguages": 1316,
      "▁च": 1317,
      "ाला": 1318,
      "250": 1319,
      "](https://en.wikipedia.org/wiki/A": 1320,
      "लेख": 1321,
      "ेला": 1322,
      "4)": 1323,
      "िर": 1324,
      "किस्तान": 1325,
      "మ్రాజ్యం": 1326,
      "_b": 1327,
      "mber": 1328,
      "▁\"D": 1329,
      "विश": 1330,
      "htm": 1331,
      "ani": 1332,
      "](https://en.wikipedia.org/wiki/E": 1333,
      "ers": 1334,
      "ountries": 1335,
      "1)": 1336,
      "▁जात": 1337,
      "_s": 1338,
      "ke": 1339,
      "ूची": 1340,
      "▁\"List": 1341,
      "eral": 1342,
      "దేశ్": 1343,
      "▁\"G": 1344,
      "ical": 1345,
      "ोर": 1346,
      "esh": 1347,
      "▁क्ष": 1348,
      "iss": 1349,
      "sher": 1350,
      "_स": 1351,
      "ame": 1352,
      "▁ने": 1353,
      "ंब": 1354,
      "ం](https://te.wikipedia.org/wiki/": 1355,
      "▁r": 1356,
      "](https://en.wikipedia.org/wiki/T": 1357,
      "%2C": 1358,
      "क्त": 1359,
      "ाच्या": 1360,
      "▁V": 1361,
      "▁हि": 1362,
      "tics": 1363,
      "श्रेणी:Harv": 1364,
      "37": 1365,
      "5.": 1366,
      "-1)": 1367,
      "vi": 1368,
      "िव": 1369,
      "ంబ": 1370,
      "టి": 1371,
      "र्थ": 1372,
      "▁\"भारतीय": 1373,
      "ध्ये": 1374,
      "other": 1375,
      "तात": 1376,
      "▁\"ब": 1377,
      "a\")": 1378,
      "2010": 1379,
      "▁con": 1380,
      "▁[2": 1381,
      "▁वर्": 1382,
      "हारा": 1383,
      "Stein": 1384,
      "ంలో": 1385,
      "▁हैं": 1386,
      "/http://": 1387,
      "conomic": 1388,
      "స్తాన్": 1389,
      "_R": 1390,
      "au": 1391,
      "ोग": 1392,
      "46": 1393,
      "49": 1394,
      "▁वा": 1395,
      "List_of_": 1396,
      "df": 1397,
      "दक्षिण": 1398,
      "धार": 1399,
      "ेष": 1400,
      "గు": 1401,
      "డు": 1402,
      "నే": 1403,
      "్చ": 1404,
      "▁पा": 1405,
      "नुसार": 1406,
      "▁ट": 1407,
      "▁[1": 1408,
      "AJ": 1409,
      "▁199": 1410,
      "▁[G": 1411,
      "ine": 1412,
      "](https://en.wikipedia.org/wiki/D": 1413,
      "ford": 1414,
      "िल्ली": 1415,
      "omp": 1416,
      "भाग": 1417,
      "2)": 1418,
      "3)": 1419,
      "BAJ": 1420,
      "QBAJ": 1421,
      "_p": 1422,
      "మూ": 1423,
      "▁\"N": 1424,
      "్రీ": 1425,
      "▁आणि": 1426,
      "udd": 1427,
      "జాత": 1428,
      "▁भाषा\")": 1429,
      "▁क्षेत्र": 1430,
      "_B": 1431,
      "aki": 1432,
      "ian": 1433,
      "ummit": 1434,
      "म्राज्य": 1435,
      "ions": 1436,
      "లా": 1437,
      "eng": 1438,
      "▁whi": 1439,
      "ంగా": 1440,
      "यु": 1441,
      "tive": 1442,
      "](https://mr.wikipedia.org/wiki/स": 1443,
      "▁अभ": 1444,
      "xford": 1445,
      "artic": 1446,
      "ata": 1447,
      "ंग्रे": 1448,
      "▁[↑](https://hi.wikipedia.org/wiki/भारत#cite_ref-": 1449,
      "ction": 1450,
      "india.gov": 1451,
      "शी": 1452,
      "డ్": 1453,
      "ిల్": 1454,
      "▁జ": 1455,
      "tim": 1456,
      ",_": 1457,
      "ंगाल": 1458,
      "्वी": 1459,
      "RI": 1460,
      "ven": 1461,
      "-0-19": 1462,
      "न\")": 1463,
      "▁२": 1464,
      "oli": 1465,
      "ral": 1466,
      "లి": 1467,
      "ess": 1468,
      "స్త్ర": 1469,
      "_Asia": 1470,
      "AAQBAJ": 1471,
      "क्": 1472,
      "द्य": 1473,
      "मू": 1474,
      "ern": 1475,
      "ali": 1476,
      "conomy": 1477,
      "stan": 1478,
      "चित्र:": 1479,
      "end": 1480,
      "8.": 1481,
      "sv": 1482,
      "ం\")": 1483,
      "కా": 1484,
      "ణా": 1485,
      "దక్ష": 1486,
      "ధిక": 1487,
      "▁[N": 1488,
      "▁(P": 1489,
      "▁ప్రా": 1490,
      "▁వి": 1491,
      "సియా": 1492,
      "జాతీయ": 1493,
      "_N": 1494,
      "्यात": 1495,
      "ingh": 1496,
      "पूर्व": 1497,
      "▁धर्म": 1498,
      "67": 1499,
      "fe": 1500,
      "ib": 1501,
      "rou": 1502,
      "त्य": 1503,
      "रकार": 1504,
      "lop": 1505,
      "▁2011": 1506,
      "MetcalfMetcalf": 1507,
      ".pdf": 1508,
      "मे": 1509,
      "riti": 1510,
      "ty": 1511,
      "ज्": 1512,
      "▁\"R": 1513,
      "▁मो": 1514,
      "ाना": 1515,
      "▁సం": 1516,
      "▁చరిత్ర": 1517,
      "▁आहेत.": 1518,
      "-p": 1519,
      "ल्": 1520,
      "िका": 1521,
      "ah": 1522,
      "iv": 1523,
      "shi": 1524,
      "ठा": 1525,
      "](https://en.wikipedia.org/wiki/R": 1526,
      "ach": 1527,
      "पाकिस्तान": 1528,
      "ublic": 1529,
      "tin": 1530,
      "कर": 1531,
      "पट": 1532,
      "ल्या": 1533,
      ".pdf)": 1534,
      "_m": 1535,
      "డి": 1536,
      "](https://en.wikipedia.org/wiki/G": 1537,
      "ark": 1538,
      "indi": 1539,
      "हिन्": 1540,
      "ింది.": 1541,
      "वर्ग": 1542,
      "▁which": 1543,
      "6)": 1544,
      "▁भारतात": 1545,
      "▁ति": 1546,
      "\n\n###": 1547,
      "च्": 1548,
      "▁[E": 1549,
      "000": 1550,
      "tates": 1551,
      "हाराष्ट्र": 1552,
      "्वीप": 1553,
      "▁2007": 1554,
      "90": 1555,
      "पं": 1556,
      "ంధ": 1557,
      "](https://en.wikipedia.org/wiki/N": 1558,
      "స్త": 1559,
      "▁రాజ్యం": 1560,
      "▁సామ్రాజ్యం": 1561,
      "వర్గ": 1562,
      "దక్షి": 1563,
      "ug": 1564,
      "_प्रदेश": 1565,
      "-t": 1566,
      "वं": 1567,
      "United": 1568,
      "श्चि": 1569,
      "%E0%A4%B": 1570,
      "वर्ग:": 1571,
      "हु": 1572,
      "▁[R": 1573,
      "\n\nभारत": 1574,
      "तिहास": 1575,
      "_न": 1576,
      "ath": 1577,
      "ope": 1578,
      "s.": 1579,
      "దీ": 1580,
      "▁\"आ": 1581,
      "_की_": 1582,
      "ండి": 1583,
      "వర్గం:": 1584,
      "5)": 1585,
      "DF": 1586,
      "थि": 1587,
      "icial": 1588,
      "gen": 1589,
      "चल": 1590,
      "लोक": 1591,
      "ूल": 1592,
      "](https://en.wikipedia.org/wiki/List_of_": 1593,
      "्रि": 1594,
      "idge": 1595,
      "▁South": 1596,
      "▁De": 1597,
      "9.": 1598,
      "new": 1599,
      "माल": 1600,
      "ange": 1601,
      "hist": 1602,
      "▁has": 1603,
      "onstitution": 1604,
      "DP": 1605,
      "cl": 1606,
      "iki": 1607,
      "ob": 1608,
      "తర": 1609,
      "వం": 1610,
      "▁బ": 1611,
      "out": 1612,
      "▁India's": 1613,
      "territ": 1614,
      "rap": 1615,
      "▁[Archived": 1616,
      "_E": 1617,
      "bot": 1618,
      "▁li": 1619,
      "▁[T": 1620,
      "ties": 1621,
      "rad": 1622,
      "जाब": 1623,
      "html": 1624,
      "43": 1625,
      "ove": 1626,
      "ట్": 1627,
      "ది": 1628,
      "ిత": 1629,
      "▁\"ज": 1630,
      "▁[↑](https://mr.wikipedia.org/wiki/भारत#cite_ref-": 1631,
      "▁that": 1632,
      "RICS": 1633,
      "पंजाब": 1634,
      "जरा": 1635,
      "▁7": 1636,
      "10.": 1637,
      "▁१९": 1638,
      "ile:": 1639,
      "250px-": 1640,
      "गण": 1641,
      "pend": 1642,
      "albot": 1643,
      "ous": 1644,
      "ountry": 1645,
      "80": 1646,
      "man": 1647,
      "ta": 1648,
      "_చ": 1649,
      "sland": 1650,
      "▁un": 1651,
      "▁\"మ": 1652,
      "ration": 1653,
      "▁pro": 1654,
      ").\n": 1655,
      "ंगा": 1656,
      "स्थान": 1657,
      "ृत्य": 1658,
      "▁(PDF": 1659,
      "57": 1660,
      "ळे": 1661,
      "](https://mr.wikipedia.org/wiki/क": 1662,
      "aste": 1663,
      "स्ट": 1664,
      "..": 1665,
      "to": 1666,
      "िग": 1667,
      "ैद": 1668,
      "▁3": 1669,
      "his": 1670,
      "ूर": 1671,
      "▁\"इ": 1672,
      "ंतर": 1673,
      "/c": 1674,
      "120": 1675,
      "Asher": 1676,
      "ost": 1677,
      "▁ఎ": 1678,
      "▁[మ": 1679,
      "inist": 1680,
      "2004": 1681,
      "aint:": 1682,
      "▁(సా.శ.పూ.": 1683,
      "logy": 1684,
      "▁स्व": 1685,
      "िन": 1686,
      "▁5": 1687,
      "](https://hi.wikipedia.org/wiki/अ": 1688,
      "ult": 1689,
      "33": 1690,
      "_भाषा": 1691,
      "2009": 1692,
      "िक्ष": 1693,
      "▁बा": 1694,
      "\n\n[![](https://upload.wikimedia.org/wikipedia/commons/thumb/": 1695,
      "ritish": 1696,
      "ज्ञ": 1697,
      "File:": 1698,
      "ठी": 1699,
      "ధ్య": 1700,
      "▁గ": 1701,
      "▁శ": 1702,
      "ury": 1703,
      "स्था": 1704,
      "ign": 1705,
      "ంద్ర": 1706,
      "▁पुरा": 1707,
      "विशेष": 1708,
      "विशेष:": 1709,
      "प्त": 1710,
      "\")*": 1711,
      "12": 1712,
      "eg": 1713,
      "hy": 1714,
      "हित": 1715,
      "▁\"H": 1716,
      "ome": 1717,
      "ational_": 1718,
      "velop": 1719,
      "▁नि": 1720,
      "▁संस्क": 1721,
      "ansk": 1722,
      "शासित": 1723,
      "AAQBAJ&pg=PA": 1724,
      "_भारत": 1725,
      "मध्ये": 1726,
      "▁pe": 1727,
      "2007": 1728,
      "ack": 1729,
      "माण": 1730,
      "ైన": 1731,
      "](https://te.wikipedia.org/wiki/మ": 1732,
      "▁పే": 1733,
      "ంది.": 1734,
      "▁U": 1735,
      "▁[K": 1736,
      "mpire": 1737,
      "anskrit": 1738,
      "रु": 1739,
      "ैन": 1740,
      "▁अन": 1741,
      "ांची": 1742,
      "▁**[": 1743,
      "-0-5": 1744,
      ".jpg/250px-": 1745,
      "ట్ట": 1746,
      "హింద": 1747,
      "▁భారతదేశం": 1748,
      "](File:": 1749,
      "ारी": 1750,
      "ree": 1751,
      "▁पू": 1752,
      "ంగ్": 1753,
      "elhi": 1754,
      "ద్ధ": 1755,
      "56": 1756,
      "7)": 1757,
      "world": 1758,
      "बर": 1759,
      "▁at": 1760,
      "temp": 1761,
      "\"](https://web.archive.org/web/201": 1762,
      "hand": 1763,
      "ite": 1764,
      "ंडिया": 1765,
      "bridge": 1766,
      "▁v": 1767,
      "▁\"The": 1768,
      "ated": 1769,
      "▁18": 1770,
      "ulture": 1771,
      "क्षेत्र": 1772,
      "](https://web.archive.org/web/20": 1773,
      "ms": 1774,
      "दे": 1775,
      "ించ": 1776,
      "▁4": 1777,
      "▁ఒ": 1778,
      "▁భాష": 1779,
      "▁[క": 1780,
      "▁सरकार": 1781,
      "ాల్": 1782,
      "ames": 1783,
      "amil": 1784,
      "](https://en.wikipedia.org/wiki/India#cite_ref-FOOTNOTE": 1785,
      "▁ये": 1786,
      "MetcalfMetcalf2006": 1787,
      "shit": 1788,
      "velopment": 1789,
      "\"\n": 1790,
      ".sv": 1791,
      "qu": 1792,
      "ख्या": 1793,
      "वन": 1794,
      "व्य": 1795,
      "्रो": 1796,
      "ood": 1797,
      "ाले": 1798,
      "तात.": 1799,
      "_आ": 1800,
      "िंध": 1801,
      "्री": 1802,
      "outh_Asia": 1803,
      "्रिट": 1804,
      "_language": 1805,
      "▁its": 1806,
      "▁[इ": 1807,
      "/978": 1808,
      "World": 1809,
      "]](https://te.wikipedia.org/wiki/భారతదేశం#cite_": 1810,
      "_d": 1811,
      "na": 1812,
      "जन": 1813,
      "भू": 1814,
      "सी": 1815,
      "చ్చ": 1816,
      "జీ": 1817,
      "ేంద్ర": 1818,
      "▁फ": 1819,
      "▁\"K": 1820,
      "▁\"క": 1821,
      "▁मान": 1822,
      "usic": 1823,
      "▁जन": 1824,
      "ograp": 1825,
      "times": 1826,
      "▁तिथि": 1827,
      "por": 1828,
      "▁se": 1829,
      "ambridge": 1830,
      "▁प्रदेश\")": 1831,
      "RC": 1832,
      "duc": 1833,
      "ef": 1834,
      "ृष्": 1835,
      "▁\"Indian": 1836,
      "](https://en.wikipedia.org/wiki/H": 1837,
      "▁cent": 1838,
      "दी\")": 1839,
      "ते.": 1840,
      "\"))\n": 1841,
      "चित्रपट": 1842,
      "emplate": 1843,
      "▁st": 1844,
      "उत्तर": 1845,
      "मार": 1846,
      "रे": 1847,
      "త్య": 1848,
      "బ్": 1849,
      "మీ": 1850,
      "▁[the": 1851,
      "isation": 1852,
      "](https://hi.wikipedia.org/wiki/म": 1853,
      "](https://te.wikipedia.org/wiki/ద": 1854,
      "ater": 1855,
      "్యా": 1856,
      "రాష్ట్ర": 1857,
      "▁2014": 1858,
      "चा:": 1859,
      "▁./వర్గం:": 1860,
      "▁तिथि:": 1861,
      "णे": 1862,
      "orth": 1863,
      "▁हा": 1864,
      "स्व": 1865,
      "-b": 1866,
      "-m": 1867,
      "oh": 1868,
      "धर्म": 1869,
      "ोन": 1870,
      "्ह": 1871,
      "erv": 1872,
      "197": 1873,
      "ice": 1874,
      "नाड": 1875,
      "ांत": 1876,
      "गुजरा": 1877,
      ".nic": 1878,
      "गातील": 1879,
      "डिया": 1880,
      "▁[H": 1881,
      "\")\n\n": 1882,
      "न्न": 1883,
      "▁साम्राज्य": 1884,
      "मिळ": 1885,
      "census": 1886,
      "ढ़": 1887,
      "ంక": 1888,
      "ప్": 1889,
      "యు": 1890,
      "any": 1891,
      "arg": 1892,
      "ase": 1893,
      "lection": 1894,
      "2003": 1895,
      "lion": 1896,
      "row": 1897,
      "తంత్ర": 1898,
      "](https://te.wikipedia.org/wiki/భారతదేశం#cite_ref-": 1899,
      "▁अभिग": 1900,
      "roup": 1901,
      "దక్షిణ": 1902,
      "]](https://te.wikipedia.org/wiki/భారతదేశం#cite_note-": 1903,
      "▁अभिगमन": 1904,
      "8)": 1905,
      "lish": 1906,
      "ीत": 1907,
      "ेट": 1908,
      "\")**": 1909,
      "▁अने": 1910,
      "dition": 1911,
      "▁अनेक": 1912,
      "-s": 1913,
      "Oxford": 1914,
      "▁[![": 1915,
      "ril": 1916,
      "▁तथा": 1917,
      "_का": 1918,
      "▁History": 1919,
      "पुर": 1920,
      "▁reg": 1921,
      "yson": 1922,
      "्रोत": 1923,
      "_F": 1924,
      "▁[L": 1925,
      "ंग्": 1926,
      "▁उप": 1927,
      "](http://www.": 1928,
      "्रिटिश": 1929,
      "/p": 1930,
      "IN": 1931,
      "_1": 1932,
      "_స": 1933,
      "dit": 1934,
      "hr": 1935,
      "lia": 1936,
      "रब": 1937,
      "ौद्ध": 1938,
      "తము": 1939,
      "వే": 1940,
      "ష్": 1941,
      "ాన్": 1942,
      "alth": 1943,
      "స్క": 1944,
      "hel": 1945,
      "old": 1946,
      "ligion": 1947,
      "▁हैं।": 1948,
      "ిల్లీ": 1949,
      "▁रो": 1950,
      "\nCategory:": 1951,
      "doi": 1952,
      "mer": 1953,
      "](https://en.wikipedia.org/wiki/K": 1954,
      "](https://hi.wikipedia.org/wiki/क": 1955,
      "ashm": 1956,
      "uring": 1957,
      "▁wh": 1958,
      "▁languages": 1959,
      "_by": 1960,
      "akistan": 1961,
      "श्चिम": 1962,
      "▁were": 1963,
      "/https://www.": 1964,
      "tinent": 1965,
      "Wiki": 1966,
      "led": 1967,
      "डी": 1968,
      "జి": 1969,
      "ధాన": 1970,
      "బె": 1971,
      "\").\n-": 1972,
      "alay": 1973,
      "ారు": 1974,
      "2008": 1975,
      "▁కా": 1976,
      "विध": 1977,
      "स्तक": 1978,
      "पुस्तक": 1979,
      "▁రాజ": 1980,
      "AARC": 1981,
      "▁[978-1": 1982,
      "विशेष:पुस्तक": 1983,
      "्रोत/978": 1984,
      "तमिळ": 1985,
      "▁8": 1986,
      "](https://mr.wikipedia.org/wiki/अ": 1987,
      "](https://mr.wikipedia.org/wiki/आ": 1988,
      "▁काळ": 1989,
      "▁गण": 1990,
      "Dw": 1991,
      "तु": 1992,
      "दिल्ली": 1993,
      "सद": 1994,
      "▁ad": 1995,
      "ork": 1996,
      "ten": 1997,
      "](https://hi.wikipedia.org/wiki/स": 1998,
      "](https://en.wikipedia.org/wiki/Indian_": 1999,
      "▁mil": 2000,
      "urope": 2001,
      "](https://hi.wikipedia.org/wiki/भारतीय_": 2002,
      "▁भू": 2003,
      "late_": 2004,
      "radesh": 2005,
      "जात": 2006,
      "▁[ग": 2007,
      "▁\"ग": 2008,
      "59": 2009,
      "pu": 2010,
      "द्वीप": 2011,
      "దు": 2012,
      "మ్": 2013,
      "శ్": 2014,
      "](https://te.wikipedia.org/wiki/క": 2015,
      "▁sub": 2016,
      "్యవ": 2017,
      "irst": 2018,
      "▁2021": 2019,
      "Stein2010": 2020,
      "_చరిత్ర": 2021,
      "ेत": 2022,
      "▁le": 2023,
      "arch": 2024,
      "continent": 2025,
      "▁2019": 2026,
      "ंदिर": 2027,
      "india.gov.in/": 2028,
      "-d": 2029,
      "2014": 2030,
      "▁आशिया": 2031,
      "\n\n-": 2032,
      "1998": 2033,
      "ound": 2034,
      "▁Hindu": 2035,
      "▁[भारतीय": 2036,
      "Indo-": 2037,
      "▁वर्ष": 2038,
      "▁संस्कृ": 2039,
      "-g": 2040,
      "0.": 2041,
      "05": 2042,
      "62": 2043,
      "ati": 2044,
      "▁सर्व": 2045,
      "2005": 2046,
      "yste": 2047,
      "\"](https://www.": 2048,
      ".;": 2049,
      "tra": 2050,
      "t\\_": 2051,
      "vis": 2052,
      "िं": 2053,
      "ఢిల్లీ": 2054,
      "పంచ": 2055,
      "▁ha": 2056,
      "▁[न": 2057,
      "▁\"L": 2058,
      "▁मेला": 2059,
      "ారి": 2060,
      "une": 2061,
      "▁शिक्ष": 2062,
      ".jpg)](File:": 2063,
      "matics": 2064,
      "మూస": 2065,
      "port": 2066,
      "ब्": 2067,
      "म\")": 2068,
      "▁भाग": 2069,
      "ारा": 2070,
      "▁ही": 2071,
      "69": 2072,
      "uary": 2073,
      "ese": 2074,
      "act": 2075,
      "\\_S": 2076,
      "▁Ap": 2077,
      "tical": 2078,
      "age/": 2079,
      "मुख": 2080,
      "▁यु": 2081,
      "श्मी": 2082,
      "▁26": 2083,
      "▁चित्रपट": 2084,
      "▁[आ": 2085,
      "](https://mr.wikipedia.org/wiki/इ": 2086,
      "](https://mr.wikipedia.org/wiki/ब": 2087,
      "▁भारताच्या": 2088,
      "▁Asian": 2089,
      "▁पूर्व": 2090,
      ".nic.in/": 2091,
      "ces": 2092,
      "gan": 2093,
      "tro": 2094,
      "टक": 2095,
      "धी": 2096,
      "వు": 2097,
      "▁2": 2098,
      "▁[ज": 2099,
      "▁\"భారతీయ": 2100,
      "▁हु": 2101,
      "ats": 2102,
      "ंग्र": 2103,
      "विधान": 2104,
      "odern": 2105,
      "_में": 2106,
      "ission": 2107,
      "kno": 2108,
      "खंड": 2109,
      "डा": 2110,
      "बंध": 2111,
      "्रम": 2112,
      "▁ते": 2113,
      "-india": 2114,
      "ron": 2115,
      "दू": 2116,
      "▁ऑ": 2117,
      "cies": 2118,
      "ters": 2119,
      "लेखित": 2120,
      "ंग्रेज़": 2121,
      "▁\"F": 2122,
      "65": 2123,
      "PP": 2124,
      "_c": 2125,
      "ंप": 2126,
      "००": 2127,
      "జన": 2128,
      "టు": 2129,
      "టె": 2130,
      "▁सूची": 2131,
      "](https://mr.wikipedia.org/wiki/ज": 2132,
      "](https://mr.wikipedia.org/wiki/चित्र:": 2133,
      "▁Comm": 2134,
      "▁చె": 2135,
      "నాయ": 2136,
      "–సా.శ.పూ.": 2137,
      "▁ఆర్": 2138,
      "పాలిత": 2139,
      "స్త్రం:": 2140,
      "▁ప్రాంత": 2141,
      "slands": 2142,
      "inistry": 2143,
      "ज्ञान": 2144,
      "-0-521": 2145,
      "ేంద్రపాలిత": 2146,
      "](https://te.wikipedia.org/wiki/దస్త్రం:": 2147,
      "1/": 2148,
      "ोब": 2149,
      "ace": 2150,
      "▁अधिक": 2151,
      "▁17": 2152,
      "▁बहु": 2153,
      "berg": 2154,
      "▁इस": 2155,
      "▁विविध": 2156,
      "34": 2157,
      "Talbot": 2158,
      "aw": 2159,
      "air": 2160,
      "val": 2161,
      "ined": 2162,
      "on-": 2163,
      "lear": 2164,
      "rate": 2165,
      "usin": 2166,
      "uly": 2167,
      "ght": 2168,
      "ower": 2169,
      "earch": 2170,
      "ेंद्रशासित": 2171,
      "AsherTalbot": 2172,
      "-20": 2173,
      "330": 2174,
      "_the": 2175,
      "mb": 2176,
      "uk": 2177,
      "ूप": 2178,
      "▁मि": 2179,
      "rib": 2180,
      "▁दक्षिण": 2181,
      "राजस्थान": 2182,
      "Edit": 2183,
      "Page/": 2184,
      "_देश": 2185,
      "mund": 2186,
      "ఖ్య": 2187,
      "గో": 2188,
      "తో": 2189,
      "బి": 2190,
      "హి": 2191,
      "ories": 2192,
      "](https://en.wikipedia.org/wiki/L": 2193,
      "ari": 2194,
      "line": 2195,
      "साँ": 2196,
      "▁शास": 2197,
      "▁लोक": 2198,
      "othermund": 2199,
      "స్కృ": 2200,
      "help": 2201,
      "EditPage/": 2202,
      "wart": 2203,
      "zberg": 2204,
      "ंदी": 2205,
      "ळी": 2206,
      "ाची": 2207,
      "▁राष्ट्र": 2208,
      "chwart": 2209,
      "मुळे": 2210,
      "पूर": 2211,
      "▁भी": 2212,
      "वर्ग:CS1": 2213,
      "▁रोजी": 2214,
      "chwartzberg": 2215,
      "87": 2216,
      "IA": 2217,
      "ail": 2218,
      "hp": 2219,
      "▁territ": 2220,
      "▁[सं": 2221,
      "ulke": 2222,
      "](https://hi.wikipedia.org/wiki/भारत_के_": 2223,
      "](https://hi.wikipedia.org/wiki/भारत_में": 2224,
      "मुद्र": 2225,
      ".jpg)\n\n": 2226,
      "uclear": 2227,
      "ंबई": 2228,
      "/http://www.": 2229,
      ".\"\n": 2230,
      "▁25": 2231,
      "ority": 2232,
      "▁\"न": 2233,
      "▁15": 2234,
      "▁इतिहास": 2235,
      "पुरा": 2236,
      "▁[Archived](https://web.archive.org/web/20": 2237,
      "/artic": 2238,
      "_ప": 2239,
      "fter": 2240,
      "year": 2241,
      "హా": 2242,
      "▁ను": 2243,
      "▁జాతీయ": 2244,
      "omb": 2245,
      "▁par": 2246,
      "िक्": 2247,
      "uman": 2248,
      "Union": 2249,
      "ustry": 2250,
      "▁చరిత్ర\")": 2251,
      "్యవస్థ": 2252,
      "ystem": 2253,
      "8/": 2254,
      "national": 2255,
      "rof": 2256,
      "▁ड": 2257,
      "▁राष्ट्रीय": 2258,
      "▁[F": 2259,
      "▁सम": 2260,
      "▁An": 2261,
      "odi": 2262,
      "▁स्था": 2263,
      "ikshit": 2264,
      "lass": 2265,
      "par": 2266,
      "धील": 2267,
      "मिल": 2268,
      "ाक": 2269,
      "१९": 2270,
      "▁[प": 2271,
      "\").[[": 2272,
      "eneral": 2273,
      "▁ch": 2274,
      "▁2010": 2275,
      "▁उत्": 2276,
      "_की_स": 2277,
      "ographi": 2278,
      "नाडू": 2279,
      "▁April": 2280,
      "9)": 2281,
      "लि": 2282,
      "ेक": 2283,
      "▁\"प": 2284,
      "brary": 2285,
      "-l": 2286,
      "-in": 2287,
      "1,": 2288,
      "ran": 2289,
      "yn": 2290,
      "वस्था": 2291,
      "డా": 2292,
      "దా": 2293,
      "బడ": 2294,
      "మే": 2295,
      "రణ": 2296,
      "▁లో": 2297,
      "](https://en.wikipedia.org/wiki/F": 2298,
      "्त्र": 2299,
      "aman": 2300,
      "umber": 2301,
      "▁కూ": 2302,
      "ాలు,": 2303,
      "▁రాష్ట్ర": 2304,
      "_and_S": 2305,
      "%20%20": 2306,
      "▁स्थान": 2307,
      "కిస్తాన్": 2308,
      "श्मीर": 2309,
      "तर": 2310,
      "▁[W": 2311,
      "्यान": 2312,
      "▁India,": 2313,
      "मालय": 2314,
      "history": 2315,
      "▁स्थाप": 2316,
      "C&pg=PA": 2317,
      "_H": 2318,
      "_L": 2319,
      "uch": 2320,
      "ugh": 2321,
      "ूच": 2322,
      "▁ri": 2323,
      "▁[उ": 2324,
      "inis": 2325,
      "edi": 2326,
      "\\_and": 2327,
      "low": 2328,
      "▁Pro": 2329,
      "ctor": 2330,
      "error": 2331,
      "ongress": 2332,
      "▁temp": 2333,
      "ashmir": 2334,
      "ण्": 2335,
      "\")*.": 2336,
      "▁विक": 2337,
      "▁साहित": 2338,
      "तेल": 2339,
      "▁होता": 2340,
      "तमिळनाडू": 2341,
      "68": 2342,
      "Asia": 2343,
      "mar": 2344,
      "uj": 2345,
      "▁9": 2346,
      "▁ఈ": 2347,
      "▁భారత": 2348,
      "Intern": 2349,
      "lim": 2350,
      "नाग": 2351,
      "▁तक": 2352,
      "emb": 2353,
      "igh": 2354,
      "త్రి": 2355,
      "ాలు\")": 2356,
      "ాలు](https://te.wikipedia.org/wiki/": 2357,
      "▁विश": 2358,
      "▁World": 2359,
      "nglish": 2360,
      "](Special:BookSources/978-1": 2361,
      "▁\"Special:BookSources/978-1": 2362,
      "_Indian_": 2363,
      "emplate:": 2364,
      "_अ": 2365,
      "वार": 2366,
      "स.": 2367,
      "▁आधार": 2368,
      "\\_with": 2369,
      "▁दे": 2370,
      "▁tra": 2371,
      "1994": 2372,
      "मुंबई": 2373,
      "-c": 2374,
      "100": 2375,
      "Ar": 2376,
      "Singh": 2377,
      "_4": 2378,
      "a,": 2379,
      "aper": 2380,
      "fl": 2381,
      "tal": 2382,
      "▁errors": 2383,
      "ond": 2384,
      "▁countries": 2385,
      "ेशिया": 2386,
      "▁त्या": 2387,
      "▁dis": 2388,
      ".jpg": 2389,
      "▁Empire": 2390,
      "▁New": 2391,
      "ople": 2392,
      "▁July": 2393,
      "isher": 2394,
      "▁([help": 2395,
      "▁./Category:": 2396,
      "म्मू": 2397,
      "▁Asia\")": 2398,
      "t\\_errors": 2399,
      "▁errors\"))\n": 2400,
      "_at": 2401,
      "_सा": 2402,
      "तंत्र": 2403,
      "ृष्ट": 2404,
      "1947": 2405,
      "▁वे": 2406,
      "ates": 2407,
      "हाय": 2408,
      ".php": 2409,
      "▁प्राचीन": 2410,
      ".html": 2411,
      "_క": 2412,
      "_सं": 2413,
      "cre": 2414,
      "ober": 2415,
      "त्या": 2416,
      "द्या": 2417,
      "वरी": 2418,
      "తు": 2419,
      "పతి": 2420,
      "▁ని": 2421,
      "▁స్థ": 2422,
      "▁[అ": 2423,
      "▁[ప": 2424,
      "▁\"उ": 2425,
      "▁\"భారతదేశం": 2426,
      "](https://hi.wikipedia.org/wiki/ब": 2427,
      "్రి": 2428,
      "ley": 2429,
      "▁हवा": 2430,
      "▁असे": 2431,
      "ाता": 2432,
      "ర్వ": 2433,
      "urr": 2434,
      "त्रि": 2435,
      "న్ని": 2436,
      "ासून": 2437,
      "ले.": 2438,
      "▁काही": 2439,
      "▁En": 2440,
      "imes": 2441,
      "ुरु": 2442,
      "ुरू": 2443,
      "మిళ": 2444,
      "▁not": 2445,
      "వంశ": 2446,
      "ledge": 2447,
      "DwAAQBAJ&pg=PA": 2448,
      "▁संस्कृती": 2449,
      "_की_सूची": 2450,
      ")\n-": 2451,
      "_ब": 2452,
      "र्ना": 2453,
      "▁pl": 2454,
      "युक्त": 2455,
      "\\_with\\_": 2456,
      "र्नाटक": 2457,
      "121": 2458,
      "South_Asia": 2459,
      "att": 2460,
      "athe": 2461,
      "dom": 2462,
      "fn_": 2463,
      "gy": 2464,
      "ution": 2465,
      "ves": 2466,
      "ओं": 2467,
      "▁ओ": 2468,
      "▁error": 2469,
      "king": 2470,
      "ed.": 2471,
      "no-t": 2472,
      "▁cons": 2473,
      "\\_no-t": 2474,
      "▁Sfn": 2475,
      "▁targe": 2476,
      "▁Re": 2477,
      "iron": 2478,
      "▁\"South": 2479,
      "पुरी": 2480,
      "▁this": 2481,
      "▁लि": 2482,
      "ियों": 2483,
      "]](https://hi.wikipedia.org/wiki/भारत#cite_note-FOOTNOTE": 2484,
      "fn\\_no-t": 2485,
      "arget\\_errors": 2486,
      "ummit\")": 2487,
      "news/": 2488,
      "template_": 2489,
      "\\_Sfn\\_no-t": 2490,
      "ंग्रेज़ी": 2491,
      "_and_Sfn_": 2492,
      "\\_and\\_Sfn\\_no-t": 2493,
      "▁template": 2494,
      "▁error:": 2495,
      "▁target:": 2496,
      "arget\\_errors\n": 2497,
      "template_errors": 2498,
      "_and_Sfn_template_errors": 2499,
      "\\_and\\_Sfn\\_no-target\\_errors\n": 2500,
      "दार": 2501,
      "दर्": 2502,
      "नि": 2503,
      "330px-": 2504,
      "%28": 2505,
      ".\n\n": 2506,
      "_మ": 2507,
      "_re": 2508,
      "_భాష": 2509,
      "ocial": 2510,
      "ure": 2511,
      "दल": 2512,
      "ఫ్": 2513,
      "▁స్": 2514,
      "▁[J": 2515,
      "▁[బ": 2516,
      "▁[స": 2517,
      "tember": 2518,
      "▁\"J": 2519,
      "▁\"అ": 2520,
      "▁किया": 2521,
      "cient": 2522,
      "cience": 2523,
      "rab": 2524,
      "ram": 2525,
      "ide": 2526,
      "ref-1": 2527,
      "note-1": 2528,
      "▁CITEREF": 2529,
      "▁प्रकार": 2530,
      "న్నాయ": 2531,
      "▁10": 2532,
      "▁नृत्य": 2533,
      "▁కాల": 2534,
      "▁government": 2535,
      ".jpg)](https://te.wikipedia.org/wiki/దస్త్రం:": 2536,
      "ులు](https://te.wikipedia.org/wiki/": 2537,
      "eptember": 2538,
      "▁రై": 2539,
      "Stein1998": 2540,
      "హిందూ": 2541,
      "गुजरात": 2542,
      "▁have": 2543,
      "Singh2009": 2544,
      "\"](https://": 2545,
      "ग्": 2546,
      "तील": 2547,
      "मधील": 2548,
      "ाचे": 2549,
      "idd": 2550,
      "क्षा": 2551,
      "संख्या": 2552,
      "Dyson": 2553,
      "du": 2554,
      "ficial": 2555,
      "her": 2556,
      "ting": 2557,
      "viron": 2558,
      "xt": 2559,
      "शि": 2560,
      "▁24": 2561,
      "▁year": 2562,
      "thno": 2563,
      "](https://en.wikipedia.org/wiki/J": 2564,
      "▁into": 2565,
      "-17": 2566,
      "▁ag": 2567,
      "ritan": 2568,
      "_Press": 2569,
      "engal": 2570,
      "uropean": 2571,
      "ombined": 2572,
      "vironment": 2573,
      ")\n\n": 2574,
      "-26": 2575,
      "/0": 2576,
      "2-0)": 2577,
      "_f": 2578,
      "ince": 2579,
      "▁अर्थ": 2580,
      "ंगीत": 2581,
      ",000": 2582,
      "51": 2583,
      "_%28": 2584,
      "oor": 2585,
      "ote": 2586,
      "लय": 2587,
      "श्र": 2588,
      "ఆసియా": 2589,
      "ద్ర": 2590,
      "భూ": 2591,
      "మె": 2592,
      "య్య": 2593,
      "ర్య": 2594,
      "▁ల": 2595,
      "▁us": 2596,
      "▁भा": 2597,
      "▁\"ప": 2598,
      "▁\"బ": 2599,
      "▁\"స": 2600,
      "ant": 2601,
      "▁(201": 2602,
      "▁their": 2603,
      "▁मंदिर": 2604,
      "entre": 2605,
      "▁comp": 2606,
      "anges": 2607,
      "नाथ": 2608,
      "▁Pradesh": 2609,
      "▁[↑](https://te.wikipedia.org/wiki/భారతదేశం#cite_ref-": 2610,
      "स्ला": 2611,
      "▁during": 2612,
      "ember": 2613,
      "त्तरा": 2614,
      "ctober": 2615,
      "త్త": 2616,
      "▁అధిక": 2617,
      "harat": 2618,
      "▁ప్రదేశ్": 2619,
      "▁October": 2620,
      "ప్రదేశ్": 2621,
      "▁खाना": 2622,
      "▁language\")": 2623,
      "also": 2624,
      "▁मुख्य": 2625,
      "हिन्दी": 2626,
      "▁నుండి": 2627,
      "న్నాయి.": 2628,
      "_3": 2629,
      "co": 2630,
      "ओड": 2631,
      "कल": 2632,
      "गा": 2633,
      "पे": 2634,
      "ीस": 2635,
      "ेर": 2636,
      "▁पद": 2637,
      "न्द": 2638,
      "able": 2639,
      "च्च": 2640,
      "countries": 2641,
      "ls": 2642,
      "mi": 2643,
      "ph": 2644,
      "pt": 2645,
      "son": 2646,
      "पती": 2647,
      "बसे": 2648,
      "ऱ्या": 2649,
      "▁ला": 2650,
      "time": 2651,
      "▁sfn": 2652,
      "▁Archived": 2653,
      "▁Aug": 2654,
      "▁first": 2655,
      "210": 2656,
      "ली.": 2657,
      "](https://mr.wikipedia.org/wiki/भारतीय_": 2658,
      "▁गया": 2659,
      "-81": 2660,
      "▁राज्ये": 2661,
      "▁राज्यों": 2662,
      "▁Press\").": 2663,
      "auth": 2664,
      "outledge": 2665,
      "120px-": 2666,
      "argest": 2667,
      "▁August": 2668,
      "7/": 2669,
      "CN": 2670,
      "van": 2671,
      "भी": 2672,
      "विक": 2673,
      "ural": 2674,
      "मुख्य": 2675,
      "fficial": 2676,
      "च्छ": 2677,
      "▁सूची\")": 2678,
      "5%": 2679,
      "Combined": 2680,
      "Rothermund": 2681,
      "cog": 2682,
      "ive": 2683,
      "jab": 2684,
      "ణి": 2685,
      "తమిళ": 2686,
      "మైన": 2687,
      "హార": 2688,
      "ోర్": 2689,
      "▁थ": 2690,
      "▁\"ఇ": 2691,
      "▁\"భారత": 2692,
      "India)": 2693,
      "▁कि": 2694,
      "](https://te.wikipedia.org/wiki/బ": 2695,
      "entral": 2696,
      "▁class": 2697,
      "life": 2698,
      "▁दिल्ली": 2699,
      "▁तर": 2700,
      "▁बन": 2701,
      "न्द्र": 2702,
      "ayan": 2703,
      "▁మొ": 2704,
      "▁2023": 2705,
      "నాగ": 2706,
      "▁[मूल": 2707,
      "త్తర": 2708,
      "ులు\")": 2709,
      "ffair": 2710,
      "ार्थ": 2711,
      "▁(PDF)": 2712,
      "व्यवस्था": 2713,
      "శ్మీ": 2714,
      "మూస:": 2715,
      "Dyson2018": 2716,
      "-19": 2717,
      "oy": 2718,
      "जय": 2719,
      "पाल": 2720,
      "▁लेख": 2721,
      "wing": 2722,
      "▁[I": 2723,
      "ांक": 2724,
      "▁Th": 2725,
      "ी_भाषा": 2726,
      ".jpg/330px-": 2727,
      "ण्ड": 2728,
      "\".": 2729,
      "/A": 2730,
      "CO": 2731,
      "Kulke": 2732,
      "_20": 2733,
      "ban": 2734,
      "ne": 2735,
      "uis": 2736,
      "ule": 2737,
      "सभा": 2738,
      "▁also": 2739,
      "ori": 2740,
      "▁\"सं": 2741,
      "one": 2742,
      "▁सबसे": 2743,
      "](https://hi.wikipedia.org/wiki/चित्र:": 2744,
      "2000": 2745,
      "▁system": 2746,
      "▁September": 2747,
      "▁maint:": 2748,
      "लादेश": 2749,
      "▁world": 2750,
      "india/": 2751,
      "संख्य": 2752,
      "▁June": 2753,
      "ose": 2754,
      "बाद": 2755,
      "hism": 2756,
      "▁पुरालेखित": 2757,
      "ृष्ठ": 2758,
      "▁region": 2759,
      "liament": 2760,
      "▁युद्ध": 2761,
      "▁Commission": 2762,
      "ographic": 2763,
      "▁पुरालेखित।": 2764,
      "2_": 2765,
      "wn": 2766,
      "डे": 2767,
      "ूळ": 2768,
      "▁22": 2769,
      "estern": 2770,
      "▁कार": 2771,
      "](https://mr.wikipedia.org/wiki/ग": 2772,
      "▁म्ह": 2773,
      "्याया": 2774,
      "ade": 2775,
      "str": 2776,
      "ांच्या": 2777,
      "▁झाले": 2778,
      "ैदिक": 2779,
      "▁मिळ": 2780,
      "▁म्हण": 2781,
      "58": 2782,
      "_K": 2783,
      "rans": 2784,
      "सि": 2785,
      "ॉल": 2786,
      "శా": 2787,
      "ైనా": 2788,
      "▁wi": 2789,
      "▁[ఇ": 2790,
      "▁\"జ": 2791,
      "▁सु": 2792,
      "](https://te.wikipedia.org/wiki/ఇ": 2793,
      "](https://te.wikipedia.org/wiki/స": 2794,
      "ics": 2795,
      "▁Act": 2796,
      "భారత_": 2797,
      "etwe": 2798,
      "chno": 2799,
      "ill": 2800,
      "రాజ": 2801,
      "లో](https://te.wikipedia.org/wiki/": 2802,
      "రిజ": 2803,
      "230": 2804,
      "క్కు": 2805,
      "▁इंडिया": 2806,
      "ండ్": 2807,
      "ishing": 2808,
      "logue": 2809,
      "िशा": 2810,
      "hina": 2811,
      "क्ति": 2812,
      "द्योग": 2813,
      "पूर्वी": 2814,
      "मेर": 2815,
      "స్కృతి": 2816,
      "ritannic": 2817,
      "etween": 2818,
      "_पर": 2819,
      "गोल": 2820,
      "ौर": 2821,
      "er,": 2822,
      "190": 2823,
      "िकी": 2824,
      "▁16": 2825,
      "▁उत्तर": 2826,
      "ंत्री": 2827,
      "▁नाम": 2828,
      ".svg": 2829,
      "iddle": 2830,
      "-re": 2831,
      "/f": 2832,
      "1_": 2833,
      "_W": 2834,
      "iver": 2835,
      "ok": 2836,
      "tain": 2837,
      "सम": 2838,
      "।[[": 2839,
      "▁it": 2840,
      "▁per": 2841,
      "racy": 2842,
      "▁population": 2843,
      "adu": 2844,
      "ument": 2845,
      "ियाँ": 2846,
      "unjab": 2847,
      "▁form": 2848,
      "University_Press": 2849,
      "gency": 2850,
      "▁(PDF).": 2851,
      "usiness": 2852,
      "thnologue": 2853,
      "KulkeRothermund": 2854,
      "1-0)": 2855,
      "a/": 2856,
      "pl": 2857,
      "ual": 2858,
      "रत": 2859,
      "▁21": 2860,
      "▁[![](https://upload.wikimedia.org/wikipedia/commons/thumb/": 2861,
      "ेश्व": 2862,
      "loc": 2863,
      "▁जु": 2864,
      "माज": 2865,
      "▁been": 2866,
      "emple": 2867,
      "▁विश्व": 2868,
      "ेश्वर": 2869,
      "%29": 2870,
      "-f": 2871,
      "-language": 2872,
      "8](https://en.wikipedia.org/wiki/India#CITEREF": 2873,
      "_धर्म": 2874,
      "data": 2875,
      "hol": 2876,
      "ibrary": 2877,
      "oast": 2878,
      "zed": 2879,
      "ण्यात": 2880,
      "लाल": 2881,
      "ం?action=edit&redlink=1": 2882,
      "చే": 2883,
      "బా": 2884,
      "–1": 2885,
      "▁[t": 2886,
      "▁[జ": 2887,
      "▁\"O": 2888,
      "ारे": 2889,
      "omen": 2890,
      "▁India:": 2891,
      "▁India\"),": 2892,
      "▁आक": 2893,
      "▁part": 2894,
      "ातंत्र": 2895,
      "amb": 2896,
      "▁Se": 2897,
      "▁प्रजात": 2898,
      "▁పా": 2899,
      "](https://hi.wikipedia.org/wiki/भारत#CITEREF": 2900,
      "resid": 2901,
      "ों_की_सूची": 2902,
      "वाद": 2903,
      "▁వా": 2904,
      "ండు": 2905,
      "▁చూ": 2906,
      "▁साथ": 2907,
      "త్వ": 2908,
      "▁Ind": 2909,
      "ప్రధాన": 2910,
      "स्कृत": 2911,
      "▁తే": 2912,
      "▁टक्": 2913,
      "udden": 2914,
      "▁येथ": 2915,
      "िंधू": 2916,
      "▁subcontinent": 2917,
      "▁शिक्षण": 2918,
      "▁हवामान": 2919,
      "cogni": 2920,
      "▁प्रजाती": 2921,
      "ंका": 2922,
      "▁2016": 2923,
      "ीलंका": 2924,
      "31": 2925,
      "3-0)": 2926,
      "77": 2927,
      "CE": 2928,
      "NG": 2929,
      "_University_Press": 2930,
      "pp": 2931,
      "pr": 2932,
      "ya": 2933,
      "▁'": 2934,
      "▁6": 2935,
      "▁था": 2936,
      "tec": 2937,
      "▁\"श्रेणी:Harv": 2938,
      "\"):": 2939,
      "▁|\n\n": 2940,
      "eser": 2941,
      "](https://hi.wikipedia.org/wiki/श्रेणी:Harv": 2942,
      "raven": 2943,
      "▁Ass": 2944,
      "▁most": 2945,
      "▁जा": 2946,
      "▁जिस": 2947,
      "iles/": 2948,
      "cember": 2949,
      "oll": 2950,
      "▁Metcalf": 2951,
      "दीव": 2952,
      "▁2024": 2953,
      "▁2006": 2954,
      "▁संघ": 2955,
      "▁For": 2956,
      "umbai": 2957,
      "▁./श्रेणी:Harv": 2958,
      "epublic": 2959,
      "ortal": 2960,
      "depend": 2961,
      "-2)": 2962,
      ".jpg/120px-": 2963,
      "_नदी": 2964,
      "embly": 2965,
      "▁([help](https://hi.wikipedia.org/wiki/श्रेणी:Harv": 2966,
      "_and_Sfn_template_errors?action=edit&redlink=1": 2967,
      "ffairs": 2968,
      "chnology": 2969,
      "▁./श्रेणी:Harv\\_and\\_Sfn\\_no-target\\_errors\n": 2970,
      "▁([help](https://hi.wikipedia.org/wiki/श्रेणी:Harv_and_Sfn_template_errors?action=edit&redlink=1": 2971,
      ":[": 2972,
      "टा": 2973,
      "िहार": 2974,
      "ोह": 2975,
      ".org/10.": 2976,
      "▁\"I": 2977,
      "are": 2978,
      "▁state": 2979,
      "-06": 2980,
      "rim": 2981,
      "▁गे": 2982,
      "%2F": 2983,
      "view": 2984,
      "doi.org/10.": 2985,
      "▁गणराज्य": 2986,
      "4-0)": 2987,
      "Template:": 2988,
      "_సా": 2989,
      "fric": 2990,
      "lad": 2991,
      "गत": 2992,
      "टन": 2993,
      "ంప": 2994,
      "కో": 2995,
      "గణ": 2996,
      "దిన": 2997,
      "నై": 2998,
      "రీ": 2999,
      "▁al": 3000,
      "▁ac": 3001,
      "▁28": 3002,
      "ped": 3003,
      "▁\"W": 3004,
      "▁\"చ": 3005,
      "edic": 3006,
      "andhi": 3007,
      "](https://te.wikipedia.org/wiki/జ": 3008,
      "ారం": 3009,
      "▁व्य": 3010,
      "▁Sh": 3011,
      "▁but": 3012,
      "▁between": 3013,
      "▁more": 3014,
      "▁Population": 3015,
      "term": 3016,
      "▁క్రీ": 3017,
      "క్‌": 3018,
      "నికి": 3019,
      "साय": 3020,
      "ల్ల": 3021,
      "ంగీ": 3022,
      "▁సి": 3023,
      "నాభా": 3024,
      "▁Jan": 3025,
      "harma": 3026,
      "Harle": 3027,
      "జాబి": 3028,
      "ligi": 3029,
      "▁Islands": 3030,
      "▁శా": 3031,
      "▁భాష\")": 3032,
      "బెంగ": 3033,
      "▁ऑफ": 3034,
      "ujar": 3035,
      "జాబితా": 3036,
      "ges": 3037,
      "दु": 3038,
      "ाचा": 3039,
      "ेड": 3040,
      "▁ई": 3041,
      "▁तसे": 3042,
      "▁बंगाल": 3043,
      "ताज": 3044,
      "▁संविधान": 3045,
      "▁यां": 3046,
      "म्ब": 3047,
      "▁होती": 3048,
      "िवस": 3049,
      "▁निर्": 3050,
      "▁साहित्य": 3051,
      "हाय्य": 3052,
      "श्रीलंका": 3053,
      "▁तसेच": 3054,
      "2/": 3055,
      "_I": 3056,
      "mu": 3057,
      "ology": 3058,
      "way": 3059,
      "गढ़": 3060,
      "तमिल": 3061,
      "▁Y": 3062,
      "▁[च": 3063,
      "▁[Indian": 3064,
      "Infor": 3065,
      "ering": 3066,
      "2023": 3067,
      "ise": 3068,
      "ash": 3069,
      "▁bec": 3070,
      "▁music": 3071,
      "istan": 3072,
      "स्थ": 3073,
      "▁ब्रिटिश": 3074,
      "ourt": 3075,
      "118": 3076,
      "▁National": 3077,
      "हिमा": 3078,
      "-80": 3079,
      "▁यह": 3080,
      ".gov/": 3081,
      "पूर्": 3082,
      "cyc": 3083,
      "_के_राज्य": 3084,
      "▁century": 3085,
      "AsherTalbot2008": 3086,
      "ोर्": 3087,
      "\").\n": 3088,
      "▁Cambridge": 3089,
      "olper": 3090,
      "न्स": 3091,
      "▁(identifier)\"):[": 3092,
      ".gov.in/": 3093,
      "र्थिक": 3094,
      "ovement": 3095,
      "ंग्ल": 3096,
      "known": 3097,
      "olpert": 3098,
      "2-": 3099,
      "4–": 3100,
      "98": 3101,
      "fic": 3102,
      "rish": 3103,
      "फ़": 3104,
      "में": 3105,
      "చల్": 3106,
      "యన్": 3107,
      "షు": 3108,
      "ూర్": 3109,
      "▁es": 3110,
      "▁all": 3111,
      "▁[చ": 3112,
      "▁[భారత": 3113,
      "▁[భారతీయ": 3114,
      "▁\"ह": 3115,
      "India_": 3116,
      "](https://te.wikipedia.org/wiki/ప": 3117,
      "](https://te.wikipedia.org/wiki/భారతీయ": 3118,
      "▁मा": 3119,
      "ార్ట": 3120,
      "ool": 3121,
      "ాలయ": 3122,
      "amp": 3123,
      "▁1.": 3124,
      "▁di": 3125,
      "▁dance": 3126,
      "▁after": 3127,
      "క్క": 3128,
      "▁వ్యవస్థ": 3129,
      "▁ము": 3130,
      "ండో": 3131,
      "ముంబ": 3132,
      "సిన": 3133,
      "apit": 3134,
      "ినల్": 3135,
      "ద్ద": 3136,
      "▁ఉన్న": 3137,
      "avid": 3138,
      "▁खास": 3139,
      "शास्त्र": 3140,
      "-107": 3141,
      "rick": 3142,
      "పాకిస్తాన్": 3143,
      "ompany": 3144,
      "-0-19-8": 3145,
      "ంధీ": 3146,
      "clud": 3147,
      "▁ఒక": 3148,
      "▁ఒరిజ": 3149,
      "inister": 3150,
      "వంశం": 3151,
      "दर्भ": 3152,
      "▁తేదీ": 3153,
      "ార్టీ": 3154,
      "▁ఒరిజినల్": 3155,
      "d/": 3156,
      "sch": 3157,
      "ख्": 3158,
      "५०": 3159,
      "asia": 3160,
      "▁आज": 3161,
      "ing\\_": 3162,
      "▁Constitution": 3163,
      "rop": 3164,
      "चेरी": 3165,
      "प्रधान": 3166,
      "▁national": 3167,
      "%E0%A4%A": 3168,
      ")\n": 3169,
      "4/": 3170,
      "National_": 3171,
      "_या": 3172,
      "_और": 3173,
      "country": 3174,
      "imp": 3175,
      "एं": 3176,
      "ल\")": 3177,
      "ळ\")": 3178,
      "ूटी": 3179,
      "ो.": 3180,
      "▁over": 3181,
      "▁other": 3182,
      "iation": 3183,
      "ttar": 3184,
      "peration": 3185,
      "▁[3": 3186,
      "▁[[": 3187,
      "ones": 3188,
      "arh": 3189,
      "▁कु": 3190,
      "▁पठ": 3191,
      "राण": 3192,
      "icy": 3193,
      "▁ind": 3194,
      "▁comm": 3195,
      "▁Census": 3196,
      "▁दि": 3197,
      "▁ab": 3198,
      "▁East": 3199,
      "ake": 3200,
      ".jpg)](https://mr.wikipedia.org/wiki/चित्र:": 3201,
      "▁1950": 3202,
      "▁number": 3203,
      "▁होते.": 3204,
      "ummits": 3205,
      "_De": 3206,
      "▁Press.": 3207,
      "%E0%A4%BE": 3208,
      "actbook": 3209,
      "ganisation": 3210,
      "_साम्राज्य": 3211,
      "▁years": 3212,
      "ओडिशा": 3213,
      "संख्ये": 3214,
      "ritannica": 3215,
      "▁टक्के": 3216,
      "cognized": 3217,
      "_यादी": 3218,
      "75": 3219,
      "टि": 3220,
      "तां": 3221,
      "नगर": 3222,
      "िने": 3223,
      "४७": 3224,
      "▁३": 3225,
      "▁23": 3226,
      "▁\"ल": 3227,
      "theast": 3228,
      "ान\")": 3229,
      "▁नदी": 3230,
      "ंडोन": 3231,
      "तिश": 3232,
      "ंध्र": 3233,
      "under": 3234,
      "ikh": 3235,
      "हासा": 3236,
      "विश्व": 3237,
      "ovember": 3238,
      "त्रिपुरा": 3239,
      "ंडोनेशिया": 3240,
      "%7": 3241,
      "110": 3242,
      "6_": 3243,
      "ID": 3244,
      "Vi": 3245,
      "_ए": 3246,
      "lam": 3247,
      "lag": 3248,
      "rin": 3249,
      "ंद्र": 3250,
      "गढ": 3251,
      "मर": 3252,
      "मह": 3253,
      "జ్": 3254,
      "వరి": 3255,
      "శ్చ": 3256,
      "ిన్న": 3257,
      "ెల": 3258,
      "ia\")": 3259,
      "pear": 3260,
      "▁\"భారతదేశ": 3261,
      "▁\"विशेष:पुस्तक": 3262,
      "encies": 3263,
      "ini": 3264,
      "](https://en.wikipedia.org/wiki/W": 3265,
      "recognized": 3266,
      "▁स्रोत/978": 3267,
      "](https://hi.wikipedia.org/wiki/ISBN_(identifier)": 3268,
      "](https://hi.wikipedia.org/wiki/विशेष:पुस्तक": 3269,
      "్రె": 3270,
      "rime": 3271,
      "▁Congress": 3272,
      "▁Ar": 3273,
      "anglad": 3274,
      "लाई": 3275,
      "▁May": 3276,
      "indust": 3277,
      "నిస్తాన్": 3278,
      "ird": 3279,
      "▁*The": 3280,
      "▁English": 3281,
      "▁మధ్య": 3282,
      "▁2020": 3283,
      "हिमालय": 3284,
      "ode": 3285,
      "▁./श्रेणी:": 3286,
      "ustral": 3287,
      "](https://te.wikipedia.org/wiki/భారతదేశంలో": 3288,
      "▁[ISBN](https://hi.wikipedia.org/wiki/ISBN_(identifier)": 3289,
      "▁ఉంది.": 3290,
      "▁ఉన్నాయి.": 3291,
      "స్థాన్": 3292,
      "_के_आ": 3293,
      "_स्रोत/978": 3294,
      "▁धर्म\")": 3295,
      "▁Development": 3296,
      "▁December": 3297,
      "▁పేజీ": 3298,
      "▁2014.\n": 3299,
      "चा:भारत": 3300,
      "ారు.": 3301,
      "మ్మూ": 3302,
      "▁\"భారతదేశంలో": 3303,
      "▁చూసిన": 3304,
      "▁January": 3305,
      "▁తేదీ:": 3306,
      "శ్చి": 3307,
      "](https://hi.wikipedia.org/wiki/विशेष:पुस्तक_स्रोत/978": 3308,
      "angladesh": 3309,
      "▁పేజీని": 3310,
      "-21": 3311,
      "79": 3312,
      "UCN": 3313,
      "_उ": 3314,
      "_19": 3315,
      "ned": 3316,
      "तन": 3317,
      "हरी": 3318,
      "▁27": 3319,
      "▁व्या": 3320,
      "▁spe": 3321,
      "riod": 3322,
      "ालय": 3323,
      "▁प्रत्य": 3324,
      "▁जो": 3325,
      "ilg": 3326,
      "चिन्": 3327,
      "07": 3328,
      "1–": 3329,
      "NC": 3330,
      "be": 3331,
      "ft": 3332,
      "how": 3333,
      "oin": 3334,
      "oon": 3335,
      "oth": 3336,
      "y\")": 3337,
      "डो": 3338,
      "ीन": 3339,
      "ोड़": 3340,
      "०१": 3341,
      "▁k": 3342,
      "kim": 3343,
      "▁[e": 3344,
      "▁[v": 3345,
      "▁[Metcalf": 3346,
      "▁\"बा": 3347,
      "arb": 3348,
      "alley": 3349,
      "ofindia": 3350,
      "▁(20": 3351,
      "2012": 3352,
      "rahm": 3353,
      "2001": 3354,
      "▁states": 3355,
      "▁tw": 3356,
      "come": 3357,
      "▁[↑](https://hi.wikipedia.org/wiki/भारत#cite_": 3358,
      "_of_the": 3359,
      "ross": 3360,
      "union": 3361,
      "ticles": 3362,
      "▁election": 3363,
      "▁है,": 3364,
      "fore": 3365,
      "▁[South": 3366,
      "▁[*A": 3367,
      "▁[2](https://en.wikipedia.org/wiki/India#cite_ref-FOOTNOTE": 3368,
      "▁[1](https://en.wikipedia.org/wiki/India#cite_ref-FOOTNOTE": 3369,
      "\n\nभारतीय": 3370,
      "obb": 3371,
      "▁बाद": 3372,
      "times.com/": 3373,
      "censusindia.gov.in/": 3374,
      "▁territories": 3375,
      "ूचना": 3376,
      ".स.": 3377,
      "_द": 3378,
      "back": 3379,
      "wal": 3380,
      "ंती": 3381,
      "जास": 3382,
      "ण्या": 3383,
      "रो": 3384,
      "वली": 3385,
      "▁up": 3386,
      "](https://doi.org/10.": 3387,
      "enn": 3388,
      "▁केंद्र": 3389,
      "▁मार्": 3390,
      "▁केले": 3391,
      "▁13": 3392,
      "▁आहे.[[": 3393,
      "▁इतर": 3394,
      "▁2009": 3395,
      "त्ताक": 3396,
      "▁रूप": 3397,
      "पाद": 3398,
      "वेब": 3399,
      "्यांची": 3400,
      "ालीन": 3401,
      "णाचल": 3402,
      "▁नाव": 3403,
      "पर्य": 3404,
      "▁झाला": 3405,
      "▁मोठ": 3406,
      "रुणाचल": 3407,
      "देव": 3408,
      "्यानमार": 3409,
      "▁tradition": 3410,
      "ातंत्र्य": 3411,
      "जासत्ताक": 3412,
      ".as": 3413,
      "500": 3414,
      "_territ": 3415,
      "bal": 3416,
      "cent": 3417,
      "lations": 3418,
      "pur": 3419,
      "ze": 3420,
      "आई": 3421,
      "खन": 3422,
      "छत्त": 3423,
      "ध्या": 3424,
      "షన్": 3425,
      "హ్": 3426,
      "ెలు": 3427,
      "orther": 3428,
      "eration": 3429,
      "▁सर्": 3430,
      "](https://te.wikipedia.org/wiki/అ": 3431,
      "ased": 3432,
      "ानुसार": 3433,
      "1950": 3434,
      "▁अप": 3435,
      "▁जय": 3436,
      "wealth": 3437,
      "olicy": 3438,
      "రియా": 3439,
      "विष": 3440,
      "agar": 3441,
      "▁మార్": 3442,
      ".jpg)\n-": 3443,
      "▁[Stein": 3444,
      "▁Oxford": 3445,
      "ndaman": 3446,
      "ప్రపంచ": 3447,
      "▁स्थ": 3448,
      "धार_पर": 3449,
      "olitical": 3450,
      "▁సంస్కృతి": 3451,
      "దీవ": 3452,
      "rofile": 3453,
      "ed.).": 3454,
      "resident": 3455,
      "▁2006](https://en.wikipedia.org/wiki/India#CITEREF": 3456,
      "_के_आधार_पर": 3457,
      "छत्तीस": 3458,
      "_के_आधार_पर_भारत": 3459,
      "*,": 3460,
      "bi": 3461,
      "has": 3462,
      "▁ro": 3463,
      "▁[O": 3464,
      "▁[ल": 3465,
      "\")\n": 3466,
      "▁पर्व": 3467,
      "▁India.": 3468,
      "▁Schwartzberg": 3469,
      "ched": 3470,
      "िया\")": 3471,
      "▁नदी\")": 3472,
      "▁2012": 3473,
      "क्षद्वीप": 3474,
      "Wikipedia": 3475,
      "-le": 3476,
      ".india": 3477,
      "44": 3478,
      "85": 3479,
      "Fisher": 3480,
      "Hindi": 3481,
      "_O": 3482,
      "dis": 3483,
      "han": 3484,
      "oci": 3485,
      "pib": 3486,
      "ru": 3487,
      "▁४": 3488,
      "▁ले": 3489,
      "▁res": 3490,
      "onwealth": 3491,
      "ale": 3492,
      "andard": 3493,
      "▁official": 3494,
      "ough": 3495,
      "ict": 3496,
      "िकोब": 3497,
      "ama": 3498,
      "▁द्वीप": 3499,
      "▁न्याया": 3500,
      "▁March": 3501,
      "emoc": 3502,
      "▁Budd": 3503,
      "▁BCE": 3504,
      "index": 3505,
      "24)": 3506,
      "▁Hindi": 3507,
      "▁had": 3508,
      "▁[2](https://en.wikipedia.org/wiki/India#cite_ref-": 3509,
      "▁[1](https://en.wikipedia.org/wiki/India#cite_ref-": 3510,
      "-to-": 3511,
      "ports": 3512,
      "vision": 3513,
      "▁2010](https://en.wikipedia.org/wiki/India#CITEREF": 3514,
      "countries_by": 3515,
      "▁पुरालेखित।.": 3516,
      "▁जुलाई": 3517,
      "ligious": 3518,
      "censusindia.gov.in/2011": 3519,
      "_के_आधार_पर_भारत_के_राज्य": 3520,
      "Fisher2018": 3521,
      "िकोबार": 3522,
      "88": 3523,
      "9-0)": 3524,
      "धु": 3525,
      "ोष": 3526,
      "▁[doi": 3527,
      "ar,": 3528,
      "प्रदेश": 3529,
      "-40": 3530,
      ".pn": 3531,
      "oi_(identifier)": 3532,
      "▁[Dikshit": 3533,
      "▁\"Doi": 3534,
      "▁period": 3535,
      "ervation": 3536,
      "▁(identifier)\"):[10.": 3537,
      "1]](https://en.wikipedia.org/wiki/India#cite_note-FOOTNOTE": 3538,
      "6).": 3539,
      "97": 3540,
      "BC": 3541,
      "Uttar": 3542,
      "_వ": 3543,
      "va": 3544,
      "खा": 3545,
      "झार": 3546,
      "न](https://hi.wikipedia.org/wiki/": 3547,
      "पासून": 3548,
      "ం\"),": 3549,
      "ంత్రి": 3550,
      "ఆఫ్": 3551,
      "కత": 3552,
      "కై": 3553,
      "క్య": 3554,
      "దాయ": 3555,
      "రే": 3556,
      "లంక": 3557,
      "వీ": 3558,
      "శ్రీ": 3559,
      "షి": 3560,
      "సు": 3561,
      "▁ఏ": 3562,
      "▁en": 3563,
      "▁Union": 3564,
      "pect": 3565,
      "▁[s": 3566,
      "▁[ह": 3567,
      "▁[సి": 3568,
      "▁\"सा": 3569,
      "▁\"पंजाब": 3570,
      "ann": 3571,
      "Ins": 3572,
      "ारिक": 3573,
      "▁किल्": 3574,
      "ised": 3575,
      "eds.": 3576,
      "](https://hi.wikipedia.org/wiki/प": 3577,
      "](https://mr.wikipedia.org/wiki/न": 3578,
      "](https://te.wikipedia.org/wiki/చ": 3579,
      "▁मध्ये": 3580,
      "▁आहार": 3581,
      "adi": 3582,
      "స్సా": 3583,
      "▁పరి": 3584,
      "▁పార్టీ": 3585,
      "ंगलादेश": 3586,
      "▁me": 3587,
      "change": 3588,
      "న్‌": 3589,
      "ांचा": 3590,
      "olk": 3591,
      "▁Talbot": 3592,
      "▁Reg": 3593,
      "▁కు": 3594,
      "▁వచ్చ": 3595,
      "साठी": 3596,
      "](https://mr.wikipedia.org/wiki/भारत#": 3597,
      "संदर्भ": 3598,
      "नेपा": 3599,
      "ముద్ర": 3600,
      "abad": 3601,
      "eport": 3602,
      "▁\"मध्य": 3603,
      "▁पर्य": 3604,
      "सेना": 3605,
      "▁देशों": 3606,
      "्यांच्या": 3607,
      "▁It": 3608,
      "గాంధీ": 3609,
      "▁झाली": 3610,
      "_summit": 3611,
      "▁हिन्": 3612,
      "నేపాల": 3613,
      "▁[↑](https://hi.wikipedia.org/wiki/भारत#cite_ref-FOOTNOTE": 3614,
      "olitics": 3615,
      "▁పేరు": 3616,
      "హిందీ": 3617,
      "ंग्रजी": 3618,
      "▁చెయ్య": 3619,
      "mbol": 3620,
      "िक्की": 3621,
      "▁కూడా": 3622,
      "ughal": 3623,
      "▁होता.": 3624,
      "▁अर्थव्यवस्था": 3625,
      "ంగీతం": 3626,
      "▁became": 3627,
      "ముంబై": 3628,
      "संख्येनुसार": 3629,
      "శ్చిమ": 3630,
      "▁two": 3631,
      "orthern": 3632,
      "▁మార్గ": 3633,
      "▁చెయ్యబడ": 3634,
      "-28": 3635,
      "En": 3636,
      "Pages": 3637,
      "_प": 3638,
      "pa": 3639,
      "work": 3640,
      "द्व": 3641,
      "▁[बा": 3642,
      "▁समुद्र": 3643,
      "▁पक्ष": 3644,
      "▁मूल": 3645,
      "र्दू": 3646,
      "▁प्रमाण": 3647,
      "्षिक": 3648,
      "ासा": 3649,
      "ांधी": 3650,
      "▁विकास": 3651,
      ".php?": 3652,
      "हासागर": 3653,
      ",[[": 3654,
      ".n": 3655,
      "4-7": 3656,
      ":CS1": 3657,
      "IM": 3658,
      "ae": 3659,
      "cri": 3660,
      "cord": 3661,
      "ehr": 3662,
      "hang": 3663,
      "if": 3664,
      "फ्र": 3665,
      "▁we": 3666,
      "▁end": 3667,
      "▁time": 3668,
      "teen": 3669,
      "▁\"व": 3670,
      "](https://en.wikipedia.org/wiki/The": 3671,
      "read": 3672,
      "high": 3673,
      "off": 3674,
      "city": 3675,
      "omin": 3676,
      "ouse": 3677,
      "▁मध्य": 3678,
      "2016": 3679,
      "▁includ": 3680,
      "\n\nM": 3681,
      "▁summit\")": 3682,
      "▁caste": 3683,
      "ussia": 3684,
      "atus": 3685,
      "▁Plate": 3686,
      "illion": 3687,
      "▁तट": 3688,
      "▁Times": 3689,
      "वाधिक": 3690,
      "23)": 3691,
      "1997": 3692,
      "▁2025": 3693,
      "▁2022": 3694,
      "▁general": 3695,
      "▁[\"C": 3696,
      "▁[\"India": 3697,
      "▁एवं": 3698,
      "Indus": 3699,
      "▁\"Economy": 3700,
      "](https://en.wikipedia.org/wiki/Economy": 3701,
      "articles": 3702,
      "ivil": 3703,
      "ujarat": 3704,
      "हिमाचल": 3705,
      "िनेमा": 3706,
      ".indiatimes.com/": 3707,
      "क्र": 3708,
      "जे": 3709,
      "पात": 3710,
      "रि": 3711,
      "रक्ष": 3712,
      "ल्य": 3713,
      "ोच्च": 3714,
      "▁history": 3715,
      "▁क्र": 3716,
      "▁सी": 3717,
      "cond": 3718,
      "▁उदा": 3719,
      "▁War": 3720,
      "ल्प": 3721,
      "वंट": 3722,
      "▁अन्य": 3723,
      "▁साम्राज्य\")": 3724,
      ".png)": 3725,
      "&s": 3726,
      "-B": 3727,
      "-23": 3728,
      ".b": 3729,
      "2).": 3730,
      "53": 3731,
      "5–": 3732,
      "5-0)": 3733,
      "6-0)": 3734,
      "JP": 3735,
      "New": 3736,
      "UN": 3737,
      "c=": 3738,
      "ect": 3739,
      "ebr": 3740,
      "lang": 3741,
      "nam": 3742,
      "rganisation": 3743,
      "vol": 3744,
      "గర": 3745,
      "టక": 3746,
      "టా": 3747,
      "దార": 3748,
      "నీ": 3749,
      "రో": 3750,
      "సభ": 3751,
      "ెద్ద": 3752,
      "▁j": 3753,
      "▁30": 3754,
      "▁[India": 3755,
      "tel": 3756,
      "text": 3757,
      "▁\"च": 3758,
      "▁\"సి": 3759,
      "\");": 3760,
      "](https://en.wikipedia.org/wiki/O": 3761,
      "ered": 3762,
      "eral_": 3763,
      "tionary": 3764,
      "](https://hi.wikipedia.org/wiki/उ": 3765,
      "](https://te.wikipedia.org/wiki/భారత_": 3766,
      "राठी": 3767,
      "ooperation": 3768,
      "▁incre": 3769,
      "▁अनुसार": 3770,
      "atar": 3771,
      "▁प्रमुख": 3772,
      "▁పు": 3773,
      "loy": 3774,
      "▁Pe": 3775,
      "ild": 3776,
      "cean": 3777,
      "00)": 3778,
      "రాజ్య": 3779,
      "ित्त": 3780,
      "▁2017": 3781,
      "▁కేంద్రపాలిత": 3782,
      "▁BRICS": 3783,
      "_(India)": 3784,
      "▁మా": 3785,
      "▁చే": 3786,
      "ము\")": 3787,
      "▁group": 3788,
      "త్స": 3789,
      "▁రాజ్య": 3790,
      "▁[978-0-": 3791,
      "ड़ी": 3792,
      "వాతంత్ర": 3793,
      "ocument": 3794,
      "▁దేశాల": 3795,
      "▁जाते": 3796,
      "](https://en.wikipedia.org/wiki/Doi_(identifier)": 3797,
      "లాదేశ్": 3798,
      "స్తు": 3799,
      "▁సామ్రాజ్యం](https://te.wikipedia.org/wiki/": 3800,
      "▁[Archived](https://web.archive.org/web/201": 3801,
      "ంగ్లాదేశ్": 3802,
      "▁భాషలు": 3803,
      "_का_": 3804,
      "olden": 3805,
      "_ప్రా": 3806,
      "్రిటి": 3807,
      "▁అధికార": 3808,
      "ూర్పు": 3809,
      "how/": 3810,
      "▁[doi](https://en.wikipedia.org/wiki/Doi_(identifier)": 3811,
      "కైవు": 3812,
      "ebruary": 3813,
      "_घ": 3814,
      "voy": 3815,
      "कालीन": 3816,
      "ट्": 3817,
      "ळवंट": 3818,
      "वळ": 3819,
      "िपी": 3820,
      "ुव": 3821,
      "ैकी": 3822,
      "▁५": 3823,
      "▁[पंजाब": 3824,
      "reat": 3825,
      "▁सण": 3826,
      "र्जा": 3827,
      "▁आप": 3828,
      "-00": 3829,
      "▁St": 3830,
      "ास्त": 3831,
      "▁निव": 3832,
      "साम": 3833,
      "हिंदी": 3834,
      "▁./वर्ग:": 3835,
      "%E0%A5%": 3836,
      "▁पाहि": 3837,
      "वंश": 3838,
      "ांची_यादी": 3839,
      "_आणि": 3840,
      "िंह": 3841,
      "odiversity": 3842,
      "_at_the": 3843,
      "▁येथील": 3844,
      "▁प्रत्येक": 3845,
      "िपीडिया": 3846,
      "6/": 3847,
      "71": 3848,
      "86": 3849,
      "C).": 3850,
      "Craven": 3851,
      "TR": 3852,
      "c.": 3853,
      "cat": 3854,
      "cms": 3855,
      "fr": 3856,
      "oa": 3857,
      "press": 3858,
      "rg": 3859,
      "rar": 3860,
      "s.[[": 3861,
      "site": 3862,
      "slam": 3863,
      "ton": 3864,
      "war": 3865,
      "yan": 3866,
      "yayan": 3867,
      "एँ": 3868,
      "मंत्री": 3869,
      "ैक": 3870,
      "▁$": 3871,
      "▁ref": 3872,
      "▁0.": 3873,
      "▁rate": 3874,
      "▁[द": 3875,
      "▁[दक्षिण": 3876,
      "▁[पाकिस्तान": 3877,
      "▁\"दक्षिण": 3878,
      "▁\"पाकिस्तान": 3879,
      "than": 3880,
      "](https://en.wikipedia.org/wiki/I": 3881,
      "arn": 3882,
      "▁sup": 3883,
      "▁Sanskrit": 3884,
      "etail": 3885,
      "lobal": 3886,
      "▁modern": 3887,
      "istrar": 3888,
      "ung": 3889,
      "ष्ण": 3890,
      "▁dec": 3891,
      "▁war": 3892,
      "al_P": 3893,
      "ainting": 3894,
      "▁2004": 3895,
      "▁Nations": 3896,
      "▁सेना": 3897,
      "▁one": 3898,
      ".jpg)](https://hi.wikipedia.org/wiki/चित्र:": 3899,
      "▁than": 3900,
      "म्बर": 3901,
      "imalay": 3902,
      "_Centre": 3903,
      "ड़ा": 3904,
      "हरिया": 3905,
      "▁Press](https://en.wikipedia.org/wiki/": 3906,
      "ublishing": 3907,
      "induism": 3908,
      "onstituent": 3909,
      "-0-19-9": 3910,
      "मूह": 3911,
      "ultan": 3912,
      "atsyayan": 3913,
      "तेलंग": 3914,
      "International": 3915,
      "▁Commissioner": 3916,
      "tecture": 3917,
      "Harle1994": 3918,
      "ricket": 3919,
      "झारखंड": 3920,
      "Craven1997": 3921,
      "-of": 3922,
      "8-0)": 3923,
      "lor": 3924,
      "टे": 3925,
      "प्": 3926,
      "स\")": 3927,
      "ाट": 3928,
      "▁ra": 3929,
      "Indian_": 3930,
      "esearch": 3931,
      "▁वन": 3932,
      "▁अरब": 3933,
      "▁British": 3934,
      "▁2003": 3935,
      "▁\"महाराष्ट्र": 3936,
      "▁K.": 3937,
      "पूर्ण": 3938,
      "124": 3939,
      "2]](https://en.wikipedia.org/wiki/India#cite_note-FOOTNOTE": 3940,
      "84": 3941,
      "99": 3942,
      "EO": 3943,
      "II": 3944,
      "WEO": 3945,
      "_V": 3946,
      "ahar": 3947,
      "cul": 3948,
      "jan": 3949,
      "minist": 3950,
      "vatsyayan": 3951,
      "योग": 3952,
      "वान": 3953,
      "शन": 3954,
      "शा": 3955,
      "ोज": 3956,
      "२६": 3957,
      "ంజా": 3958,
      "గి": 3959,
      "టీ": 3960,
      "టాన్": 3961,
      "మంత్రి": 3962,
      "లను": 3963,
      "వె": 3964,
      "వరణ": 3965,
      "హదార": 3966,
      "ూచ": 3967,
      "▁హ": 3968,
      "▁am": 3969,
      "▁భారతదేశ": 3970,
      "▁2.": 3971,
      "▁emp": 3972,
      "tes": 3973,
      "ins": 3974,
      "errit": 3975,
      "religion": 3976,
      "omas": 3977,
      "▁(eds.": 3978,
      "్రమ": 3979,
      "ical_": 3980,
      "्तर": 3981,
      "▁such": 3982,
      "-14": 3983,
      "inguis": 3984,
      "ammu": 3985,
      "▁Ch": 3986,
      "▁Chin": 3987,
      "▁States": 3988,
      "▁दिस": 3989,
      "नाम": 3990,
      "ांध": 3991,
      "▁**राष्ट्रीय": 3992,
      "భారతదేశ_": 3993,
      "▁కొ": 3994,
      "25)": 3995,
      "▁later": 3996,
      "26)": 3997,
      "▁వ్యా": 3998,
      "1990": 3999,
      "प्रा": 4000,
      "▁మత": 4001,
      "▁మతము": 4002,
      "తావరణ": 4003,
      "నాడు": 4004,
      "aksh": 4005,
      "▁[मध्य": 4006,
      "▁there": 4007,
      "▁February": 4008,
      "▁northern": 4009,
      "▁एशिया": 4010,
      "osed": 4011,
      "imf": 4012,
      "](https://en.wikipedia.org/wiki/South_Asia": 4013,
      "▁[*The": 4014,
      "](Special:BookSources/978-0-": 4015,
      "_मेला": 4016,
      "▁\"Special:BookSources/978-0-": 4017,
      "▁ఇతర": 4018,
      "ాయి": 4019,
      "_BRICS": 4020,
      "india.gov.in": 4021,
      "ణాసియా": 4022,
      "athak": 4023,
      "गणना": 4024,
      "duction": 4025,
      "▁million": 4026,
      "టెడ్": 4027,
      "▁ఆర్కైవు": 4028,
      "inistry_of_": 4029,
      "-lord": 4030,
      "▁రైలు": 4031,
      "భూటాన్": 4032,
      "स्लामी": 4033,
      "▁लाग": 4034,
      "▁classical": 4035,
      "ौर्य": 4036,
      "_సామ్రాజ్యం": 4037,
      "ताजमह": 4038,
      "Informatics": 4039,
      "▁सर्वाधिक": 4040,
      "IMF": 4041,
      "ehru": 4042,
      "\n\nMain": 4043,
      "langoff": 4044,
      "వాతంత్ర్య": 4045,
      "vatsyayan-lord": 4046,
      "3/": 4047,
      "Taj": 4048,
      "_J": 4049,
      "eb": 4050,
      "तिक": 4051,
      "बी": 4052,
      "ैल": 4053,
      "▁\"द": 4054,
      "itz": 4055,
      "र्क": 4056,
      "1967": 4057,
      "▁some": 4058,
      "\\_m": 4059,
      "\\_us": 4060,
      "▁दो": 4061,
      "▁गु": 4062,
      "▁संसद": 4063,
      "ritsch": 4064,
      "राष्ट्रीय_": 4065,
      "धानी": 4066,
      "म्राट": 4067,
      "_भारतीय_": 4068,
      "तेलु": 4069,
      "2–": 4070,
      "55": 4071,
      "Wolpert": 4072,
      "_11": 4073,
      "_for": 4074,
      "e/": 4075,
      "ele": 4076,
      "ealth": 4077,
      "men": 4078,
      "ning": 4079,
      "rd": 4080,
      "ras": 4081,
      "utt": 4082,
      "ures": 4083,
      "घालय": 4084,
      "पति": 4085,
      "य.": 4086,
      "वेश": 4087,
      "िझ": 4088,
      "▁29": 4089,
      "▁[m": 4090,
      "▁[United": 4091,
      "arly": 4092,
      "arna": 4093,
      "alore": 4094,
      "्यता": 4095,
      "▁क्रम": 4096,
      "▁सैन": 4097,
      "](https://mr.wikipedia.org/wiki/सा": 4098,
      "▁पड": 4099,
      "▁पह": 4100,
      "▁पार्": 4101,
      "ould": 4102,
      "astern": 4103,
      "196": 4104,
      "rac": 4105,
      "▁वैदिक": 4106,
      "▁south": 4107,
      "right": 4108,
      "▁अज": 4109,
      "uslim": 4110,
      "ालदीव": 4111,
      "atak": 4112,
      "ेंज": 4113,
      "▁दोन": 4114,
      "angalore": 4115,
      "▁mathe": 4116,
      "त्रूटी": 4117,
      "▁1,": 4118,
      "▁14": 4119,
      "▁Per": 4120,
      "olle": 4121,
      "ticle": 4122,
      "▁2018](https://en.wikipedia.org/wiki/India#CITEREF": 4123,
      ".com/news/": 4124,
      "▁GDP": 4125,
      "akh": 4126,
      "▁यादी": 4127,
      "▁1947": 4128,
      "▁होत": 4129,
      "ंदू": 4130,
      "ंदमान": 4131,
      "▁[*India": 4132,
      "owland": 4133,
      "वेर": 4134,
      "▁असले": 4135,
      "▁असून": 4136,
      "▁असते.": 4137,
      "▁प्राणी": 4138,
      "वरील": 4139,
      "ankar": 4140,
      "गुप्त": 4141,
      "▁जाता": 4142,
      "▁2011.\n-": 4143,
      "करण": 4144,
      "▁union": 4145,
      "_आशिया": 4146,
      "rowth": 4147,
      "▁who": 4148,
      "▁काळात": 4149,
      "tent": 4150,
      "▁2019.": 4151,
      "▁शासन": 4152,
      "](https://hi.wikipedia.org/wiki/भारत_में_": 4153,
      "parame": 4154,
      "-in-": 4155,
      "limate": 4156,
      "Articles": 4157,
      "तंत्रता": 4158,
      "▁Act,": 4159,
      "हाय्य:CS1": 4160,
      "▁पठार": 4161,
      "चिन्हे": 4162,
      "](https://en.wikipedia.org/wiki/Economy_of_": 4163,
      "▁\"पाकिस्तान\")": 4164,
      "erritory": 4165,
      "3_": 4166,
      "South": 4167,
      "_with": 4168,
      "_13": 4169,
      "ho": 4170,
      "▁ऊ": 4171,
      "▁संगीत": 4172,
      "▁पृष्ठ": 4173,
      "▁आर्थिक": 4174,
      "get": 4175,
      "नाव": 4176,
      "state": 4177,
      "onservation": 4178,
      "वादी": 4179,
      "al_in_": 4180,
      "▁Language": 4181,
      "श्च": 4182,
      "▁देश\")": 4183,
      "_Temple": 4184,
      "पीठ": 4185,
      ".html)": 4186,
      "भीम": 4187,
      "voyage": 4188,
      "\"](https://books.google.com/books?id=": 4189,
      "/auth": 4190,
      "129": 4191,
      "127": 4192,
      "2,": 4193,
      "32": 4194,
      "3]](https://en.wikipedia.org/wiki/India#cite_note-FOOTNOTE": 4195,
      "7,": 4196,
      "Con": 4197,
      "Dikshit": 4198,
      "Empire": 4199,
      "European": 4200,
      "LA": 4201,
      "Qu": 4202,
      "Schwartzberg": 4203,
      "a-": 4204,
      "a.": 4205,
      "aus": 4206,
      "can": 4207,
      "gram": 4208,
      "ria": 4209,
      "s-": 4210,
      "ving": 4211,
      "ymbol": 4212,
      "मृत": 4213,
      "र\")": 4214,
      "रवरी": 4215,
      "शोक": 4216,
      "ाय": 4217,
      "ेस": 4218,
      "ంశ": 4219,
      "ఆర్": 4220,
      "ఉత్తర": 4221,
      "ఒడి": 4222,
      "కీయ": 4223,
      "గలు": 4224,
      "చు": 4225,
      "జరా": 4226,
      "తూర్పు": 4227,
      "ది.": 4228,
      "భు": 4229,
      "మన్": 4230,
      "యి": 4231,
      "లస": 4232,
      "ీన": 4233,
      "ేక": 4234,
      "▁డ": 4235,
      "▁रा": 4236,
      "▁జాబితా": 4237,
      "▁under": 4238,
      "win": 4239,
      "▁[భారతదేశ": 4240,
      "▁\"V": 4241,
      "tig": 4242,
      "](https://en.wikipedia.org/wiki/V": 4243,
      "arliament": 4244,
      "](https://hi.wikipedia.org/wiki/ग": 4245,
      "asing": 4246,
      "▁महा": 4247,
      "2017": 4248,
      "rative": 4249,
      "▁वै": 4250,
      "ingdom": 4251,
      "▁Con": 4252,
      "▁Ac": 4253,
      "ेशन": 4254,
      "▁పట్ట": 4255,
      "▁दर": 4256,
      "▁द्व": 4257,
      "ర్\")": 4258,
      "▁many": 4259,
      "urch": 4260,
      "▁जी": 4261,
      "▁Pakistan": 4262,
      "](https://hi.wikipedia.org/wiki/भारत_की_": 4263,
      "▁**జాతీయ": 4264,
      "21)": 4265,
      "्वे": 4266,
      "▁2013": 4267,
      "resent": 4268,
      "विज्ञान": 4269,
      "▁long": 4270,
      "▁large": 4271,
      "indus": 4272,
      "నిక": 4273,
      "1996": 4274,
      "ources": 4275,
      "ంగ్రె": 4276,
      "▁Economic": 4277,
      "▁సభ": 4278,
      "0%E0%A": 4279,
      "తాబ్": 4280,
      "▁[महाराष्ट्र": 4281,
      "ast_Asia": 4282,
      "▁ప్రపంచ": 4283,
      "▁ప్రభు": 4284,
      "णिपुरी": 4285,
      "▁art": 4286,
      "utra": 4287,
      "▁ఆసియా": 4288,
      "]](https://hi.wikipedia.org/wiki/भारत#cite_note-1": 4289,
      "▁original](https://": 4290,
      "▁original](https://www.": 4291,
      "leshow/": 4292,
      "మ్రాజ్య": 4293,
      "Indones": 4294,
      "▁*[The": 4295,
      "▁rule": 4296,
      "%2C_": 4297,
      "▁cont": 4298,
      "గుజరా": 4299,
      "▁సామ్రాజ్యం\")": 4300,
      "...": 4301,
      "▁people": 4302,
      "MetcalfMetcalf2006),": 4303,
      "త్యేక": 4304,
      "రాష్ట్రపతి": 4305,
      "ప్ప": 4306,
      "▁కాశ్మీ": 4307,
      "▁రాజవంశం": 4308,
      "▁2021.": 4309,
      "▁చెంద": 4310,
      "▁ఆర్ధిక": 4311,
      "/articleshow/": 4312,
      "▁समय": 4313,
      "नागाल": 4314,
      "▁స్థాన": 4315,
      "▁Environment": 4316,
      "తమిళనాడు": 4317,
      "ప్రధానమంత్రి": 4318,
      "గణతంత్ర": 4319,
      "▁క్రీడ": 4320,
      "▁industry": 4321,
      "_Development": 4322,
      "▁[↑](https://hi.wikipedia.org/wiki/भारत#cite_ref-1": 4323,
      ".aspx": 4324,
      "censusindia.gov.in/2011census": 4325,
      "ఆఫ్ఘ": 4326,
      "శ్రీలంక": 4327,
      "షియా": 4328,
      "న్‌ఫ": 4329,
      "నేపాల్": 4330,
      "▁చెయ్యబడింది.": 4331,
      "हरियाणा": 4332,
      "▁among": 4333,
      "▁(eds.).": 4334,
      "inguistic": 4335,
      "Informatics_Centre": 4336,
      "DikshitSchwartzberg": 4337,
      "gramme": 4338,
      "తాబ్ద": 4339,
      "DikshitSchwartzberg2023": 4340,
      "94": 4341,
      "ie": 4342,
      "iodiversity": 4343,
      "काल": 4344,
      "तान": 4345,
      "निक": 4346,
      "ोप": 4347,
      "orest": 4348,
      "▁[व": 4349,
      "reed": 4350,
      "▁काल": 4351,
      "▁(इ": 4352,
      "र्ष": 4353,
      "\n\n|": 4354,
      "▁since": 4355,
      "▁अग": 4356,
      "-16": 4357,
      "▁जून": 4358,
      "roj": 4359,
      "ष्ठ": 4360,
      "▁R.": 4361,
      "▁शहर": 4362,
      "upta": 4363,
      "▁विष": 4364,
      "▁विद्य": 4365,
      "dik": 4366,
      "ैदान": 4367,
      "\"](https://web.archive.org/web/20160": 4368,
      "क्षेत्रफ": 4369,
      ".svg/": 4370,
      "मेरिक": 4371,
      ".svg.png)": 4372,
      "▁उदाहर": 4373,
      "\\_using\\_": 4374,
      "-25": 4375,
      ".htm": 4376,
      "/S": 4377,
      "0)": 4378,
      "300": 4379,
      "545": 4380,
      "6–": 4381,
      "6]](https://en.wikipedia.org/wiki/India#cite_note-": 4382,
      "7-0)": 4383,
      "Ludden": 4384,
      "RL": 4385,
      "Spear": 4386,
      "_t": 4387,
      "_राज": 4388,
      "ck": 4389,
      "ced": 4390,
      "c/c": 4391,
      "gra": 4392,
      "languages": 4393,
      "ner": 4394,
      "ura": 4395,
      "vid": 4396,
      "west": 4397,
      "y,": 4398,
      "एस": 4399,
      "दरा": 4400,
      "यार": 4401,
      "▁em": 4402,
      "▁out": 4403,
      "pee": 4404,
      "▁\"India": 4405,
      "▁\"United": 4406,
      "▁\"उत्तर": 4407,
      "▁\"Indo-": 4408,
      "](https://en.wikipedia.org/wiki/Indo-": 4409,
      "ara": 4410,
      "cis": 4411,
      "tions": 4412,
      "ed/": 4413,
      "](https://hi.wikipedia.org/wiki/इ": 4414,
      "](https://hi.wikipedia.org/wiki/सं": 4415,
      "▁(1,": 4416,
      "achin": 4417,
      "-11": 4418,
      "-15": 4419,
      "▁CE": 4420,
      "▁All": 4421,
      "▁Arab": 4422,
      "▁Afric": 4423,
      "etary": 4424,
      "▁दी": 4425,
      "umar": 4426,
      "▁11": 4427,
      "ilk": 4428,
      "▁Min": 4429,
      "▁Modern": 4430,
      "▁2011.": 4431,
      "ments": 4432,
      "▁Bank": 4433,
      "▁land": 4434,
      "▁India\").": 4435,
      "▁economic": 4436,
      "▁General": 4437,
      "_in_South_Asia": 4438,
      "form": 4439,
      "_Summit": 4440,
      "own": 4441,
      "वेली": 4442,
      "▁चु": 4443,
      "key": 4444,
      "erala": 4445,
      "ineering": 4446,
      "arket": 4447,
      "hrist": 4448,
      "visions": 4449,
      "trol": 4450,
      "▁हुई": 4451,
      "ynast": 4452,
      "त्तराखंड": 4453,
      "माजिक": 4454,
      "NGDP": 4455,
      "▁Assembly": 4456,
      "teenth": 4457,
      "0%E0%A4%": 4458,
      "ast_Asia_Summit": 4459,
      "aha": 4460,
      "henn": 4461,
      "इंडिया": 4462,
      "घल": 4463,
      "जिं": 4464,
      "भि": 4465,
      "रस्व": 4466,
      "लया": 4467,
      "ळू": 4468,
      "ळ](https://mr.wikipedia.org/wiki/": 4469,
      "hib": 4470,
      "mrits": 4471,
      "](https://mr.wikipedia.org/wiki/प": 4472,
      "](https://mr.wikipedia.org/wiki/ल": 4473,
      "▁पान": 4474,
      "▁मस": 4475,
      "icon": 4476,
      "▁वृ": 4477,
      "▁power": 4478,
      "entr": 4479,
      "▁अतिश": 4480,
      "ात्": 4481,
      "ांमध्ये": 4482,
      "ains": 4483,
      "▁./वर्ग:CS1": 4484,
      "ियन": 4485,
      "▁देशांची": 4486,
      "ंतप्रधान": 4487,
      "्यांमध्ये": 4488,
      "▁घे": 4489,
      "▁1994": 4490,
      "▁2007](https://mr.wikipedia.org/wiki/भारत#": 4491,
      "▁\"जगातील": 4492,
      "▁अनु": 4493,
      "shit),": 4494,
      "गुजराती": 4495,
      "गातील_देश": 4496,
      "](https://mr.wikipedia.org/wiki/जगातील_देश": 4497,
      "वार्षिक": 4498,
      "विकिपीडिया": 4499,
      "▁मोठ्या": 4500,
      "▁पर्वत": 4501,
      "▁किल्ला": 4502,
      "वेरूळ": 4503,
      "▁विद्यार्थ": 4504,
      "dikshit),": 4505,
      "hennai": 4506,
      "जिंठा": 4507,
      "रस्वती": 4508,
      "▁2007](https://mr.wikipedia.org/wiki/भारत#dikshit),": 4509,
      "विकिपीडिया:": 4510,
      "-78": 4511,
      ".IN": 4512,
      ".fr": 4513,
      "/index": 4514,
      "89": 4515,
      "Pro": 4516,
      "Se": 4517,
      "_ప్రదేశ్": 4518,
      "ave": 4519,
      "fgh": 4520,
      "hal": 4521,
      "ii": 4522,
      "ix": 4523,
      "iri": 4524,
      "k:": 4525,
      "m.nic.in/": 4526,
      "nal": 4527,
      "ncl": 4528,
      "rdu": 4529,
      "ua": 4530,
      "zation": 4531,
      "खाना": 4532,
      "हू": 4533,
      "ेघालय": 4534,
      "ोवा": 4535,
      "१८": 4536,
      "ం,": 4537,
      "ఉప": 4538,
      "కొ": 4539,
      "కేంద్రపాలిత": 4540,
      "జె": 4541,
      "ఢ్": 4542,
      "నాల": 4543,
      "లే": 4544,
      "ళు": 4545,
      "ౌద్ధ": 4546,
      "▁ठ": 4547,
      "▁he": 4548,
      "▁భా": 4549,
      "▁imp": 4550,
      "▁high": 4551,
      "dian": 4552,
      "▁[V": 4553,
      "▁[వి": 4554,
      "▁\"Oxford": 4555,
      "ines": 4556,
      "inance": 4557,
      "tition": 4558,
      "reme": 4559,
      "▁समा": 4560,
      "ominal": 4561,
      "▁(*": 4562,
      "itary": 4563,
      "ictionary": 4564,
      "▁social": 4565,
      "ాలీ": 4566,
      "-111": 4567,
      "▁दिया": 4568,
      "ర్చ": 4569,
      "▁maj": 4570,
      "urton": 4571,
      "ility": 4572,
      "▁नगर": 4573,
      "003": 4574,
      "▁बढ़": 4575,
      "▁2015": 4576,
      "▁total": 4577,
      "ాలు?action=edit&redlink=1": 4578,
      ".[[3": 4579,
      "pecial:EditPage/": 4580,
      "ainism": 4581,
      "▁Nadu": 4582,
      "-317": 4583,
      "▁संबंध": 4584,
      "_Sh": 4585,
      "▁her": 4586,
      "▁[\"The": 4587,
      "apan": 4588,
      "–సా.శ.18": 4589,
      "overe": 4590,
      "▁అత్య": 4591,
      "▁परंत": 4592,
      "▁[Asher": 4593,
      "▁article": 4594,
      "▁१२": 4595,
      "▁Kashmir": 4596,
      "स्तान\")": 4597,
      "▁ఆధ": 4598,
      "ffer": 4599,
      "ffice": 4600,
      "logo": 4601,
      "ड़े": 4602,
      "మాఖ్య": 4603,
      "వాణా": 4604,
      "ligence": 4605,
      "ంటి": 4606,
      "▁depend": 4607,
      "▁దేశం": 4608,
      "▁area": 4609,
      "▁\"National": 4610,
      "డ్డ": 4611,
      "▁జనాభా": 4612,
      "దక్షిణాసియా": 4613,
      "▁3,": 4614,
      "▁గల": 4615,
      "▁భారతదేశంలో": 4616,
      "ంగ్లీ": 4617,
      "qual": 4618,
      "యునై": 4619,
      "ష్ణ": 4620,
      "meric": 4621,
      "pura": 4622,
      "▁2021.\n": 4623,
      "_చరిత్ర?action=edit&redlink=1": 4624,
      "▁हुआ": 4625,
      "ront": 4626,
      "▁ప్రాంతాలు": 4627,
      "▁territory": 4628,
      "/article": 4629,
      "▁రాష్ట్రాలు,": 4630,
      "%20%20%20%20": 4631,
      "▁लिए": 4632,
      "_మతము": 4633,
      "▁नृत्य\")": 4634,
      "▁भाष": 4635,
      "▁खाना\")": 4636,
      "▁మొద": 4637,
      "-language\\_": 4638,
      "ustralia": 4639,
      "union_territ": 4640,
      "telligence": 4641,
      "ildlife": 4642,
      "arnatak": 4643,
      "WEO.IN": 4644,
      "IMFWEO.IN": 4645,
      "Spear1990": 4646,
      "fghan": 4647,
      "nclm.nic.in/": 4648,
      "pecial:EditPage/Template:": 4649,
      "▁परंतु": 4650,
      "యునైటెడ్": 4651,
      "*)": 4652,
      "=`": 4653,
      "_2004": 4654,
      "`|": 4655,
      "uth": 4656,
      "ंची": 4657,
      "धि": 4658,
      "नत": 4659,
      "मिक": 4660,
      "ैस": 4661,
      "aran": 4662,
      "▁सो": 4663,
      "▁पार": 4664,
      "▁Science": 4665,
      "▁जल": 4666,
      "▁निकोबार": 4667,
      "वाहर": 4668,
      "▁शै": 4669,
      "ubcontinent": 4670,
      "22)": 4671,
      "▁([link": 4672,
      "-pro": 4673,
      "_maint:": 4674,
      "aint:\\_": 4675,
      "स्थाप": 4676,
      ".html).": 4677,
      "▁लेख:": 4678,
      "\\_maint:\\_": 4679,
      "वाहरलाल": 4680,
      "-29": 4681,
      "66": 4682,
      "72": 4683,
      "81": 4684,
      "_n": 4685,
      "_26": 4686,
      "ao": 4687,
      "az": 4688,
      "economic": 4689,
      "election": 4690,
      "ks": 4691,
      "len": 4692,
      "les/": 4693,
      "my": 4694,
      "owe": 4695,
      "olog": 4696,
      "t-": 4697,
      "tl": 4698,
      "ंक": 4699,
      "भरत": 4700,
      "वसाय": 4701,
      "हान": 4702,
      "िख": 4703,
      "ीया": 4704,
      "▁छ": 4705,
      "▁ci": 4706,
      "▁oc": 4707,
      "▁term": 4708,
      "▁[Oxford": 4709,
      "▁\"[": 4710,
      "▁\"य": 4711,
      "▁\"हिन्": 4712,
      "tis": 4713,
      "hip": 4714,
      "▁(2018": 4715,
      "▁they": 4716,
      "19.": 4717,
      "1970": 4718,
      "oot": 4719,
      "▁वार": 4720,
      "▁sp": 4721,
      "\\_articles": 4722,
      "▁Al": 4723,
      "▁SAARC": 4724,
      "ety": 4725,
      "etra": 4726,
      "ada": 4727,
      "▁found": 4728,
      "lopedia": 4729,
      "▁both": 4730,
      "▁trans": 4731,
      "chool": 4732,
      "urve": 4733,
      "urban": 4734,
      "ियां": 4735,
      "ulti": 4736,
      "▁Mon": 4737,
      "tical_": 4738,
      "ight": 4739,
      "109": 4740,
      "▁largest": 4741,
      "industry": 4742,
      "ayback": 4743,
      "ly,": 4744,
      "india-g": 4745,
      "28)": 4746,
      "▁2026": 4747,
      "-30": 4748,
      "verse": 4749,
      "▁...": 4750,
      "osi": 4751,
      "epart": 4752,
      "▁कोर": 4753,
      "](https://en.wikipedia.org/wiki/South": 4754,
      "▁[978-0": 4755,
      "](Special:BookSources/978-0": 4756,
      "▁\"Special:BookSources/978-0": 4757,
      "दादरा": 4758,
      "-108": 4759,
      "riculture": 4760,
      "▁क्षेत्र\")": 4761,
      "-0-19-5": 4762,
      "क्स": 4763,
      "904-7": 4764,
      "श्चिमी": 4765,
      "onstitutional": 4766,
      "▁\"History": 4767,
      "माणु": 4768,
      "्रीका": 4769,
      "▁फ़": 4770,
      "ography": 4771,
      "](https://en.wikipedia.org/wiki/History": 4772,
      "ohn": 4773,
      "ंग्ला": 4774,
      "-0-521-80": 4775,
      "▁play": 4776,
      "▁used": 4777,
      "▁थी": 4778,
      "▁world's": 4779,
      "द्योगिकी": 4780,
      "KulkeRothermund2004": 4781,
      "cyclopedia": 4782,
      "ंग्लिश": 4783,
      "▁estim": 4784,
      "-0-19-88": 4785,
      "National_Informatics_Centre": 4786,
      "▁2006](https://en.wikipedia.org/wiki/India#CITEREFMetcalfMetcalf2006),": 4787,
      "▁हिन्दी": 4788,
      "▁दिसम्बर": 4789,
      "▁article:": 4790,
      "fghanistan": 4791,
      "▁occ": 4792,
      "epartment": 4793,
      "-0-521-80904-7": 4794,
      "National_Informatics_Centre2005": 4795,
      "5).": 4796,
      "Bharat": 4797,
      "March": 4798,
      "b/": 4799,
      "गी": 4800,
      "गरा": 4801,
      "थक": 4802,
      "शक": 4803,
      "सभ": 4804,
      "सर": 4805,
      "ाप": 4806,
      "▁[लोक": 4807,
      "▁[उत्तर": 4808,
      "▁केंद्रशासित": 4809,
      "राठा": 4810,
      "ंगे": 4811,
      "▁movement": 4812,
      "▁12": 4813,
      "▁बौद्ध": 4814,
      "विद्या": 4815,
      "▁economy": 4816,
      "▁Official": 4817,
      "_Mah": 4818,
      "%E0%A4%9": 4819,
      "ंग्रेस": 4820,
      "_नृत्य": 4821,
      "▁निर्म": 4822,
      "पेक्ष": 4823,
      "ilgrim": 4824,
      "प्पा": 4825,
      "3,": 4826,
      "34)": 4827,
      "5/": 4828,
      "6]](https://en.wikipedia.org/wiki/India#cite_note-FOOTNOTE": 4829,
      "73": 4830,
      ":EditPage/": 4831,
      "Ary": 4832,
      "CIA": 4833,
      "Library": 4834,
      "Robb": 4835,
      "Sharma": 4836,
      "Un": 4837,
      "_న": 4838,
      "_क्षेत्र": 4839,
      "bank": 4840,
      "detail": 4841,
      "itt": 4842,
      "ili": 4843,
      "ihar": 4844,
      "lack": 4845,
      "ple": 4846,
      "ris": 4847,
      "ser": 4848,
      "ंचा": 4849,
      "एशिया": 4850,
      "कल्प": 4851,
      "पैकी": 4852,
      "मारत": 4853,
      "ळख": 4854,
      "वारी": 4855,
      "ह्या": 4856,
      "ूण": 4857,
      "ैंड": 4858,
      "ఖండ": 4859,
      "గం": 4860,
      "టిక": 4861,
      "డే": 4862,
      "ద్య": 4863,
      "మార్": 4864,
      "మాలయ": 4865,
      "లలో": 4866,
      "లకు": 4867,
      "ళ్": 4868,
      "వ](https://te.wikipedia.org/wiki/": 4869,
      "ానికి": 4870,
      "ాళు": 4871,
      "ీర్": 4872,
      "▁,": 4873,
      "▁భ": 4874,
      "▁50": 4875,
      "▁6.": 4876,
      "▁యు": 4877,
      "▁[ओ": 4878,
      "▁[ड": 4879,
      "▁\"వి": 4880,
      "▁\"साँ": 4881,
      "\")[[": 4882,
      "ancy": 4883,
      "20)": 4884,
      "▁किन": 4885,
      "▁सद": 4886,
      "them": 4887,
      "](https://hi.wikipedia.org/wiki/न": 4888,
      "](https://hi.wikipedia.org/wiki/साँ": 4889,
      "omes": 4890,
      "](https://mr.wikipedia.org/wiki/उ": 4891,
      "](https://mr.wikipedia.org/wiki/सं": 4892,
      "▁पासून": 4893,
      "▁(India": 4894,
      "▁India*](https://books.google.com/books?id=": 4895,
      "rature": 4896,
      "ాలో": 4897,
      "inger": 4898,
      "▁Company": 4899,
      "▁Affairs": 4900,
      "▁Summit\")": 4901,
      "స్వ": 4902,
      "స్లా": 4903,
      "▁పాల": 4904,
      "▁केली": 4905,
      "▁member": 4906,
      "▁minister": 4907,
      "chin": 4908,
      "▁जगातील": 4909,
      "న్\")": 4910,
      "▁Pl": 4911,
      "ISO": 4912,
      "states": 4913,
      "road": 4914,
      "▁नद": 4915,
      "▁बांध": 4916,
      "▁Raj": 4917,
      "emale": 4918,
      "▁కార": 4919,
      "▁కలి": 4920,
      "▁Bengal": 4921,
      "ोंड": 4922,
      "▁काम": 4923,
      "वाघ": 4924,
      "वाह": 4925,
      "రిహ": 4926,
      "రికత": 4927,
      "క్నాల": 4928,
      "ంది": 4929,
      "నిమా": 4930,
      "▁Delhi": 4931,
      "▁India\")\n\n": 4932,
      "स्तन": 4933,
      "](https://mr.wikipedia.org/wiki/भारत#CITEREF": 4934,
      "▁गेट": 4935,
      "▁సంగీతం": 4936,
      "▁Gandhi": 4937,
      "द्रा": 4938,
      "▁इमारत": 4939,
      "नेय": 4940,
      "त्त्व": 4941,
      "▁చి": 4942,
      "▁human": 4943,
      "▁साम्राज": 4944,
      "▁सामाजिक": 4945,
      "▁north": 4946,
      "ులు\"),": 4947,
      "–సా.శ.13": 4948,
      "▁అయ": 4949,
      "harm": 4950,
      "epal": 4951,
      "▁ప్రధాన": 4952,
      "णिपूर": 4953,
      "ప్రదాయ": 4954,
      "ప్రత్యేక": 4955,
      "ద్వీ": 4956,
      "▁ఉప": 4957,
      "def": 4958,
      "▁రె": 4959,
      "▁करून": 4960,
      "▁began": 4961,
      "ock": 4962,
      "हीं": 4963,
      "rief": 4964,
      "న్నడ": 4965,
      "extra": 4966,
      "ంటు": 4967,
      "▁extra": 4968,
      "वरून": 4969,
      "▁దేశంలో": 4970,
      "ాయి.": 4971,
      "▁जातो.": 4972,
      "viol": 4973,
      "uddhism": 4974,
      "engali": 4975,
      "కాశ్మీ": 4976,
      "ingham": 4977,
      "ibet": 4978,
      "ంధు": 4979,
      "వర్గం:Harv": 4980,
      "ultural": 4981,
      "ద్ధం": 4982,
      "ద్ధి": 4983,
      "ాల్దీవ": 4984,
      "చ్చే": 4985,
      "ducation": 4986,
      "rown": 4987,
      "దక్షిణ_": 4988,
      "Oxford_University_Press": 4989,
      "▁उपसा": 4990,
      "▁కాంగ్రె": 4991,
      "Stein2010),": 4992,
      "▁वर्षां": 4993,
      "▁सर्वांत": 4994,
      "-india-": 4995,
      "టెక్నాల": 4996,
      "హిమాలయ": 4997,
      "▁उत्प": 4998,
      "▁उत्पाद": 4999,
      "▁Empire\")": 5000,
      "ृष्ट्या": 5001,
      "▁वेग": 5002,
      "▁ओळख": 5003,
      "ग्नेय": 5004,
      "▁లే": 5005,
      "త్తరా": 5006,
      "నాగరికత": 5007,
      "orities": 5008,
      "క్కువ": 5009,
      "esert": 5010,
      "క్‌సభ": 5011,
      "▁శాస్త్ర": 5012,
      "apita": 5013,
      "तांशी": 5014,
      "▁मार्च": 5015,
      "वेबैक": 5016,
      "ెలుగు": 5017,
      "▁2010](https://en.wikipedia.org/wiki/India#CITEREFStein2010),": 5018,
      "▁వచ్చింది.": 5019,
      "िक्कीम": 5020,
      "_ప్రాంత": 5021,
      "▁निवड": 5022,
      "ांची_यादी_(": 5023,
      "rgani": 5024,
      "yanmar": 5025,
      "▁Press](https://en.wikipedia.org/wiki/Oxford_University_Press": 5026,
      "ultanate": 5027,
      "ministrative": 5028,
      "Wolpert2003": 5029,
      "य.ए": 5030,
      "▁द्वारा": 5031,
      "▁अतिशय": 5032,
      "](https://mr.wikipedia.org/wiki/जगातील_देशांची_यादी_(": 5033,
      "विकिपीडिया:संदर्भ": 5034,
      "ర్చ:": 5035,
      "Spear199024": 5036,
      "▁फ़रवरी": 5037,
      ":EditPage/మూస:": 5038,
      "ह्याद्र": 5039,
      "ాళుక్య": 5040,
      "ప్రత్యేక:EditPage/మూస:": 5041,
      "టెక్నాలజీ": 5042,
      "\"[[": 5043,
      "_-": 5044,
      "f/": 5045,
      "ंच": 5046,
      "काता": 5047,
      "गू": 5048,
      "बेट": 5049,
      "भु": 5050,
      "यो": 5051,
      "लम": 5052,
      "▁—": 5053,
      "▁\"राजस्थान": 5054,
      "India_G": 5055,
      "र्ज": 5056,
      "▁S.": 5057,
      "▁दु": 5058,
      "▁western": 5059,
      "न्ह": 5060,
      "चेन्न": 5061,
      "▁शा": 5062,
      "▁विस्त": 5063,
      "▁परि": 5064,
      "ोलकाता": 5065,
      "िरपेक्ष": 5066,
      "▁हिमालय": 5067,
      "▁२०१": 5068,
      "▁आक्रम": 5069,
      "▁जयंती": 5070,
      "Taj_Mah": 5071,
      "al_in_March": 5072,
      "भीमबेट": 5073,
      "reedom": 5074,
      "▁\"राजस्थान\")": 5075,
      "चेन्नई": 5076,
      "Taj_Mahal_in_March": 5077,
      "भीमबेटका": 5078,
      "Taj_Mahal_in_March_2004": 5079,
      "/P": 5080,
      "318": 5081,
      "3TR": 5082,
      "4]](https://en.wikipedia.org/wiki/India#cite_note-": 5083,
      "Congress": 5084,
      "IB": 5085,
      "St": 5086,
      "_g": 5087,
      "_en": 5088,
      "_38": 5089,
      "ball": 5090,
      "dr": 5091,
      "hind": 5092,
      "i,": 5093,
      "ities": 5094,
      "ling": 5095,
      "lance": 5096,
      "nominal": 5097,
      "ंट": 5098,
      "खण्ड": 5099,
      "ण\")": 5100,
      "दि": 5101,
      "समूह": 5102,
      "ोस": 5103,
      "▁/": 5104,
      "▁ed.).": 5105,
      "oral": 5106,
      "orical": 5107,
      "](Category:": 5108,
      "▁[c": 5109,
      "▁[19": 5110,
      "▁\"ओ": 5111,
      "▁\"ड": 5112,
      "▁\"दिल्ली": 5113,
      "inf": 5114,
      "anor": 5115,
      "ances": 5116,
      "thnic": 5117,
      "tice": 5118,
      "eries": 5119,
      "arl": 5120,
      "208": 5121,
      "2019": 5122,
      "2024": 5123,
      "aldi": 5124,
      "hild": 5125,
      "hief": 5126,
      "▁कम": 5127,
      "▁सिनेमा": 5128,
      "cip": 5129,
      "cise": 5130,
      "as,": 5131,
      "▁महासागर": 5132,
      "lect": 5133,
      "2015": 5134,
      "▁ins": 5135,
      "rade": 5136,
      "्ता": 5137,
      "▁prime": 5138,
      "ams": 5139,
      "ament": 5140,
      "▁country": 5141,
      "▁C.": 5142,
      "ata_": 5143,
      "adhy": 5144,
      "los": 5145,
      "lowing": 5146,
      "▁mi": 5147,
      "▁made": 5148,
      "urn": 5149,
      "onsoon": 5150,
      "ांस": 5151,
      "ांति": 5152,
      "▁बदल": 5153,
      "ournal": 5154,
      "्वज": 5155,
      "emon": 5156,
      "▁D.": 5157,
      "▁Di": 5158,
      "चा_": 5159,
      "ताब्": 5160,
      "्रेल": 5161,
      "▁rep": 5162,
      "▁relations": 5163,
      "akhand": 5164,
      "▁Fund": 5165,
      "▁रु": 5166,
      "aputra": 5167,
      "▁\"Category:": 5168,
      "_Delhi": 5169,
      "otals": 5170,
      "](https://hi.wikipedia.org/wiki/भारत#cite_ref-FOOTNOTE": 5171,
      "ommonwealth": 5172,
      "order": 5173,
      "▁Valley": 5174,
      "▁हैं,": 5175,
      "युद्ध": 5176,
      "olitical_": 5177,
      "endra": 5178,
      "rough": 5179,
      "ivis": 5180,
      "](https://en.wikipedia.org/wiki/List_of_countries_by": 5181,
      "_East_Asia_Summit": 5182,
      "स्ट्रेल": 5183,
      "िंधु": 5184,
      "रेल": 5185,
      "जाति": 5186,
      "▁lead": 5187,
      "▁left": 5188,
      "knowin": 5189,
      "ंपनी": 5190,
      "▁इसके": 5191,
      "िक्कि": 5192,
      "१९४७": 5193,
      "-largest": 5194,
      "edie": 5195,
      "flu": 5196,
      "duct": 5197,
      "पालिका": 5198,
      "▁York": 5199,
      "rishn": 5200,
      "_उत्": 5201,
      "rahmaputra": 5202,
      "▁स्थित": 5203,
      "छत्तीसगढ": 5204,
      "emocracy": 5205,
      "▁सीमा": 5206,
      "▁\"महाराष्ट्र\")": 5207,
      "quality": 5208,
      "urvey": 5209,
      "india-glance": 5210,
      "Aryan": 5211,
      "omestic": 5212,
      "▁(India)\")": 5213,
      "rganization": 5214,
      "3TRt": 5215,
      "aldives": 5216,
      "knowindia": 5217,
      "-S": 5218,
      "122": 5219,
      "4).": 5220,
      "sci": 5221,
      "गान": 5222,
      "पया": 5223,
      "पृष्ठ": 5224,
      "व्ह": 5225,
      "ुक": 5226,
      "▁९": 5227,
      "▁[य": 5228,
      "▁[पु": 5229,
      "▁\"लोक": 5230,
      "arsh": 5231,
      "▁सर": 5232,
      "▁सभा": 5233,
      "▁(2006": 5234,
      "▁मिल": 5235,
      "\n\n**": 5236,
      "\\_con": 5237,
      "▁दिवस": 5238,
      "▁जे": 5239,
      "ांड": 5240,
      ".\n13": 5241,
      "links": 5242,
      "▁M.": 5243,
      "105": 5244,
      "▁उद्य": 5245,
      "▁रहा": 5246,
      "](https://web.archive.org/web/200": 5247,
      "ection": 5248,
      "ार्क": 5249,
      "▁प्राप्त": 5250,
      "template": 5251,
      "▁second": 5252,
      "ेंद्रशासित_प्रदेश": 5253,
      "urrent": 5254,
      "hasha": 5255,
      "धुनिक": 5256,
      "मेरिकन": 5257,
      "▁उदाहरण": 5258,
      "entral_": 5259,
      "_maint:_": 5260,
      "\"](http://www.": 5261,
      ",NGDP": 5262,
      "-पाकिस्तान": 5263,
      "-world": 5264,
      ".పూ.": 5265,
      ".world": 5266,
      "119": 5267,
      "63": 5268,
      "7]](https://en.wikipedia.org/wiki/India#cite_note-FOOTNOTE": 5269,
      "82": 5270,
      "9,": 5271,
      "91": 5272,
      "Ag": 5273,
      "Ass": 5274,
      "DD": 5275,
      "PE": 5276,
      "Report": 5277,
      "Rowland": 5278,
      "SAARC": 5279,
      "_ह": 5280,
      "af": 5281,
      "aury": 5282,
      "britannica": 5283,
      "cia": 5284,
      "ctu": 5285,
      "go": 5286,
      "kar": 5287,
      "mal": 5288,
      "nf": 5289,
      "tle": 5290,
      "ym": 5291,
      "तो": 5292,
      "पान": 5293,
      "बे": 5294,
      "ल](https://hi.wikipedia.org/wiki/": 5295,
      "हरा": 5296,
      "ूड": 5297,
      "ौद्योगिकी": 5298,
      "१५": 5299,
      "१६": 5300,
      "ంతం": 5301,
      "ఆగ": 5302,
      "కళ": 5303,
      "ఖండ్": 5304,
      "గ్": 5305,
      "గిన": 5306,
      "గఢ్": 5307,
      "జో": 5308,
      "ట్ర": 5309,
      "తెలుగు": 5310,
      "ద్రా": 5311,
      "పద": 5312,
      "భి": 5313,
      "యో": 5314,
      "లక్ష": 5315,
      "వర": 5316,
      "శో": 5317,
      "షా": 5318,
      "హు": 5319,
      "హార్": 5320,
      "హాయ": 5321,
      "ాష్ట్ర": 5322,
      "ీక": 5323,
      "ీహార్": 5324,
      "ుల": 5325,
      "ుల్": 5326,
      "ోల్": 5327,
      "ోత్స": 5328,
      "ౌర్య": 5329,
      "▁his": 5330,
      "▁[p": 5331,
      "▁[హ": 5332,
      "▁[पुरा": 5333,
      "▁[हिन्दी": 5334,
      "▁\"హ": 5335,
      "▁\"ఢిల్లీ": 5336,
      "aria": 5337,
      "aries": 5338,
      "ret": 5339,
      "ess/": 5340,
      "▁पश्चिम": 5341,
      "్రూ": 5342,
      "](https://te.wikipedia.org/wiki/సి": 5343,
      "▁मत": 5344,
      "leg": 5345,
      "▁sh": 5346,
      "ాలా": 5347,
      "ాలలో": 5348,
      "rig": 5349,
      "▁अव": 5350,
      "ाती": 5351,
      "ations/": 5352,
      "్యం": 5353,
      "vel": 5354,
      "ర్ణా": 5355,
      "ర్మే": 5356,
      "▁Publishing": 5357,
      "ists": 5358,
      "లు\")": 5359,
      "olon": 5360,
      "▁Tamil": 5361,
      "▁River": 5362,
      "▁Republic": 5363,
      "లోక్‌సభ": 5364,
      "identifiers": 5365,
      "emic": 5366,
      "क्षण": 5367,
      "▁top": 5368,
      "ాలు\n\n": 5369,
      "▁Data": 5370,
      "▁David": 5371,
      "▁వంశ": 5372,
      "aylor": 5373,
      "sian": 5374,
      "▁Ex": 5375,
      "ounci": 5376,
      "▁Ge": 5377,
      "▁Himalay": 5378,
      "▁2005": 5379,
      "-3)": 5380,
      "ండర్": 5381,
      "force": 5382,
      "ूनि": 5383,
      "abha": 5384,
      "▁विभाग": 5385,
      "asting": 5386,
      "राष्ट्रपति": 5387,
      "త్మా": 5388,
      "▁new": 5389,
      "▁non-": 5390,
      "2905": 5391,
      "overty": 5392,
      "▁అతి": 5393,
      "udi": 5394,
      "ికి": 5395,
      "म्म": 5396,
      "imach": 5397,
      "▁Wiki": 5398,
      "ద్దు": 5399,
      "o-ope": 5400,
      "िये": 5401,
      "वर्ष": 5402,
      "▁రహదార": 5403,
      "మాచల్": 5404,
      "▁సామ్రాజ్య": 5405,
      "రువా": 5406,
      "రుణా": 5407,
      "న్నో": 5408,
      "▁text": 5409,
      "48)": 5410,
      "▁घोष": 5411,
      "irect": 5412,
      "మిజో": 5413,
      "▁ఇది": 5414,
      "वीं": 5415,
      "_and_depend": 5416,
      "धिकारिक": 5417,
      "▁जाती": 5418,
      "ंबेड": 5419,
      "▁జరి": 5420,
      "▁విస్త": 5421,
      "▁శతాబ్ద": 5422,
      "ట్టు": 5423,
      "reek": 5424,
      "timesofindia": 5425,
      "▁status": 5426,
      "రాష్ట్రాలు": 5427,
      "వేద": 5428,
      "▁రాజకీయ": 5429,
      "62-2": 5430,
      "usiness/": 5431,
      "హిమాచల్": 5432,
      "హాత్మా": 5433,
      "▁डॉल": 5434,
      "स्लाम": 5435,
      "▁ప్రదేశ్\")": 5436,
      "హారాష్ట్ర": 5437,
      "శాస్త్ర": 5438,
      "రాజస్థాన్": 5439,
      "▁వాతావరణ": 5440,
      "దినోత్స": 5441,
      "బెంగాలీ": 5442,
      "_Islands": 5443,
      "యన్మార్": 5444,
      "▁ముఖ్య": 5445,
      "-107-111": 5446,
      "industan": 5447,
      "ociety": 5448,
      "▁न्यायालय": 5449,
      "JPG": 5450,
      "ంజాబ్": 5451,
      "▁వ్యాస": 5452,
      "Indonesia": 5453,
      "గుజరాత్": 5454,
      "ఆఫ్ఘనిస్తాన్": 5455,
      "న్‌ఫర్మే": 5456,
      "▁अगस्त": 5457,
      "achine": 5458,
      "mritsar": 5459,
      "-0-19-882905": 5460,
      "వ](https://te.wikipedia.org/wiki/List_of_": 5461,
      "రిహద్దు": 5462,
      "చ్చేరి": 5463,
      "nominal)": 5464,
      "्ता:": 5465,
      "ताब्दी": 5466,
      "Rowland1970": 5467,
      "britannica.com/": 5468,
      "▁[पुरालेखित": 5469,
      "ర్ణాటక": 5470,
      "రుణాచల్": 5471,
      "ंबेडकर": 5472,
      "timesofindia.indiatimes.com/": 5473,
      "-107-11162-2": 5474,
      "న్‌ఫర్మేషన్": 5475,
      "-0-19-882905-8": 5476,
      "52": 5477,
      "All": 5478,
      "_ग": 5479,
      "_राज्य": 5480,
      "bb": 5481,
      "ंनी": 5482,
      "गस्ट": 5483,
      "णारे": 5484,
      "फगा": 5485,
      "रवि": 5486,
      "वृत": 5487,
      "ुष्": 5488,
      "ॅक": 5489,
      "ोळी": 5490,
      "६-": 5491,
      "▁ऋ": 5492,
      "▁\"वर्ग:CS1": 5493,
      "▁\"तमिळनाडू": 5494,
      "▁सुरु": 5495,
      "](https://mr.wikipedia.org/wiki/ह": 5496,
      "](https://mr.wikipedia.org/wiki/बा": 5497,
      "](https://mr.wikipedia.org/wiki/वर्ग:CS1": 5498,
      "](https://mr.wikipedia.org/wiki/तमिळनाडू": 5499,
      "outheast": 5500,
      "▁मे": 5501,
      "▁महाराष्ट्र": 5502,
      "▁मैदान": 5503,
      "2013": 5504,
      "▁आढ": 5505,
      "▁आर्": 5506,
      "▁आले": 5507,
      "\\_parame": 5508,
      "▁man": 5509,
      "▁तरी": 5510,
      "▁तयार": 5511,
      "▁Research": 5512,
      "िती": 5513,
      "iger": 5514,
      ".[[३": 5515,
      ".[[४": 5516,
      "108": 5517,
      "विजय": 5518,
      "प्रजासत्ताक": 5519,
      "शियातील": 5520,
      "▁राज्यात": 5521,
      "ext": 5522,
      "ानेवारी": 5523,
      "▁नावा": 5524,
      "▁प्रामुख्य": 5525,
      "केर": 5526,
      "](https://mr.wikipedia.org/wiki/महाराष्ट्र": 5527,
      "▁नेहर": 5528,
      "▁\"बंगाल": 5529,
      "▁[2](https://mr.wikipedia.org/wiki/भारत#cite_ref-": 5530,
      "▁[1](https://mr.wikipedia.org/wiki/भारत#cite_ref-": 5531,
      "▁मोठा": 5532,
      "लोकसंख्येनुसार": 5533,
      "स्वातंत्र्य": 5534,
      "ेतील": 5535,
      "▁आशिया\")": 5536,
      "▁भागात": 5537,
      "▁बहुतांशी": 5538,
      "▁राष्ट्रपती": 5539,
      "ेकड": 5540,
      "▁स्थानिक": 5541,
      "▁देख": 5542,
      "struc": 5543,
      "▁खासदार": 5544,
      "ख्खन": 5545,
      "टिबंध": 5546,
      "▁लेणी": 5547,
      "▁झाली.": 5548,
      "▁जाते.": 5549,
      "▁अजून": 5550,
      "क्षेत्रफळ": 5551,
      "▁./वर्ग:CS1\\_maint:\\_": 5552,
      "uthority": 5553,
      "▁([link](https://mr.wikipedia.org/wiki/वर्ग:CS1": 5554,
      "ह्याद्री": 5555,
      "ुष्क": 5556,
      "▁\"तमिळनाडू\")": 5557,
      "▁सुरुव": 5558,
      "\\_parameters": 5559,
      "▁प्रामुख्याने": 5560,
      "▁([link](https://mr.wikipedia.org/wiki/वर्ग:CS1_maint:_": 5561,
      "-C": 5562,
      "-n": 5563,
      "-and": 5564,
      "-50": 5565,
      "-on-": 5566,
      ".ni": 5567,
      "130": 5568,
      "64": 5569,
      "7_": 5570,
      "Ethnologue": 5571,
      "LO": 5572,
      "Re": 5573,
      "Sanskrit": 5574,
      "_0": 5575,
      "cess": 5576,
      "ez": 5577,
      "ime": 5578,
      "lurton": 5579,
      "map": 5580,
      "ox": 5581,
      "ott": 5582,
      "ots": 5583,
      "que": 5584,
      "rial": 5585,
      "rust": 5586,
      "s_of_India": 5587,
      "s18": 5588,
      "}}": 5589,
      "ऑस्ट्रेल": 5590,
      "तृत": 5591,
      "थवा": 5592,
      "फे": 5593,
      "मक": 5594,
      "यी": 5595,
      "रण": 5596,
      "रेंद्र": 5597,
      "रूप": 5598,
      "वी_": 5599,
      "संगीत": 5600,
      "ाम": 5601,
      "्स": 5602,
      "▁lo": 5603,
      "▁urban": 5604,
      "ortheast": 5605,
      ".org": 5606,
      "▁[4": 5607,
      "▁[श": 5608,
      "▁[गण": 5609,
      "▁[Indo-": 5610,
      "▁[राजस्थान": 5611,
      "▁\"पु": 5612,
      "▁\"मुंबई": 5613,
      "on,": 5614,
      "onom": 5615,
      "](https://en.wikipedia.org/wiki/United": 5616,
      "erry": 5617,
      "arath": 5618,
      "203": 5619,
      "ally": 5620,
      "▁कॉ": 5621,
      "▁संग": 5622,
      "educ": 5623,
      "](https://hi.wikipedia.org/wiki/आ": 5624,
      "▁them": 5625,
      "▁मह": 5626,
      "icha": 5627,
      "icob": 5628,
      "▁influ": 5629,
      "ravi": 5630,
      "▁pre": 5631,
      "▁painting": 5632,
      "▁अप्र": 5633,
      "▁अथवा": 5634,
      "ature": 5635,
      "▁Sec": 5636,
      "lief": 5637,
      "▁billion": 5638,
      "▁ज्या": 5639,
      "▁भारत\")": 5640,
      "▁P.": 5641,
      "unrecognized": 5642,
      "▁नी": 5643,
      "▁बना": 5644,
      "▁Territory": 5645,
      "217": 5646,
      "▁app": 5647,
      "nium": 5648,
      "▁B.": 5649,
      "▁Be": 5650,
      "वायु": 5651,
      "▁eastern": 5652,
      "▁Government": 5653,
      "▁November": 5654,
      "elang": 5655,
      "द्दा": 5656,
      "▁J.": 5657,
      "uduch": 5658,
      "▁Incre": 5659,
      "160": 5660,
      "▁Ocean": 5661,
      ".gov.in": 5662,
      "▁Lank": 5663,
      "▁Kingdom": 5664,
      "-90": 5665,
      "मान्य": 5666,
      "▁भाषाओं": 5667,
      "avi": 5668,
      "avy": 5669,
      "▁करने": 5670,
      "▁[↑](https://en.wikipedia.org/wiki/India#cite_ref-FOOTNOTEMetcalfMetcalf2006": 5671,
      "▁स्मार": 5672,
      "ummer": 5673,
      "ternal": 5674,
      "ternational": 5675,
      "▁राजधानी": 5676,
      "ikkim": 5677,
      "पीपी": 5678,
      "overnment_of_India": 5679,
      "%2C_India": 5680,
      "ंग्रेजी": 5681,
      "▁[National": 5682,
      "general_": 5683,
      "▁life": 5684,
      "▁unrecognized": 5685,
      "ैदरा": 5686,
      "▁संस्कृत": 5687,
      "नाडु": 5688,
      "▁मेला\")": 5689,
      "▁पूर्वी": 5690,
      "▁हुए": 5691,
      "International_": 5692,
      "_Indian_general_": 5693,
      "▁disc": 5694,
      "▁dispu": 5695,
      "पेक्षा": 5696,
      "/files/": 5697,
      "pringer": 5698,
      "▁निर्माण": 5699,
      "%7C": 5700,
      "%7c": 5701,
      "Wikipedia\\_articles": 5702,
      "pectancy": 5703,
      "cript": 5704,
      "cording": 5705,
      "volution": 5706,
      "▁groups": 5707,
      "▁employ": 5708,
      "](https://en.wikipedia.org/wiki/South_Asian_": 5709,
      "तेलुगू": 5710,
      "ymbols": 5711,
      "▁contrib": 5712,
      ".aspx?": 5713,
      "fferent": 5714,
      "3TRtDwAAQBAJ&pg=PA": 5715,
      "▁[हिन्दी](https://hi.wikipedia.org/wiki/": 5716,
      "education": 5717,
      "ichael": 5718,
      "uducherry": 5719,
      "_Indian_general_election": 5720,
      "-India": 5721,
      ".uk": 5722,
      "226": 5723,
      "3–": 5724,
      "IUCN": 5725,
      "Mon": 5726,
      "mand": 5727,
      "गध": 5728,
      "भोज": 5729,
      "मत": 5730,
      "महा": 5731,
      "यल": 5732,
      "लेशिया": 5733,
      "वै": 5734,
      "हम": 5735,
      "ैथि": 5736,
      "ॉग": 5737,
      "ोड": 5738,
      "raj": 5739,
      "uns": 5740,
      "▁des": 5741,
      "क्षर": 5742,
      "23.": 5743,
      "irth": 5744,
      "▁गा": 5745,
      "▁शहरी": 5746,
      "28.": 5747,
      "▁2008": 5748,
      "115": 5749,
      "ंडी": 5750,
      "▁only": 5751,
      "ुरक्षा": 5752,
      "_मंदिर": 5753,
      "▁[बौद्ध": 5754,
      "त्यमे": 5755,
      "html)": 5756,
      "_For": 5757,
      "विजयनगर": 5758,
      "भोजपुरी": 5759,
      "ैथिली": 5760,
      "त्यमेव": 5761,
      "\"](https://web.archive.org/web/20": 5762,
      "-with": 5763,
      "/D": 5764,
      "/g": 5765,
      "/ark": 5766,
      "1200": 5767,
      "1-1": 5768,
      "3-8": 5769,
      "54": 5770,
      "B0%": 5771,
      "C-0": 5772,
      "IJ": 5773,
      "QAAQBAJ&pg=PA": 5774,
      "_on": 5775,
      "_14": 5776,
      "_languages": 5777,
      "ax": 5778,
      "aut": 5779,
      "ee": 5780,
      "glia": 5781,
      "garh": 5782,
      "hra": 5783,
      "hat": 5784,
      "i-": 5785,
      "iz": 5786,
      "ka": 5787,
      "lood": 5788,
      "m2": 5789,
      "oard": 5790,
      "p?": 5791,
      "tw": 5792,
      "ward": 5793,
      "y=": 5794,
      "y_": 5795,
      "yy": 5796,
      "yle": 5797,
      "yam": 5798,
      "{{": 5799,
      "ँच": 5800,
      "इट": 5801,
      "चर": 5802,
      "तट": 5803,
      "मरी": 5804,
      "व्या": 5805,
      "स्य": 5806,
      "ुल": 5807,
      "ంతి": 5808,
      "కాల": 5809,
      "కారం": 5810,
      "ఖ్": 5811,
      "గంగా": 5812,
      "టో": 5813,
      "డిన": 5814,
      "తీ": 5815,
      "ధి": 5816,
      "ధించ": 5817,
      "నల్": 5818,
      "మన": 5819,
      "మర": 5820,
      "ర్యా": 5821,
      "లం": 5822,
      "లతో": 5823,
      "లమె": 5824,
      "ీస్": 5825,
      "ూప": 5826,
      "ూరు": 5827,
      "ెనీ": 5828,
      "ౌక": 5829,
      "▁औ": 5830,
      "▁६": 5831,
      "▁७": 5832,
      "▁ద": 5833,
      "▁ఫ": 5834,
      "▁im": 5835,
      "▁7.": 5836,
      "▁9.": 5837,
      "▁దక్షిణ": 5838,
      "▁హిందూ": 5839,
      "▁గాంధీ": 5840,
      ":/121": 5841,
      "▁[U": 5842,
      "▁[భారతదేశం": 5843,
      "▁[ఢిల్లీ": 5844,
      "▁[गुजरात": 5845,
      "▁\"In": 5846,
      "▁\"गुजरात": 5847,
      "ency": 5848,
      "inan": 5849,
      "erg": 5850,
      "arli": 5851,
      "ared/": 5852,
      "arendra": 5853,
      "esti": 5854,
      "▁पुर": 5855,
      "▁(क": 5856,
      "▁मशी": 5857,
      "र्ग": 5858,
      "ారస": 5859,
      "▁India](https://en.wikipedia.org/wiki/G": 5860,
      "यास": 5861,
      "rain": 5862,
      "▁हवेली": 5863,
      "▁summits": 5864,
      "-07": 5865,
      "ాలను": 5866,
      "-135": 5867,
      "ing_": 5868,
      "▁co": 5869,
      "▁culture": 5870,
      "▁Centre": 5871,
      "\\_of": 5872,
      "\\_identifiers": 5873,
      "adwe": 5874,
      "స్](https://te.wikipedia.org/wiki/": 5875,
      "▁far": 5876,
      "▁प्रति": 5877,
      "▁పెద్ద": 5878,
      "ंगल": 5879,
      "▁केन्द्र": 5880,
      "ర్లు": 5881,
      "▁mar": 5882,
      "▁main": 5883,
      "▁Public": 5884,
      "linkim": 5885,
      "ver,": 5886,
      "ular": 5887,
      "uled": 5888,
      "hell": 5889,
      "▁नहीं": 5890,
      "00–సా.శ.పూ.": 5891,
      "▁बी": 5892,
      "▁women": 5893,
      "ource": 5894,
      "fir": 5895,
      "253": 5896,
      ".[[4": 5897,
      ".[[23": 5898,
      "▁వే": 5899,
      "ages/": 5900,
      "agari": 5901,
      "tures": 5902,
      "▁Gu": 5903,
      "माय": 5904,
      "पुत्र": 5905,
      "▁Nehru": 5906,
      "▁से](http://": 5907,
      "shared/": 5908,
      "architecture": 5909,
      "▁gre": 5910,
      "akes": 5911,
      "త్తం": 5912,
      "▁From": 5913,
      "▁1960": 5914,
      "▁[\"H": 5915,
      "_Affairs": 5916,
      "▁(సా.శ.15": 5917,
      "▁(సా.శ.13": 5918,
      "407": 5919,
      "▁అనే": 5920,
      "▁forest": 5921,
      "▁ప్రజ": 5922,
      "తం\")": 5923,
      "ecu": 5924,
      "▁१५": 5925,
      "▁१८": 5926,
      "ంచి": 5927,
      "ogue": 5928,
      "ंदर": 5929,
      "▁ఆఫ్": 5930,
      "aves": 5931,
      "arty": 5932,
      "dex": 5933,
      "▁[Ministry": 5934,
      "▁సాం": 5935,
      "a_N": 5936,
      "▁है।[[": 5937,
      "ార్లమె": 5938,
      "undament": 5939,
      "▁\"British": 5940,
      "oreign": 5941,
      "▁technology": 5942,
      "కిస్థాన్": 5943,
      "48/c": 5944,
      "▁నే": 5945,
      "▁నగర": 5946,
      "_GDP": 5947,
      "hmed": 5948,
      "anipur": 5949,
      "_summits": 5950,
      "ोरम": 5951,
      "టిబె": 5952,
      "▁टि": 5953,
      "▁[Government": 5954,
      "్రీ.పూ.": 5955,
      "▁२००": 5956,
      "_Nadu": 5957,
      "](https://en.wikipedia.org/wiki/National_": 5958,
      "athura": 5959,
      "ండియా": 5960,
      "](https://en.wikipedia.org/wiki/List_of_SAARC": 5961,
      "▁\"जम्मू": 5962,
      "▁produc": 5963,
      "ंतरराष्ट्रीय": 5964,
      "▁ఎక్కువ": 5965,
      "▁ఎన్నో": 5966,
      "विशेष:EditPage/": 5967,
      "amil_Nadu": 5968,
      "▁./వర్గం:Wikipedia\\_articles": 5969,
      "ditional": 5970,
      "▁[![A": 5971,
      "▁regions": 5972,
      "_సం": 5973,
      "ashmiri": 5974,
      "▁भूगोल": 5975,
      "india.gov.in/india-glance": 5976,
      "▁Hinduism": 5977,
      "▁सर्वोच्च": 5978,
      "టుంబ": 5979,
      "awahar": 5980,
      "rates": 5981,
      "8/8": 5982,
      "▁భారత్": 5983,
      "kingdom": 5984,
      "మెరి": 5985,
      "vanagari": 5986,
      "▁మొత్తం": 5987,
      "బాద్": 5988,
      "▁Indus": 5989,
      "eserve": 5990,
      "ంపెనీ": 5991,
      "▁Islands\")": 5992,
      "cyclop": 5993,
      "fication": 5994,
      "View": 5995,
      "▁स्रोत/978-1": 5996,
      "industani": 5997,
      "](https://hi.wikipedia.org/wiki/विशेष:पुस्तक_स्रोत/978-1": 5998,
      "पर्यटन": 5999,
      "హ్మ": 6000,
      "-lead": 6001,
      "▁द्वीपसमूह": 6002,
      "Uttarakhand": 6003,
      "▁ఏర్": 6004,
      "Pages\\_using\\_": 6005,
      ".bnf": 6006,
      "్రిటిషు": 6007,
      "omason": 6008,
      "akshadwe": 6009,
      "_BRICS_summit": 6010,
      "▁Persian": 6011,
      "▁चुनाव": 6012,
      ".fr/ark": 6013,
      "Provision": 6014,
      "overeign": 6015,
      "▁అత్యధిక": 6016,
      "nclm.nic.in/shared/": 6017,
      "tlas": 6018,
      "ootball": 6019,
      "etraglia": 6020,
      "ీర్ణ": 6021,
      "దక్షిణ_ఆసియా": 6022,
      "रेलू": 6023,
      "edieval": 6024,
      "\\_contain": 6025,
      "icobar": 6026,
      ":/12148/c": 6027,
      "▁\"गुजरात\")": 6028,
      "▁summits\")": 6029,
      "linkimages/": 6030,
      "_GDP_(": 6031,
      "](https://en.wikipedia.org/wiki/List_of_SAARC_summits": 6032,
      "विशेष:EditPage/साँ": 6033,
      "awaharl": 6034,
      ".bnf.fr/ark": 6035,
      "akshadweep": 6036,
      "nclm.nic.in/shared/linkimages/": 6037,
      ":/12148/cb": 6038,
      ".bnf.fr/ark:/12148/cb": 6039,
      "\n3": 6040,
      "/India": 6041,
      "1-3": 6042,
      "3-": 6043,
      "9/": 6044,
      "Raj": 6045,
      "hl": 6046,
      "ल्त": 6047,
      "षभ": 6048,
      "ैव": 6049,
      "२०": 6050,
      "tection": 6051,
      "▁\"का": 6052,
      "en:": 6053,
      "arth": 6054,
      "-13": 6055,
      "url": 6056,
      "▁14.": 6057,
      "ांवर": 6058,
      ".\n11": 6059,
      "26.": 6060,
      "षाण": 6061,
      "▁Factbook": 6062,
      "ार्मिक": 6063,
      "▁[बंगाल": 6064,
      "▁\"बौद्ध": 6065,
      "ज्ज": 6066,
      "मालया": 6067,
      "▁१९९": 6068,
      "ondon": 6069,
      "1947)": 6070,
      "▁|\n\nCategory:": 6071,
      "4/4": 6072,
      "olden_Temple": 6073,
      "▁सैन्य": 6074,
      "ल्तनत": 6075,
      "\"](http://": 6076,
      "-D": 6077,
      "-विज्ञान": 6078,
      "-वेरूळ": 6079,
      ".in_": 6080,
      ".](https://upload.wikimedia.org/wikipedia/commons/thumb/": 6081,
      ".\")\n\n": 6082,
      "/india": 6083,
      "125": 6084,
      "2]](https://en.wikipedia.org/wiki/India#cite_note-": 6085,
      "2nd": 6086,
      "350": 6087,
      "4]](https://en.wikipedia.org/wiki/India#cite_note-FOOTNOTE": 6088,
      "4-108": 6089,
      "5]](https://en.wikipedia.org/wiki/India#cite_note-FOOTNOTE": 6090,
      "76": 6091,
      "7).": 6092,
      "9–": 6093,
      "AS": 6094,
      "Census": 6095,
      "Gua": 6096,
      "JIJ": 6097,
      "Kashmir": 6098,
      "MC": 6099,
      "MID": 6100,
      "Ministry_of_": 6101,
      "NA": 6102,
      "National": 6103,
      "S.": 6104,
      "Vu": 6105,
      "Zva": 6106,
      "ZVu": 6107,
      "_h": 6108,
      "_v": 6109,
      "_श": 6110,
      "_24": 6111,
      "_17": 6112,
      "ate_": 6113,
      "aul": 6114,
      "code": 6115,
      "casting": 6116,
      "ek": 6117,
      "ece": 6118,
      "hu": 6119,
      "ham": 6120,
      "had": 6121,
      "hindi": 6122,
      "ij": 6123,
      "jpe": 6124,
      "ker": 6125,
      "kZVu": 6126,
      "most": 6127,
      "ncient": 6128,
      "pture": 6129,
      "ues": 6130,
      "ंपी": 6131,
      "आणि": 6132,
      "इतिहास": 6133,
      "ईरा": 6134,
      "ओ.": 6135,
      "णात": 6136,
      "न्या": 6137,
      "फ्रीका": 6138,
      "बट": 6139,
      "मण": 6140,
      "ये": 6141,
      "र-": 6142,
      "लग": 6143,
      "ळक": 6144,
      "सून": 6145,
      "िस्तान": 6146,
      "िज़": 6147,
      "ोआ": 6148,
      "्हा": 6149,
      "१]](https://mr.wikipedia.org/wiki/भारत#cite_note-": 6150,
      "४]](https://mr.wikipedia.org/wiki/भारत#cite_note-": 6151,
      "–4": 6152,
      "▁z": 6153,
      "▁United": 6154,
      "▁low": 6155,
      "▁Qu": 6156,
      "iam": 6157,
      "iary": 6158,
      "orn": 6159,
      "ored": 6160,
      ".org/w": 6161,
      "▁[f": 6162,
      "▁[चीन": 6163,
      "▁[World": 6164,
      "▁[तमिळनाडू": 6165,
      "tered": 6166,
      "▁\"गण": 6167,
      "th_BRICS_summit": 6168,
      "ारचे": 6169,
      "arlo": 6170,
      "araj": 6171,
      "aland": 6172,
      "alli": 6173,
      "्ये": 6174,
      "es,": 6175,
      "▁कई": 6176,
      "▁कमी": 6177,
      "▁कश्मीर": 6178,
      "▁सह": 6179,
      "▁संग्र": 6180,
      "▁सुरू": 6181,
      "▁सध्या": 6182,
      "](https://hi.wikipedia.org/wiki/ह": 6183,
      "](https://hi.wikipedia.org/wiki/पंजाब": 6184,
      "](https://mr.wikipedia.org/wiki/च": 6185,
      "](https://mr.wikipedia.org/wiki/द": 6186,
      "](https://mr.wikipedia.org/wiki/पाकिस्तान": 6187,
      "](https://mr.wikipedia.org/wiki/पंजाब": 6188,
      "](https://mr.wikipedia.org/wiki/उत्तर": 6189,
      "▁पंतप्रधान": 6190,
      "▁(पूर्वी": 6191,
      "ानंतर": 6192,
      "198": 6193,
      "्याच्या": 6194,
      "▁आण": 6195,
      "▁आधिकारिक": 6196,
      "▁sq": 6197,
      "▁अशी": 6198,
      "▁caus": 6199,
      "uss": 6200,
      "▁Chand": 6201,
      "▁China": 6202,
      "▁Civil": 6203,
      "▁प्रां": 6204,
      "▁प्रधान": 6205,
      "\"),[[": 6206,
      "loth": 6207,
      "▁tree": 6208,
      "urity": 6209,
      "▁जास्त": 6210,
      "▁भारताने": 6211,
      "▁भारताचे": 6212,
      "▁Punjab": 6213,
      "लां": 6214,
      "_of_2011": 6215,
      "स्कार": 6216,
      "▁तो": 6217,
      "▁तिस": 6218,
      "ांनी": 6219,
      "0000": 6220,
      "▁This": 6221,
      "लेट": 6222,
      "▁2018": 6223,
      "▁2014.": 6224,
      "ema": 6225,
      "emographic": 6226,
      "न्दा": 6227,
      "▁काश्मीर": 6228,
      "▁आहे,": 6229,
      "10)": 6230,
      "1017": 6231,
      "266": 6232,
      "स्त्र": 6233,
      "1993": 6234,
      "▁शत": 6235,
      "▁शे": 6236,
      "▁शताब्दी": 6237,
      "▁Europe": 6238,
      "ldlife": 6239,
      "▁इन": 6240,
      "▁से](http://www.": 6241,
      "oples": 6242,
      "हिंदू": 6243,
      "▁rem": 6244,
      "▁religious": 6245,
      "▁hum": 6246,
      "▁house": 6247,
      "▁[मूळ": 6248,
      ".jpg)\n\n[": 6249,
      "▁these": 6250,
      "](https://en.wikipedia.org/wiki/India#CITEREFB": 6251,
      "▁यादी\")": 6252,
      "22-9": 6253,
      "▁1965": 6254,
      "▁[\"A": 6255,
      "द्दु": 6256,
      "▁name": 6257,
      "27)": 6258,
      "▁लग": 6259,
      "▁१०": 6260,
      "▁Linguistic": 6261,
      "श्मि": 6262,
      "_Paper": 6263,
      "े_आणि": 6264,
      "वर्सि": 6265,
      "▁करतात.": 6266,
      "▁करण्यात": 6267,
      "▁करोड़": 6268,
      "▁[↑](https://en.wikipedia.org/wiki/India#cite_ref-FOOTNOTEB": 6269,
      "▁\"कर्नाटक": 6270,
      "▁\"केर": 6271,
      "ociation": 6272,
      "ockey": 6273,
      "ligions": 6274,
      "्यांना": 6275,
      "्यांचा": 6276,
      "▁[British": 6277,
      "▁[कर्नाटक": 6278,
      "emplate_": 6279,
      "▁राजनी": 6280,
      "▁[अंग्रेज़ी": 6281,
      "_Totals": 6282,
      "▁\"अंग्रेज़ी": 6283,
      "exis": 6284,
      "▁एकूण": 6285,
      "▁Press](https://en.wikipedia.org/wiki/C": 6286,
      "▁tex": 6287,
      "▁प्राण": 6288,
      "orden": 6289,
      "▁language\"),": 6290,
      "ikhism": 6291,
      "▁घाट": 6292,
      "opulation_Totals": 6293,
      "▁def": 6294,
      "▁development": 6295,
      "▁झाल": 6296,
      "▁[Dyson": 6297,
      "▁मुघल": 6298,
      "](https://mr.wikipedia.org/wiki/मध्य": 6299,
      "▁चळ": 6300,
      "▁\"Government": 6301,
      "िवूड": 6302,
      "▁control": 6303,
      "हाराज": 6304,
      "▁वापर": 6305,
      "▁वाळवंट": 6306,
      "_population": 6307,
      "india.gov.in_": 6308,
      "674": 6309,
      "ibcode": 6310,
      "MetcalfMetcalf2012": 6311,
      "▁\"Re": 6312,
      "](https://en.wikipedia.org/wiki/Re": 6313,
      "html).": 6314,
      "▁स्वातंत्र्य": 6315,
      "ignored": 6316,
      "\")*,": 6317,
      "हित.": 6318,
      "भूतान": 6319,
      "▁मानवी": 6320,
      "▁जनगणना": 6321,
      "▁sector": 6322,
      "1977": 6323,
      "_1_of_2011": 6324,
      "▁when": 6325,
      "▁languages\")": 6326,
      "alayal": 6327,
      "▁संस्कृति": 6328,
      "ब्ब": 6329,
      "](https://mr.wikipedia.org/wiki/बंगाल": 6330,
      "▁2,": 6331,
      "ंग्रज": 6332,
      "डाख": 6333,
      "ोबत": 6334,
      "ंदीगढ": 6335,
      "▁\"पश्चिम": 6336,
      "rancis": 6337,
      "▁Programme": 6338,
      "ighth": 6339,
      "स.ओ.": 6340,
      "_संघ": 6341,
      "gypt": 6342,
      "शिष्ट": 6343,
      "▁composed": 6344,
      "न्दिर": 6345,
      "phere": 6346,
      "uisine": 6347,
      "▁कारण": 6348,
      "▁म्हणून": 6349,
      "ॉलिवूड": 6350,
      "▁wide": 6351,
      "▁जिसमें": 6352,
      "dependence": 6353,
      "▁गणराज्यचे": 6354,
      "▁along": 6355,
      "▁संविधान\")": 6356,
      "▁होती.": 6357,
      "ोर्ड": 6358,
      "d/d": 6359,
      "074-108": 6360,
      "oint": 6361,
      "▁km2": 6362,
      "ण्यास": 6363,
      "▁झाला.": 6364,
      "विषुव": 6365,
      "disha": 6366,
      "-4020": 6367,
      "▁Registrar": 6368,
      "▁Plateau": 6369,
      "▁पाहिले": 6370,
      "al_Population_Totals": 6371,
      "ताजमहाल": 6372,
      "arnatic": 6373,
      "▁क्रमांक": 6374,
      "ेंजो": 6375,
      "Articles\\_contain": 6376,
      "▁वैशिष्ट": 6377,
      "hristian": 6378,
      "ynasty": 6379,
      "जिंठा-वेरूळ": 6380,
      "-78074-108": 6381,
      "▁ठिका": 6382,
      "](https://en.wikipedia.org/wiki/History_of_": 6383,
      "roadcasting": 6384,
      "▁वर्षांपूर्वी": 6385,
      "य.एस.ओ.": 6386,
      "ूनिवर्सि": 6387,
      "o-operation": 6388,
      "फगाणि": 6389,
      "▁आढळ": 6390,
      "ेकडील": 6391,
      "क्षेत्रफळानुसार": 6392,
      "▁Increase": 6393,
      "▁बीच": 6394,
      "मायण": 6395,
      "Provisional_Population_Totals": 6396,
      "GuaJIJ": 6397,
      "ZvaGuaJIJ": 6398,
      "▁संग्रहित.": 6399,
      "द्दुचेरी": 6400,
      "_Paper_1_of_2011": 6401,
      "▁[अंग्रेज़ी](https://hi.wikipedia.org/wiki/अ": 6402,
      "जिंठा-वेरूळची": 6403,
      "-78074-108-6": 6404,
      "Provisional_Population_Totals_Paper_1_of_2011": 6405,
      "ZvaGuaJIJgo": 6406,
      "Provisional_Population_Totals_Paper_1_of_2011_India": 6407,
      "8D": 6408,
      "Biodiversity": 6409,
      "bhasha": 6410,
      "णाली": 6411,
      "र्य": 6412,
      "।\n\n": 6413,
      "▁[का": 6414,
      "▁[दिल्ली": 6415,
      "▁साल": 6416,
      "राक": 6417,
      "▁मंत्री": 6418,
      "\\_template": 6419,
      "▁प्रांत": 6420,
      "library": 6421,
      "ासी": 6422,
      "24.": 6423,
      "▁उद्योग": 6424,
      "▁इत्या": 6425,
      "▁संख्या": 6426,
      "_of_India.svg": 6427,
      "▁[\"G": 6428,
      "▁([स": 6429,
      "17.": 6430,
      "्राम": 6431,
      "वर्ण": 6432,
      "▁नेतृत": 6433,
      "▁1998": 6434,
      "▁२६": 6435,
      "_November": 6436,
      "uggle": 6437,
      "%E0%A4%B0%E0%A4%": 6438,
      "\n\n[![](https://upload.wikimedia.org/wikipedia/commons/thumb/7/": 6439,
      "_des": 6440,
      "▁स्थापत्य": 6441,
      "/index.php?": 6442,
      ")\"),": 6443,
      "-e": 6444,
      "-r": 6445,
      "-an": 6446,
      "1-4": 6447,
      "219": 6448,
      "338": 6449,
      "7%": 6450,
      "AG": 6451,
      "De": 6452,
      "ES": 6453,
      "Home": 6454,
      "IF": 6455,
      "Pakistan": 6456,
      "_pe": 6457,
      "_In": 6458,
      "_10": 6459,
      "_2011": 6460,
      "_43": 6461,
      "_జాబితా": 6462,
      "a)": 6463,
      "ds": 6464,
      "day": 6465,
      "epend": 6466,
      "hut": 6467,
      "here": 6468,
      "hindu": 6469,
      "nc": 6470,
      "ption": 6471,
      "pic": 6472,
      "जि": 6473,
      "सू": 6474,
      "ूस": 6475,
      "ो-": 6476,
      "५७": 6477,
      "ఆంధ": 6478,
      "కీ": 6479,
      "కాలు": 6480,
      "క్రమ": 6481,
      "గర్": 6482,
      "డో": 6483,
      "థి": 6484,
      "నె": 6485,
      "నాలు": 6486,
      "పించ": 6487,
      "బడ్డ": 6488,
      "భర": 6489,
      "మహ": 6490,
      "మై": 6491,
      "యన": 6492,
      "రంగ": 6493,
      "లయా": 6494,
      "వార": 6495,
      "శీ": 6496,
      "షనల్": 6497,
      "స్య": 6498,
      "ృద్ధి": 6499,
      "ెంగ": 6500,
      "ేర": 6501,
      "–24": 6502,
      "▁4.": 6503,
      "▁5.": 6504,
      "▁8.": 6505,
      "▁hist": 6506,
      "▁old": 6507,
      "▁దా": 6508,
      "▁`|": 6509,
      "▁నాగరికత": 6510,
      "▁టెక్నాలజీ": 6511,
      "](Template:": 6512,
      "▁[घ": 6513,
      "▁[सा": 6514,
      "▁[राज्य": 6515,
      "▁[मुंबई": 6516,
      "▁\"श": 6517,
      "ants": 6518,
      "ern_": 6519,
      "aro": 6520,
      "ester": 6521,
      "▁सूचना": 6522,
      "ed,": 6523,
      "](https://hi.wikipedia.org/wiki/ओ": 6524,
      "anda": 6525,
      "▁(2014": 6526,
      "్రై": 6527,
      "్రప్రదేశ్": 6528,
      "▁off": 6529,
      "](https://te.wikipedia.org/wiki/ఢిల్లీ": 6530,
      "asi": 6531,
      "ashi": 6532,
      "र्मा": 6533,
      "▁India](https://en.wikipedia.org/wiki/C": 6534,
      "rak": 6535,
      "raz": 6536,
      "idy": 6537,
      "▁prom": 6538,
      "-05": 6539,
      "entury": 6540,
      "ripura": 6541,
      "am\")": 6542,
      "▁colle": 6543,
      "▁Central": 6544,
      "▁Cooperation": 6545,
      "\\_country": 6546,
      "▁Singh": 6547,
      "ets": 6548,
      "adras": 6549,
      "దేశం": 6550,
      "దేశాల": 6551,
      "దేశాలు": 6552,
      "స్\")": 6553,
      "▁fam": 6554,
      "▁दशक": 6555,
      "ర్‌": 6556,
      "chang": 6557,
      "comm": 6558,
      "▁Park": 6559,
      "](https://hi.wikipedia.org/wiki/भारत_का_": 6560,
      "▁नौ": 6561,
      "లు?action=edit&redlink=1": 6562,
      "రాఠ": 6563,
      "]](https://en.wikipedia.org/wiki/India#cite_note-Combined": 6564,
      "▁Man": 6565,
      "▁att": 6566,
      "▁2012.": 6567,
      "▁కి": 6568,
      "▁కో": 6569,
      "ign_": 6570,
      "igarh": 6571,
      ".[[40": 6572,
      "1016": 6573,
      "క్టో": 6574,
      "267": 6575,
      "నియా": 6576,
      "▁వర్": 6577,
      "▁వారస": 6578,
      "ల్వే": 6579,
      "▁गांधी": 6580,
      "▁शक्ति": 6581,
      "pecially": 6582,
      "content": 6583,
      "▁సరిహద్దు": 6584,
      "▁మన": 6585,
      "▁మూ": 6586,
      "hai": 6587,
      "hap": 6588,
      "▁Games": 6589,
      "▁H.": 6590,
      "▁2001": 6591,
      "ండమా": 6592,
      "ell": 6593,
      "▁చిన్న": 6594,
      "aryana": 6595,
      "తాన": 6596,
      "ముఖ": 6597,
      "ability": 6598,
      "▁growth": 6599,
      "▁religion": 6600,
      "▁report": 6601,
      "▁through": 6602,
      "త్వం": 6603,
      "▁near": 6604,
      "_Act": 6605,
      "▁(సా.శ.17": 6606,
      "▁(సా.శ.14": 6607,
      "osphere": 6608,
      "archive.org/detail": 6609,
      "ులు,": 6610,
      "–సా.శ.15": 6611,
      "–సా.శ.17": 6612,
      "▁ప్రతి": 6613,
      "▁ప్రస్తు": 6614,
      "▁ప్రకారం": 6615,
      "▁ప్రముఖ": 6616,
      "E0%B0%": 6617,
      "166": 6618,
      "AAJ": 6619,
      "eccan": 6620,
      "▁लोग": 6621,
      "ంచిన": 6622,
      "కుడు": 6623,
      "నుమ": 6624,
      "matic": 6625,
      "▁\"Mughal": 6626,
      "▁రో": 6627,
      "▁రంగ": 6628,
      "▁రవాణా": 6629,
      "▁సాధించ": 6630,
      "a_d": 6631,
      "a_Empire": 6632,
      "](https://en.wikipedia.org/wiki/Mugh": 6633,
      "▁है।\n\n": 6634,
      "ష్టు": 6635,
      "law": 6636,
      "▁Island": 6637,
      "▁within": 6638,
      "▁Press,": 6639,
      "](https://en.wikipedia.org/wiki/British": 6640,
      "▁exp": 6641,
      "ంతో": 6642,
      "▁\"Template:": 6643,
      "▁తరువా": 6644,
      "arden": 6645,
      "పాలన": 6646,
      "issing": 6647,
      "ం](https://te.wikipedia.org/wiki/భారతీయ": 6648,
      "గుర్": 6649,
      "నేషనల్": 6650,
      "▁क्षेत्रीय": 6651,
      "article": 6652,
      ",_కేంద్రపాలిత": 6653,
      "ender": 6654,
      "▁ప్రాంతం": 6655,
      "ublications/": 6656,
      "हिन्द": 6657,
      "▁రాజ్యం](https://te.wikipedia.org/wiki/": 6658,
      "obox": 6659,
      "వందే": 6660,
      "▁బా": 6661,
      "▁బహు": 6662,
      "▁బెంగ": 6663,
      "handigarh": 6664,
      "ాల్లో": 6665,
      "▁जनसंख्या": 6666,
      "चा:दक्षिण": 6667,
      "1971": 6668,
      "श्चिम_ब": 6669,
      "శ్వా": 6670,
      "ారిటీ": 6671,
      "▁शिक्षा": 6672,
      "धीश": 6673,
      "▁[जम्मू": 6674,
      "PPP": 6675,
      "ंपरा": 6676,
      "AsherTalbot20": 6677,
      "గోళ": 6678,
      "▁शासित": 6679,
      "బడిన": 6680,
      "_Lank": 6681,
      "ediff": 6682,
      "తున్న": 6683,
      "న్నిక": 6684,
      "]](https://hi.wikipedia.org/wiki/भारत#cite_note-FOOTNOTEStein1998": 6685,
      "]](https://hi.wikipedia.org/wiki/भारत#cite_note-FOOTNOTESingh2009": 6686,
      "▁స్వాతంత్ర్య": 6687,
      "▁కాలంలో": 6688,
      "▁ago": 6689,
      "ote:": 6690,
      "▁use": 6691,
      "त्तराखण्ड": 6692,
      "countries_and_depend": 6693,
      "mitt": 6694,
      "Dyson2018),": 6695,
      "ortal:": 6696,
      "ంపి": 6697,
      "బెంగాల్": 6698,
      "▁बंगाल\")": 6699,
      "rishna": 6700,
      "▁especially": 6701,
      "▁कुल": 6702,
      "ెలవు": 6703,
      "encies_by": 6704,
      "](https://te.wikipedia.org/wiki/భారతదేశంలో_": 6705,
      "▁व्याप": 6706,
      "▁Buddhist": 6707,
      "▁\"पंजाब\")": 6708,
      "▁increased": 6709,
      "▁అధికారిక": 6710,
      "%E0%A5%87": 6711,
      "catal": 6712,
      "culpture": 6713,
      "_मेला?action=edit&redlink=1": 6714,
      "▁2018](https://en.wikipedia.org/wiki/India#CITEREFDyson2018),": 6715,
      "ఆర్ధిక": 6716,
      "▁పట్టణ": 6717,
      "▁కాశ్మీరు": 6718,
      "▁दीव": 6719,
      "▁Minorities": 6720,
      "▁dependencies": 6721,
      "ంగ్లీషు": 6722,
      "▁estimate": 6723,
      "▁అయిన": 6724,
      "▁రెండు": 6725,
      "violence": 6726,
      "ాల్దీవులు": 6727,
      "infobox": 6728,
      "adhya": 6729,
      "िक्किम": 6730,
      "ట్రో": 6731,
      "ుల్తాన": 6732,
      "రాష్ట్రాలు,_కేంద్రపాలిత": 6733,
      "▁వ్యాసం:": 6734,
      "▁\"मुंबई\")": 6735,
      "▁अप्रैल": 6736,
      "ैदराबाद": 6737,
      "▁[हिन्दी](https://hi.wikipedia.org/wiki/हिन्दी": 6738,
      "ंडीगढ़": 6739,
      "\\_of\\_": 6740,
      "ార్లమెంట": 6741,
      "▁./వర్గం:Wikipedia\\_articles\\_with\\_": 6742,
      "▁ఏర్ప": 6743,
      "▁Quote:": 6744,
      "▁\"कर्नाटक\")": 6745,
      "ZvaGuaJIJgoC&pg=PA": 6746,
      "ఆంధ్రప్రదేశ్": 6747,
      "లయాళ": 6748,
      "archive.org/details/": 6749,
      "](https://en.wikipedia.org/wiki/Mughal_": 6750,
      "श्चिम_बंगाल": 6751,
      "countries_and_dependencies_by": 6752,
      "రాష్ట్రాలు,_కేంద్రపాలిత_ప్రాంత": 6753,
      "%;": 6754,
      ".P": 6755,
      "/).": 6756,
      "0/0": 6757,
      "Forest": 6758,
      "Sikh": 6759,
      "ahib": 6760,
      "oti": 6761,
      "rh": 6762,
      "tou": 6763,
      "जार": 6764,
      "ज्य": 6765,
      "डु": 6766,
      "नता": 6767,
      "पदी": 6768,
      "वरा": 6769,
      "सित": 6770,
      "हात्": 6771,
      "ुट": 6772,
      "ृती": 6773,
      "ोला": 6774,
      "ोडिया": 6775,
      "ौपदी": 6776,
      "▁:": 6777,
      "▁ki": 6778,
      "▁समाज": 6779,
      "▁(अ": 6780,
      "asht": 6781,
      "▁मन": 6782,
      "▁India*": 6783,
      "▁अस्त": 6784,
      "▁Conservation": 6785,
      "ंगोल": 6786,
      "▁जि": 6787,
      "त्री": 6788,
      "लाओ": 6789,
      "rowing": 6790,
      "ांचे": 6791,
      ".\n1": 6792,
      ".\n14": 6793,
      "21.": 6794,
      "ir_S": 6795,
      "agore": 6796,
      "द्रौपदी": 6797,
      "_in_A": 6798,
      "ablish": 6799,
      "22.": 6800,
      "1857": 6801,
      "29.": 6802,
      "र्मू": 6803,
      "Harmand": 6804,
      "▁लाल": 6805,
      "▁भवन": 6806,
      "▁धार्मिक": 6807,
      "वर्तन": 6808,
      "_Map": 6809,
      "▁[सी": 6810,
      "दाबाद": 6811,
      "_Golden_Temple": 6812,
      "धारण": 6813,
      "▁टा": 6814,
      "_proj": 6815,
      "_pilgrim": 6816,
      "angetic": 6817,
      "▁१९७": 6818,
      "ported": 6819,
      "न्नड": 6820,
      "▁leg": 6821,
      "▁[पश्चिम": 6822,
      "▁|\n\n|": 6823,
      "%E0%A5%8D": 6824,
      "_at_the_Golden_Temple": 6825,
      "ield": 6826,
      "▁विषय": 6827,
      "aranth": 6828,
      "वसायिक": 6829,
      "द्दाख": 6830,
      "हमदाबाद": 6831,
      "Sikh_pilgrim": 6832,
      "हात्मा": 6833,
      "ir_Sahib": 6834,
      "Harmandir_Sahib": 6835,
      "Sikh_pilgrim_at_the_Golden_Temple": 6836,
      "-T": 6837,
      "-h": 6838,
      "-se": 6839,
      "/in": 6840,
      "1-0": 6841,
      "123": 6842,
      "2%": 6843,
      "2-4": 6844,
      "2)[[": 6845,
      "313": 6846,
      "32)": 6847,
      "7C": 6848,
      "9]](https://en.wikipedia.org/wiki/India#cite_note-": 6849,
      "9]](https://en.wikipedia.org/wiki/India#cite_note-FOOTNOTE": 6850,
      "Alig": 6851,
      "Ex": 6852,
      "Flag": 6853,
      "Front": 6854,
      "Map": 6855,
      "Paki": 6856,
      "_9": 6857,
      "_industry": 6858,
      "_युद्ध": 6859,
      "ather": 6860,
      "ative": 6861,
      "ault": 6862,
      "baki": 6863,
      "dat": 6864,
      "eth": 6865,
      "each": 6866,
      "ethnologue": 6867,
      "kb": 6868,
      "khand": 6869,
      "lm": 6870,
      "oes": 6871,
      "page": 6872,
      "rance": 6873,
      "s:": 6874,
      "subcontinent": 6875,
      "top": 6876,
      "vent": 6877,
      "vil": 6878,
      "wana": 6879,
      "ऊर्जा": 6880,
      "कूल": 6881,
      "गल": 6882,
      "जल": 6883,
      "ट्य": 6884,
      "ढा": 6885,
      "भार": 6886,
      "यपुर": 6887,
      "लिक": 6888,
      "लिस": 6889,
      "श्य": 6890,
      "िवा": 6891,
      "ॉकी": 6892,
      "ोध": 6893,
      "▁ge": 6894,
      "▁36": 6895,
      "▁3.": 6896,
      "▁eng": 6897,
      "▁[n": 6898,
      "▁\"U": 6899,
      "▁\"चीन": 6900,
      "▁\"World": 6901,
      "▁\"तमिल": 6902,
      "\")\"": 6903,
      "en,": 6904,
      "ences": 6905,
      "](https://en.wikipedia.org/wiki/World": 6906,
      "erved": 6907,
      "erman": 6908,
      "ars": 6909,
      "artition": 6910,
      "2025": 6911,
      "▁सकल": 6912,
      "▁सिंह": 6913,
      "isc": 6914,
      "ederal": 6915,
      "](https://hi.wikipedia.org/wiki/च": 6916,
      "](https://hi.wikipedia.org/wiki/बा": 6917,
      "▁(ed.).": 6918,
      "र्ड": 6919,
      "र्त": 6920,
      "ichell": 6921,
      "▁India*.": 6922,
      "rat": 6923,
      "\n\nमुख्य": 6924,
      "▁popul": 6925,
      "▁political": 6926,
      "ately": 6927,
      "▁coast": 6928,
      "▁Comp": 6929,
      "\\_(": 6930,
      "atna": 6931,
      "[[14": 6932,
      "▁प्रभा": 6933,
      "▁प्रौद्योगिकी": 6934,
      "▁bu": 6935,
      "ango": 6936,
      "ंगम": 6937,
      "78.": 6938,
      "chay": 6939,
      "very": 6940,
      "ults": 6941,
      "stani": 6942,
      "iland": 6943,
      "▁direct": 6944,
      ".\n10": 6945,
      "▁work": 6946,
      "ourts": 6947,
      "ourbaki": 6948,
      "oln": 6949,
      "▁Rothermund": 6950,
      "▁Muslim": 6951,
      "्वाला": 6952,
      "254": 6953,
      "▁Br": 6954,
      "▁By": 6955,
      "▁Dictionary": 6956,
      "agen": 6957,
      "▁गंगा": 6958,
      "upreme": 6959,
      "hatt": 6960,
      "aint": 6961,
      "मुना": 6962,
      "-415": 6963,
      "50th": 6964,
      "▁gen": 6965,
      "▁[\"P": 6966,
      "oss": 6967,
      "ghts": 6968,
      "harkhand": 6969,
      "ustrial": 6970,
      "▁परंपरा": 6971,
      "▁International": 6972,
      "▁\"Cambridge": 6973,
      "eck": 6974,
      "orship": 6975,
      "▁१६": 6976,
      "▁Languages": 6977,
      "_Comm": 6978,
      "_Pro": 6979,
      "▁[Cambridge": 6980,
      "ndhra": 6981,
      "▁[978-0-521": 6982,
      "▁[978-81": 6983,
      "▁राज्य\")": 6984,
      "ियार": 6985,
      "▁[↑](https://en.wikipedia.org/wiki/India#cite_ref-FOOTNOTEStein2010": 6986,
      "▁before": 6987,
      "ocs/": 6988,
      "](Special:BookSources/978-81": 6989,
      "lative": 6990,
      "▁\"Special:BookSources/978-81": 6991,
      "▁original](http://www.": 6992,
      "▁राजवंश": 6993,
      "ोलन": 6994,
      "iley": 6995,
      "aith": 6996,
      "परमाणु": 6997,
      "CS1\\_": 6998,
      "issile": 6999,
      "▁range": 7000,
      "aking": 7001,
      "iance": 7002,
      "vention": 7003,
      "▁[New": 7004,
      "677": 7005,
      "type": 7006,
      "▁2007](https://en.wikipedia.org/wiki/India#CITEREF": 7007,
      "%E0%A4%B8": 7008,
      "onstitution_of_India": 7009,
      "class": 7010,
      "▁lite": 7011,
      "शासित_प्रदेश": 7012,
      "▁अन्त": 7013,
      "▁vill": 7014,
      "भूषा": 7015,
      "ambridge_University_Press": 7016,
      "स्वतंत्रता": 7017,
      "erves": 7018,
      "ंग्लादेश": 7019,
      "ौद्ध_धर्म": 7020,
      "▁\"गंगा": 7021,
      "troduction": 7022,
      "aceu": 7023,
      "on-Alig": 7024,
      "▁right": 7025,
      "▁News": 7026,
      "attle": 7027,
      "ureau": 7028,
      "▁Pradesh\")": 7029,
      "_2024": 7030,
      "सिद्ध": 7031,
      "hola": 7032,
      "▁था।": 7033,
      "ollingham": 7034,
      "▁2024.": 7035,
      "▁different": 7036,
      "छत्तीसगढ़": 7037,
      "bi.n": 7038,
      "olkata": 7039,
      "द्वार": 7040,
      "▁including": 7041,
      "New_Delhi": 7042,
      "▁[India](https://en.wikipedia.org/wiki/India": 7043,
      "langoff-1": 7044,
      "vatsyayan-lord-4": 7045,
      "vatsyayan-lord_43": 7046,
      "▁पहले": 7047,
      "▁पार्टी": 7048,
      "urchasing": 7049,
      "6]](https://en.wikipedia.org/wiki/India#cite_note-vatsyayan-lord-4": 7050,
      "nergy": 7051,
      "arnataka": 7052,
      "▁शैली": 7053,
      "owever,": 7054,
      "ological": 7055,
      "विद्यालय": 7056,
      "bank.org/": 7057,
      "harmaceu": 7058,
      "▁mi)": 7059,
      "rishnan": 7060,
      "olonial": 7061,
      "ouncil": 7062,
      "▁डॉलर": 7063,
      "▁[पुरालेखित](https://web.archive.org/web/201": 7064,
      ".nih": 7065,
      "महाद्वीप": 7066,
      "arliest": 7067,
      "hmedabad": 7068,
      "▁चुनावों": 7069,
      "kZVuDwAAQBAJ&pg=PA": 7070,
      "▁प्रधानमंत्री": 7071,
      "existen": 7072,
      "▁Press](https://en.wikipedia.org/wiki/Cambridge_University_Press": 7073,
      "hutan": 7074,
      "ncbi.n": 7075,
      "▁(2014).": 7076,
      "Pakistani": 7077,
      "ethnologue.com/": 7078,
      "lm.nih": 7079,
      "▁\"चीन\")": 7080,
      "्वालामुख": 7081,
      "on-Aligned": 7082,
      "ncbi.nlm.nih": 7083,
      "-27": 7084,
      "/s": 7085,
      "223": 7086,
      "Web": 7087,
      "_36": 7088,
      "_त्रूटी": 7089,
      "e,": 7090,
      "eitz": 7091,
      "iis": 7092,
      "ंबा": 7093,
      "आशियातील": 7094,
      "टना": 7095,
      "टके": 7096,
      "डप्पा": 7097,
      "णु": 7098,
      "तै": 7099,
      "तून": 7100,
      "दिवस": 7101,
      "दडो": 7102,
      "धा": 7103,
      "मिका": 7104,
      "ळा": 7105,
      "वणी": 7106,
      "शत": 7107,
      "शस्": 7108,
      "षद": 7109,
      "ह्य": 7110,
      "हशत": 7111,
      "ृष": 7112,
      "ोबर": 7113,
      "२]](https://mr.wikipedia.org/wiki/भारत#cite_note-": 7114,
      "८]](https://mr.wikipedia.org/wiki/भारत#cite_note-": 7115,
      "▁%": 7116,
      "▁]": 7117,
      "▁त्रूटी": 7118,
      "orial": 7119,
      "▁[ए": 7120,
      "▁[श्रीलंका": 7121,
      "tek": 7122,
      "▁\"भू": 7123,
      "▁\"श्रीलंका": 7124,
      "▁\"en:": 7125,
      "ene": 7126,
      "्यु": 7127,
      "▁कला": 7128,
      "▁कंपनी": 7129,
      "▁साली": 7130,
      "▁सिंधू": 7131,
      "▁सस्तन": 7132,
      "cit": 7133,
      "](https://mr.wikipedia.org/wiki/व": 7134,
      "](https://mr.wikipedia.org/wiki/दक्षिण": 7135,
      "](https://mr.wikipedia.org/wiki/लोक": 7136,
      "](https://mr.wikipedia.org/wiki/राजस्थान": 7137,
      "▁पृष्": 7138,
      "asu": 7139,
      "राव": 7140,
      "रामायण": 7141,
      "्या\")": 7142,
      "्याचे": 7143,
      "▁ह्या": 7144,
      "▁आम": 7145,
      "▁आली": 7146,
      "-03": 7147,
      "\\_देश": 7148,
      "▁प्रजासत्ताक": 7149,
      "▁केला": 7150,
      "▁भारताची": 7151,
      "▁[↑](https://mr.wikipedia.org/wiki/भारत#cite_": 7152,
      "स्पती": 7153,
      "▁त्यात": 7154,
      "ांना": 7155,
      "▁नका": 7156,
      "लेला": 7157,
      "देशांक": 7158,
      "वाळवंट": 7159,
      "▁शक": 7160,
      "▁इ.": 7161,
      "▁यात": 7162,
      "establish": 7163,
      "द्दल": 7164,
      "ध्यम": 7165,
      "म्ह": 7166,
      "▁On": 7167,
      "▁प्रदेशात": 7168,
      "शियाई": 7169,
      "▁\"सहाय्य:CS1": 7170,
      "ुरोप": 7171,
      "गर\")": 7172,
      "_मो": 7173,
      "जीव": 7174,
      "▁[केर": 7175,
      "▁राजक": 7176,
      "णाऱ्या": 7177,
      "▁नाटके": 7178,
      "▁घड": 7179,
      "▁[बिहार": 7180,
      "▁\"बिहार": 7181,
      "▁वाघ": 7182,
      "▁पाकिस्तान": 7183,
      "▁1997": 7184,
      "](https://mr.wikipedia.org/wiki/सहाय्य:CS1": 7185,
      "शीख": 7186,
      "ernet": 7187,
      "ल्ली": 7188,
      "\n\nभारतात": 7189,
      "▁\"आसा": 7190,
      "हित्य": 7191,
      "▁**[आ": 7192,
      ".svg)": 7193,
      "orthographic": 7194,
      "](https://mr.wikipedia.org/wiki/आसाम": 7195,
      "▁भूमिका": 7196,
      "▁वर्षात": 7197,
      "▁[नवी": 7198,
      "्यानंतर": 7199,
      "▁विकसित": 7200,
      "▁त्यामुळे": 7201,
      "ृष्टी": 7202,
      "▁प्रकारच्या": 7203,
      "▁मंदिर\")": 7204,
      "▁पदवी": 7205,
      "▁म्हणजे": 7206,
      "▁आकर्ष": 7207,
      "ोहेंजो": 7208,
      "▁गेल्या": 7209,
      "▁गेली.": 7210,
      "▁ईस्ट": 7211,
      "हाय्य](https://mr.wikipedia.org/wiki/सहाय्य:CS1": 7212,
      "▁नदी\"),": 7213,
      "▁व्यावसायिक": 7214,
      "ण्याची": 7215,
      "▁आहे.[[१": 7216,
      "पर्यंत": 7217,
      "Wikipedia:": 7218,
      "नेपाळ": 7219,
      "▁पर्यंत": 7220,
      "ित्त्व": 7221,
      "साम](https://mr.wikipedia.org/wiki/आसाम": 7222,
      "▁पाहिले.": 7223,
      "c.ernet": 7224,
      "▁वनस्पती": 7225,
      "प्राचीन": 7226,
      "▁प्राणी**": 7227,
      "▁[महाराष्ट्र](https://mr.wikipedia.org/wiki/महाराष्ट्र": 7228,
      "▁सोयी": 7229,
      "▁निर्मिती": 7230,
      "▁उपसागरा": 7231,
      "▁वेगळे": 7232,
      "▁(2006).": 7233,
      "▁जेव": 7234,
      "१६६-": 7235,
      "वृतीय": 7236,
      "▁अजूनही": 7237,
      "rajbhasha": 7238,
      "▁पुरस्कार": 7239,
      "▁टिळक": 7240,
      "▁इत्यादी": 7241,
      "▁([सहाय्य](https://mr.wikipedia.org/wiki/सहाय्य:CS1": 7242,
      "▁नेतृत्व": 7243,
      "%;\n\n": 7244,
      "▁अस्तित्त्व": 7245,
      "_projection": 7246,
      "_त्रूटी#": 7247,
      "eitzman": 7248,
      "iisc.ernet": 7249,
      "▁\"श्रीलंका\")": 7250,
      "▁पृष्ठा": 7251,
      "▁नकाशा": 7252,
      "▁\"बिहार\")": 7253,
      "orthographic_projection": 7254,
      "ोहेंजोदडो": 7255,
      "▁([सहाय्य](https://mr.wikipedia.org/wiki/सहाय्य:CS1_त्रूटी#": 7256,
      "%3": 7257,
      "&action=edit": 7258,
      "-F": 7259,
      "-R": 7260,
      "-the": 7261,
      "-ex": 7262,
      ".६": 7263,
      "1]](https://en.wikipedia.org/wiki/India#cite_note-": 7264,
      "220": 7265,
      "2-1": 7266,
      "221": 7267,
      "324": 7268,
      "4,": 7269,
      "5]](https://en.wikipedia.org/wiki/India#cite_note-": 7270,
      "58)": 7271,
      "74": 7272,
      "7-1": 7273,
      "8+": 7274,
      "9).": 7275,
      ":**": 7276,
      "Ali": 7277,
      "Atlas": 7278,
      "CH": 7279,
      "Chennai": 7280,
      "Collingham": 7281,
      "DIA": 7282,
      "Economic": 7283,
      "F)": 7284,
      "LM": 7285,
      "OV": 7286,
      "S$": 7287,
      "San": 7288,
      "TO": 7289,
      "Template": 7290,
      "Tarlo": 7291,
      "_ऑ": 7292,
      "_con": 7293,
      "_30": 7294,
      "_15": 7295,
      "_వి": 7296,
      "_కాశ్మీ": 7297,
      "aos": 7298,
      "document": 7299,
      "eat": 7300,
      "equality": 7301,
      "f/f": 7302,
      "gu": 7303,
      "hdr": 7304,
      "ject": 7305,
      "lar": 7306,
      "lue": 7307,
      "mill": 7308,
      "odia": 7309,
      "ren": 7310,
      "rid": 7311,
      "round": 7312,
      "rune": 7313,
      "sc": 7314,
      "san": 7315,
      "tandard": 7316,
      "yd": 7317,
      "yer": 7318,
      "zer": 7319,
      "ँग": 7320,
      "ंस": 7321,
      "को": 7322,
      "चार": 7323,
      "जं": 7324,
      "न्तर": 7325,
      "पि": 7326,
      "फोर्ड": 7327,
      "मंड": 7328,
      "यत": 7329,
      "वत": 7330,
      "वन\")": 7331,
      "ेन्द्र": 7332,
      "ैंक": 7333,
      "ोली": 7334,
      "ం.": 7335,
      "ంస్కృ": 7336,
      "ఉత్తరా": 7337,
      "ఖో": 7338,
      "ఘాలయ": 7339,
      "చ్": 7340,
      "టై": 7341,
      "టర్": 7342,
      "డమ్": 7343,
      "డఖ్": 7344,
      "ణే": 7345,
      "ణంగా": 7346,
      "తే": 7347,
      "తెల": 7348,
      "దరంగ": 7349,
      "నో": 7350,
      "నంద": 7351,
      "బర్": 7352,
      "బార్": 7353,
      "యె": 7354,
      "రె": 7355,
      "లడఖ్": 7356,
      "ళా": 7357,
      "ళి": 7358,
      "శు": 7359,
      "హించ": 7360,
      "ుకు": 7361,
      "ెన్న": 7362,
      "ెట్రో": 7363,
      "ేతి": 7364,
      "ేఘాలయ": 7365,
      "ైనిక": 7366,
      "ొగలు": 7367,
      "ోళ": 7368,
      "‌కా": 7369,
      "‌మహ": 7370,
      "▁°": 7371,
      "▁·": 7372,
      "▁ఐ": 7373,
      "▁ఖ": 7374,
      "▁–సా.శ.": 7375,
      "▁భారతీయ": 7376,
      "▁46": 7377,
      "▁దినోత్స": 7378,
      "▁kingdom": 7379,
      "iated": 7380,
      "tter": 7381,
      ".wikipedia.org/w": 7382,
      "▁[Y": 7383,
      "▁[In": 7384,
      "▁[राष्ट्रीय": 7385,
      "▁[రాష్ట్ర": 7386,
      "▁[జన": 7387,
      "▁[గో": 7388,
      "▁[१९": 7389,
      "tex": 7390,
      "▁\"పా": 7391,
      "▁\"జన": 7392,
      "▁\"గో": 7393,
      "▁\"మూస:": 7394,
      "▁\"ओडिशा": 7395,
      "▁\"हिमालय": 7396,
      "ino-": 7397,
      "inated": 7398,
      "inema": 7399,
      "an-": 7400,
      "anat": 7401,
      "tile": 7402,
      "ties/": 7403,
      "title": 7404,
      "](https://en.wikipedia.org/wiki/List": 7405,
      "ala": 7406,
      "alit": 7407,
      "rel": 7408,
      "rest": 7409,
      "him": 7410,
      "ofker": 7411,
      "▁सि": 7412,
      "▁सार": 7413,
      "▁स्त": 7414,
      "▁सम्": 7415,
      "▁सम्राट": 7416,
      "▁सल्तनत": 7417,
      "thehindu": 7418,
      "](https://hi.wikipedia.org/wiki/ल": 7419,
      "](https://hi.wikipedia.org/wiki/दक्षिण": 7420,
      "](https://hi.wikipedia.org/wiki/पाकिस्तान": 7421,
      "omo": 7422,
      "▁पहा": 7423,
      "▁(199": 7424,
      "itation": 7425,
      "](https://te.wikipedia.org/wiki/B": 7426,
      "](https://te.wikipedia.org/wiki/G": 7427,
      "](https://te.wikipedia.org/wiki/భారతదేశ": 7428,
      "](https://te.wikipedia.org/wiki/గో": 7429,
      "](https://te.wikipedia.org/wiki/మూస:": 7430,
      "asthan": 7431,
      "राम": 7432,
      "▁मौ": 7433,
      "19)": 7434,
      "ారస్వ": 7435,
      "ica": 7436,
      "▁inte": 7437,
      "ratic": 7438,
      "id-": 7439,
      "▁आधुनिक": 7440,
      "▁sty": 7441,
      "-08": 7442,
      "aten": 7443,
      "ాలె": 7444,
      "acmill": 7445,
      "ingap": 7446,
      "▁can": 7447,
      "▁capita": 7448,
      "▁Ad": 7449,
      "ator": 7450,
      "ating": 7451,
      "▁Sabha": 7452,
      "▁Society": 7453,
      "etry": 7454,
      "స్ట": 7455,
      "స్వాతంత్ర్య": 7456,
      "▁four": 7457,
      "▁fol": 7458,
      "▁fig": 7459,
      "▁प्रेस": 7460,
      "▁పర": 7461,
      "▁పండు": 7462,
      "lite": 7463,
      "loped": 7464,
      "angam": 7465,
      "angered": 7466,
      "नाइट": 7467,
      "umeration": 7468,
      "789": 7469,
      "urk": 7470,
      "urry": 7471,
      "▁जग": 7472,
      "well": 7473,
      "_of_Congress": 7474,
      "ily": 7475,
      "illi": 7476,
      "FOOTNOTENational_Informatics_Centre2005": 7477,
      "▁नव": 7478,
      "లు](https://te.wikipedia.org/wiki/": 7479,
      ".\n15": 7480,
      "▁would": 7481,
      "రాన్": 7482,
      "రాస్య": 7483,
      "▁Temple": 7484,
      "▁Routledge": 7485,
      "▁Machine": 7486,
      "▁కే": 7487,
      "▁కోర్": 7488,
      "igration": 7489,
      "▁B.;": 7490,
      "త్రిక": 7491,
      "238": 7492,
      "క్స్": 7493,
      "క్కి": 7494,
      "वियत": 7495,
      "▁led": 7496,
      "260": 7497,
      "269,": 7498,
      "indhi": 7499,
      "▁వె": 7500,
      "▁వంట": 7501,
      "▁*India": 7502,
      "▁\"Sanskrit": 7503,
      "ager": 7504,
      "240": 7505,
      "1991": 7506,
      "upt": 7507,
      "▁[↑](https://en.wikipedia.org/wiki/India#cite_ref-4": 7508,
      "ంగో": 7509,
      "tudi": 7510,
      "▁సముద్ర": 7511,
      "▁సూచ": 7512,
      "▁సౌక": 7513,
      "bert": 7514,
      "287,": 7515,
      "hak": 7516,
      "hailand": 7517,
      "్రామ": 7518,
      "▁उन": 7519,
      "▁Health": 7520,
      "▁N.": 7521,
      "▁Nicobar": 7522,
      "-39": 7523,
      "ండా": 7524,
      "ండీ": 7525,
      "ండ్య": 7526,
      "-459": 7527,
      "त्ता": 7528,
      "_in_New_Delhi": 7529,
      "తాజ్": 7530,
      "నాథ": 7531,
      "▁विदेश": 7532,
      "-85": 7533,
      "▁third": 7534,
      "ody": 7535,
      "సింది.": 7536,
      "త్వా": 7537,
      "▁1962": 7538,
      "▁रच": 7539,
      "_A7C": 7540,
      "aph": 7541,
      "▁[SAARC": 7542,
      "▁(సా.శ.16": 7543,
      "ులు?action=edit&redlink=1": 7544,
      "▁అభి": 7545,
      "▁ప్రజా": 7546,
      "తం?action=edit&redlink=1": 7547,
      "▁[Ar": 7548,
      "▁\"Chin": 7549,
      "ी_म": 7550,
      "▁Organization": 7551,
      "_Pradesh": 7552,
      "ogri": 7553,
      "ogam": 7554,
      "పూర్": 7555,
      "▁[Central": 7556,
      "ప్రిల్": 7557,
      "▁राज्यक्षेत्र": 7558,
      "▁ఉంట": 7559,
      "▁ఉత్తర": 7560,
      "](https://books.google.com/books?id=3TRtDwAAQBAJ&pg=PA": 7561,
      "%20A": 7562,
      "ngineering": 7563,
      "ड़ियाँ": 7564,
      "▁సామా": 7565,
      "వాద": 7566,
      "విధ": 7567,
      "ార్ఖండ్": 7568,
      "క్షరాస్య": 7569,
      "otal": 7570,
      "-53": 7571,
      "त्न": 7572,
      "िसी": 7573,
      "ज़ा": 7574,
      "పుర": 7575,
      "2011religion": 7576,
      "709": 7577,
      "▁నడి": 7578,
      "▁ఇండియా": 7579,
      "▁now": 7580,
      "45)": 7581,
      "_and_union_territ": 7582,
      "▁areas": 7583,
      "ameez": 7584,
      "▁Ved": 7585,
      "37)": 7586,
      "▁contin": 7587,
      "_River": 7588,
      "49-2": 7589,
      "గుప్": 7590,
      "డుకు": 7591,
      "నేషియా": 7592,
      "▁पाव": 7593,
      "▁क्षेत्रों": 7594,
      "ంగాణ": 7595,
      "▁జన": 7596,
      "లియా": 7597,
      "▁ప్రాచ": 7598,
      "▁విభ": 7599,
      "▁వివిధ": 7600,
      "feb": 7601,
      "▁సంఘ": 7602,
      "స్తారు": 7603,
      "ండిచ్చేరి": 7604,
      "▁like": 7605,
      "▁१९५०": 7606,
      "Asher2006": 7607,
      "AsherAsher2006": 7608,
      "▁स्वतंत्रता": 7609,
      "▁स्वरूप": 7610,
      "33-7": 7611,
      "ज्ञाप": 7612,
      "egistrar": 7613,
      "▁[Kulke": 7614,
      "జీరియా": 7615,
      "▁मानसून": 7616,
      "▁जनवरी": 7617,
      "ంకేతి": 7618,
      "▁[![The": 7619,
      "पुरम": 7620,
      "_Fund": 7621,
      "_128": 7622,
      "వేలీ": 7623,
      "alaysia": 7624,
      "DwAAQBAJ": 7625,
      "▁मेला\"),": 7626,
      "▁युग": 7627,
      "बंधन": 7628,
      "ंग्रेज़ी_भाषा": 7629,
      "▁ప్రాంతాలు\")": 7630,
      "▁अधिकार": 7631,
      "▁बहुत": 7632,
      "▁बहुमत": 7633,
      "ukesh": 7634,
      "బియా": 7635,
      "▁[Archived](https://web.archive.org/web/20210": 7636,
      "national-language": 7637,
      "▁change": 7638,
      "ographical": 7639,
      "ynth": 7640,
      "డామన్": 7641,
      "▁రాష్ట్రపతి": 7642,
      "▁river": 7643,
      "త్రిపుర": 7644,
      "▁आधारित": 7645,
      "flict": 7646,
      "_కాల": 7647,
      "athematics": 7648,
      "▁ओर": 7649,
      "निष्ठ": 7650,
      "▁రైల్వే": 7651,
      "▁agriculture": 7652,
      "_from": 7653,
      "య్యూ": 7654,
      "త్తీస్": 7655,
      "▁ప్రదేశ్](https://te.wikipedia.org/wiki/": 7656,
      "mirates": 7657,
      "నాగాలా": 7658,
      "▁These": 7659,
      "▁पुरालेखित।,": 7660,
      "▁कार्य": 7661,
      "▁\"జమ్మూ": 7662,
      "1909": 7663,
      "समिया": 7664,
      "ually": 7665,
      "lock": 7666,
      "local_": 7667,
      "–123": 7668,
      "ambodia": 7669,
      "▁పాకిస్తాన్": 7670,
      "▁subcontinent\")": 7671,
      "tected": 7672,
      "▁Force": 7673,
      "కోవ": 7674,
      "కోబార్": 7675,
      "](https://te.wikipedia.org/wiki/జమ్మూ": 7676,
      "ల్లవ": 7677,
      "▁ईसा": 7678,
      "_और_संघ": 7679,
      "▁कुछ": 7680,
      "▁commun": 7681,
      "▁2020.": 7682,
      "▁species": 7683,
      "NCLM": 7684,
      "▁rock": 7685,
      "chedule": 7686,
      "emocratic": 7687,
      "_के_आधार_पर_भारत_के_राज्यों_की_सूची": 7688,
      "రేబియా": 7689,
      "Insur": 7690,
      "ominion": 7691,
      "▁2025.": 7692,
      "టాక్": 7693,
      "ataraj": 7694,
      "▁People": 7695,
      "▁మాత్ర": 7696,
      "్రిటిష్": 7697,
      "sites/": 7698,
      "तेलंगाना": 7699,
      "▁वन्य": 7700,
      "janta": 7701,
      "వెను": 7702,
      "ూచి": 7703,
      "▁Chinese": 7704,
      "భారతదేశ_రాష్ట్రాలు,_కేంద్రపాలిత_ప్రాంత": 7705,
      "tiger": 7706,
      "...]": 7707,
      "ప్పటిక": 7708,
      ".htm)": 7709,
      "▁emerg": 7710,
      "▁(1,269,": 7711,
      "भिज्ञाप": 7712,
      "లేషియా": 7713,
      "▁majority": 7714,
      "▁3,287,": 7715,
      "▁మొదల": 7716,
      "▁\"हिन्दी\")": 7717,
      "क्सफोर्ड": 7718,
      "▁occup": 7719,
      "Sharma2007": 7720,
      "ద్యు": 7721,
      "▁చిత్ర": 7722,
      "ద్వీప్": 7723,
      "▁ఉపఖండ": 7724,
      "ంటుంది.": 7725,
      "▁దేశంలోని": 7726,
      "▁కాంగ్రెసు": 7727,
      "India_Goa": 7728,
      "Report.pdf)": 7729,
      "ఆగష్టు": 7730,
      "లక్షద్వీప్": 7731,
      "హాయం:": 7732,
      "ీకరణ": 7733,
      "ోల్‌కా": 7734,
      "మిజోరా": 7735,
      "ravidian": 7736,
      "▁appro": 7737,
      "elangana": 7738,
      "▁employed": 7739,
      "_Force": 7740,
      "ర్యానా": 7741,
      "▁[ఢిల్లీ](https://te.wikipedia.org/wiki/ఢిల్లీ": 7742,
      "టిబెట్": 7743,
      "మెరికా": 7744,
      "nclm.nic.in/shared/linkimages/NCLM": 7745,
      "Census2011religion": 7746,
      "lothing": 7747,
      "▁remain": 7748,
      "▁widely": 7749,
      "▁[अंग्रेज़ी](https://hi.wikipedia.org/wiki/अंग्रेज़ी_भाषा": 7750,
      "/index.php?title": 7751,
      "Home_Affairs": 7752,
      "IFT": 7753,
      "బడ్డీ": 7754,
      "ేరళ": 7755,
      "్రైస్త": 7756,
      "rakash": 7757,
      "razil": 7758,
      "ండమాన్": 7759,
      "ెలవుదిన": 7760,
      "olnar": 7761,
      "hattis": 7762,
      "50thReport.pdf)": 7763,
      "_Commission": 7764,
      "&action=edit)": 7765,
      "Tarlo1996": 7766,
      "runei": 7767,
      "తెలంగాణ": 7768,
      "ెన్నై": 7769,
      "‌మహల్": 7770,
      ".wikipedia.org/w/index.php?title": 7771,
      "acmillan": 7772,
      "ingapore": 7773,
      "tudies": 7774,
      "తాజ్‌మహల్": 7775,
      "క్షరాస్యత": 7776,
      "_and_union_territories": 7777,
      "నాగాలాండ్": 7778,
      "](https://te.wikipedia.org/wiki/జమ్మూ_కాశ్మీ": 7779,
      "भिज्ञापक": 7780,
      "ోల్‌కాతా": 7781,
      "nclm.nic.in/shared/linkimages/NCLM50thReport.pdf)": 7782,
      ".wikipedia.org/w/index.php?title=": 7783,
      "-L": 7784,
      "_28": 7785,
      "_इंडिया": 7786,
      "curr": 7787,
      "ंभ": 7788,
      "ग्वे": 7789,
      "छा": 7790,
      "दर": 7791,
      "निरपेक्ष": 7792,
      "पास": 7793,
      "भर": 7794,
      "मोर": 7795,
      "रद": 7796,
      "रल": 7797,
      "ुरा": 7798,
      "४०": 7799,
      "▁establish": 7800,
      "▁[ध": 7801,
      "▁[त्रिपुरा": 7802,
      "▁\"पूर्व": 7803,
      "▁\"त्रिपुरा": 7804,
      "्रु": 7805,
      "report": 7806,
      "▁सुरक्षा": 7807,
      "▁पुरु": 7808,
      "lem": 7809,
      "त्रिक": 7810,
      "▁12.": 7811,
      "▁बद": 7812,
      "▁शुष्क": 7813,
      "forest": 7814,
      "elated": 7815,
      "18.": 7816,
      "▁198": 7817,
      "▁1980": 7818,
      "र्मदा": 7819,
      "▁\"मान": 7820,
      "णिपुर": 7821,
      "▁London": 7822,
      ".in/curr": 7823,
      "ुरत": 7824,
      "▁वर्षा": 7825,
      "नुसार_देश": 7826,
      "▁\"आंध्र": 7827,
      "▁\"इंडोनेशिया": 7828,
      "▁[इंडोनेशिया": 7829,
      "ervice": 7830,
      "Wikivoyage": 7831,
      "_संविधान": 7832,
      "▁युद्ध\")": 7833,
      "place": 7834,
      "▁28.": 7835,
      "way_of_India": 7836,
      "\").\n4": 7837,
      "▁वृद्ध": 7838,
      "b/b": 7839,
      "sci/": 7840,
      ".uk/": 7841,
      ".in/currsci/": 7842,
      "▁\"इंडोनेशिया\")": 7843,
      "&ss": 7844,
      "-H": 7845,
      "-k": 7846,
      "-w": 7847,
      "-Asia": 7848,
      "-logo": 7849,
      ".५": 7850,
      ".ed": 7851,
      ".200": 7852,
      "/e": 7853,
      "/national": 7854,
      "2),": 7855,
      "3).": 7856,
      "5-3": 7857,
      "7]](https://en.wikipedia.org/wiki/India#cite_note-": 7858,
      "8]](https://en.wikipedia.org/wiki/India#cite_note-FOOTNOTE": 7859,
      "96": 7860,
      ";[[": 7861,
      "A%E0%A4%BE": 7862,
      "C)": 7863,
      "Countries": 7864,
      "Constituent": 7865,
      "GDP": 7866,
      "Jha": 7867,
      "Language": 7868,
      "Mumbai": 7869,
      "Petraglia": 7870,
      "SE": 7871,
      "States": 7872,
      "Wright": 7873,
      "YC": 7874,
      "\\*": 7875,
      "_ड": 7876,
      "_per": 7877,
      "_Union": 7878,
      "_जय": 7879,
      "_term": 7880,
      "aci": 7881,
      "cu": 7882,
      "cet": 7883,
      "cod": 7884,
      "ctive": 7885,
      "dy": 7886,
      "gion": 7887,
      "hā": 7888,
      "mation": 7889,
      "mall": 7890,
      "rban": 7891,
      "sources": 7892,
      "ui": 7893,
      "uries": 7894,
      "upee": 7895,
      "vin": 7896,
      "yth": 7897,
      "ई\")": 7898,
      "कृष्ट": 7899,
      "गोर": 7900,
      "घा": 7901,
      "थे": 7902,
      "नृत्य": 7903,
      "पाली": 7904,
      "फा": 7905,
      "भग": 7906,
      "भ्यता": 7907,
      "यर": 7908,
      "ळम": 7909,
      "ृश्य": 7910,
      "ोसी": 7911,
      "२००": 7912,
      "२०१": 7913,
      "३०": 7914,
      "▁ob": 7915,
      "▁known": 7916,
      "wildlife": 7917,
      "org": 7918,
      "orpor": 7919,
      "pen": 7920,
      "](https://id": 7921,
      "▁[ख": 7922,
      "▁\"19": 7923,
      "▁\"International": 7924,
      "enj": 7925,
      "enous": 7926,
      "ination": 7927,
      "onk": 7928,
      "Inf": 7929,
      "er-": 7930,
      "alace": 7931,
      "alk:": 7932,
      "reen": 7933,
      "official": 7934,
      "भारत)": 7935,
      "▁सित": 7936,
      "the-world": 7937,
      "](https://hi.wikipedia.org/wiki/व": 7938,
      "](https://hi.wikipedia.org/wiki/तमिल": 7939,
      "andoor": 7940,
      "▁(b": 7941,
      "▁(c": 7942,
      "▁(in": 7943,
      "▁(भारत": 7944,
      "▁(2007": 7945,
      "▁(India)": 7946,
      "itar": 7947,
      "itage": 7948,
      "▁मई": 7949,
      "र्ध": 7950,
      "ices": 7951,
      "▁independence": 7952,
      "raman": 7953,
      "id=1": 7954,
      "▁आदि": 7955,
      "्तु": 7956,
      "\n\nThe": 7957,
      "▁pri": 7958,
      "▁prac": 7959,
      "-04": 7960,
      "ries/": 7961,
      "acred": 7962,
      "ातर": 7963,
      "-138": 7964,
      "▁cre": 7965,
      "▁census": 7966,
      "▁Agency": 7967,
      "▁Sub": 7968,
      "etwork": 7969,
      "ेंगल": 7970,
      "lima": 7971,
      "lose": 7972,
      "▁दर्": 7973,
      "▁दिन": 7974,
      "▁based": 7975,
      "▁talk:": 7976,
      "▁men": 7977,
      "▁जब": 7978,
      "▁Policy": 7979,
      "▁[↑](https://en.wikipedia.org/wiki/India#cite_": 7980,
      "_of_South_Asia": 7981,
      "ISE": 7982,
      "stor": 7983,
      "ilbert": 7984,
      "rove": 7985,
      "rocod": 7986,
      "unctu": 7987,
      "▁divis": 7988,
      "▁domestic": 7989,
      "ourism": 7990,
      "ficient": 7991,
      "▁Trade": 7992,
      "](https://en.wikipedia.org/wiki/India#cite_ref-vatsyayan-lord_43": 7993,
      "▁Michael": 7994,
      "-0)\n": 7995,
      "हेब": 7996,
      "▁में,": 7997,
      "igved": 7998,
      "igenous": 7999,
      "_(भारत)": 8000,
      "107": 8001,
      "विले": 8002,
      "▁last": 8003,
      "▁Dance": 8004,
      "▁\"Special:EditPage/Template:": 8005,
      "_केंद्र": 8006,
      "▁east": 8007,
      "lymp": 8008,
      "▁गई": 8009,
      "india.com/": 8010,
      "संधान": 8011,
      "▁Economy": 8012,
      "▁Emer": 8013,
      "ती\")": 8014,
      "beral": 8015,
      "oung": 8016,
      "Univers": 8017,
      "▁Ganges": 8018,
      "▁Gujarat": 8019,
      "▁Hindus": 8020,
      "▁इस्लामी": 8021,
      "नेपाली": 8022,
      "▁2007.": 8023,
      "-45": 8024,
      "त्तरी": 8025,
      "opland": 8026,
      "हिनी": 8027,
      "तिब्ब": 8028,
      "akers": 8029,
      "▁though": 8030,
      "](https://en.wikipedia.org/wiki/India#CITEREFM": 8031,
      "_Ass": 8032,
      "▁[Singh": 8033,
      "osa": 8034,
      "40px-": 8035,
      "▁यूनिवर्सि": 8036,
      "ountries/": 8037,
      "म्भ": 8038,
      "▁\"Central": 8039,
      "▁\"Climate": 8040,
      "_and_Development": 8041,
      "▁लिये": 8042,
      "▁[China": 8043,
      "](https://en.wikipedia.org/wiki/China": 8044,
      "](https://en.wikipedia.org/wiki/Central_": 8045,
      "▁\"Ministry": 8046,
      "](Special:EditPage/Template:": 8047,
      "▁धर्मा": 8048,
      "470": 8049,
      "▁become": 8050,
      "ड़िया": 8051,
      "](https://en.wikipedia.org/wiki/Ministry_of_": 8052,
      "undarb": 8053,
      "](Special:BookSources/978-0-521": 8054,
      "▁\"Special:BookSources/978-0-521": 8055,
      "▁[कु": 8056,
      "_के_अ": 8057,
      "]](https://hi.wikipedia.org/wiki/भारत#cite_note-pib": 8058,
      "orea": 8059,
      "rchitecture": 8060,
      "_Times": 8061,
      "▁tea": 8062,
      "▁नाग": 8063,
      "▁नागर": 8064,
      "lled": 8065,
      "398": 8066,
      "489": 8067,
      "▁\"Template": 8068,
      "_Gandhi": 8069,
      "▁ancient": 8070,
      "▁चल": 8071,
      "▁\"Delhi": 8072,
      "1):": 8073,
      "ंबर": 8074,
      "](https://en.wikipedia.org/wiki/Template_": 8075,
      "▁V.": 8076,
      "▁Vedic": 8077,
      "▁वर्ग": 8078,
      "](https://en.wikipedia.org/wiki/Delhi": 8079,
      "_New": 8080,
      "_Nations": 8081,
      "▁2011](https://en.wikipedia.org/wiki/India#CITEREF": 8082,
      "▁\"Routledge": 8083,
      "▁मोदी": 8084,
      "](https://en.wikipedia.org/wiki/Routledge": 8085,
      "हिन्दू": 8086,
      "▁[Routledge": 8087,
      "_Economic": 8088,
      "▁[Tamil": 8089,
      "▁\"जन": 8090,
      "tate_": 8091,
      "tatis": 8092,
      "\n\n[![](https://upload.wikimedia.org/wikipedia/commons/thumb/c/c": 8093,
      "▁Urdu": 8094,
      "▁US$": 8095,
      "\"](https://web.archive.org/web/20140": 8096,
      "iteracy": 8097,
      "व्यु": 8098,
      "जनप": 8099,
      "▁जनजाति": 8100,
      "▁sever": 8101,
      "▁centuries": 8102,
      "▁str": 8103,
      "▁2014](https://en.wikipedia.org/wiki/India#CITEREF": 8104,
      "1975": 8105,
      "▁[History": 8106,
      "-symbols": 8107,
      "/publications/": 8108,
      "रबी": 8109,
      "▁adop": 8110,
      "▁milk": 8111,
      "▁military": 8112,
      "▁millen": 8113,
      "▁मेला](https://hi.wikipedia.org/wiki/": 8114,
      "ronom": 8115,
      "▁शास्त्र": 8116,
      "](https://hi.wikipedia.org/wiki/भारत_के_राज्य": 8117,
      "uclear_S": 8118,
      "▁parliament": 8119,
      "▁[Fisher": 8120,
      "लिंग": 8121,
      "▁स्थापना": 8122,
      "ctorate": 8123,
      "ights": 8124,
      "talk:": 8125,
      "▁plain": 8126,
      "शिवा": 8127,
      "▁(2017).": 8128,
      "विकास": 8129,
      "a/a": 8130,
      "-factbook": 8131,
      "▁[t](https://en.wikipedia.org/wiki/Template_": 8132,
      "▁See": 8133,
      "▁Indo-": 8134,
      "Information": 8135,
      "ोर्ट": 8136,
      "▁numbers": 8137,
      "_एशिया": 8138,
      "ंद्रनाथ": 8139,
      "▁[e](Special:EditPage/Template:": 8140,
      "▁[v](Template:": 8141,
      "▁upper": 8142,
      "cheduled": 8143,
      "-level": 8144,
      "▁Buddha": 8145,
      "Fisher2018),": 8146,
      "Environment": 8147,
      "ासाहेब": 8148,
      "hanghai": 8149,
      "cms).": 8150,
      "▁refor": 8151,
      "▁[पाकिस्तान](https://hi.wikipedia.org/wiki/पाकिस्तान": 8152,
      "▁mathematics": 8153,
      "▁2018](https://en.wikipedia.org/wiki/India#CITEREFFisher2018),": 8154,
      "arliamentary": 8155,
      "▁(इंग्लिश": 8156,
      "▁1994](https://en.wikipedia.org/wiki/India#CITEREF": 8157,
      "merican": 8158,
      "-language\\_text": 8159,
      "-language\\_sources": 8160,
      "IMFWEO.IN-": 8161,
      "▁(2018),": 8162,
      "▁Monetary": 8163,
      "%E0%A4%9A%E0%A4%BE": 8164,
      "default": 8165,
      "ibetan": 8166,
      "▁\"दिल्ली\")": 8167,
      "▁republic": 8168,
      ".worldbank.org/": 8169,
      "cia.gov/": 8170,
      "क्षणिक": 8171,
      "forcement": 8172,
      "imachal": 8173,
      "▁आर्द्र": 8174,
      "▁नेहरु": 8175,
      "struction": 8176,
      "▁कॉंग्रेस": 8177,
      "क्षरता": 8178,
      "▁India](https://en.wikipedia.org/wiki/Government_of_India": 8179,
      "first": 8180,
      "▁zone": 8181,
      "alayalam": 8182,
      "▁Games\")": 8183,
      "touch": 8184,
      "▁engineering": 8185,
      "%E0%A4%B8%E0%A4%BE": 8186,
      "▁village": 8187,
      "6]](https://en.wikipedia.org/wiki/India#cite_note-vatsyayan-lord-432)": 8188,
      "्वालामुखी": 8189,
      "8+5": 8190,
      ".wikipedia.org/w/index.php?title=%E0%A4%B8%E0%A4%BE": 8191,
      ".edu": 8192,
      "/national-symbols": 8193,
      "PetragliaAll": 8194,
      "Wright2010": 8195,
      "the-world-factbook": 8196,
      "▁(2007).": 8197,
      "ेंगलुरु": 8198,
      "limate_": 8199,
      "▁यूनिवर्सिटी": 8200,
      "▁[China](https://en.wikipedia.org/wiki/China": 8201,
      "undarbans": 8202,
      "▁\"Routledge\").": 8203,
      "▁[Routledge](https://en.wikipedia.org/wiki/Routledge": 8204,
      "▁millennium": 8205,
      "▁[t](https://en.wikipedia.org/wiki/Template_talk:": 8206,
      "-language\\_sources\\_(": 8207,
      "%E0%A4%9A%E0%A4%BE:": 8208,
      "\n4": 8209,
      "%)": 8210,
      "Me": 8211,
      "_29": 8212,
      "_12": 8213,
      "bharat": 8214,
      "iw": 8215,
      "rana": 8216,
      "v3-": 8217,
      "कात": 8218,
      "खिल": 8219,
      "छत्र": 8220,
      "मराव": 8221,
      "सार": 8222,
      "सरा": 8223,
      "िंगा": 8224,
      "ुद्ध": 8225,
      "ूमर": 8226,
      "ृह": 8227,
      "ेख": 8228,
      "ॉर्ड": 8229,
      "ोदा": 8230,
      "ोत्तर": 8231,
      "्ञ": 8232,
      "▁[धर्म": 8233,
      "▁\"राष्ट्रीय": 8234,
      "्रं": 8235,
      "of%20": 8236,
      "▁सूर": 8237,
      "isch": 8238,
      "रावली": 8239,
      "▁मौर्य": 8240,
      "ान्स": 8241,
      "▁India\".": 8242,
      "rah": 8243,
      "▁आग": 8244,
      "▁sug": 8245,
      "\\_language": 8246,
      "\\_links": 8247,
      "▁Age": 8248,
      "▁प्रग": 8249,
      "▁प्रसिद्ध": 8250,
      "▁दल": 8251,
      "▁birth": 8252,
      "नाट्य": 8253,
      "ंगाली": 8254,
      "▁ज्ञ": 8255,
      "▁11.": 8256,
      "भाज": 8257,
      "25.": 8258,
      "indrana": 8259,
      "▁इंड": 8260,
      "▁2000": 8261,
      "abindrana": 8262,
      "▁growing": 8263,
      "िलि": 8264,
      "▁Food": 8265,
      "40.": 8266,
      "27.": 8267,
      "16.": 8268,
      "▁११": 8269,
      "▁१७": 8270,
      "पूजा": 8271,
      "ogo-": 8272,
      "किर्ग": 8273,
      "%20of%20": 8274,
      "47)": 8275,
      "47.": 8276,
      "_DS": 8277,
      "_महासागर": 8278,
      "वेद": 8279,
      "▁[अरुणाचल": 8280,
      "▁\"अरुणाचल": 8281,
      "39)": 8282,
      "▁चार": 8283,
      "ंबोडिया": 8284,
      "▁\"ब्रिटिश": 8285,
      "_Roti": 8286,
      "ali_C": 8287,
      "मेनि": 8288,
      "ठाणे": 8289,
      "ृष्णा": 8290,
      "तुर्क": 8291,
      "▁[संयुक्त": 8292,
      "▁[Archived](https://web.archive.org/web/20190": 8293,
      "भीमा": 8294,
      "▁\"संस्कृत": 8295,
      "मेरिका": 8296,
      "gested": 8297,
      "ताजिक": 8298,
      "▁\"लक्षद्वीप": 8299,
      "रुणाचल_प्रदेश": 8300,
      "▁जयते": 8301,
      "▁[लक्षद्वीप": 8302,
      "▁पर्यटन": 8303,
      "मृतसर": 8304,
      "ैसूर": 8305,
      "भरतनाट्य": 8306,
      "वाहन": 8307,
      "▁रुपया": 8308,
      "_उत्पाद": 8309,
      "बेकिस्तान": 8310,
      "डुचेरी": 8311,
      "▁kil": 8312,
      "▁प्रभाव": 8313,
      "-Logo-": 8314,
      "▁\"त्रिपुरा\")": 8315,
      "्रुने": 8316,
      "Wikivoyage-Logo-": 8317,
      "v3-icon": 8318,
      "ोदावरी": 8319,
      "abindranath": 8320,
      "तुर्कमेनि": 8321,
      "▁\"लक्षद्वीप\")": 8322,
      "Wikivoyage-Logo-v3-icon": 8323,
      "%E0%B0%": 8324,
      "([": 8325,
      "*](https://mr.wikipedia.org/wiki/": 8326,
      "-O": 8327,
      "-०": 8328,
      "-th": 8329,
      "-st": 8330,
      "-asia": 8331,
      ".\"": 8332,
      "/we": 8333,
      "01": 8334,
      "1st": 8335,
      "1%20": 8336,
      "2-10": 8337,
      "3]](https://en.wikipedia.org/wiki/India#cite_note-": 8338,
      "4_": 8339,
      "421": 8340,
      "418": 8341,
      "528": 8342,
      "623": 8343,
      "CCN": 8344,
      "David": 8345,
      "E﻿": 8346,
      "F%E0%A4%A": 8347,
      "KI": 8348,
      "MAAJ": 8349,
      "Official": 8350,
      "Republic": 8351,
      "SN": 8352,
      "Th": 8353,
      "YS": 8354,
      "Ze": 8355,
      "_అ": 8356,
      "_ఎ": 8357,
      "_ర": 8358,
      "_50": 8359,
      "_18": 8360,
      "_45": 8361,
      "_యు": 8362,
      "_द्या": 8363,
      "_రాజ": 8364,
      "_శాస్త్ర": 8365,
      "_a_N": 8366,
      "ajp": 8367,
      "a-b": 8368,
      "business/": 8369,
      "cted": 8370,
      "caste": 8371,
      "dic": 8372,
      "daro": 8373,
      "evanagari": 8374,
      "fun": 8375,
      "gar": 8376,
      "government": 8377,
      "iosphere": 8378,
      "ji": 8379,
      "mas": 8380,
      "mil": 8381,
      "more": 8382,
      "music": 8383,
      "oz": 8384,
      "po": 8385,
      "rand": 8386,
      "rian": 8387,
      "rince": 8388,
      "sing": 8389,
      "sha": 8390,
      "s_in_India": 8391,
      "search": 8392,
      "tar": 8393,
      "tritsch": 8394,
      "uters": 8395,
      "via": 8396,
      "var": 8397,
      "wa": 8398,
      "xim": 8399,
      "आर्": 8400,
      "इन": 8401,
      "इल": 8402,
      "इव्ह": 8403,
      "ईल": 8404,
      "ईसा": 8405,
      "उप": 8406,
      "ऋत्य": 8407,
      "घात": 8408,
      "चर्": 8409,
      "चेंज": 8410,
      "जें": 8411,
      "टान": 8412,
      "ड\")": 8413,
      "तम": 8414,
      "थारचे": 8415,
      "थियार": 8416,
      "नु": 8417,
      "न](https://mr.wikipedia.org/wiki/": 8418,
      "पणे": 8419,
      "फल": 8420,
      "बळ": 8421,
      "बद्दल": 8422,
      "लब्": 8423,
      "वट": 8424,
      "वळी": 8425,
      "शान": 8426,
      "समी": 8427,
      "हज": 8428,
      "हळू": 8429,
      "िन्": 8430,
      "िधा": 8431,
      "ैऋत्य": 8432,
      "ॉक": 8433,
      "३]](https://mr.wikipedia.org/wiki/भारत#cite_note-": 8434,
      "५]](https://mr.wikipedia.org/wiki/भारत#cite_note-": 8435,
      "ఒలి": 8436,
      "కూ": 8437,
      "క్ర": 8438,
      "గే": 8439,
      "గ్ర": 8440,
      "గతి": 8441,
      "జు": 8442,
      "ఞాన": 8443,
      "టం": 8444,
      "టన్": 8445,
      "పో": 8446,
      "పచ్చ": 8447,
      "మ్య": 8448,
      "యి.": 8449,
      "యాలో": 8450,
      "లె": 8451,
      "వై": 8452,
      "వ్": 8453,
      "వత్స": 8454,
      "వృద్ధి": 8455,
      "శ్రమ": 8456,
      "సీ": 8457,
      "స్రా": 8458,
      "హక": 8459,
      "హన": 8460,
      "ాంగ": 8461,
      "ీఠ": 8462,
      "ువు": 8463,
      "ూపా": 8464,
      "ృష్": 8465,
      "ెహ": 8466,
      "ెట్": 8467,
      "ేన": 8468,
      "ైద": 8469,
      "ైగా": 8470,
      "ొయ": 8471,
      "▁+": 8472,
      "▁X": 8473,
      "▁ॲ": 8474,
      "▁ఘ": 8475,
      "▁ve": 8476,
      "▁web": 8477,
      "▁జా": 8478,
      "▁45": 8479,
      "▁education": 8480,
      "orig": 8481,
      "▁[గ": 8482,
      "▁[राज": 8483,
      "▁[కు": 8484,
      "▁[పా": 8485,
      "▁[దక్షిణ": 8486,
      "▁[హిందూ": 8487,
      "▁[तमिल": 8488,
      "▁[పాకిస్తాన్": 8489,
      "▁[ముంబై": 8490,
      "▁[International": 8491,
      "▁\"గ": 8492,
      "▁\"రాష్ట్ర": 8493,
      "▁\"దక్షిణ": 8494,
      "▁\"మూస": 8495,
      "▁\"హిందూ": 8496,
      "▁\"పాకిస్తాన్": 8497,
      "▁\"ప్రపంచ": 8498,
      "▁\"नेपा": 8499,
      "▁\"ముంబై": 8500,
      "▁\"Indus": 8501,
      "▁\"हिमाचल": 8502,
      "▁\"వర్గం:Harv": 8503,
      "▁\"विकिपीडिया:संदर्भ": 8504,
      "▁\"ప్రత్యేక:EditPage/మూస:": 8505,
      "\")1": 8506,
      "an,": 8507,
      "anada": 8508,
      "ारो": 8509,
      "ारम्भ": 8510,
      "till": 8511,
      "India.pdf)": 8512,
      "](https://en.wiki": 8513,
      "](https://en.wikipedia.org/wiki/U": 8514,
      "](https://en.wikipedia.org/wiki/Indus": 8515,
      "eri": 8516,
      "ergy": 8517,
      "arv": 8518,
      "arrow": 8519,
      "▁कड": 8520,
      "▁स.": 8521,
      "▁स्तर": 8522,
      "▁सभ्यता": 8523,
      "cid": 8524,
      "cir": 8525,
      "ising": 8526,
      "isted": 8527,
      "is_a_N": 8528,
      "](https://hi.wikipedia.org/wiki/य": 8529,
      "](https://mr.wikipedia.org/w/index.php?title=%E0%A4%B8%E0%A4%BE": 8530,
      "](https://mr.wikipedia.org/wiki/ड": 8531,
      "](https://mr.wikipedia.org/wiki/पु": 8532,
      "](https://mr.wikipedia.org/wiki/चीन": 8533,
      "](https://mr.wikipedia.org/wiki/गण": 8534,
      "](https://mr.wikipedia.org/wiki/दिल्ली": 8535,
      "](https://mr.wikipedia.org/wiki/मुंबई": 8536,
      "](https://mr.wikipedia.org/wiki/गुजरात": 8537,
      "](https://mr.wikipedia.org/wiki/ओडिशा": 8538,
      "](https://mr.wikipedia.org/wiki/हिमालय": 8539,
      "▁पहि": 8540,
      "▁(2011": 8541,
      "▁(nominal)": 8542,
      "▁often": 8543,
      "](https://te.wikipedia.org/wiki/మూస": 8544,
      "](https://te.wikipedia.org/wiki/జన": 8545,
      "](https://te.wikipedia.org/wiki/వర్గం:Harv": 8546,
      "](https://te.wikipedia.org/wiki/ప్రత్యేక:EditPage/మూస:": 8547,
      "▁मराठी": 8548,
      "▁महाराज": 8549,
      "19).": 8550,
      "ick": 8551,
      "ico": 8552,
      "▁India.[[": 8553,
      "lex": 8554,
      "▁inter": 8555,
      "▁हळू": 8556,
      "▁वर": 8557,
      "▁वेष": 8558,
      "▁वारे": 8559,
      "▁वास्त": 8560,
      "▁आला": 8561,
      "▁आकार": 8562,
      "\n\n:": 8563,
      "\n\nభారతదేశం": 8564,
      "▁su": 8565,
      "▁set": 8566,
      "▁served": 8567,
      "▁poll": 8568,
      "▁अलग": 8569,
      "geoh": 8570,
      "ref-10": 8571,
      "▁cul": 8572,
      "note-10": 8573,
      "్యాలె": 8574,
      "▁Cons": 8575,
      "\\_n": 8576,
      "\\_क": 8577,
      "▁Asher": 8578,
      "▁After": 8579,
      "atab": 8580,
      "[[18": 8581,
      "▁Survey": 8582,
      "ad-": 8583,
      "adakh": 8584,
      "స్వా": 8585,
      "▁festi": 8586,
      "ेंच": 8587,
      "▁పొ": 8588,
      "▁పద్ధ": 8589,
      "▁పైగా": 8590,
      "▁दृष्ट्या": 8591,
      "▁दख्खन": 8592,
      "▁द्या\")": 8593,
      "▁दृश्य": 8594,
      "ume": 8595,
      "umer": 8596,
      "ंगले": 8597,
      "▁केली.": 8598,
      "▁केवळ": 8599,
      "ర్ద": 8600,
      "ర్ష": 8601,
      "▁middle": 8602,
      "▁market": 8603,
      "cha": 8604,
      "▁जिन": 8605,
      "▁जवळ": 8606,
      "▁जानेवारी": 8607,
      "▁भारताला": 8608,
      "▁भारताचा": 8609,
      "▁भारतीया": 8610,
      "న్ను": 8611,
      "comp": 8612,
      "](https://hi.wikipedia.org/wiki/भारत_का": 8613,
      "hek": 8614,
      "una": 8615,
      "unle": 8616,
      "unknown": 8617,
      "▁नद्या": 8618,
      "00–": 8619,
      "▁बड़े": 8620,
      ".\n36": 8621,
      ".\n38": 8622,
      "రాజ్యం": 8623,
      "fied": 8624,
      "]](https://en.wikipedia.org/wiki/India#cite_note-1": 8625,
      "ola": 8626,
      "▁Red": 8627,
      "▁Report": 8628,
      "लेली": 8629,
      "लेणी": 8630,
      "लेल्या": 8631,
      "▁Mana": 8632,
      "లోయ": 8633,
      "emen": 8634,
      "▁కేంద్ర": 8635,
      "▁కంపెనీ": 8636,
      "▁Book": 8637,
      "ాలుగా": 8638,
      ".[[२": 8639,
      "वामान": 8640,
      "103": 8641,
      "క్తి": 8642,
      "विध्य": 8643,
      "263": 8644,
      "indic": 8645,
      "▁Day": 8646,
      "▁వై": 8647,
      "▁*मुख्य": 8648,
      "ayana": 8649,
      "ayashi": 8650,
      "▁ele": 8651,
      "▁even": 8652,
      "▁early": 8653,
      "](https://mr.wikipedia.org/wiki/भारताची": 8654,
      "▁शाले": 8655,
      "राज्य\")": 8656,
      "संबर": 8657,
      "▁సమా": 8658,
      "▁సర్వ": 8659,
      "▁సుల్తాన": 8660,
      "ional": 8661,
      "bercu": 8662,
      "प्रकार": 8663,
      "haw": 8664,
      "▁Gana": 8665,
      "▁Greek": 8666,
      "▁Home": 8667,
      "▁इंग्रज": 8668,
      "नेपाल": 8669,
      "▁2008](https://en.wikipedia.org/wiki/India#CITEREF": 8670,
      "▁Ne": 8671,
      "▁Nuclear": 8672,
      "▁\"भारताची": 8673,
      "-38": 8674,
      "-345": 8675,
      "-349": 8676,
      "▁संस्थान": 8677,
      "-405": 8678,
      "त्ति": 8679,
      "र्वोच्च": 8680,
      "_in_the": 8681,
      "▁सेवा": 8682,
      "opal": 8683,
      "▁చర్చ:": 8684,
      "తాక": 8685,
      "నాట": 8686,
      "abel": 8687,
      "▁religions": 8688,
      "తి](https://te.wikipedia.org/wiki/": 8689,
      "▁[म्यानमार": 8690,
      "astronom": 8691,
      "▁Francis": 8692,
      ".in)\n-": 8693,
      "▁ne": 8694,
      "▁रक्षा": 8695,
      "▁रंगम": 8696,
      "_Agency": 8697,
      "▁John": 8698,
      "29)": 8699,
      "ishers": 8700,
      "40)": 8701,
      "ountain": 8702,
      "–సా.శ.14": 8703,
      "–సా.శ.1947)": 8704,
      "▁అను": 8705,
      "15)": 8706,
      "▁\"म्यानमार": 8707,
      "ిక,": 8708,
      "▁Ins": 8709,
      "▁आहे.\n\n###": 8710,
      "135": 8711,
      "270": 8712,
      "्राय": 8713,
      "्राइव्ह": 8714,
      "▁कोटी": 8715,
      "AAMAAJ": 8716,
      "▁Indians": 8717,
      "हाँ": 8718,
      "ంచింది.": 8719,
      "కుపచ్చ": 8720,
      "▁Law": 8721,
      "▁Library": 8722,
      "▁West": 8723,
      "▁Wiley": 8724,
      "](https://te.wikipedia.org/wiki/భారతదేశం#CITEREF": 8725,
      "▁होत्या": 8726,
      "_Profile": 8727,
      "▁Asia:": 8728,
      "द्धती": 8729,
      "lated": 8730,
      "ंदिग": 8731,
      "▁[Craven": 8732,
      "▁भरत": 8733,
      "maury": 8734,
      "ింది": 8735,
      "o-daro": 8736,
      "▁[*संदर्भ": 8737,
      "मानव": 8738,
      "ियर": 8739,
      "▁ఆకుపచ్చ": 8740,
      "dira": 8741,
      "▁రే": 8742,
      "▁\"सिक्की": 8743,
      "▁करणे": 8744,
      "▁being": 8745,
      "-2\").": 8746,
      "మాతర": 8747,
      "మాబాద్": 8748,
      "▁\"कु": 8749,
      "రుపు": 8750,
      "రుగు": 8751,
      "_Data_": 8752,
      "earning": 8753,
      "्यांचे": 8754,
      "्यांनी": 8755,
      "▁ass": 8756,
      "alls": 8757,
      "allav": 8758,
      "-7mar": 8759,
      "▁[सिंधू": 8760,
      "▁[सिक्कीम": 8761,
      "](https://hi.wikipedia.org/wiki/भारत#cite_ref-pib": 8762,
      "](https://hi.wikipedia.org/wiki/भारत#cite_ref-langoff": 8763,
      "Harv\\_and\\_Sfn\\_no-target\\_errors\n": 8764,
      "]](https://hi.wikipedia.org/wiki/भारत#cite_note-langoff-1": 8765,
      "sey": 8766,
      "▁expectancy": 8767,
      "▁असत": 8768,
      "ommaraj": 8769,
      "▁पुत्र": 8770,
      "▁\"Tamil": 8771,
      "▁[Pakistan": 8772,
      "▁నది": 8773,
      "]](https://mr.wikipedia.org/wiki/भारत#cite_note-1": 8774,
      "మించ": 8775,
      "ublishers": 8776,
      "hinese": 8777,
      "▁deb": 8778,
      "▁deve": 8779,
      "▁తన": 8780,
      "_and_N": 8781,
      "▁[Delhi": 8782,
      "▁\"En": 8783,
      "▁[ब](https://mr.wikipedia.org/wiki/सा": 8784,
      "▁any": 8785,
      "](https://mr.wikipedia.org/wiki/म्यानमार": 8786,
      "▁चर्": 8787,
      "4):": 8788,
      "](https://en.wikipedia.org/wiki/En": 8789,
      "▁जातात": 8790,
      "▁\"Ge": 8791,
      "ोरे": 8792,
      "issions": 8793,
      "_सिनेमा": 8794,
      "ం](https://te.wikipedia.org/wiki/అ": 8795,
      "ం](https://te.wikipedia.org/wiki/క": 8796,
      "▁rural": 8797,
      "▁rise": 8798,
      "▁rupee": 8799,
      "▁Vol": 8800,
      "▁हिंदी": 8801,
      "▁हिंदू": 8802,
      "ంబంధ": 8803,
      "_Ram": 8804,
      "▁वाढ": 8805,
      "▁वाटा": 8806,
      "గువ": 8807,
      "▁[GDP": 8808,
      "ians": 8809,
      "](https://mr.wikipedia.org/wiki/सिक्कीम": 8810,
      "▁धर्म](https://mr.wikipedia.org/wiki/": 8811,
      "▁मोसमी": 8812,
      "▁సంస్థ": 8813,
      "▁సంవత్స": 8814,
      "ल्याळम": 8815,
      "డియా": 8816,
      "%E0%A4%B6": 8817,
      "%E0%A4%BF%E0%A4%A": 8818,
      "general": 8819,
      "लोकसंख्या": 8820,
      "्रिश्च": 8821,
      "_ENC": 8822,
      "ట్లు": 8823,
      "गणराज्य": 8824,
      "_చర్చ:": 8825,
      "▁uni": 8826,
      "▁\"మధ్య": 8827,
      "](https://mr.wikipedia.org/wiki/कर्नाटक": 8828,
      "▁\"इराण": 8829,
      "▁\"इ.स.": 8830,
      "120]](https://hi.wikipedia.org/wiki/भारत#cite_note-langoff-1": 8831,
      "▁ఎన్నిక": 8832,
      "▁ఎన్ను": 8833,
      "▁[మధ్య": 8834,
      "▁(సా.శ.పూ.1200": 8835,
      "▁बाह्य": 8836,
      "▁గణ": 8837,
      "▁पुरातन": 8838,
      "ational_P": 8839,
      "](https://te.wikipedia.org/wiki/మధ్య": 8840,
      "बरोबर": 8841,
      "देवा": 8842,
      "amily": 8843,
      "▁येतात.": 8844,
      "▁[इराण": 8845,
      "_dance": 8846,
      "efficient": 8847,
      "▁central": 8848,
      "](https://hi.wikipedia.org/wiki/मध्य": 8849,
      "चा:आशियातील": 8850,
      "▁./వర్గం:Pages\\_using\\_": 8851,
      "▁./వర్గం:Harv\\_and\\_Sfn\\_no-target\\_errors\n": 8852,
      "ohenj": 8853,
      ".nic.in)\n-": 8854,
      "]](https://te.wikipedia.org/wiki/భారతదేశం#cite_note-india.gov.in": 8855,
      "ेटवे": 8856,
      "▁[Ludden": 8857,
      "▁उपमहाद्वीप": 8858,
      "_సంగీతం": 8859,
      "▁where": 8860,
      "▁whose": 8861,
      "▁काळातील": 8862,
      "▁गणला": 8863,
      "▁addition": 8864,
      "▁भूमी": 8865,
      "▁2019.\n": 8866,
      "2014-p": 8867,
      "▁आशियाई": 8868,
      "▁आशिया\")**": 8869,
      "▁आशिया](https://mr.wikipedia.org/wiki/चित्र:": 8870,
      "▁वर्षों": 8871,
      "▁सर्वात": 8872,
      "ారిగా": 8873,
      "▁शिक्षणा": 8874,
      "मुखपृष्ठ": 8875,
      "▁चित्रपटस": 8876,
      "](https://mr.wikipedia.org/wiki/इराण": 8877,
      "](https://mr.wikipedia.org/wiki/इ.स.": 8878,
      "](https://mr.wikipedia.org/wiki/बौद्ध_धर्म": 8879,
      "ंपारिक": 8880,
      "](https://mr.wikipedia.org/wiki/जम्मू": 8881,
      "నాయక": 8882,
      "–సా.శ.పూ.3": 8883,
      "34238": 8884,
      "_the_": 8885,
      "▁राष्ट्रचिन्हे": 8886,
      "IAF": 8887,
      "▁[सं](https://mr.wikipedia.org/w/index.php?title=%E0%A4%B8%E0%A4%BE": 8888,
      "▁\"नवी": 8889,
      "/articles/": 8890,
      "హాస": 8891,
      "దావరి": 8892,
      "▁కూడిన": 8893,
      "▁rights": 8894,
      "684": 8895,
      "नागपूर": 8896,
      "▁trade": 8897,
      "▁([help](https://te.wikipedia.org/wiki/వర్గం:Harv": 8898,
      "▁నిర్వ": 8899,
      "▁స్థా": 8900,
      "▁हवा*](https://mr.wikipedia.org/wiki/": 8901,
      "ाताळ": 8902,
      "▁Encyclopedia": 8903,
[...]
