{
  "version": "1.0",
  "truncation": null,
  "padding": null,
  "added_tokens": [],
  "normalizer": null,
  "pre_tokenizer": {
    "type": "Whitespace"
  },
  "post_processor": null,
  "decoder": null,
  "model": {
    "type": "BPE",
    "dropout": null,
    "unk_token": null,
    "continuing_subword_prefix": null,
    "end_of_word_suffix": null,
    "fuse_unk": false,
    "byte_fallback": false,
    "ignore_merges": false,
    "vocab": {
      "\"": 0,
      "$": 1,
      "%": 2,
      "&": 3,
      "'": 4,
      "(": 5,
      ")": 6,
      "+": 7,
      ",": 8,
      "-": 9,
      ".": 10,
      "/": 11,
      "0": 12,
      "1": 13,
      "2": 14,
      "3": 15,
      "4": 16,
      "5": 17,
      "6": 18,
      "7": 19,
      "8": 20,
      "9": 21,
      ":": 22,
      ";": 23,
      "=": 24,
      "A": 25,
      "B": 26,
      "C": 27,
      "D": 28,
      "E": 29,
      "F": 30,
      "G": 31,
      "H": 32,
      "I": 33,
      "J": 34,
      "K": 35,
      "L": 36,
      "M": 37,
      "N": 38,
      "O": 39,
      "P": 40,
      "R": 41,
      "S": 42,
      "T": 43,
      "U": 44,
      "V": 45,
      "W": 46,
      "Y": 47,
      "Z": 48,
      "[": 49,
      "]": 50,
      "^": 51,
      "a": 52,
      "b": 53,
      "c": 54,
      "d": 55,
      "e": 56,
      "f": 57,
      "g": 58,
      "h": 59,
      "i": 60,
      "j": 61,
      "k": 62,
      "l": 63,
      "m": 64,
      "n": 65,
      "o": 66,
      "p": 67,
      "q": 68,
      "r": 69,
      "s": 70,
      "t": 71,
      "u": 72,
      "v": 73,
      "w": 74,
      "x": 75,
      "y": 76,
      "z": 77,
      "|": 78,
      "°": 79,
      "Ö": 80,
      "á": 81,
      "â": 82,
      "í": 83,
      "ā": 84,
      "ī": 85,
      "Ś": 86,
      "ū": 87,
      "ə": 88,
      "ɦ": 89,
      "ɪ": 90,
      "ɾ": 91,
      "ʊ": 92,
      "ʱ": 93,
      "ˈ": 94,
      "ː": 95,
      "ί": 96,
      "α": 97,
      "δ": 98,
      "ν": 99,
      "ς": 100,
      "ό": 101,
      "ँ": 102,
      "ं": 103,
      "ः": 104,
      "अ": 105,
      "आ": 106,
      "इ": 107,
      "ई": 108,
      "उ": 109,
      "ऊ": 110,
      "ऋ": 111,
      "ए": 112,
      "ऐ": 113,
      "ऑ": 114,
      "ओ": 115,
      "औ": 116,
      "क": 117,
      "ख": 118,
      "ग": 119,
      "घ": 120,
      "च": 121,
      "छ": 122,
      "ज": 123,
      "झ": 124,
      "ञ": 125,
      "ट": 126,
      "ठ": 127,
      "ड": 128,
      "ढ": 129,
      "ण": 130,
      "त": 131,
      "थ": 132,
      "द": 133,
      "ध": 134,
      "न": 135,
      "प": 136,
      "फ": 137,
      "ब": 138,
      "भ": 139,
      "म": 140,
      "य": 141,
      "र": 142,
      "ऱ": 143,
      "ल": 144,
      "ळ": 145,
      "व": 146,
      "श": 147,
      "ष": 148,
      "स": 149,
      "ह": 150,
      "़": 151,
      "ा": 152,
      "ि": 153,
      "ी": 154,
      "ु": 155,
      "ू": 156,
      "ृ": 157,
      "ॅ": 158,
      "े": 159,
      "ै": 160,
      "ॉ": 161,
      "ो": 162,
      "ौ": 163,
      "्": 164,
      "ॠ": 165,
      "।": 166,
      "०": 167,
      "१": 168,
      "२": 169,
      "३": 170,
      "४": 171,
      "५": 172,
      "६": 173,
      "७": 174,
      "८": 175,
      "९": 176,
      "॰": 177,
      "ॲ": 178,
      "ం": 179,
      "ః": 180,
      "అ": 181,
      "ఆ": 182,
      "ఇ": 183,
      "ఈ": 184,
      "ఉ": 185,
      "ఋ": 186,
      "ఎ": 187,
      "ఏ": 188,
      "ఐ": 189,
      "ఒ": 190,
      "ఓ": 191,
      "ఔ": 192,
      "క": 193,
      "ఖ": 194,
      "గ": 195,
      "ఘ": 196,
      "చ": 197,
      "ఛ": 198,
      "జ": 199,
      "ఞ": 200,
      "ట": 201,
      "ఠ": 202,
      "డ": 203,
      "ఢ": 204,
      "ణ": 205,
      "త": 206,
      "థ": 207,
      "ద": 208,
      "ధ": 209,
      "న": 210,
      "ప": 211,
      "ఫ": 212,
      "బ": 213,
      "భ": 214,
      "మ": 215,
      "య": 216,
      "ర": 217,
      "ల": 218,
      "ళ": 219,
      "వ": 220,
      "శ": 221,
      "ష": 222,
      "స": 223,
      "హ": 224,
      "ా": 225,
      "ి": 226,
      "ీ": 227,
      "ు": 228,
      "ూ": 229,
      "ృ": 230,
      "ె": 231,
      "ే": 232,
      "ై": 233,
      "ొ": 234,
      "ో": 235,
      "ౌ": 236,
      "్": 237,
      "ṅ": 238,
      "ṇ": 239,
      "ṣ": 240,
      "ṭ": 241,
      "Ἰ": 242,
      "‌": 243,
      "‍": 244,
      "–": 245,
      "—": 246,
      "‘": 247,
      "’": 248,
      "“": 249,
      "”": 250,
      "†": 251,
      "′": 252,
      "₹": 253,
      "్ర": 254,
      "ార": 255,
      "లు": 256,
      "లో": 257,
      "స్": 258,
      "్య": 259,
      "న్": 260,
      "ది": 261,
      "దే": 262,
      "ప్ర": 263,
      "ిం": 264,
      "దేశ": 265,
      "ాల": 266,
      "ిక": 267,
      "ర్": 268,
      "భార": 269,
      "భారత": 270,
      "న్న": 271,
      "ాలు": 272,
      "==": 273,
      "th": 274,
      "an": 275,
      "గా": 276,
      "्य": 277,
      "in": 278,
      "ार": 279,
      "కు": 280,
      "ని": 281,
      "వి": 282,
      "्र": 283,
      "ాయ": 284,
      "క్": 285,
      "ాత": 286,
      "the": 287,
      "దేశం": 288,
      "ాన": 289,
      "రా": 290,
      "్ట": 291,
      "on": 292,
      "ను": 293,
      "er": 294,
      "ండ": 295,
      "ము": 296,
      "ీయ": 297,
      "ద్": 298,
      "ిన": 299,
      "త్": 300,
      "తి": 301,
      "ల్": 302,
      "స్త": 303,
      "ించ": 304,
      "re": 305,
      "ంది": 306,
      "ంత": 307,
      "రి": 308,
      "di": 309,
      "के": 310,
      "సం": 311,
      "al": 312,
      "en": 313,
      "st": 314,
      "्या": 315,
      "రు": 316,
      "పు": 317,
      "ులు": 318,
      "at": 319,
      "స్థ": 320,
      "ింది": 321,
      "In": 322,
      "ంట": 323,
      "ాయి": 324,
      "ed": 325,
      "ारत": 326,
      "ar": 327,
      "భారతదేశం": 328,
      "भारत": 329,
      "र्": 330,
      "ంలో": 331,
      "భా": 332,
      "ైన": 333,
      "and": 334,
      "of": 335,
      "or": 336,
      "ంగ": 337,
      "ూడ": 338,
      "ात": 339,
      "ें": 340,
      "Indi": 341,
      "का": 342,
      "स्": 343,
      "ంగా": 344,
      "ధిక": 345,
      "వా": 346,
      "సా": 347,
      "క్ష": 348,
      "में": 349,
      "19": 350,
      "ఉన్న": 351,
      "పా": 352,
      "ారు": 353,
      "టి": 354,
      "ార్": 355,
      "प्र": 356,
      "या": 357,
      "es": 358,
      "ion": 359,
      "ిత": 360,
      "్చ": 361,
      "as": 362,
      "है": 363,
      "00": 364,
      "it": 365,
      "ान": 366,
      "ష్ట": 367,
      "ic": 368,
      "===": 369,
      "కూడ": 370,
      "జాత": 371,
      "ప్రా": 372,
      "రాజ": 373,
      "िक": 374,
      "रा": 375,
      "కో": 376,
      "క్ర": 377,
      "India": 378,
      "is": 379,
      "కా": 380,
      "చ్చ": 381,
      "ట్ట": 382,
      "నే": 383,
      "మొ": 384,
      "ing": 385,
      "ంచ": 386,
      "దు": 387,
      "పే": 388,
      "మా": 389,
      "యా": 390,
      "భారతీయ": 391,
      "నా": 392,
      "రై": 393,
      "లి": 394,
      "వ్య": 395,
      "సి": 396,
      "్ల": 397,
      "త్వ": 398,
      "सा": 399,
      "ने": 400,
      "वि": 401,
      "से": 402,
      "ou": 403,
      "తర": 404,
      "వాత": 405,
      "రాష్ట": 406,
      "ent": 407,
      "జాతీయ": 408,
      "రాష్ట్ర": 409,
      "हे": 410,
      "om": 411,
      "ना": 412,
      "ला": 413,
      "ों": 414,
      "గు": 415,
      "తం": 416,
      "తో": 417,
      "వచ్చ": 418,
      "ికి": 419,
      "ద్ధ": 420,
      "ల్ల": 421,
      "क्": 422,
      "की": 423,
      "to": 424,
      "అధిక": 425,
      "కొ": 426,
      "ఖ్య": 427,
      "డు": 428,
      "పాల": 429,
      "మైన": 430,
      "వే": 431,
      "భారతదేశ": 432,
      "ంత్ర": 433,
      "वा": 434,
      "और": 435,
      "ఒక": 436,
      "కాల": 437,
      "డి": 438,
      "ణా": 439,
      "ద్ర": 440,
      "మార్": 441,
      "ండి": 442,
      "ीय": 443,
      "le": 444,
      "ఉంది": 445,
      "చే": 446,
      "ధ్య": 447,
      "శా": 448,
      "్‌": 449,
      "ింద": 450,
      "దేశాల": 451,
      "ఉన్నాయి": 452,
      "వ్యవ": 453,
      "सं": 454,
      "ఎన్న": 455,
      "కి": 456,
      "టు": 457,
      "పార": 458,
      "పంచ": 459,
      "ాబ": 460,
      "ాన్": 461,
      "న్ని": 462,
      "భారతదేశంలో": 463,
      "ले": 464,
      "त्र": 465,
      "आहे": 466,
      "చె": 467,
      "డ్": 468,
      "ధాన": 469,
      "పె": 470,
      "ిన్న": 471,
      "ెండ": 472,
      "ర్వ": 473,
      "మార్గ": 474,
      "వ్యవస్థ": 475,
      "ly": 476,
      "ली": 477,
      "ec": 478,
      "क्ष": 479,
      "मा": 480,
      "ur": 481,
      "ంబ": 482,
      "కృ": 483,
      "కే": 484,
      "కార": 485,
      "తు": 486,
      "దా": 487,
      "హింద": 488,
      "ానికి": 489,
      "స్తు": 490,
      "కూడా": 491,
      "మొద": 492,
      "అధికార": 493,
      "कर": 494,
      "था": 495,
      "दे": 496,
      "पर": 497,
      "ता": 498,
      "भा": 499,
      "िया": 500,
      "he": 501,
      "కర": 502,
      "ట్": 503,
      "త్ర": 504,
      "త్య": 505,
      "దక్ష": 506,
      "పర": 507,
      "పరి": 508,
      "మత": 509,
      "మీ": 510,
      "మే": 511,
      "మధ్య": 512,
      "వర": 513,
      "సు": 514,
      "ప్రపంచ": 515,
      "ప్రధాన": 516,
      "ద్ద": 517,
      "స్థాన": 518,
      "భాష": 519,
      "ప్రాంత": 520,
      "రాజ్య": 521,
      "పేరు": 522,
      "రైలు": 523,
      "ती": 524,
      "राज": 525,
      "त्": 526,
      "हा": 527,
      "ac": 528,
      "దాయ": 529,
      "నాలు": 530,
      "ప్": 531,
      "వార": 532,
      "వర్": 533,
      "సభ": 534,
      "క్కు": 535,
      "ాత్ర": 536,
      "దేశంలో": 537,
      "్టీ": 538,
      "క్రీ": 539,
      "పార్టీ": 540,
      "దక్షి": 541,
      "il": 542,
      "ol": 543,
      "ति": 544,
      "ष्": 545,
      "20": 546,
      "ची": 547,
      "च्या": 548,
      "न्": 549,
      "am": 550,
      "तर": 551,
      "मु": 552,
      "ver": 553,
      "అయ": 554,
      "ఆర్": 555,
      "జనా": 556,
      "భు": 557,
      "మి": 558,
      "రో": 559,
      "రెండ": 560,
      "లం": 561,
      "లా": 562,
      "వె": 563,
      "్యం": 564,
      "ప్రజ": 565,
      "ప్రభు": 566,
      "ించింది": 567,
      "హిందూ": 568,
      "ad": 569,
      "कार": 570,
      "The": 571,
      "ित": 572,
      "पा": 573,
      "tr": 574,
      "को": 575,
      "ंग": 576,
      "द्": 577,
      "ంద్ర": 578,
      "ఇతర": 579,
      "గి": 580,
      "తా": 581,
      "తరు": 582,
      "పూ": 583,
      "పో": 584,
      "మన": 585,
      "లకు": 586,
      "వీ": 587,
      "వు": 588,
      "శ్ర": 589,
      "ష్": 590,
      "ీన": 591,
      "స్కృ": 592,
      "ాల్": 593,
      "ముఖ్య": 594,
      "స్త్ర": 595,
      "ించిన": 596,
      "సాం": 597,
      "వచ్చింది": 598,
      "పెద్ద": 599,
      "క్కువ": 600,
      "li": 601,
      "ul": 602,
      "भारतीय": 603,
      "ही": 604,
      "ation": 605,
      "देश": 606,
      "हो": 607,
      "ील": 608,
      "em": 609,
      "ते": 610,
      "ch": 611,
      "),": 612,
      "चे": 613,
      "ow": 614,
      "नि": 615,
      "हु": 616,
      "ां": 617,
      "అతి": 618,
      "ఉత్": 619,
      "ఉంట": 620,
      "గర": 621,
      "గీ": 622,
      "జరి": 623,
      "పట్ట": 624,
      "బడ": 625,
      "బా": 626,
      "బె": 627,
      "బ్ర": 628,
      "మహ": 629,
      "లలో": 630,
      "వంట": 631,
      "ుకు": 632,
      "విధ": 633,
      "భాగ": 634,
      "వాణా": 635,
      "మార్గాలు": 636,
      "కేంద్ర": 637,
      "ప్ప": 638,
      "క్రీడ": 639,
      "అయిన": 640,
      "జనాభా": 641,
      "ప్రభుత్వ": 642,
      "తరువాత": 643,
      "जात": 644,
      "ri": 645,
      "tion": 646,
      "ag": 647,
      "हैं": 648,
      "by": 649,
      "हि": 650,
      "ve": 651,
      "Indian": 652,
      "be": 653,
      "ist": 654,
      "se": 655,
      "कि": 656,
      "मि": 657,
      "चा": 658,
      "ast": 659,
      "for": 660,
      "ून": 661,
      "అనే": 662,
      "ఇది": 663,
      "ఎక్కువ": 664,
      "ఏర్": 665,
      "కీయ": 666,
      "కలి": 667,
      "గో": 668,
      "గ్": 669,
      "గిన": 670,
      "జన": 671,
      "టిక": 672,
      "ణం": 673,
      "బహ": 674,
      "మంత్ర": 675,
      "రవాణా": 676,
      "లే": 677,
      "లను": 678,
      "సిం": 679,
      "సరి": 680,
      "ిల్ల": 681,
      "్రా": 682,
      "్రె": 683,
      "ప్రస్తు": 684,
      "ప్రదాయ": 685,
      "క్క": 686,
      "స్తాన్": 687,
      "ందిన": 688,
      "र्व": 689,
      "ంగ్రె": 690,
      "సాధ": 691,
      "పాకి": 692,
      "రాజకీయ": 693,
      "కాంగ్రె": 694,
      "కాలంలో": 695,
      "ఎన్నో": 696,
      "ాబ్": 697,
      "మొదటి": 698,
      "దక్షిణ": 699,
      "200": 700,
      "con": 701,
      "est": 702,
      "पू": 703,
      "ष्ट": 704,
      "ce": 705,
      "ter": 706,
      "res": 707,
      "000": 708,
      "op": 709,
      "su": 710,
      "दी": 711,
      "मध": 712,
      "wi": 713,
      "मान": 714,
      "de": 715,
      "ड़": 716,
      "वर्": 717,
      "ir": 718,
      "అత్య": 719,
      "ఇండి": 720,
      "ఉప": 721,
      "క్య": 722,
      "గల": 723,
      "చిన్న": 724,
      "దం": 725,
      "పం": 726,
      "పై": 727,
      "పతి": 728,
      "భూ": 729,
      "మై": 730,
      "మాన": 731,
      "యు": 732,
      "యో": 733,
      "రంగ": 734,
      "లతో": 735,
      "వల": 736,
      "శ్": 737,
      "షు": 738,
      "ావర": 739,
      "ుకో": 740,
      "ెలు": 741,
      "్మ": 742,
      "ప్రతి": 743,
      "ాలలో": 744,
      "ాలను": 745,
      "విస్త": 746,
      "ండు": 747,
      "ించి": 748,
      "సంస్కృ": 749,
      "సంగీ": 750,
      "ంగ్ల": 751,
      "ిత్ర": 752,
      "ప్రాచ": 753,
      "క్రమ": 754,
      "సిని": 755,
      "సియా": 756,
      "ద్ధి": 757,
      "శాస్త్ర": 758,
      "ఆర్ధిక": 759,
      "సరిహ": 760,
      "అత్యధిక": 761,
      "ఇండియా": 762,
      "शा": 763,
      "un": 764,
      "एक": 765,
      "सम": 766,
      "mo": 767,
      "wh": 768,
      "ang": 769,
      "gh": 770,
      "du": 771,
      "द्र": 772,
      "ate": 773,
      "राज्य": 774,
      "with": 775,
      "ex": 776,
      "im": 777,
      "लि": 778,
      "ts": 779,
      "was": 780,
      "पु": 781,
      "स्त": 782,
      "197": 783,
      "ain": 784,
      "ies": 785,
      "ంధ": 786,
      "ఆధ": 787,
      "కాలు": 788,
      "గణ": 789,
      "గలు": 790,
      "జాబ": 791,
      "ట్ల": 792,
      "ఢిల్ల": 793,
      "ణి": 794,
      "తిక": 795,
      "తంత్ర": 796,
      "దార": 797,
      "ధి": 798,
      "నీ": 799,
      "నె": 800,
      "నడి": 801,
      "భిన్న": 802,
      "మె": 803,
      "మూడ": 804,
      "మాత్ర": 805,
      "రం": 806,
      "రహ": 807,
      "వై": 808,
      "సౌ": 809,
      "సము": 810,
      "సింది": 811,
      "సమా": 812,
      "హార": 813,
      "ీర్": 814,
      "స్య": 815,
      "స్వ": 816,
      "స్వా": 817,
      "్యాయ": 818,
      "ప్రము": 819,
      "భారత్": 820,
      "వివిధ": 821,
      "ద్దు": 822,
      "ంతో": 823,
      "సామ": 824,
      "కోర్": 825,
      "పేర్": 826,
      "రాష్ట్రాలు": 827,
      "రాష్ట్రపతి": 828,
      "శాఖ": 829,
      "డ్డ": 830,
      "మొదల": 831,
      "కర్య": 832,
      "ప్రాంతాలు": 833,
      "దేశంలోని": 834,
      "రెండు": 835,
      "ాల్లో": 836,
      "ఉత్తర": 837,
      "పట్టణ": 838,
      "బెంగ": 839,
      "బ్రి": 840,
      "భాగం": 841,
      "ప్పటిక": 842,
      "ఏర్ప": 843,
      "బహు": 844,
      "మంత్రి": 845,
      "సింధ": 846,
      "సరిహద్దు": 847,
      "ఢిల్లీ": 848,
      "దారులు": 849,
      "నడిప": 850,
      "సౌకర్య": 851,
      "ప్రముఖ": 852,
      "ab": 853,
      "are": 854,
      "रू": 855,
      "वी": 856,
      "श्": 857,
      "50": 858,
      "नी": 859,
      "बा": 860,
      "्ये": 861,
      "199": 862,
      "ro": 863,
      "दि": 864,
      "वे": 865,
      "ong": 866,
      "der": 867,
      "rom": 868,
      "भी": 869,
      "सर": 870,
      "si": 871,
      "194": 872,
      "प्रा": 873,
      "26": 874,
      "ay": 875,
      "ment": 876,
      "ंत्र": 877,
      "oun": 878,
      "over": 879,
      "201": 880,
      "ical": 881,
      "..": 882,
      "us": 883,
      "इस": 884,
      "री": 885,
      "द्ध": 886,
      "ut": 887,
      "त्या": 888,
      "तथा": 889,
      "धिक": 890,
      "१९": 891,
      "ంద": 892,
      "ందు": 893,
      "అభ": 894,
      "అను": 895,
      "కం": 896,
      "కళ": 897,
      "కల్": 898,
      "గే": 899,
      "గంగా": 900,
      "చార": 901,
      "చరి": 902,
      "చైన": 903,
      "జ్య": 904,
      "టం": 905,
      "టీ": 906,
      "టె": 907,
      "తన": 908,
      "తూ": 909,
      "తమి": 910,
      "తాబ్": 911,
      "థిక": 912,
      "నగర": 913,
      "పత": 914,
      "పొ": 915,
      "పద్ధ": 916,
      "పండు": 917,
      "మలు": 918,
      "మ్య": 919,
      "రూ": 920,
      "ళం": 921,
      "ళ్ల": 922,
      "వడ": 923,
      "వహ": 924,
      "వృ": 925,
      "వత్": 926,
      "శతాబ్": 927,
      "సమ": 928,
      "సై": 929,
      "సార": 930,
      "సర్వ": 931,
      "ిమ": 932,
      "ుంది": 933,
      "స్వాత": 934,
      "ాలతో": 935,
      "న్నాయి": 936,
      "నిర్వ": 937,
      "నుక": 938,
      "నుండి": 939,
      "ere": 940,
      "త్తం": 941,
      "ల్వే": 942,
      "ించే": 943,
      "సంఖ్య": 944,
      "ితా": 945,
      "కూడిన": 946,
      "మొత్తం": 947,
      "రైల్వే": 948,
      "వాతావర": 949,
      "పాలన": 950,
      "భారతదేశానికి": 951,
      "ఒకటి": 952,
      "చేయ": 953,
      "దేశాలలో": 954,
      "కారం": 955,
      "తున్న": 956,
      "అధికారిక": 957,
      "ట్లు": 958,
      "ప్రపంచంలో": 959,
      "భాషలు": 960,
      "వెబ": 961,
      "ప్రజా": 962,
      "ఉంటాయి": 963,
      "జరిగిన": 964,
      "వంటి": 965,
      "అనేక": 966,
      "ఎక్కువగా": 967,
      "ప్రస్తుతం": 968,
      "కాంగ్రెసు": 969,
      "ప్రాచీన": 970,
      "జాబితా": 971,
      "రహదారులు": 972,
      "సముద్ర": 973,
      "అభి": 974,
      "చరిత్ర": 975,
      "శతాబ్దం": 976,
      "స్వాతంత్ర": 977,
      "నిర్వహ": 978,
      "వాతావరణం": 979,
      "has": 980,
      "ial": 981,
      "ld": 982,
      "अस": 983,
      "कृ": 984,
      "चि": 985,
      "लो": 986,
      "ल्": 987,
      "ार्": 988,
      "art": 989,
      ").": 990,
      "17": 991,
      "ap": 992,
      "षा": 993,
      "स्थ": 994,
      "ich": 995,
      "ष्ट्र": 996,
      "from": 997,
      "यु": 998,
      "ये": 999,
      "िण": 1000,
      "inc": 1001,
      "र्म": 1002,
      "196": 1003,
      "आहेत": 1004,
      "मुख": 1005,
      "10": 1006,
      "23": 1007,
      "उत्": 1008,
      "जि": 1009,
      "स्था": 1010,
      "gr": 1011,
      "oc": 1012,
      "bo": 1013,
      "जी": 1014,
      "प्": 1015,
      "मो": 1016,
      "भारता": 1017,
      "विध": 1018,
      "पूर्व": 1019,
      "CE": 1020,
      "et": 1021,
      "ंड": 1022,
      "जन": 1023,
      "मी": 1024,
      "म्": 1025,
      "वर": 1026,
      "िय": 1027,
      "्रा": 1028,
      "ill": 1029,
      "which": 1030,
      "दक्ष": 1031,
      "ल्या": 1032,
      "दक्षिण": 1033,
      "ear": 1034,
      "por": 1035,
      "um": 1036,
      "ther": 1037,
      "1947": 1038,
      "18": 1039,
      "iv": 1040,
      "ारा": 1041,
      "ity": 1042,
      "%),": 1043,
      "com": 1044,
      "ंध": 1045,
      "झा": 1046,
      "सि": 1047,
      "అని": 1048,
      "ఆఫ": 1049,
      "ఇవ": 1050,
      "కల": 1051,
      "ఖండ": 1052,
      "చి": 1053,
      "జి": 1054,
      "జన్": 1055,
      "టా": 1056,
      "డే": 1057,
      "ణంగా": 1058,
      "దన": 1059,
      "దీ": 1060,
      "ద్య": 1061,
      "నాయ": 1062,
      "న్యాయ": 1063,
      "పద": 1064,
      "పశ": 1065,
      "పక్ష": 1066,
      "పాత్ర": 1067,
      "మల": 1068,
      "మాలు": 1069,
      "మ్మ": 1070,
      "యాలు": 1071,
      "రే": 1072,
      "ర్య": 1073,
      "రకాల": 1074,
      "లక్ష": 1075,
      "వరి": 1076,
      "సర": 1077,
      "సూ": 1078,
      "హా": 1079,
      "ిల్": 1080,
      "ిస్త": 1081,
      "ీలు": 1082,
      "ుల": 1083,
      "ెల": 1084,
      "ోర": 1085,
      "లోక్": 1086,
      "స్లా": 1087,
      "దినాలు": 1088,
      "ప్రకారం": 1089,
      "ాలీ": 1090,
      "ాలకు": 1091,
      "ికత": 1092,
      "ిక్": 1093,
      "కుల": 1094,
      "కుంట": 1095,
      "కుటు": 1096,
      "నిర్": 1097,
      "ాయు": 1098,
      "రాస్య": 1099,
      "ములో": 1100,
      "ముంబ": 1101,
      "ద్వీ": 1102,
      "ల్లో": 1103,
      "సంఘ": 1104,
      "సంప్రదాయ": 1105,
      "సంవత్": 1106,
      "పుట్ట": 1107,
      "స్థాన్": 1108,
      "ంటే": 1109,
      "క్షరాస్య": 1110,
      "ఉన్నారు": 1111,
      "పాక్": 1112,
      "టిలో": 1113,
      "ంచి": 1114,
      "రైళ్ల": 1115,
      "రాష్ట్రాల": 1116,
      "వచ్చిన": 1117,
      "కొన్ని": 1118,
      "పాలిత": 1119,
      "మైనది": 1120,
      "వేగంగా": 1121,
      "భారతదేశపు": 1122,
      "ణాసియా": 1123,
      "భారతదేశంలోని": 1124,
      "చెందిన": 1125,
      "డ్డు": 1126,
      "వ్యవస్థలో": 1127,
      "కార్య": 1128,
      "కరణ": 1129,
      "పరంగా": 1130,
      "పరిశ్ర": 1131,
      "మేన": 1132,
      "ప్రధానమంత్రి": 1133,
      "స్థానంలో": 1134,
      "రాజ్యాలు": 1135,
      "వారస": 1136,
      "సభ్య": 1137,
      "ఆర్థిక": 1138,
      "రోడ్డు": 1139,
      "ముఖ్యమైన": 1140,
      "సాంప్రదాయ": 1141,
      "బాద్": 1142,
      "కేంద్రపాలిత": 1143,
      "ప్రభుత్వం": 1144,
      "కలిగి": 1145,
      "పాకిస్తాన్": 1146,
      "పాకిస్థాన్": 1147,
      "దక్షిణాన": 1148,
      "పైగా": 1149,
      "సంస్కృతి": 1150,
      "సంగీతం": 1151,
      "సినిమా": 1152,
      "శాస్త్రం": 1153,
      "ఆధార": 1154,
      "మూడు": 1155,
      "మాత్రం": 1156,
      "స్వతంత్ర": 1157,
      "స్వామ్య": 1158,
      "సామ్రా": 1159,
      "బెంగాలీ": 1160,
      "బ్రిటి": 1161,
      "ప్పటికీ": 1162,
      "నడిపించ": 1163,
      "వృద్ధి": 1164,
      "సర్వీ": 1165,
      "అభివృద్ధి": 1166,
      "ఆఫ్": 1167,
      "పశ్చ": 1168,
      "కుటుంబ": 1169,
      "క్షరాస్యత": 1170,
      "22": 1171,
      "id": 1172,
      "pl": 1173,
      "ure": 1174,
      "ातील": 1175,
      "स्व": 1176,
      "its": 1177,
      "वर्ष": 1178,
      "ak": 1179,
      "cent": 1180,
      "per": 1181,
      "अन": 1182,
      "तक": 1183,
      "दो": 1184,
      "्यां": 1185,
      "ult": 1186,
      "me": 1187,
      "rit": 1188,
      "ted": 1189,
      "किया": 1190,
      "तात": 1191,
      "orld": 1192,
      "40": 1193,
      "ok": 1194,
      "sh": 1195,
      "जा": 1196,
      "णा": 1197,
      "दा": 1198,
      "बहु": 1199,
      "भू": 1200,
      "भारतात": 1201,
      "राष्ट्र": 1202,
      "चीन": 1203,
      "मध्ये": 1204,
      "co": 1205,
      "lu": 1206,
      "pe": 1207,
      "र्थ": 1208,
      "शास": 1209,
      "सरकार": 1210,
      "low": 1211,
      "धर्म": 1212,
      "स्कृ": 1213,
      "ाने": 1214,
      "साम": 1215,
      "क्षे": 1216,
      "were": 1217,
      "क्र": 1218,
      "व्य": 1219,
      "्रे": 1220,
      "arg": 1221,
      "भाषा": 1222,
      "gen": 1223,
      "ive": 1224,
      "तु": 1225,
      "सद": 1226,
      "सु": 1227,
      "ary": 1228,
      "भाग": 1229,
      "क्षेत्र": 1230,
      "ig": 1231,
      "uag": 1232,
      "रे": 1233,
      "ans": 1234,
      "end": 1235,
      "ated": 1236,
      "ass": 1237,
      "साथ": 1238,
      "form": 1239,
      "anguag": 1240,
      "21": 1241,
      "av": 1242,
      "larg": 1243,
      "pro": 1244,
      "सी": 1245,
      "als": 1246,
      "1950": 1247,
      "econ": 1248,
      "माण": 1249,
      "we": 1250,
      "खा": 1251,
      "रु": 1252,
      "सार": 1253,
      "ine": 1254,
      "संस्कृ": 1255,
      "act": 1256,
      "try": 1257,
      "BN": 1258,
      "IS": 1259,
      "af": 1260,
      "gion": 1261,
      "sp": 1262,
      "टि": 1263,
      "ంభ": 1264,
      "అహ": 1265,
      "అవి": 1266,
      "ఆక్రమ": 1267,
      "ఆహార": 1268,
      "ఇవి": 1269,
      "ఇంగ్ల": 1270,
      "ఇస్లా": 1271,
      "ఉండ": 1272,
      "కథ": 1273,
      "కూ": 1274,
      "కన్న": 1275,
      "కత్వ": 1276,
      "కింద": 1277,
      "కీర్": 1278,
      "చన": 1279,
      "చు": 1280,
      "చాల": 1281,
      "చిత్ర": 1282,
      "జీ": 1283,
      "జాలు": 1284,
      "జరు": 1285,
      "జంబ": 1286,
      "టే": 1287,
      "టై": 1288,
      "టర్": 1289,
      "టులు": 1290,
      "డిన": 1291,
      "తల": 1292,
      "తీ": 1293,
      "తె": 1294,
      "తే": 1295,
      "తము": 1296,
      "తులు": 1297,
      "తంలో": 1298,
      "తెలు": 1299,
      "దర": 1300,
      "నది": 1301,
      "పీ": 1302,
      "పార్": 1303,
      "బి": 1304,
      "బంగ్ల": 1305,
      "బంధ": 1306,
      "బడ్డ": 1307,
      "భర": 1308,
      "భౌ": 1309,
      "మర": 1310,
      "మూ": 1311,
      "మౌ": 1312,
      "మతి": 1313,
      "మంది": 1314,
      "మారు": 1315,
      "యం": 1316,
      "యింది": 1317,
      "రీ": 1318,
      "లీ": 1319,
      "లె": 1320,
      "లిం": 1321,
      "ళ్": 1322,
      "ళిక": 1323,
      "వులు": 1324,
      "వల్ల": 1325,
      "వలం": 1326,
      "శెల": 1327,
      "సహ": 1328,
      "సే": 1329,
      "స్ర": 1330,
      "సులు": 1331,
      "సైన": 1332,
      "సార్": 1333,
      "హై": 1334,
      "హిమ": 1335,
      "ాదేశ": 1336,
      "ాంగ": 1337,
      "ాపార": 1338,
      "ిగా": 1339,
      "ుకొ": 1340,
      "ూరు": 1341,
      "ెట్": 1342,
      "్వ": 1343,
      "ారంభ": 1344,
      "లోయ": 1345,
      "్యా": 1346,
      "ప్రారంభ": 1347,
      "దేశపు": 1348,
      "దేశానికి": 1349,
      "ాలనే": 1350,
      "ాలెండ": 1351,
      "ికా": 1352,
      "ర్త": 1353,
      "ర్ష": 1354,
      "ర్‌": 1355,
      "న్నది": 1356,
      "న్నారు": 1357,
      "గాంధ": 1358,
      "కులు": 1359,
      "నిస్తాన్": 1360,
      "విధ్య": 1361,
      "విభిన్న": 1362,
      "విద్య": 1363,
      "క్తి": 1364,
      "ాతో": 1365,
      "దేశంగా": 1366,
      "నులు": 1367,
      "నుంచి": 1368,
      "ద్వార": 1369,
      "త్వా": 1370,
      "త్తా": 1371,
      "సంకీర్": 1372,
      "సంబంధ": 1373,
      "పురు": 1374,
      "స్థి": 1375,
      "ంటు": 1376,
      "వాహ": 1377,
      "వాణి": 1378,
      "పాటు": 1379,
      "పాదన": 1380,
      "కూడుకు": 1381,
      "జాతి": 1382,
      "రాజు": 1383,
      "కోల్": 1384,
      "కాగా": 1385,
      "కాశ్": 1386,
      "ట్టమొదటి": 1387,
      "నేపాల": 1388,
      "మొట్టమొదటి": 1389,
      "మాబాద్": 1390,
      "నాగర": 1391,
      "లిచ": 1392,
      "వ్యాపార": 1393,
      "గువ": 1394,
      "గుర్త": 1395,
      "వచ్చు": 1396,
      "ద్ధం": 1397,
      "పాలించ": 1398,
      "ఒకే": 1399,
      "చేసింది": 1400,
      "్‌సై": 1401,
      "ఎన్నిక": 1402,
      "పెనీ": 1403,
      "కేవలం": 1404,
      "కారణంగా": 1405,
      "తుంది": 1406,
      "దాపు": 1407,
      "దాదాపు": 1408,
      "హిందీ": 1409,
      "త్రి": 1410,
      "మతాలు": 1411,
      "స్థానం": 1412,
      "భాషా": 1413,
      "రాజ్యాంగ": 1414,
      "నాలుగు": 1415,
      "వర్గ": 1416,
      "వర్ణ": 1417,
      "దక్షిణాసియా": 1418,
      "వెనుక": 1419,
      "ప్రజల": 1420,
      "హిందూదేశం": 1421,
      "పూర్వ": 1422,
      "వీటిలో": 1423,
      "శ్రీ": 1424,
      "ష్ణ": 1425,
      "స్కృతిక": 1426,
      "సాంస్కృతిక": 1427,
      "ఉంటుంది": 1428,
      "బడత": 1429,
      "బడిన": 1430,
      "బడింది": 1431,
      "మహా": 1432,
      "ుకుంట": 1433,
      "క్రీడలు": 1434,
      "తరువాతి": 1435,
      "కలిసి": 1436,
      "జనగణ": 1437,
      "లేదా": 1438,
      "సాధించ": 1439,
      "ఉపఖండ": 1440,
      "క్యాలెండ": 1441,
      "ుకోవడ": 1442,
      "ప్రతిపాదన": 1443,
      "విస్తారు": 1444,
      "ిత్రక": 1445,
      "సినిమాలు": 1446,
      "శాస్త్రీయ": 1447,
      "వైవిధ్య": 1448,
      "సమాఖ్య": 1449,
      "కోర్టు": 1450,
      "కోర్టులు": 1451,
      "పేర్లు": 1452,
      "పేర్కొ": 1453,
      "మొదలైన": 1454,
      "పట్టణాలు": 1455,
      "ఏర్పడ్డ": 1456,
      "బహుళ": 1457,
      "సింధు": 1458,
      "रूप": 1459,
      "बाद": 1460,
      "కంపెనీ": 1461,
      "చారిత్రక": 1462,
      "తమిళం": 1463,
      "నగరాలు": 1464,
      "పతకాలు": 1465,
      "పొందిన": 1466,
      "పద్ధతి": 1467,
      "పండుగలు": 1468,
      "ఒకటిగా": 1469,
      "వెబ్‌సై": 1470,
      "ప్రజాస్వామ్య": 1471,
      "సముద్రం": 1472,
      "స్వాతంత్ర్య": 1473,
      "నిర్వహణ": 1474,
      "జన్మ": 1475,
      "ముంబై": 1476,
      "సంప్రదాయాలు": 1477,
      "రైళ్లను": 1478,
      "కార్యక్రమ": 1479,
      "పరిశ్రమలు": 1480,
      "వారసత్వ": 1481,
      "సాంప్రదాయిక": 1482,
      "సర్వీసులు": 1483,
      "ఆఫ్ఘ": 1484,
      "ISBN": 1485,
      "ఇస్లామాబాద్": 1486,
      "కన్నడ": 1487,
      "చాలా": 1488,
      "జరుపు": 1489,
      "జంబూ": 1490,
      "తెలుగు": 1491,
      "పీఠ": 1492,
      "బంగ్లాదేశ": 1493,
      "ళ్ళ": 1494,
      "శెలవు": 1495,
      "హిమాల": 1496,
      "గాంధీ": 1497,
      "ద్వారా": 1498,
      "త్వాన్ని": 1499,
      "వాణిజ్య": 1500,
      "కాశ్మీ": 1501,
      "నాగరికత": 1502,
      "వెనుకటి": 1503,
      "క్యాలెండర్": 1504,
      "వెబ్‌సైటు": 1505,
      "min": 1506,
      "ru": 1507,
      "ळे": 1508,
      "ish": 1509,
      "ism": 1510,
      "हिन्": 1511,
      "Ch": 1512,
      "अधिक": 1513,
      "ओं": 1514,
      "गया": 1515,
      "लग": 1516,
      "लय": 1517,
      "ough": 1518,
      "ountry": 1519,
      "overn": 1520,
      "उत्तर": 1521,
      "30": 1522,
      "यह": 1523,
      "ोग": 1524,
      "ारी": 1525,
      "our": 1526,
      "ous": 1527,
      "नाव": 1528,
      "ame": 1529,
      "लोक": 1530,
      "स्थान": 1531,
      "Hin": 1532,
      "og": 1533,
      "ढ़": 1534,
      "धान": 1535,
      "बी": 1536,
      "ers": 1537,
      "्यात": 1538,
      "प्रदेश": 1539,
      "िक्": 1540,
      "outh": 1541,
      "निर्": 1542,
      "%,": 1543,
      "16": 1544,
      "Ar": 1545,
      "bec": 1546,
      "ha": 1547,
      "hi": 1548,
      "mar": 1549,
      "os": 1550,
      "part": 1551,
      "up": 1552,
      "अने": 1553,
      "जो": 1554,
      "टी": 1555,
      "बसे": 1556,
      "सबसे": 1557,
      "हर": 1558,
      "००": 1559,
      "ant": 1560,
      "all": 1561,
      "ally": 1562,
      "ंगा": 1563,
      "1991": 1564,
      "जिस": 1565,
      "स्थाप": 1566,
      "प्त": 1567,
      "econom": 1568,
      "overnment": 1569,
      "ma": 1570,
      "nor": 1571,
      "od": 1572,
      "ंद्र": 1573,
      "अप": 1574,
      "उप": 1575,
      "गर": 1576,
      "थी": 1577,
      "पट": 1578,
      "बंध": 1579,
      "मंत्र": 1580,
      "any": 1581,
      "ance": 1582,
      "uring": 1583,
      "जाती": 1584,
      "cont": 1585,
      "प्राचीन": 1586,
      "्राज": 1587,
      "साम्राज": 1588,
      "अनेक": 1589,
      "14": 1590,
      "fe": 1591,
      "mill": 1592,
      "ot": 1593,
      "ंत": 1594,
      "ंतर": 1595,
      "द्य": 1596,
      "वै": 1597,
      "ृत": 1598,
      "into": 1599,
      "2011": 1600,
      "भारताच्या": 1601,
      "centur": 1602,
      "adi": 1603,
      "कु": 1604,
      "णी": 1605,
      "तो": 1606,
      "दल": 1607,
      "बन": 1608,
      "मह": 1609,
      "रो": 1610,
      "ern": 1611,
      "stit": 1612,
      "काळ": 1613,
      "प्रकार": 1614,
      "ome": 1615,
      "ंग्रे": 1616,
      "होता": 1617,
      "port": 1618,
      "46": 1619,
      "Pr": 1620,
      "cl": 1621,
      "ding": 1622,
      "ile": 1623,
      "ore": 1624,
      "ution": 1625,
      "च्": 1626,
      "ठा": 1627,
      "ब्र": 1628,
      "महा": 1629,
      "शी": 1630,
      "ैन": 1631,
      "ates": 1632,
      "साह": 1633,
      "नाम": 1634,
      "ress": 1635,
      "sub": 1636,
      "185": 1637,
      "शासन": 1638,
      "व्यव": 1639,
      "29": 1640,
      "56": 1641,
      "59": 1642,
      "83": 1643,
      "Th": 1644,
      "ber": 1645,
      "lat": 1646,
      "ne": 1647,
      "pop": 1648,
      "ra": 1649,
      "west": 1650,
      "ंप": 1651,
      "गे": 1652,
      "वं": 1653,
      "olog": 1654,
      "2003": 1655,
      "2004": 1656,
      "चित्र": 1657,
      "\",": 1658,
      "Fact": 1659,
      "but": 1660,
      "ct": 1661,
      "ction": 1662,
      "fir": 1663,
      "government": 1664,
      "ire": 1665,
      "languag": 1666,
      "year": 1667,
      "कड": 1668,
      "गण": 1669,
      "ठी": 1670,
      "दिया": 1671,
      "वन": 1672,
      "शिया": 1673,
      "विश्": 1674,
      "क्षा": 1675,
      "1977": 1676,
      "inclu": 1677,
      "book": 1678,
      "अनु": 1679,
      "minist": 1680,
      "Hindu": 1681,
      "Factbook": 1682,
      "15": 1683,
      "8లో": 1684,
      "CI": 1685,
      "Country": 1686,
      "ces": 1687,
      "dec": 1688,
      "pri": 1689,
      "qu": 1690,
      "uc": 1691,
      "world": 1692,
      "आध": 1693,
      "इंड": 1694,
      "गु": 1695,
      "धी": 1696,
      "पश्": 1697,
      "मे": 1698,
      "व्या": 1699,
      "ంక": 1700,
      "అణ": 1701,
      "అవ": 1702,
      "అంత": 1703,
      "అంట": 1704,
      "అన్ని": 1705,
      "అప్ప": 1706,
      "అమె": 1707,
      "అక్షరాస్యత": 1708,
      "ఆసియా": 1709,
      "ఇదే": 1710,
      "ఇండ": 1711,
      "ఇక్క": 1712,
      "ఇటీ": 1713,
      "ఈశ": 1714,
      "ఈస్": 1715,
      "ఎడ": 1716,
      "ఎల": 1717,
      "ఏప్ర": 1718,
      "ఐరో": 1719,
      "ఐక్య": 1720,
      "ఒలం": 1721,
      "కీ": 1722,
      "కలు": 1723,
      "కిక": 1724,
      "కాత": 1725,
      "కను": 1726,
      "కనుక": 1727,
      "కంటే": 1728,
      "కబడ్డ": 1729,
      "ఖో": 1730,
      "ఖని": 1731,
      "గత": 1732,
      "గమ": 1733,
      "గ్ర": 1734,
      "గర్": 1735,
      "గంగ": 1736,
      "గమన": 1737,
      "గ్రా": 1738,
      "గెలు": 1739,
      "చద": 1740,
      "చయ": 1741,
      "చీ": 1742,
      "చూ": 1743,
      "చవి": 1744,
      "చూడ": 1745,
      "చించిన": 1746,
      "చుకోవడ": 1747,
      "జల": 1748,
      "జో": 1749,
      "జ్": 1750,
      "జిక": 1751,
      "జ్యం": 1752,
      "జమ్మ": 1753,
      "టక": 1754,
      "ట్ర": 1755,
      "టలు": 1756,
      "టన్": 1757,
      "ట్‌": 1758,
      "టాన్": 1759,
      "టోర": 1760,
      "డైన": 1761,
      "ఢా": 1762,
      "ణులు": 1763,
      "తర్": 1764,
      "తను": 1765,
      "తంగా": 1766,
      "తత్వ": 1767,
      "తక్కువ": 1768,
      "థాలు": 1769,
      "థ్యం": 1770,
      "దర్": 1771,
      "దగా": 1772,
      "దరా": 1773,
      "దండ": 1774,
      "దులు": 1775,
      "ధీన": 1776,
      "నం": 1777,
      "నూ": 1778,
      "నిక": 1779,
      "పలు": 1780,
      "పిక": 1781,
      "పవి": 1782,
      "ప్ల": 1783,
      "పల్ల": 1784,
      "పడు": 1785,
      "పర్వ": 1786,
      "పతా": 1787,
      "పక్క": 1788,
      "పడిన": 1789,
      "ఫల": 1790,
      "బు": 1791,
      "బౌ": 1792,
      "బంగ": 1793,
      "భవ": 1794,
      "భక్తి": 1795,
      "భాతో": 1796,
      "మ్": 1797,
      "మాత": 1798,
      "మించ": 1799,
      "మిత": 1800,
      "మరో": 1801,
      "యాత్ర": 1802,
      "యమించ": 1803,
      "రకాలు": 1804,
      "రికా": 1805,
      "రచయ": 1806,
      "లౌ": 1807,
      "లకొ": 1808,
      "లమె": 1809,
      "లస్య": 1810,
      "ళా": 1811,
      "ళి": 1812,
      "వం": 1813,
      "విం": 1814,
      "వంత": 1815,
      "వరు": 1816,
      "వైన": 1817,
      "వార్": 1818,
      "వత్ర": 1819,
      "వనాలు": 1820,
      "వాయు": 1821,
      "శక": 1822,
      "శి": 1823,
      "శీ": 1824,
      "శై": 1825,
      "శో": 1826,
      "శకు": 1827,
      "షం": 1828,
      "షయాలు": 1829,
      "సన": 1830,
      "సీ": 1831,
      "సె": 1832,
      "సాల": 1833,
      "సిక్": 1834,
      "హో": 1835,
      "హ్ర": 1836,
      "ామ": 1837,
      "ాన్ని": 1838,
      "ాడే": 1839,
      "ిమాన": 1840,
      "ీం": 1841,
      "ీక్ష": 1842,
      "ీషు": 1843,
      "ుత్": 1844,
      "ూనది": 1845,
      "ౌర": 1846,
      "్మా": 1847,
      "‌సభ": 1848,
      "‌కాత": 1849,
      "ారి": 1850,
      "లుగా": 1851,
      "లోను": 1852,
      "లోమీ": 1853,
      "స్వీ": 1854,
      "స్కరణ": 1855,
      "స్లిం": 1856,
      "దిన": 1857,
      "ప్రదేశ": 1858,
      "ప్రాయ": 1859,
      "ప్రసి": 1860,
      "ప్రత్య": 1861,
      "ప్రయో": 1862,
      "ప్రీం": 1863,
      "దేశీ": 1864,
      "దేశాలు": 1865,
      "ాలే": 1866,
      "ర్తి": 1867,
      "ర్పు": 1868,
      "ర్జాతీయ": 1869,
      "ర్చు": 1870,
      "ర్థ్యం": 1871,
      "భారతం": 1872,
      "భారత్‌": 1873,
      "న్నీ": 1874,
      "న్నై": 1875,
      "గాన్ని": 1876,
      "నిపు": 1877,
      "నిడి": 1878,
      "నియమించ": 1879,
      "విలు": 1880,
      "విమాన": 1881,
      "విశ్": 1882,
      "విషయాలు": 1883,
      "విదేశీ": 1884,
      "క్టోర": 1885,
      "ాతం": 1886,
      "ాతి": 1887,
      "ాత్మా": 1888,
      "ానీ": 1889,
      "ాను": 1890,
      "ాన్య": 1891,
      "ండ్": 1892,
      "ములు": 1893,
      "ముడి": 1894,
      "ముస్లిం": 1895,
      "ినీ": 1896,
      "తిరు": 1897,
      "స్తులు": 1898,
      "స్తారు": 1899,
      "region": 1900,
      "ందింది": 1901,
      "సంస్కరణ": 1902,
      "పుకో": 1903,
      "పుతూ": 1904,
      "స్థావర": 1905,
      "ంటి": 1906,
      "భావిస్తారు": 1907,
      "భాగాన్ని": 1908,
      "ofile": 1909,
      "काल": 1910,
      "వాదం": 1911,
      "సాహ": 1912,
      "సామా": 1913,
      "పావ": 1914,
      "పాంత": 1915,
      "పాడు": 1916,
      "కూడి": 1917,
      "కూడుకొ": 1918,
      "జాతులు": 1919,
      "కోట్ల": 1920,
      "క్రి": 1921,
      "కాహార": 1922,
      "కాపాడు": 1923,
      "చ్చే": 1924,
      "నేరే": 1925,
      "మొగలు": 1926,
      "ంచిన": 1927,
      "దుగా": 1928,
      "మాట్ల": 1929,
      "యాళం": 1930,
      "నాథ": 1931,
      "विविध": 1932,
      "తరాలు": 1933,
      "గుబా": 1934,
      "వచ్చని": 1935,
      "వేద": 1936,
      "వేల": 1937,
      "కాలే": 1938,
      "డిస్": 1939,
      "ద్రా": 1940,
      "శాసన": 1941,
      "దేశాలను": 1942,
      "ఎన్నుకో": 1943,
      "ఎన్నుకుంట": 1944,
      "కిలోమీ": 1945,
      "చెప్": 1946,
      "చెంద": 1947,
      "చెందు": 1948,
      "చెన్నై": 1949,
      "వ్యవస్థకు": 1950,
      "కేతిక": 1951,
      "తులతో": 1952,
      "అధికారం": 1953,
      "త్యం": 1954,
      "పర్యాయ": 1955,
      "పరీక్ష": 1956,
      "పరిపాలన": 1957,
      "మీదగా": 1958,
      "వరీ": 1959,
      "సుప్రీం": 1960,
      "ప్రపంచములో": 1961,
      "స్థానాలను": 1962,
      "భాషలను": 1963,
      "ప్రాంతీయ": 1964,
      "ప్రాంతాల్లో": 1965,
      "రాజ్యంగా": 1966,
      "ach": 1967,
      "దాయంలో": 1968,
      "వారి": 1969,
      "వర్తి": 1970,
      "సభను": 1971,
      "मुळे": 1972,
      "జనాభాతో": 1973,
      "మిస్తు": 1974,
      "రెండవ": 1975,
      "రెండో": 1976,
      "లంక": 1977,
      "లాహో": 1978,
      "వెల్ల": 1979,
      "ప్రజలు": 1980,
      "ప్రభుత్వాన్ని": 1981,
      "పూర్తి": 1982,
      "పోయింది": 1983,
      "మనదేశం": 1984,
      "వుతుంది": 1985,
      "ముఖ్యంగా": 1986,
      "స్త్రీలు": 1987,
      "సాంకేతిక": 1988,
      "అతిపెద్ద": 1989,
      "జరిగే": 1990,
      "మహి": 1991,
      "మహాత్మా": 1992,
      "క్రీడా": 1993,
      "క్రీడలలో": 1994,
      "అయినా": 1995,
      "मिळ": 1996,
      "గోదా": 1997,
      "గోళిక": 1998,
      "గినది": 1999,
      "జనతా": 2000,
      "జనవరి": 2001,
      "లేదు": 2002,
      "ప్రస్తుతము": 2003,
      "క్కను": 2004,
      "సాధించిన": 2005,
      "కాంగ్రెస్": 2006,
      "ాబ్ది": 2007,
      "ఉపయో": 2008,
      "భూభాగం": 2009,
      "భూటాన్": 2010,
      "మానం": 2011,
      "యుగ": 2012,
      "రంగంలో": 2013,
      "వలన": 2014,
      "వలస": 2015,
      "ప్రతిపక్ష": 2016,
      "విస్తీర్": 2017,
      "स्तान": 2018,
      "గణతంత్ర": 2019,
      "నెలకొ": 2020,
      "మాత్రమే": 2021,
      "సమాజ": 2022,
      "స్వతం": 2023,
      "సామర్థ్యం": 2024,
      "ఉత్తరాన": 2025,
      "బ్రిటీ": 2026,
      "ప్పటికినీ": 2027,
      "సింధూనది": 2028,
      "సరిహద్దుగా": 2029,
      "సౌకర్యాలు": 2030,
      "సౌకర్యాలలో": 2031,
      "26న": 2032,
      "కళలు": 2033,
      "చైనా": 2034,
      "చైనాను": 2035,
      "తూర్పు": 2036,
      "తమిళ": 2037,
      "రూపాంత": 2038,
      "సమరం": 2039,
      "సారస్వతం": 2040,
      "సంఖ్యా": 2041,
      "రైల్వేశాఖ": 2042,
      "పాలనలో": 2043,
      "ప్రపంచంలోని": 2044,
      "వెబ్": 2045,
      "ప్రజాదర": 2046,
      "సముద్రతీ": 2047,
      "స్వాతంత్ర్యం": 2048,
      "నిర్వహించింది": 2049,
      "मुख्य": 2050,
      "CEE": 2051,
      "comp": 2052,
      "చిరు": 2053,
      "నాయకత్వ": 2054,
      "పదవి": 2055,
      "మలయాళం": 2056,
      "సూచించిన": 2057,
      "హాకీ": 2058,
      "ిస్తారు": 2059,
      "లోక్‌సభ": 2060,
      "కులాలు": 2061,
      "కుంటూ": 2062,
      "కుంటారు": 2063,
      "నిర్మ": 2064,
      "ాయుత": 2065,
      "ద్వీప": 2066,
      "సంవత్సర": 2067,
      "మేనని": 2068,
      "రాజ్యాలుగా": 2069,
      "సభ్యు": 2070,
      "సభ్యులు": 2071,
      "ఆధారపడిన": 2072,
      "సామ్రాజ్య": 2073,
      "సామ్రాజ్యం": 2074,
      "బ్రిటిష్": 2075,
      "బ్రిటిషు": 2076,
      "పశ్చిమ": 2077,
      "పశ్చిమాన": 2078,
      "ఆహారం": 2079,
      "ఇంగ్లీషు": 2080,
      "ఉండటం": 2081,
      "కిందకు": 2082,
      "టైటి": 2083,
      "టర్లకు": 2084,
      "పార్లమె": 2085,
      "భరత": 2086,
      "భౌగోళిక": 2087,
      "మూల": 2088,
      "మౌర్య": 2089,
      "సహస్ర": 2090,
      "సైనిక": 2091,
      "సార్వత్ర": 2092,
      "హైదరా": 2093,
      "ప్రారంభించ": 2094,
      "ర్షణ": 2095,
      "ర్‌ల": 2096,
      "విద్యుత్": 2097,
      "సంకీర్ణ": 2098,
      "పురుషు": 2099,
      "స్థితి": 2100,
      "కూడుకుని": 2101,
      "కోల్‌కాత": 2102,
      "నేపాల్": 2103,
      "పాలించారు": 2104,
      "ఎన్నికల్లో": 2105,
      "రాజ్యాంగం": 2106,
      "బడతారు": 2107,
      "మహాసముద్రం": 2108,
      "జనగణన": 2109,
      "ప్రతిపాదనకు": 2110,
      "మొదలైనవి": 2111,
      "ఏర్పడ్డాయి": 2112,
      "కార్యక్రమాలు": 2113,
      "ఆఫ్ఘనిస్తాన్": 2114,
      "జరుపుకుంటారు": 2115,
      "పీఠభూ": 2116,
      "బంగ్లాదేశ్‌": 2117,
      "శెలవుదినాలు": 2118,
      "హిమాలయ": 2119,
      "Profile": 2120,
      "popul": 2121,
      "चित्रपट": 2122,
      "CIA": 2123,
      "पश्चि": 2124,
      "అంతర్జాతీయ": 2125,
      "అమెరికా": 2126,
      "ఇండో": 2127,
      "ఈశాన్య": 2128,
      "ఈస్ట్": 2129,
      "ఎలక్టోర": 2130,
      "ఏప్రిల్": 2131,
      "ఐరోపా": 2132,
      "కనుమలు": 2133,
      "కబడ్డీ": 2134,
      "ఖనిజాలు": 2135,
      "గెలుచుకోవడ": 2136,
      "చూడండి": 2137,
      "జమ్మూ": 2138,
      "ట్రో": 2139,
      "ఢాకా": 2140,
      "తర్వాత": 2141,
      "పిక్‌": 2142,
      "పవిత్ర": 2143,
      "పక్కన": 2144,
      "బౌద్ధ": 2145,
      "బంగారు": 2146,
      "రచయిత": 2147,
      "లౌకిక": 2148,
      "ప్రసిద్ధి": 2149,
      "భారత్‌లో": 2150,
      "నిపుణులు": 2151,
      "నిడివి": 2152,
      "తిరుగుబా": 2153,
      "స్థావరాలు": 2154,
      "సామాజిక": 2155,
      "కూడుకొని": 2156,
      "కాపాడుకుంటూ": 2157,
      "నేరేడు": 2158,
      "మాట్లాడే": 2159,
      "ఎన్నుకోబడతారు": 2160,
      "కిలోమీటర్లకు": 2161,
      "చెప్పుకో": 2162,
      "చెందాయి": 2163,
      "చెందుతున్న": 2164,
      "పర్యాయాలు": 2165,
      "పూర్తిగా": 2166,
      "ఉపయోగి": 2167,
      "ప్రజాదరణ": 2168,
      "సూచించినట్లు": 2169,
      "సహస్రాబ్ది": 2170,
      "సార్వత్రిక": 2171,
      "కోల్‌కాతా": 2172,
      "ఎలక్టోరల్": 2173,
      "గెలుచుకోవడం": 2174,
      "తిరుగుబాటు": 2175,
      "Asi": 2176,
      "ele": 2177,
      "sc": 2178,
      "sy": 2179,
      "ud": 2180,
      "ved": 2181,
      "शिक्": 2182,
      "समा": 2183,
      "reas": 2184,
      "केंद्र": 2185,
      "यां": 2186,
      "ack": 2187,
      "हिमा": 2188,
      "मध्य": 2189,
      "ब्रि": 2190,
      "साहित": 2191,
      "first": 2192,
      "विश्व": 2193,
      "land": 2194,
      "आण": 2195,
      "गा": 2196,
      "चु": 2197,
      "बड़": 2198,
      "शि": 2199,
      "सर्": 2200,
      "reli": 2201,
      "ence": 2202,
      "stem": 2203,
      "स्त्र": 2204,
      "द्वी": 2205,
      "हुआ": 2206,
      "हुई": 2207,
      "पूर्": 2208,
      "dern": 2209,
      "1965": 2210,
      "टिश": 2211,
      "ब्रिटिश": 2212,
      "%.": 2213,
      "World": 2214,
      "during": 2215,
      "fore": 2216,
      "gan": 2217,
      "had": 2218,
      "long": 2219,
      "ंद": 2220,
      "ंब": 2221,
      "कर्": 2222,
      "ज़": 2223,
      "णे": 2224,
      "तिक": 2225,
      "पद": 2226,
      "सो": 2227,
      "eral": 2228,
      "reat": 2229,
      "प्रमुख": 2230,
      "सेना": 2231,
      "पास": 2232,
      "जाता": 2233,
      "most": 2234,
      "used": 2235,
      "पूर्वी": 2236,
      "after": 2237,
      "हिन्दी": 2238,
      "became": 2239,
      "मंत्री": 2240,
      "stitution": 2241,
      "system": 2242,
      "द्वीप": 2243,
      "80": 2244,
      "ced": 2245,
      "cast": 2246,
      "jor": 2247,
      "ni": 2248,
      "pre": 2249,
      "par": 2250,
      "pire": 2251,
      "ral": 2252,
      "ser": 2253,
      "असे": 2254,
      "टे": 2255,
      "दान": 2256,
      "मत": 2257,
      "मै": 2258,
      "रि": 2259,
      "शक": 2260,
      "शे": 2261,
      "षण": 2262,
      "सर्व": 2263,
      "ोड़": 2264,
      "them": 2265,
      "प्रधान": 2266,
      "तील": 2267,
      "त्व": 2268,
      "तिहा": 2269,
      "पाकि": 2270,
      "ational": 2271,
      "होते": 2272,
      "been": 2273,
      "मिल": 2274,
      "समय": 2275,
      "विधान": 2276,
      "राष्ट्रीय": 2277,
      "largest": 2278,
      "also": 2279,
      "have": 2280,
      "contin": 2281,
      "साम्राज्य": 2282,
      "century": 2283,
      "व्यवस्था": 2284,
      "सर्वा": 2285,
      "पाकिस्तान": 2286,
      "Cong": 2287,
      "Em": 2288,
      "bl": 2289,
      "fic": 2290,
      "hist": 2291,
      "ll": 2292,
      "mon": 2293,
      "nolog": 2294,
      "wo": 2295,
      "अर्थ": 2296,
      "ख्या": 2297,
      "गी": 2298,
      "तंत्र": 2299,
      "ब्": 2300,
      "बढ़": 2301,
      "मू": 2302,
      "शु": 2303,
      "सभा": 2304,
      "हण": 2305,
      "ics": 2306,
      "संघ": 2307,
      "ural": 2308,
      "tradi": 2309,
      "हीं": 2310,
      "such": 2311,
      "more": 2312,
      "राज्यों": 2313,
      "ext": 2314,
      "1971": 2315,
      "thern": 2316,
      "झाले": 2317,
      "million": 2318,
      "पूर्ण": 2319,
      "Congress": 2320,
      "tradition": 2321,
      "12": 2322,
      "36": 2323,
      "South": 2324,
      "ban": 2325,
      "back": 2326,
      "lit": 2327,
      "num": 2328,
      "pt": 2329,
      "pol": 2330,
      "ric": 2331,
      "war": 2332,
      "इतिहा": 2333,
      "गो": 2334,
      "जे": 2335,
      "थे": 2336,
      "न्या": 2337,
      "पार": 2338,
      "भर": 2339,
      "मन": 2340,
      "ऱ्या": 2341,
      "सह": 2342,
      "ृष्ट": 2343,
      "that": 2344,
      "काही": 2345,
      "स्ट": 2346,
      "क्त": 2347,
      "ष्ठ": 2348,
      "vers": 2349,
      "ade": 2350,
      "होती": 2351,
      "age": 2352,
      "contr": 2353,
      "मधील": 2354,
      "modern": 2355,
      "लिए": 2356,
      "increas": 2357,
      "1962": 2358,
      "म्हण": 2359,
      "ived": 2360,
      "अन्य": 2361,
      "major": 2362,
      "class": 2363,
      "years": 2364,
      "Af": 2365,
      "ca": 2366,
      "cor": 2367,
      "har": 2368,
      "ta": 2369,
      "two": 2370,
      "ures": 2371,
      "wor": 2372,
      "ंचा": 2373,
      "अन्": 2374,
      "आज": 2375,
      "आर्थ": 2376,
      "चल": 2377,
      "ज्": 2378,
      "डी": 2379,
      "पह": 2380,
      "पी": 2381,
      "योग": 2382,
      "रहा": 2383,
      "शन": 2384,
      "inf": 2385,
      "ition": 2386,
      "ect": 2387,
      "तिश": 2388,
      "द्व": 2389,
      "lim": 2390,
      "देशों": 2391,
      "ound": 2392,
      "grow": 2393,
      "both": 2394,
      "संस्कृती": 2395,
      "prime": 2396,
      "हिमालय": 2397,
      "आर्थिक": 2398,
      "100": 2399,
      "25": 2400,
      "BCE": 2401,
      "cult": 2402,
      "dom": 2403,
      "ef": 2404,
      "ever": 2405,
      "main": 2406,
      "not": 2407,
      "ose": 2408,
      "soc": 2409,
      "ty": 2410,
      "अर": 2411,
      "इन": 2412,
      "टक्": 2413,
      "ण्यात": 2414,
      "त्य": 2415,
      "दु": 2416,
      "पे": 2417,
      "बर": 2418,
      "बना": 2419,
      "बंगा": 2420,
      "सैन": 2421,
      "though": 2422,
      "ari": 2423,
      "ory": 2424,
      "प्रजाती": 2425,
      "lear": 2426,
      "संसद": 2427,
      "संविधान": 2428,
      "लीन": 2429,
      "urban": 2430,
      "करने": 2431,
      "पर्य": 2432,
      "2022": 2433,
      "कारण": 2434,
      "जाते": 2435,
      "bet": 2436,
      "istan": 2437,
      "under": 2438,
      "ल्ली": 2439,
      "युद्ध": 2440,
      "दोन": 2441,
      "large": 2442,
      "ween": 2443,
      "द्योग": 2444,
      "minister": 2445,
      "इंडिया": 2446,
      "पश्चिम": 2447,
      "Asia": 2448,
      "साहित्य": 2449,
      "आणि": 2450,
      "caste": 2451,
      "\".": 2452,
      "%)": 2453,
      "70": 2454,
      "72": 2455,
      "Brit": 2456,
      "Bud": 2457,
      "PA": 2458,
      "Un": 2459,
      "east": 2460,
      "fol": 2461,
      "lo": 2462,
      "led": 2463,
      "les": 2464,
      "mer": 2465,
      "pu": 2466,
      "rough": 2467,
      "vi": 2468,
      "अंग्रे": 2469,
      "इंग": 2470,
      "एशिया": 2471,
      "कई": 2472,
      "ग्र": 2473,
      "तसे": 2474,
      "दर्": 2475,
      "नंतर": 2476,
      "नहीं": 2477,
      "पै": 2478,
      "पर्व": 2479,
      "पार्": 2480,
      "बौ": 2481,
      "वळ": 2482,
      "शह": 2483,
      "सू": 2484,
      "this": 2485,
      "ince": 2486,
      "their": 2487,
      "eng": 2488,
      "्याने": 2489,
      "Ind": 2490,
      "isation": 2491,
      "साठी": 2492,
      "विस्त": 2493,
      "out": 2494,
      "संख्या": 2495,
      "2023": 2496,
      "ament": 2497,
      "life": 2498,
      "own": 2499,
      "हुए": 2500,
      "जाति": 2501,
      "vel": 2502,
      "दिल्ली": 2503,
      "2014": 2504,
      "इसके": 2505,
      "सिंध": 2506,
      "भूमि": 2507,
      "Arch": 2508,
      "च्च": 2509,
      "new": 2510,
      "language": 2511,
      "अनुसार": 2512,
      "uclear": 2513,
      "population": 2514,
      "election": 2515,
      "शिक्षण": 2516,
      "चुनाव": 2517,
      "continent": 2518,
      "Empire": 2519,
      "इतिहास": 2520,
      "British": 2521,
      "Budd": 2522,
      "तसेच": 2523,
      "बौद्ध": 2524,
      "01": 2525,
      "04": 2526,
      "81": 2527,
      "82": 2528,
      "87": 2529,
      "93": 2530,
      "An": 2531,
      "Con": 2532,
      "Languag": 2533,
      "Pak": 2534,
      "dance": 2535,
      "fer": 2536,
      "hum": 2537,
      "many": 2538,
      "pr": 2539,
      "south": 2540,
      "ue": 2541,
      "इस्": 2542,
      "उन": 2543,
      "कॉ": 2544,
      "चार": 2545,
      "डा": 2546,
      "त्ये": 2547,
      "दार": 2548,
      "दिक": 2549,
      "दशक": 2550,
      "पती": 2551,
      "मार": 2552,
      "यों": 2553,
      "विक": 2554,
      "erg": 2555,
      "केले": 2556,
      "नेत": 2557,
      "क्ति": 2558,
      "वाद": 2559,
      "संबंध": 2560,
      "करोड़": 2561,
      "ace": 2562,
      "न्न": 2563,
      "मुद्र": 2564,
      "ations": 2565,
      "began": 2566,
      "sup": 2567,
      "ड़ा": 2568,
      "anges": 2569,
      "imal": 2570,
      "पुर": 2571,
      "1974": 2572,
      "1975": 2573,
      "able": 2574,
      "ayback": 2575,
      "ically": 2576,
      "१९९": 2577,
      "ially": 2578,
      "lowing": 2579,
      "भाषाओं": 2580,
      "निर्माण": 2581,
      "economic": 2582,
      "north": 2583,
      "वैदिक": 2584,
      "महारा": 2585,
      "western": 2586,
      "मैदान": 2587,
      "द्वारा": 2588,
      "टक्के": 2589,
      "between": 2590,
      "Archived": 2591,
      "Languages": 2592,
      "Pakistan": 2593,
      "):": 2594,
      "1000": 2595,
      "121": 2596,
      "32": 2597,
      "422": 2598,
      "517": 2599,
      "62": 2600,
      "75": 2601,
      "7000": 2602,
      "900": 2603,
      "BB": 2604,
      "BS": 2605,
      "De": 2606,
      "Eur": 2607,
      "It": 2608,
      "Ma": 2609,
      "Mach": 2610,
      "PI": 2611,
      "SI": 2612,
      "Wayback": 2613,
      "dr": 2614,
      "kh": 2615,
      "pow": 2616,
      "rate": 2617,
      "tec": 2618,
      "tim": 2619,
      "अव": 2620,
      "आप": 2621,
      "गठ": 2622,
      "घे": 2623,
      "घो": 2624,
      "जग": 2625,
      "जून": 2626,
      "ण्": 2627,
      "दर": 2628,
      "दू": 2629,
      "दृष्ट": 2630,
      "निक": 2631,
      "पड": 2632,
      "पृ": 2633,
      "फ्र": 2634,
      "वार": 2635,
      "श्र": 2636,
      "हार": 2637,
      "िका": 2638,
      "ौर": 2639,
      "report": 2640,
      "atic": 2641,
      "ाता": 2642,
      "कालीन": 2643,
      "1956": 2644,
      "प्रत्ये": 2645,
      "ited": 2646,
      "विका": 2647,
      "नाट": 2648,
      "ilit": 2649,
      "ement": 2650,
      "set": 2651,
      "सम्": 2652,
      "exp": 2653,
      "1996": 2654,
      "...": 2655,
      "असते": 2656,
      "झाला": 2657,
      "स्वतंत्र": 2658,
      "peri": 2659,
      "क्रम": 2660,
      "spec": 2661,
      "बीच": 2662,
      "economy": 2663,
      "northern": 2664,
      "ंग्रेस": 2665,
      "1857": 2666,
      "later": 2667,
      "पासून": 2668,
      "blic": 2669,
      "versity": 2670,
      "ज्ञ": 2671,
      "बंगाल": 2672,
      "सैन्य": 2673,
      "public": 2674,
      "चुनावों": 2675,
      "नेतृ": 2676,
      "BBC": 2677,
      "Machine": 2678,
      "प्रत्येक": 2679,
      "%).": 2680,
      "05": 2681,
      "07": 2682,
      "421": 2683,
      "52": 2684,
      "546": 2685,
      "740": 2686,
      "By": 2687,
      "Com": 2688,
      "Eth": 2689,
      "HZ": 2690,
      "Ty": 2691,
      "aw": 2692,
      "ci": 2693,
      "cour": 2694,
      "ds": 2695,
      "ded": 2696,
      "her": 2697,
      "ian": 2698,
      "igh": 2699,
      "late": 2700,
      "lish": 2701,
      "non": 2702,
      "other": 2703,
      "ple": 2704,
      "ris": 2705,
      "since": 2706,
      "ten": 2707,
      "ting": 2708,
      "ust": 2709,
      "ugh": 2710,
      "ंची": 2711,
      "अभ": 2712,
      "इतर": 2713,
      "उदा": 2714,
      "जिक": 2715,
      "टा": 2716,
      "तन": 2717,
      "पठ": 2718,
      "फ़": 2719,
      "यन": 2720,
      "यू": 2721,
      "लन": 2722,
      "लिया": 2723,
      "शै": 2724,
      "हवा": 2725,
      "१८": 2726,
      "२००": 2727,
      "ంజ": 2728,
      "ంతి": 2729,
      "ంకా": 2730,
      "ంకాగా": 2731,
      "ంథాలు": 2732,
      "అర": 2733,
      "అల": 2734,
      "అస్": 2735,
      "అది": 2736,
      "అన్న": 2737,
      "అల్": 2738,
      "అంది": 2739,
      "అరు": 2740,
      "అక్ష": 2741,
      "అవర": 2742,
      "అద్ద": 2743,
      "అలం": 2744,
      "అధి": 2745,
      "అంద": 2746,
      "అఖండ": 2747,
      "అమల": 2748,
      "అరే": 2749,
      "అంటే": 2750,
      "అంక": 2751,
      "అధీన": 2752,
      "అశో": 2753,
      "ఆగ": 2754,
      "ఆలో": 2755,
      "ఆవి": 2756,
      "ఆతి": 2757,
      "ఆక్ర": 2758,
      "ఆయా": 2759,
      "ఆనా": 2760,
      "ఆడు": 2761,
      "ఆధ్య": 2762,
      "ఆదాయ": 2763,
      "ఆగ్": 2764,
      "ఆవల": 2765,
      "ఆంగ్ల": 2766,
      "ఆణి": 2767,
      "ఆచార": 2768,
      "ఆర్య": 2769,
      "ఆక్షరాస్యత": 2770,
      "ఆటలు": 2771,
      "ఆనం": 2772,
      "ఆలస్య": 2773,
      "ఆదేశాలు": 2774,
      "ఇయ": 2775,
      "ఇన్": 2776,
      "ఇను": 2777,
      "ఇము": 2778,
      "ఇతి": 2779,
      "ఇస్త": 2780,
      "ఇంది": 2781,
      "ఇతరు": 2782,
      "ఇందు": 2783,
      "ఇప్పటికీ": 2784,
      "ఇతను": 2785,
      "ఇంటి": 2786,
      "ఇచ్చే": 2787,
      "ఇంకా": 2788,
      "ఉర్": 2789,
      "ఉద్": 2790,
      "ఉపా": 2791,
      "ఉండి": 2792,
      "ఉదా": 2793,
      "ఉండు": 2794,
      "ఉష్ణ": 2795,
      "ఉనిక": 2796,
      "ఋతు": 2797,
      "ఎమ": 2798,
      "ఎదు": 2799,
      "ఎగు": 2800,
      "ఎల్ల": 2801,
      "ఎంతో": 2802,
      "ఎగువ": 2803,
      "ఏక": 2804,
      "ఏడ": 2805,
      "ఏడు": 2806,
      "ఏటా": 2807,
      "ఏకత్వ": 2808,
      "ఏళ్ళ": 2809,
      "ఐదు": 2810,
      "ఒక్": 2811,
      "ఒరి": 2812,
      "ఒలిం": 2813,
      "ఒడిస్": 2814,
      "ఓడ": 2815,
      "ఓటర్": 2816,
      "ఔట్‌": 2817,
      "కిం": 2818,
      "కర్": 2819,
      "కని": 2820,
      "కాయ": 2821,
      "కరా": 2822,
      "కము": 2823,
      "కంట": 2824,
      "కార్": 2825,
      "కిత": 2826,
      "కష్ట": 2827,
      "కట్ట": 2828,
      "కమైన": 2829,
      "కమీ": 2830,
      "క్యం": 2831,
      "కమల": 2832,
      "కమేన": 2833,
      "కెట్": 2834,
      "కర్‌": 2835,
      "కత్తా": 2836,
      "కానీ": 2837,
      "కవరీ": 2838,
      "ఖిక": 2839,
      "ఖగో": 2840,
      "ఖర్చు": 2841,
      "ఖాతం": 2842,
      "గృ": 2843,
      "గె": 2844,
      "గతి": 2845,
      "గల్": 2846,
      "గించ": 2847,
      "గులు": 2848,
      "గింది": 2849,
      "గలి": 2850,
      "గిన్న": 2851,
      "గనులు": 2852,
      "గౌర": 2853,
      "ఘన": 2854,
      "ఘు": 2855,
      "ఘిక": 2856,
      "ఘట్ట": 2857,
      "ఘోర": 2858,
      "ఘర్షణ": 2859,
      "చా": 2860,
      "చో": 2861,
      "చ్": 2862,
      "చర్": 2863,
      "చము": 2864,
      "చిన": 2865,
      "చులు": 2866,
      "చింది": 2867,
      "చిత": 2868,
      "చక్ర": 2869,
      "చట్ట": 2870,
      "ఛాయుత": 2871,
      "జా": 2872,
      "జె": 2873,
      "జై": 2874,
      "జౌ": 2875,
      "జ్ర": 2876,
      "జాన": 2877,
      "జిన": 2878,
      "జంత": 2879,
      "జైన": 2880,
      "జపా": 2881,
      "జిత": 2882,
      "జ్‌": 2883,
      "జెండ": 2884,
      "జనాలు": 2885,
      "జిల్ల": 2886,
      "జవహ": 2887,
      "జెట్": 2888,
      "ఞాన": 2889,
      "టన": 2890,
      "టో": 2891,
      "టస్": 2892,
      "టండ": 2893,
      "టిన": 2894,
      "టాయి": 2895,
      "టంలో": 2896,
      "టచే": 2897,
      "ట్యం": 2898,
      "ట్రా": 2899,
      "టంతో": 2900,
      "టమూ": 2901,
      "ఠీ": 2902,
      "డ్ర": 2903,
      "డ్య": 2904,
      "డాల": 2905,
      "డాలు": 2906,
      "డింది": 2907,
      "డ్చ": 2908,
      "డ్ల": 2909,
      "డ్‌": 2910,
      "డానికి": 2911,
      "డించింది": 2912,
      "డబు": 2913,
      "డమ్": 2914,
      "ఢవి": 2915,
      "ణే": 2916,
      "ణిక": 2917,
      "ణాలు": 2918,
      "ణించ": 2919,
      "ణంతో": 2920,
      "ణదారులు": 2921,
      "ణుల": 2922,
      "తార": 2923,
      "తాయ": 2924,
      "తాన": 2925,
      "తరా": 2926,
      "తాయి": 2927,
      "తదు": 2928,
      "తక్కు": 2929,
      "తలం": 2930,
      "తగ్": 2931,
      "తమై": 2932,
      "తమ్య": 2933,
      "తాలతో": 2934,
      "తదేశపు": 2935,
      "థన": 2936,
      "థమ": 2937,
      "థి": 2938,
      "థాత": 2939,
      "థాన": 2940,
      "థార్": 2941,
      "దశ": 2942,
      "దస": 2943,
      "దూ": 2944,
      "దృ": 2945,
      "దాన": 2946,
      "దీయ": 2947,
      "దైన": 2948,
      "దారు": 2949,
      "దాబ": 2950,
      "దీన": 2951,
      "దగ్": 2952,
      "దీర్": 2953,
      "దగినది": 2954,
      "దక్కను": 2955,
      "ధం": 2956,
      "ధర": 2957,
      "ధు": 2958,
      "ధాల": 2959,
      "ధిన": 2960,
      "ధరి": 2961,
      "ధనా": 2962,
      "ధిల్ల": 2963,
      "నృ": 2964,
      "నై": 2965,
      "నో": 2966,
      "నలు": 2967,
      "న్య": 2968,
      "నాల": 2969,
      "నర్": 2970,
      "నవి": 2971,
      "నంలో": 2972,
      "నసా": 2973,
      "నికి": 2974,
      "నడు": 2975,
      "ననీ": 2976,
      "నాలతో": 2977,
      "నవచ్చు": 2978,
      "నబడిన": 2979,
      "నదులు": 2980,
      "నప్పటికినీ": 2981,
      "పక": 2982,
      "పబ": 2983,
      "పి": 2984,
      "పస్": 2985,
      "పది": 2986,
      "పిన": 2987,
      "పింది": 2988,
      "పంలో": 2989,
      "పూడ": 2990,
      "పిత": 2991,
      "పరాజ": 2992,
      "పచ్చ": 2993,
      "పలి": 2994,
      "పట్": 2995,
      "పించింది": 2996,
      "పకళ": 2997,
      "పటం": 2998,
      "పించే": 2999,
      "పిక్": 3000,
      "పస్ర": 3001,
      "పర్ష": 3002,
      "పబడింది": 3003,
      "పవనాలు": 3004,
      "పౌర": 3005,
      "పండ్": 3006,
      "పత్యం": 3007,
      "పటంలో": 3008,
      "ఫు": 3009,
      "ఫ్ర": 3010,
      "ఫర్": 3011,
      "ఫరా": 3012,
      "ఫ్ట": 3013,
      "ఫలం": 3014,
      "ఫిక్": 3015,
      "బల": 3016,
      "బై": 3017,
      "బొ": 3018,
      "బాల": 3019,
      "బండ": 3020,
      "బంగా": 3021,
      "బడ్": 3022,
      "బిన్న": 3023,
      "బాబ్": 3024,
      "బ్యా": 3025,
      "బద్ధం": 3026,
      "భ్య": 3027,
      "భిం": 3028,
      "భంగ": 3029,
      "భదాయ": 3030,
      "భజిత": 3031,
      "మయ": 3032,
      "మో": 3033,
      "మార": 3034,
      "మస్": 3035,
      "మిం": 3036,
      "మాల": 3037,
      "మాయ": 3038,
      "మరా": 3039,
      "మిన": 3040,
      "మంత": 3041,
      "మంలో": 3042,
      "మలి": 3043,
      "మతం": 3044,
      "మికి": 3045,
      "మ్‌": 3046,
      "మాల్": 3047,
      "మిత్ర": 3048,
      "మణి": 3049,
      "మంచి": 3050,
      "మసాల": 3051,
      "మద్రా": 3052,
      "మంజ": 3053,
      "యి": 3054,
      "యూ": 3055,
      "యస్": 3056,
      "యము": 3057,
      "యిన": 3058,
      "యులు": 3059,
      "యంలో": 3060,
      "యంతో": 3061,
      "యనులు": 3062,
      "యథాత": 3063,
      "రొ": 3064,
      "ర‌": 3065,
      "రలో": 3066,
      "రాలు": 3067,
      "రకు": 3068,
      "రాయ": 3069,
      "రము": 3070,
      "రద్": 3071,
      "రత్": 3072,
      "రంగా": 3073,
      "రక్ష": 3074,
      "రమైన": 3075,
      "రవే": 3076,
      "రమే": 3077,
      "రవీ": 3078,
      "రించిన": 3079,
      "రక్షరాస్యత": 3080,
      "రారి": 3081,
      "రాతి": 3082,
      "రతాయ": 3083,
      "రబద్ధం": 3084,
      "లిక": 3085,
      "లిన": 3086,
      "లైన": 3087,
      "లకాల": 3088,
      "లబె": 3089,
      "లపై": 3090,
      "లహా": 3091,
      "లమానం": 3092,
      "లఘు": 3093,
      "లబై": 3094,
      "లభ్య": 3095,
      "ళల": 3096,
      "ళు": 3097,
      "ళులు": 3098,
      "ళూరు": 3099,
      "ళవిం": 3100,
      "వత": 3101,
      "వూ": 3102,
      "వ‌": 3103,
      "వలి": 3104,
      "వస్తు": 3105,
      "వద్ద": 3106,
      "వమి": 3107,
      "వలను": 3108,
      "వస్థానంలో": 3109,
      "వనాథ": 3110,
      "వజ్ర": 3111,
      "వన్య": 3112,
      "శే": 3113,
      "శాల": 3114,
      "శక్": 3115,
      "శంలో": 3116,
      "శించే": 3117,
      "శిల్": 3118,
      "శక్తి": 3119,
      "శాతం": 3120,
      "శరద్": 3121,
      "షే": 3122,
      "షన్": 3123,
      "షాలు": 3124,
      "షులు": 3125,
      "షకాహార": 3126,
      "సొ": 3127,
      "సాలు": 3128,
      "సగా": 3129,
      "సాయ": 3130,
      "సిన": 3131,
      "సల్": 3132,
      "సభా": 3133,
      "సవా": 3134,
      "సత్య": 3135,
      "సమి": 3136,
      "సరం": 3137,
      "సీలు": 3138,
      "సత్తా": 3139,
      "సాయుత": 3140,
      "సలహా": 3141,
      "హె": 3142,
      "హొ": 3143,
      "హ్": 3144,
      "హిం": 3145,
      "హర్": 3146,
      "హాలు": 3147,
      "హాయ": 3148,
      "హస్త": 3149,
      "హపు": 3150,
      "హక్కు": 3151,
      "హ్మ": 3152,
      "హ్వ": 3153,
      "ాలో": 3154,
      "ాము": 3155,
      "ాదు": 3156,
      "ాంబ": 3157,
      "ాశ్ర": 3158,
      "ాలోయ": 3159,
      "ానిస్తాన్": 3160,
      "ాదాయంలో": 3161,
      "ాంతి": 3162,
      "ాడ్‌": 3163,
      "ాధిన": 3164,
      "ాపక": 3165,
      "ిని": 3166,
      "ిచె": 3167,
      "ిశ్ర": 3168,
      "ిలే": 3169,
      "ిరంగ": 3170,
      "ిద్ధి": 3171,
      "ిళ్ళ": 3172,
      "ిటన్": 3173,
      "ియనులు": 3174,
      "ీకృ": 3175,
      "ీకరణ": 3176,
      "ీకులు": 3177,
      "ుని": 3178,
      "ును": 3179,
      "ుల్": 3180,
      "ువు": 3181,
      "ుర్య": 3182,
      "ుపూర్వ": 3183,
      "ుడైన": 3184,
      "ునిక": 3185,
      "ుళూరు": 3186,
      "ూలా": 3187,
      "ూపం": 3188,
      "ృతంగా": 3189,
      "ెస్": 3190,
      "ెర్": 3191,
      "ెన్న": 3192,
      "ెనే": 3193,
      "ెడ్": 3194,
      "ెల్లో": 3195,
      "ెక్కను": 3196,
      "ేత": 3197,
      "ేష్": 3198,
      "ేకమైన": 3199,
      "ేననీ": 3200,
      "ేయులు": 3201,
      "ైక": 3202,
      "ైస్త": 3203,
      "ైపో": 3204,
      "ైవరు": 3205,
      "ోత్": 3206,
      "ోంది": 3207,
      "ోక్ష": 3208,
      "ోద్య": 3209,
      "ోత్రి": 3210,
      "ోధాల": 3211,
      "్లో": 3212,
      "్తదేశపు": 3213,
      "‌కు": 3214,
      "‌టిక": 3215,
      "‌తంలో": 3216,
      "‌ఫర్": 3217,
      "‌వ‌": 3218,
      "్రిచె": 3219,
      "ారణంగా": 3220,
      "ారమ్‌": 3221,
      "లుపలి": 3222,
      "లోన్": 3223,
      "లోని": 3224,
      "లోకాల": 3225,
      "లోపం": 3226,
      "స్లో": 3227,
      "స్వే": 3228,
      "స్వర": 3229,
      "స్లే": 3230,
      "స్టా": 3231,
      "స్టే": 3232,
      "స్వర్ణ": 3233,
      "స్టలు": 3234,
      "్యులు": 3235,
      "్యంలో": 3236,
      "న్మార్": 3237,
      "న్సీ": 3238,
      "న్లుగా": 3239,
      "దిర్": 3240,
      "దిరి": 3241,
      "దికి": 3242,
      "దిగ్": 3243,
      "దిభాగం": 3244,
      "దిగువ": 3245,
      "దేమాత": 3246,
      "ప్రార్": 3247,
      "ప్రమా": 3248,
      "ప్రయా": 3249,
      "ప్రఖ్య": 3250,
      "ప్రణా": 3251,
      "ప్రదేశాల": 3252,
      "ప్రగతి": 3253,
      "ప్రథమ": 3254,
      "ింపు": 3255,
      "ింసాయుత": 3256,
      "దేశిక": 3257,
      "దేశము": 3258,
      "దేశరాజకీయ": 3259,
      "దేశాన్ని": 3260,
      "దేశమంత": 3261,
      "దేశాధిన": 3262,
      "ాలని": 3263,
      "ాలన్నీ": 3264,
      "ాలెక్కను": 3265,
      "ికం": 3266,
      "ికలు": 3267,
      "ికులు": 3268,
      "ికూడ": 3269,
      "ర్లు": 3270,
      "ర్టి": 3271,
      "ర్కొ": 3272,
      "ర్తా": 3273,
      "ర్సిం": 3274,
      "ర్జాలు": 3275,
      "ర్భవ": 3276,
      "ర్జె": 3277,
      "భార్తదేశపు": 3278,
      "భార‌తంలో": 3279,
      "భారతంలో": 3280,
      "న్నత": 3281,
      "న్నా": 3282,
      "ాలున్నాయి": 3283,
      "than": 3284,
      "గాంచిన": 3285,
      "గాయి": 3286,
      "्यों": 3287,
      "ins": 3288,
      "ारिक": 3289,
      "కుండ": 3290,
      "కునే": 3291,
      "కుడు": 3292,
      "కుడి": 3293,
      "కుమార్": 3294,
      "కులం": 3295,
      "కులను": 3296,
      "కుమారు": 3297,
      "కుడ్య": 3298,
      "కుదిర్": 3299,
      "కుర్తా": 3300,
      "నివి": 3301,
      "నివా": 3302,
      "నిచ్చ": 3303,
      "నియా": 3304,
      "నివార": 3305,
      "నియో": 3306,
      "నిధి": 3307,
      "నివల్ల": 3308,
      "నిలిచ": 3309,
      "నిరక్షరాస్యత": 3310,
      "నిలబె": 3311,
      "నిషే": 3312,
      "విడ": 3313,
      "విడి": 3314,
      "విధాన": 3315,
      "విస్తు": 3316,
      "వివర": 3317,
      "విశాఖ": 3318,
      "విజన్": 3319,
      "వినాయ": 3320,
      "వితంలో": 3321,
      "విజ్": 3322,
      "విఫల": 3323,
      "విశి": 3324,
      "వివాదం": 3325,
      "విభజిత": 3326,
      "విశే": 3327,
      "విసభా": 3328,
      "ాయతి": 3329,
      "ాయకార": 3330,
      "ాయీలు": 3331,
      "క్త": 3332,
      "క్నాల": 3333,
      "క్‌టిక": 3334,
      "ాత్మ": 3335,
      "there": 3336,
      "ానెట్": 3337,
      "రామన": 3338,
      "రాటం": 3339,
      "రాణించ": 3340,
      "రామాయ": 3341,
      "రాసిన": 3342,
      "one": 3343,
      "నున్న": 3344,
      "ండర్": 3345,
      "ండమస్": 3346,
      "ండ్యులు": 3347,
      "ముద్ర": 3348,
      "ములకు": 3349,
      "ముందు": 3350,
      "ముత్యం": 3351,
      "ద్వై": 3352,
      "ద్దిభాగం": 3353,
      "ద్విసభా": 3354,
      "త్త": 3355,
      "త్తల": 3356,
      "తిరి": 3357,
      "ల్స్": 3358,
      "ల్తాన": 3359,
      "స్తూ": 3360,
      "స్తాయి": 3361,
      "స్తానీ": 3362,
      "ించుకు": 3363,
      "ించవచ్చు": 3364,
      "ించబడింది": 3365,
      "ించుకోవడ": 3366,
      "ంతల": 3367,
      "ంతై": 3368,
      "రిట్ల": 3369,
      "రిట్లు": 3370,
      "केली": 3371,
      "సంస్థ": 3372,
      "సంక్ర": 3373,
      "సంధి": 3374,
      "సంగమ": 3375,
      "సందర్": 3376,
      "రుగా": 3377,
      "రుష్": 3378,
      "రుచులు": 3379,
      "పురి": 3380,
      "పులి": 3381,
      "పుతో": 3382,
      "పుత్ర": 3383,
      "పులా": 3384,
      "పుష్": 3385,
      "పునర్": 3386,
      "స్థ‌": 3387,
      "స్థాయి": 3388,
      "స్థాపక": 3389,
      "స్థూలా": 3390,
      "ంటో": 3391,
      "ంటుంది": 3392,
      "ంటరీ": 3393,
      "భాజపా": 3394,
      "భావిస్తు": 3395,
      "ైనెర్": 3396,
      "ంగల": 3397,
      "काम": 3398,
      "వాద": 3399,
      "వాటి": 3400,
      "వాదన": 3401,
      "వాటిలో": 3402,
      "వామిత్ర": 3403,
      "సామీ": 3404,
      "సాకర్‌": 3405,
      "సాఫ్ట": 3406,
      "సానియా": 3407,
      "క్షం": 3408,
      "క్షిక": 3409,
      "క్షంగా": 3410,
      "ఉన్నట్లు": 3411,
      "ఉన్నతంగా": 3412,
      "పాద": 3413,
      "పాండి": 3414,
      "పాండ్యులు": 3415,
      "పాక్షిక": 3416,
      "ార్థాలు": 3417,
      "ార్క్‌టిక": 3418,
      "ions": 3419,
      "ితం": 3420,
      "ితే": 3421,
      "ితంగా": 3422,
      "ిత్యం": 3423,
      "ష్టి": 3424,
      "ష్టు": 3425,
      "ష్టమైన": 3426,
      "ష్ట్యా": 3427,
      "ప్రాముఖ్య": 3428,
      "ప్రాసె": 3429,
      "ప్రాజా": 3430,
      "ప్రాణుల": 3431,
      "ప్రాబల": 3432,
      "ప్రాదేశిక": 3433,
      "రాజధాన": 3434,
      "కోసం": 3435,
      "కోటి": 3436,
      "కోడు": 3437,
      "కోవార": 3438,
      "కోవడ": 3439,
      "క్రైస్త": 3440,
      "కావడ": 3441,
      "కాకుండ": 3442,
      "ట్టు": 3443,
      "ట్టూ": 3444,
      "ట్టారు": 3445,
      "ట్టుకు": 3446,
      "ట్టెల": 3447,
      "నేయ": 3448,
      "నేసియా": 3449,
      "నేరుగా": 3450,
      "ంచే": 3451,
      "దువు": 3452,
      "దుస్తులు": 3453,
      "పేస్": 3454,
      "పేదర": 3455,
      "మామి": 3456,
      "మాదిరి": 3457,
      "మాండమస్": 3458,
      "యావత్": 3459,
      "యాండర్": 3460,
      "భారతీయులు": 3461,
      "భారతీయుల": 3462,
      "భారతీయుడైన": 3463,
      "నాటి": 3464,
      "నాడు": 3465,
      "నామాలు": 3466,
      "నాట్యం": 3467,
      "లిసింది": 3468,
      "లిథిక": 3469,
      "లియం": 3470,
      "లివిజన్": 3471,
      "లియాండర్": 3472,
      "వ్యయంతో": 3473,
      "వ్య‌వ‌": 3474,
      "సిద్ధ": 3475,
      "సిగ్": 3476,
      "సిద్ధం": 3477,
      "్లను": 3478,
      "త్వం": 3479,
      "త్వాలు": 3480,
      "త్వంలో": 3481,
      "త్వరలో": 3482,
      "తరించింది": 3483,
      "తరతరాలు": 3484,
      "జాతీయవాదం": 3485,
      "జాతీయాదాయంలో": 3486,
      "రాష్ట్రపు": 3487,
      "రాష్ట్రానికి": 3488,
      "రాష్ట్రపత": 3489,
      "लाल": 3490,
      "గుతో": 3491,
      "గుప్": 3492,
      "గుత్తా": 3493,
      "గుతాయి": 3494,
      "గునవి": 3495,
      "తోష్ణ": 3496,
      "వచ్చి": 3497,
      "ద్ధాలు": 3498,
      "ద్ధలతో": 3499,
      "ల్లీ": 3500,
      "ల్లింది": 3501,
      "ల్లాయి": 3502,
      "ల్లయిన": 3503,
      "కొక్క": 3504,
      "కొంక": 3505,
      "కొనసా": 3506,
      "కొలమానం": 3507,
      "కొద్దిభాగం": 3508,
      "కొత్త": 3509,
      "డుంబ": 3510,
      "పాలయింది": 3511,
      "పాలకులు": 3512,
      "పాలిటన్": 3513,
      "పాలకులను": 3514,
      "మైనదే": 3515,
      "మైనవి": 3516,
      "వేర్": 3517,
      "వేత్తల": 3518,
      "భారతదేశము": 3519,
      "భారతదేశమే": 3520,
      "ఒకటో": 3521,
      "కాలపరి": 3522,
      "కాలాల్లో": 3523,
      "డిగించ": 3524,
      "ణాన్ని": 3525,
      "ణాటక": 3526,
      "ణాదికి": 3527,
      "మార్కెట్": 3528,
      "leg": 3529,
      "చేత": 3530,
      "చేర": 3531,
      "చేసు": 3532,
      "చేసే": 3533,
      "శాశ్": 3534,
      "శాకాహార": 3535,
      "్‌వేర్": 3536,
      "దేశాలకు": 3537,
      "దేశాలతో": 3538,
      "దేశాలకూ": 3539,
      "దేశాల్లో": 3540,
      "వ్యవహార": 3541,
      "వ్యవసాయ": 3542,
      "ఎన్నుకొ": 3543,
      "కిమీ": 3544,
      "టువంటి": 3545,
      "పారిశ్ర": 3546,
      "పంచె": 3547,
      "పంచుకుంట": 3548,
      "పంచాయతి": 3549,
      "ాబుని": 3550,
      "ాన్స్": 3551,
      "న్నిస్లో": 3552,
      "చెంది": 3553,
      "చెందింది": 3554,
      "డ్స్": 3555,
      "డ్మిం": 3556,
      "పెట్రో": 3557,
      "పెట్టారు": 3558,
      "మార్గం": 3559,
      "మార్గము": 3560,
      "మార్గంలో": 3561,
      "మార్గాలలో": 3562,
      "మార్గాలను": 3563,
      "మార్గాలే": 3564,
      "వ్యవస్థల": 3565,
      "వ్యవస్థగా": 3566,
      "వ్యవస్థీకరణ": 3567,
      "ంబే": 3568,
      "కృష్": 3569,
      "కృష్ణ": 3570,
      "కృష్టమైన": 3571,
      "తుడు": 3572,
      "తులకాల": 3573,
      "తురుష్": 3574,
      "దాటే": 3575,
      "దాటిన": 3576,
      "స్తుంది": 3577,
      "స్తున్నారు": 3578,
      "అధికారక": 3579,
      "అధికారి": 3580,
      "అధికారాలు": 3581,
      "అధికారంలో": 3582,
      "అధికారాన్ని": 3583,
      "देख": 3584,
      "भाज": 3585,
      "కరించింది": 3586,
      "కరమేనని": 3587,
      "కరంతై": 3588,
      "ట్కా": 3589,
      "దక్షణాసియా": 3590,
      "పరమైన": 3591,
      "పర్యా": 3592,
      "పరచింది": 3593,
      "పరమో": 3594,
      "పరోక్ష": 3595,
      "పరిధి": 3596,
      "పరిపాలించ": 3597,
      "పరిశో": 3598,
      "పరిస్థితి": 3599,
      "పరిఢవి": 3600,
      "మతాల": 3601,
      "మతాలతో": 3602,
      "మతాలకు": 3603,
      "మతములు": 3604,
      "మతస్తులు": 3605,
      "మతములకు": 3606,
      "మీదుగా": 3607,
      "మీర్జాలు": 3608,
      "మేరో": 3609,
      "మేరకు": 3610,
      "మేళవిం": 3611,
      "మేషన్": 3612,
      "మధ్యల": 3613,
      "మధ్యకాలంలో": 3614,
      "మధ్యవర్తి": 3615,
      "వరకూ": 3616,
      "సును": 3617,
      "సుమారు": 3618,
      "సుదీర్": 3619,
      "సుల్తాన": 3620,
      "ప్రపంచదేశాలలో": 3621,
      "ప్రధానమంత్ర": 3622,
      "ద్దులు": 3623,
      "స్థానే": 3624,
      "స్థానిక": 3625,
      "స్థానాలు": 3626,
      "స్థానమైన": 3627,
      "భాషలలో": 3628,
      "భాషలతో": 3629,
      "ప్రాంతాల": 3630,
      "ప్రాంతాలతో": 3631,
      "ప్రాంతాలకు": 3632,
      "రాజ్యాలను": 3633,
      "రాజ్యసమి": 3634,
      "పేరుతో": 3635,
      "పేరుమీదుగా": 3636,
      "వారిగా": 3637,
      "వర్గీ": 3638,
      "వర్షం": 3639,
      "వర్ధిల్ల": 3640,
      "వర్షాలు": 3641,
      "పార్టీల": 3642,
      "పార్టీలు": 3643,
      "పార్టీగా": 3644,
      "పార్టీకి": 3645,
      "పార్టీలతో": 3646,
      "దక్షిణాదికి": 3647,
      "न्ह": 3648,
      "among": 3649,
      "అయింది": 3650,
      "అయితే": 3651,
      "మిగి": 3652,
      "రోడ్ల": 3653,
      "రెండుకో": 3654,
      "లాంటి": 3655,
      "లాగృ": 3656,
      "లాభదాయ": 3657,
      "వెలుపలి": 3658,
      "ప్రజలకు": 3659,
      "హిందూస్తాన్": 3660,
      "హిందూస్తానీ": 3661,
      "ంద్రనాథ": 3662,
      "ఇతరదేశాలను": 3663,
      "ఇతరదేశాలకు": 3664,
      "గిపోయింది": 3665,
      "గిల్లీ": 3666,
      "తామర": 3667,
      "తాజ్‌": 3668,
      "పూణే": 3669,
      "పోలో": 3670,
      "పోటీ": 3671,
      "పోతూ": 3672,
      "పోర్చు": 3673,
      "పోషకాహార": 3674,
      "పోస్టలు": 3675,
      "పోరాటం": 3676,
      "మనమే": 3677,
      "మనదేశంలో": 3678,
      "మనోర": 3679,
      "వుని": 3680,
      "వున్నా": 3681,
      "వుంటుంది": 3682,
      "శ్రద్ధలతో": 3683,
      "ీనములో": 3684,
      "ీనోద్య": 3685,
      "ించినవే": 3686,
      "ించినందు": 3687,
      "సాంఘిక": 3688,
      "పెద్దగా": 3689,
      "పెద్దపులి": 3690,
      "ular": 3691,
      "అతివేగంగా": 3692,
      "అతిముఖ్యమైన": 3693,
      "అతిశీ": 3694,
      "ఉత్సాహ": 3695,
      "ఉత్తరా": 3696,
      "ఉత్కృష్టమైన": 3697,
      "ఉంటూ": 3698,
      "గరలో": 3699,
      "గీతం": 3700,
      "జరిగింది": 3701,
      "జరిగాయి": 3702,
      "పట్టాలు": 3703,
      "పట్టును": 3704,
      "పట్టాలెక్కను": 3705,
      "బాగా": 3706,
      "బాదు": 3707,
      "బాంబే": 3708,
      "బెల్": 3709,
      "బెట్కా": 3710,
      "బ్రహ్మ": 3711,
      "బ్రాడ్‌": 3712,
      "బ్రెడ్": 3713,
      "మహల్": 3714,
      "మహేష్": 3715,
      "వంటలు": 3716,
      "వంటలకు": 3717,
      "వంటకాలు": 3718,
      "ుకుంది": 3719,
      "విధి": 3720,
      "విధంగా": 3721,
      "విధించిన": 3722,
      "భాగే": 3723,
      "భాగస్వా": 3724,
      "భాగమేనని": 3725,
      "కేంద్రాల్లో": 3726,
      "కేంద్రీకృ": 3727,
      "ప్పించుకోవడ": 3728,
      "క్రీడల": 3729,
      "అయినప్పటికీ": 3730,
      "అయినప్పటికినీ": 3731,
      "జనాభాలో": 3732,
      "ప్రభుత్వంలో": 3733,
      "ప్రభుత్వాలన్నీ": 3734,
      "ప్రభుత్వంచే": 3735,
      "हिं": 3736,
      "ఎక్కువైపో": 3737,
      "ఏర్పాటు": 3738,
      "ఏర్పరచింది": 3739,
      "కలిగిన": 3740,
      "గోర్": 3741,
      "గోధు": 3742,
      "గోడుంబ": 3743,
      "గ్గులు": 3744,
      "గ్డమ్": 3745,
      "జనకరమేనని": 3746,
      "టికంటే": 3747,
      "బహిరంగ": 3748,
      "బహాయీలు": 3749,
      "మంత్రుల": 3750,
      "లేనివి": 3751,
      "సింహపు": 3752,
      "సరిస్తూ": 3753,
      "ప్రస్తుత": 3754,
      "క్కలు": 3755,
      "సాధించింది": 3756,
      "సాధించి": 3757,
      "సాధారణంగా": 3758,
      "రాజకీయాలు": 3759,
      "కాంగ్రెసే": 3760,
      "మొదటిది": 3761,
      "మొదటిసార": 3762,
      "దక్షిణదిగ్": 3763,
      "2005": 3764,
      "ఉపయు": 3765,
      "ఉపరాష్ట్రపత": 3766,
      "క్యులు": 3767,
      "క్యారమ్‌": 3768,
      "పంజాబ": 3769,
      "పంపిన": 3770,
      "భూపతి": 3771,
      "మైంది": 3772,
      "మైతే": 3773,
      "మైత్రి": 3774,
      "మైథి": 3775,
      "మైదాన": 3776,
      "మానవుని": 3777,
      "యుద్ధం": 3778,
      "యునై": 3779,
      "యుద్ధాలు": 3780,
      "యోచన": 3781,
      "యోరారి": 3782,
      "రంగం": 3783,
      "రంగాల": 3784,
      "రంగము": 3785,
      "రంగాల్లో": 3786,
      "వలెనే": 3787,
      "శ్లోకాల": 3788,
      "ుకోవచ్చని": 3789,
      "్మదీయ": 3790,
      "ప్రతినిధి": 3791,
      "ాలలోను": 3792,
      "ాలనుండి": 3793,
      "విస్తరించిన": 3794,
      "విస్తృతంగా": 3795,
      "సంస్కృతం": 3796,
      "సంస్కృతీ": 3797,
      "సంస్కృతులతో": 3798,
      "సంగీత": 3799,
      "సంగీతము": 3800,
      "సంగీతంలో": 3801,
      "ప్రాచ్య": 3802,
      "ప్రాచుర్య": 3803,
      "క్రమంగా": 3804,
      "సరిహద్దులు": 3805,
      "అత్యధికంగా": 3806,
      "ఇండియాలో": 3807,
      "ఆధునిక": 3808,
      "ఆధీనములో": 3809,
      "గణితం": 3810,
      "గలుపు": 3811,
      "ట్లకు": 3812,
      "ధిపత్యం": 3813,
      "నీతి": 3814,
      "నెహ్ర": 3815,
      "నెమలి": 3816,
      "నెరవే": 3817,
      "నెహ్వ": 3818,
      "భిన్నత్వాలు": 3819,
      "మెట్రో": 3820,
      "మెహర్": 3821,
      "మూడవ": 3822,
      "మూడే": 3823,
      "రహదారు": 3824,
      "వైశాల": 3825,
      "వైపులా": 3826,
      "సముచిత": 3827,
      "సమాచార": 3828,
      "స్వాధీన": 3829,
      "రాష్ట్రాలుగా": 3830,
      "రాష్ట్రపతిచే": 3831,
      "మొదలగువ": 3832,
      "మొదలవుతుంది": 3833,
      "మొదలగునవి": 3834,
      "రెండువైపులా": 3835,
      "పట్టణాల": 3836,
      "పట్టణాలను": 3837,
      "బెంగాల్": 3838,
      "బెంగుళూరు": 3839,
      "ఏర్పడే": 3840,
      "ఏర్పడిన": 3841,
      "ఏర్పడింది": 3842,
      "బహుమతి": 3843,
      "బహుభాషా": 3844,
      "మంత్రిత్వ": 3845,
      "మంత్రివర్గ": 3846,
      "సింధ్": 3847,
      "సరిహద్దున": 3848,
      "సరిహద్దులలో": 3849,
      "సరిహద్దులను": 3850,
      "నడిపించి": 3851,
      "నడిపిస్త": 3852,
      "సౌకర్యము": 3853,
      "సౌకర్యవంత": 3854,
      "ప్రముఖమైనది": 3855,
      "ప్రముఖమైనదే": 3856,
      "1998లో": 3857,
      "वेश": 3858,
      "1948లో": 3859,
      "263": 3860,
      "....": 3861,
      "ందని": 3862,
      "ందరో": 3863,
      "అనునది": 3864,
      "అనుమతి": 3865,
      "అనువైన": 3866,
      "అనుసరిస్తూ": 3867,
      "కళి": 3868,
      "కల్పే": 3869,
      "కల్గి": 3870,
      "కల్పం": 3871,
      "కల్పుతూ": 3872,
      "కల్పించే": 3873,
      "గేజి": 3874,
      "గేయం": 3875,
      "చైనాతో": 3876,
      "టెడ్": 3877,
      "టెహ్ర": 3878,
      "టెక్నాల": 3879,
      "టెలివిజన్": 3880,
      "టెన్నిస్లో": 3881,
      "తనలో": 3882,
      "నగరాలనే": 3883,
      "నగరాలనుండి": 3884,
      "పతకం": 3885,
      "పొందింది": 3886,
      "పొడిగించ": 3887,
      "పద్ధతులు": 3888,
      "పద్ధతులతో": 3889,
      "రూపంలో": 3890,
      "రూపొందింది": 3891,
      "ళ్లను": 3892,
      "వహించింది": 3893,
      "వహించి": 3894,
      "వహించే": 3895,
      "వహిస్త": 3896,
      "వృక్షం": 3897,
      "సమశీ": 3898,
      "సమయంలో": 3899,
      "సమష్టి": 3900,
      "సైతం": 3901,
      "సైట్లు": 3902,
      "సారాల": 3903,
      "సారవంత": 3904,
      "సర్వసత్తా": 3905,
      "ించేది": 3906,
      "సంఖ్యలో": 3907,
      "కూడినది": 3908,
      "చేయబడింది": 3909,
      "చేయలేదు": 3910,
      "చేయిస్తారు": 3911,
      "చేయటంతో": 3912,
      "చేయడానికి": 3913,
      "తున్నారు": 3914,
      "తున్నప్పటికీ": 3915,
      "తున్నవార్": 3916,
      "అధికారికంగా": 3917,
      "ప్రపంచంలోనే": 3918,
      "కాంగ్రెసును": 3919,
      "జాబితాలో": 3920,
      "అభిప్రాయ": 3921,
      "చరిత్రలో": 3922,
      "aph": 3923,
      "app": 3924,
      "1010": 3925,
      "230": 3926,
      "2359": 3927,
      "graph": 3928,
      "झाली": 3929,
      "ఇవ్వ": 3930,
      "ఇవికా": 3931,
      "ఇవన్నీ": 3932,
      "ఇవికూడ": 3933,
      "కలదు": 3934,
      "కలకత్తా": 3935,
      "కలగలుపు": 3936,
      "చిపూడ": 3937,
      "చిహ్": 3938,
      "జిత్": 3939,
      "జిస్లే": 3940,
      "టాగోర్": 3941,
      "దీన్ని": 3942,
      "దీవులు": 3943,
      "దీపావ": 3944,
      "దీనివల్ల": 3945,
      "నాయకుల": 3946,
      "న్యాయవ్యవస్థ": 3947,
      "న్యాయవ్యవస్థలో": 3948,
      "న్యాయస్థానమైన": 3949,
      "పదార్థాలు": 3950,
      "పక్షం": 3951,
      "పక్షి": 3952,
      "మ్మదాబ": 3953,
      "లక్షల": 3954,
      "లక్షణాలు": 3955,
      "లక్షణాన్ని": 3956,
      "సరఫరా": 3957,
      "సరమైతే": 3958,
      "సూచన": 3959,
      "సూరత్": 3960,
      "హాసాల": 3961,
      "ిల్లు": 3962,
      "స్లామ్": 3963,
      "నిర్వాహ": 3964,
      "నిర్మిస్తు": 3965,
      "ముంబాయి": 3966,
      "ద్వీపే": 3967,
      "ద్వీపం": 3968,
      "సంఘం": 3969,
      "సంఘము": 3970,
      "సంఘర్షణ": 3971,
      "సంప్రదాయాలను": 3972,
      "సంవత్సరం": 3973,
      "సంవత్సారాల": 3974,
      "పుట్టాయి": 3975,
      "పుట్టిని": 3976,
      "పుట్టుపూర్వ": 3977,
      "పుట్టిల్లు": 3978,
      "వచ్చినది": 3979,
      "వచ్చినవారి": 3980,
      "వ్యవస్థలోని": 3981,
      "కార్యనిర్వాహ": 3982,
      "కరణలో": 3983,
      "పరిశ్రమ": 3984,
      "మేనకల": 3985,
      "ప్రధానమంత్రిని": 3986,
      "వారసత్వాన్ని": 3987,
      "రోడ్డుకు": 3988,
      "పాకిస్తాన్తో": 3989,
      "పాకిస్థాన్కు": 3990,
      "సంస్కృతిలో": 3991,
      "ఆధారాలు": 3992,
      "ఆధారిత": 3993,
      "స్వతంత్రం": 3994,
      "నడిపించటం": 3995,
      "నడిపించాలనే": 3996,
      "నడిపించవచ్చని": 3997,
      "నడిపించటమూ": 3998,
      "సర్వీసును": 3999,
      "కుటుంబాలు": 4000,
      "కుటుంబాలకు": 4001,
      "बहुत": 4002,
      "peop": 4003,
      "అహింసాయుత": 4004,
      "అహ్మదీయ": 4005,
      "అహమ్మదాబ": 4006,
      "అవినీతి": 4007,
      "ఆక్రమించిన": 4008,
      "ఆక్రమణదారులు": 4009,
      "ఆక్రమించుకు": 4010,
      "ఆహార్యం": 4011,
      "ఇంగ్లండు": 4012,
      "ఉండగా": 4013,
      "కథక్": 4014,
      "కథనాలతో": 4015,
      "కథకళి": 4016,
      "కూచిపూడ": 4017,
      "కిందట": 4018,
      "చుట్టూ": 4019,
      "చిత్రాలు": 4020,
      "చిత్రకళ": 4021,
      "చిత్రమాల": 4022,
      "జీవితంలో": 4023,
      "టైగర్": 4024,
      "తలల": 4025,
      "తెలిసింది": 4026,
      "తెప్పించుకోవడ": 4027,
      "తేది": 4028,
      "తేలిక": 4029,
      "పార్సీలు": 4030,
      "బియా": 4031,
      "బిజిన": 4032,
      "బియస్": 4033,
      "భరతుడు": 4034,
      "భౌతిక": 4035,
      "మరెన్న": 4036,
      "మర్రిచె": 4037,
      "మౌఖిక": 4038,
      "మారుమూల": 4039,
      "రీతులు": 4040,
      "లెక్కలు": 4041,
      "లెందరో": 4042,
      "లెజిస్లే": 4043,
      "ళికలు": 4044,
      "సహాయకార": 4045,
      "సేవ": 4046,
      "సైనా": 4047,
      "సార్క్": 4048,
      "హైకోర్టులు": 4049,
      "్వస్త్ర": 4050,
      "ప్రారంభమైన": 4051,
      "విద్యను": 4052,
      "సంకీర్ణం": 4053,
      "సంబంధాలు": 4054,
      "సంబంధించిన": 4055,
      "పురుషులు": 4056,
      "స్థిరమైన": 4057,
      "ంటున్నది": 4058,
      "ంటున్నారు": 4059,
      "వాహనాలు": 4060,
      "వాహనంలో": 4061,
      "కూడుకున్నది": 4062,
      "జాతిపిత": 4063,
      "కోల్పోతూ": 4064,
      "నేపాలీ": 4065,
      "లిచిన": 4066,
      "లిచారు": 4067,
      "వ్యాపారం": 4068,
      "వ్యాపారవేత్తల": 4069,
      "గుర్తించింది": 4070,
      "గుర్తింపు": 4071,
      "గుర్తించవచ్చు": 4072,
      "ఒకేఒక": 4073,
      "ఒకేమాదిరి": 4074,
      "ఎన్నికలలో": 4075,
      "దాదాపుగా": 4076,
      "త్రివర్ణ": 4077,
      "వర్గాలు": 4078,
      "వర్గాలలోను": 4079,
      "వర్ణించబడింది": 4080,
      "ప్రజలచే": 4081,
      "పూర్వం": 4082,
      "పూర్వపు": 4083,
      "శ్రీశై": 4084,
      "శ్రీలంక": 4085,
      "శ్రీరామన": 4086,
      "బడతాయి": 4087,
      "మహాభారతం": 4088,
      "కలిసివస్తు": 4089,
      "జనగణమన": 4090,
      "సాధించగా": 4091,
      "సాధించగలి": 4092,
      "సాధించాము": 4093,
      "ఉపఖండం": 4094,
      "ఉపఖండపు": 4095,
      "ఉపఖండములో": 4096,
      "ప్రతిపాదనల్లో": 4097,
      "వైవిధ్యం": 4098,
      "వైవిధ్యమైనది": 4099,
      "వైవిధ్యమైనవి": 4100,
      "సమాఖ్యలు": 4101,
      "కోర్టులకు": 4102,
      "పేర్కొన్నాయి": 4103,
      "పేర్కొనవచ్చు": 4104,
      "పేర్కొంటున్నారు": 4105,
      "మొదలైనటువంటి": 4106,
      "సింధులోయ": 4107,
      "సింధుాలోయ": 4108,
      "కంపెనీపై": 4109,
      "చారిత్రకంగా": 4110,
      "పొందినది": 4111,
      "పద్ధతిలో": 4112,
      "స్వాతంత్ర్యానికి": 4113,
      "నిర్వహణలో": 4114,
      "జన్మస్థానం": 4115,
      "జన్మదిన": 4116,
      "జన్మనిచ్చ": 4117,
      "ముంబైలో": 4118,
      "కార్యక్రమాలలో": 4119,
      "వారసత్వంగా": 4120,
      "వారసత్వానికి": 4121,
      "సాంప్రదాయికమైన": 4122,
      "ఆఫ్ఘానిస్తాన్": 4123,
      "కన్నడం": 4124,
      "జరుపుకునే": 4125,
      "పీఠిక": 4126,
      "బంగ్లాదేశ్": 4127,
      "ళ్ళు": 4128,
      "హిమాలయాలు": 4129,
      "వాణిజ్యపరంగా": 4130,
      "కాశ్మీర్": 4131,
      "కాశ్మీరు": 4132,
      "కాశ్మీరీ": 4133,
      "నాగరికతకు": 4134,
      "1652": 4135,
      "1991లో": 4136,
      "142": 4137,
      "461": 4138,
      "subcontinent": 4139,
      "1853": 4140,
      "562359": 4141,
      "1977లో": 4142,
      "including": 4143,
      "15న": 4144,
      "అణు": 4145,
      "అణ్వస్త్ర": 4146,
      "అవతరించింది": 4147,
      "అవసరమైతే": 4148,
      "అంటారు": 4149,
      "అంటార్క్‌టిక": 4150,
      "అన్నిటికంటే": 4151,
      "అప్పటి": 4152,
      "అప్పిలే": 4153,
      "ఆసియాలో": 4154,
      "ఇక్కడ": 4155,
      "ఇక్కడి": 4156,
      "ఇటీవల": 4157,
      "ఇటీవలి": 4158,
      "ఎడమ": 4159,
      "ఎడారి": 4160,
      "ఐక్యరాజ్యసమి": 4161,
      "ఒలంపిక్‌": 4162,
      "ఒలంపిక్": 4163,
      "కలుపుతూ": 4164,
      "కలుగుతాయి": 4165,
      "గమించి": 4166,
      "గ్రంథాలు": 4167,
      "గ్రీకులు": 4168,
      "గంగోత్రి": 4169,
      "గమనించి": 4170,
      "గమనికలు": 4171,
      "గ్రామ": 4172,
      "గ్రాండ్": 4173,
      "చదరంగంలో": 4174,
      "చదరంగము": 4175,
      "చీర": 4176,
      "చూసింది": 4177,
      "చూపబడింది": 4178,
      "చవితి": 4179,
      "చవిచూసింది": 4180,
      "జోక్యం": 4181,
      "జోన్లుగా": 4182,
      "టన్‌": 4183,
      "ట్‌బాల": 4184,
      "తత్వానికి": 4185,
      "దర్శకు": 4186,
      "దండా": 4187,
      "దండయాత్ర": 4188,
      "నూటన": 4189,
      "ప్లానెట్": 4190,
      "ప్లగ్గులు": 4191,
      "పల్లవులు": 4192,
      "పల్లెల్లో": 4193,
      "పడుతుంది": 4194,
      "పడుతున్నారు": 4195,
      "పర్వదినాలు": 4196,
      "పర్వతాలతో": 4197,
      "పతాకం": 4198,
      "పతాకము": 4199,
      "ఫలితంగా": 4200,
      "బుక్": 4201,
      "భవించినవే": 4202,
      "భక్తిశ్రద్ధలతో": 4203,
      "మాతృ": 4204,
      "మితో": 4205,
      "మితికి": 4206,
      "యాత్రికులు": 4207,
      "రకాలుగా": 4208,
      "ళాఖాతం": 4209,
      "వంశంలో": 4210,
      "వందేమాత": 4211,
      "వింద్": 4212,
      "వరుసగా": 4213,
      "శిలాగృ": 4214,
      "శైలీ": 4215,
      "శకుంతల": 4216,
      "సెర్టి": 4217,
      "సిక్కు": 4218,
      "సిక్కులు": 4219,
      "ామిక": 4220,
      "ామని": 4221,
      "స్వీకారం": 4222,
      "స్వీకరించింది": 4223,
      "ప్రదేశే": 4224,
      "ప్రదేశ్‌": 4225,
      "ప్రాయమైనది": 4226,
      "ప్రత్యేకమైన": 4227,
      "ప్రత్యక్షంగా": 4228,
      "ప్రయోజనాలు": 4229,
      "ప్రయోజనకరమేనని": 4230,
      "ాలేకాగా": 4231,
      "నియమించబడ్డ": 4232,
      "నియమించబడిన": 4233,
      "విలువైన": 4234,
      "విలువలను": 4235,
      "విమానాశ్ర": 4236,
      "విశ్వనాథ": 4237,
      "విశ్వామిత్ర": 4238,
      "సంస్కరణలు": 4239,
      "సంస్కరణలతో": 4240,
      "సాహిత్యం": 4241,
      "పావో": 4242,
      "కోట్లకు": 4243,
      "క్రిస్టా": 4244,
      "చ్చేరి": 4245,
      "మొగలులు": 4246,
      "వేదాలు": 4247,
      "వేదాలలో": 4248,
      "కాలేజి": 4249,
      "కాలేజీ": 4250,
      "డిస్కవరీ": 4251,
      "ద్రావిడ": 4252,
      "ఎన్నుకుంటారు": 4253,
      "ఎన్నుకుంటుంది": 4254,
      "పరీక్షలు": 4255,
      "పరీక్షను": 4256,
      "మిస్తున్నాయి": 4257,
      "రెండోది": 4258,
      "లంకెలు": 4259,
      "లాహోర్": 4260,
      "లాహోర్‌ల": 4261,
      "వెల్లూరు": 4262,
      "వెల్లడించింది": 4263,
      "మహిళా": 4264,
      "మహిళల": 4265,
      "గోదావరి": 4266,
      "గోదావరీ": 4267,
      "యుగం": 4268,
      "యుగపు": 4269,
      "ప్రతిపక్షం": 4270,
      "ప్రతిపక్షమైంది": 4271,
      "విస్తీర్ణం": 4272,
      "విస్తీర్ణంతో": 4273,
      "నెలకొన్న": 4274,
      "నెలకొని": 4275,
      "సమాజం": 4276,
      "సమాజము": 4277,
      "బ్రిటీష్": 4278,
      "బ్రిటీషు": 4279,
      "సింధూనదికి": 4280,
      "తూర్పున": 4281,
      "తమిళనాడు": 4282,
      "రూపాంతరం": 4283,
      "రూపాంతరమే": 4284,
      "సంఖ్యాక": 4285,
      "రైల్వేశాఖకు": 4286,
      "పాలనలోకి": 4287,
      "వెబ్సైట్లు": 4288,
      "సముద్రతీరం": 4289,
      "సముద్రతీరము": 4290,
      "చిరునామాలు": 4291,
      "నాయకత్వాన": 4292,
      "నాయకత్వంలో": 4293,
      "హాకీలో": 4294,
      "లోక్‌సభలో": 4295,
      "నిర్మించినందు": 4296,
      "నిర్మించేది": 4297,
      "ద్వీపకల్పం": 4298,
      "సంవత్సరాల": 4299,
      "సంవత్సరాలలో": 4300,
      "సభ్యులను": 4301,
      "సభ్యురాలు": 4302,
      "సామ్రాజ్యాలు": 4303,
      "టైటిల్": 4304,
      "టైటిళ్ళు": 4305,
      "పార్లమెంటు": 4306,
      "పార్లమెంటరీ": 4307,
      "భరతనాట్యం": 4308,
      "భరతవర్షం": 4309,
      "మూలాలు": 4310,
      "హైదరాబాద్": 4311,
      "హైదరాబాదు": 4312,
      "ప్రారంభించాలనే": 4313,
      "ప్రారంభించాలని": 4314,
      "ర్‌లాల్": 4315,
      "సంకీర్ణాలేకాగా": 4316,
      "పురుషుల": 4317,
      "పురుషులకు": 4318,
      "ఆఫ్ఘనిస్తాన్‌కు": 4319,
      "పీఠభూమికి": 4320,
      "పీఠభూమితో": 4321,
      "బంగ్లాదేశ్‌ల": 4322,
      "బంగ్లాదేశ్‌లలో": 4323,
      "ఇండోనేసియా": 4324,
      "కబడ్డీలో": 4325,
      "తర్వాతి": 4326,
      "పవిత్రంగా": 4327,
      "బౌద్ధులు": 4328,
      "రచయితలెందరో": 4329,
      "నిడివిలో": 4330,
      "నిడివిని": 4331,
      "కూడుకొనినప్పటికినీ": 4332,
      "కాపాడుకుంటూనే": 4333,
      "చెప్పుకోవచ్చు": 4334,
      "చెప్పుకోదగినది": 4335,
      "ఉపయోగిస్తారు": 4336,
      "ఉపయోగిస్తుంది": 4337,
      "సహస్రాబ్దిలో": 4338,
      "शेष": 4339,
      "nologue": 4340,
      "अर्थव्यवस्था": 4341,
      "1971లోను": 4342,
      "1250": 4343,
      "liter": 4344,
      "increased": 4345,
      "1962లో": 4346,
      "classical": 4347,
      "After": 4348,
      "influ": 4349,
      "PAL": 4350,
      "velop": 4351,
      "इस्ला": 4352,
      "कॉंग्रेस": 4353,
      "1974లో": 4354,
      "महाराष्ट्र": 4355,
      "900461": 4356,
      "PIN": 4357,
      "power": 4358,
      "घोष": 4359,
      "...).": 4360,
      "1857లో": 4361,
      "74059": 4362,
      "Ethnologue": 4363,
      "Type": 4364,
      "हवामान": 4365,
      "అరవింద్": 4366,
      "అలీనోద్య": 4367,
      "అస్సామీ": 4368,
      "అన్నం": 4369,
      "అల్ప": 4370,
      "అందించిన": 4371,
      "అరుదుగా": 4372,
      "అక్షరబద్ధం": 4373,
      "అవరోధాల": 4374,
      "అద్దం": 4375,
      "అలంకార": 4376,
      "అధిగమించి": 4377,
      "అందరూ": 4378,
      "అమలవుతుంది": 4379,
      "అరేబియా": 4380,
      "అంకెలు": 4381,
      "అధీనంలో": 4382,
      "అశోకుడు": 4383,
      "ఆగష్టు": 4384,
      "ఆలోచన": 4385,
      "ఆవిర్భవ": 4386,
      "ఆక్రమిస్తున్నాయి": 4387,
      "ఆనాది": 4388,
      "ఆడుతున్నవార్": 4389,
      "ఆధ్యాత్మ": 4390,
      "ఆదాయం": 4391,
      "ఆగ్నేయ": 4392,
      "ఆంగ్లేయులు": 4393,
      "ఆణిముత్యం": 4394,
      "ఆచారాలు": 4395,
      "ఆర్యన్": 4396,
      "ఆనంద్": 4397,
      "ఆలస్యం": 4398,
      "ఇయర్": 4399,
      "ఇన్‌ఫర్": 4400,
      "ఇనుము": 4401,
      "ఇముడ్చ": 4402,
      "ఇతిహాసాల": 4403,
      "ఇస్తాంబ": 4404,
      "ఇందిరా": 4405,
      "ఇతరులు": 4406,
      "ఇందులో": 4407,
      "ఇంటిపేర్లు": 4408,
      "ఉర్దూ": 4409,
      "ఉద్భవించినవే": 4410,
      "ఉపాధి": 4411,
      "ఉండుటచే": 4412,
      "ఉనికికి": 4413,
      "ఋతుపవనాలు": 4414,
      "ఎమర్జె": 4415,
      "ఎదుర్కొ": 4416,
      "ఎగుమతి": 4417,
      "ఎల్లలుగా": 4418,
      "ఏకైక": 4419,
      "ఏడవస్థానంలో": 4420,
      "ఏకత్వంగల": 4421,
      "ఏళ్ళపాటు": 4422,
      "ఒక్కొక్క": 4423,
      "ఒరియా": 4424,
      "ఒలింపిక్‌": 4425,
      "ఒడిస్సీ": 4426,
      "ఓడించి": 4427,
      "ఓటర్లపై": 4428,
      "ఔట్‌సొ": 4429,
      "కింగ్డమ్": 4430,
      "కర్ణాటక": 4431,
      "కనిపించింది": 4432,
      "కరాచీ": 4433,
      "కంటైనెర్": 4434,
      "కార్పస్": 4435,
      "కితాబుని": 4436,
      "కష్టంకాగా": 4437,
      "కట్టడాలు": 4438,
      "కమీజ్": 4439,
      "కమలము": 4440,
      "కమేననీ": 4441,
      "ఖగోళ": 4442,
      "ఖర్చుతో": 4443,
      "గెలిచిన": 4444,
      "గిన్నె": 4445,
      "గౌరవిస్తారు": 4446,
      "ఘనత": 4447,
      "ఘట్టాలు": 4448,
      "ఘర్షణను": 4449,
      "చాళు": 4450,
      "చోళులు": 4451,
      "చ్ఛాయుత": 4452,
      "చమురు": 4453,
      "చక్రవర్తి": 4454,
      "చట్టం": 4455,
      "జైనులు": 4456,
      "జౌళి": 4457,
      "జానపద": 4458,
      "జంతువు": 4459,
      "జెండా": 4460,
      "జిల్లా": 4461,
      "జవహర్‌లాల్": 4462,
      "టండ్రా": 4463,
      "టాయిడ్స్": 4464,
      "ట్రాఫిక్": 4465,
      "డ్రైవరు": 4466,
      "డాలర్లు": 4467,
      "డబుల్స్": 4468,
      "ణికుల": 4469,
      "తారతమ్య": 4470,
      "తదుపరి": 4471,
      "తక్కువే": 4472,
      "తలంపుతో": 4473,
      "తగ్గిపోయింది": 4474,
      "థనలలో": 4475,
      "థానే": 4476,
      "దశలో": 4477,
      "దసరా": 4478,
      "దృష్ట్యా": 4479,
      "దైనందిన": 4480,
      "దీనికి": 4481,
      "దగ్గరలో": 4482,
      "ధరించే": 4483,
      "ధరిస్తారు": 4484,
      "నృత్య": 4485,
      "నోబెల్": 4486,
      "నడుస్తాయి": 4487,
      "పబడి": 4488,
      "పిలిచారు": 4489,
      "పదిశాతం": 4490,
      "పరాజయం": 4491,
      "పచ్చజెండా": 4492,
      "పట్నం": 4493,
      "పస్రిద్ధి": 4494,
      "పర్షియనులు": 4495,
      "పండ్లు": 4496,
      "ఫుట్‌బాల": 4497,
      "ఫ్రాన్స్": 4498,
      "బొమ్మ": 4499,
      "బండ్లను": 4500,
      "బంగాళాఖాతం": 4501,
      "బడ్జెట్": 4502,
      "బిన్నత్వంలో": 4503,
      "బాబ్డే": 4504,
      "బ్యాడ్మిం": 4505,
      "భింబెట్కా": 4506,
      "భంగం": 4507,
      "మయన్మార్": 4508,
      "మారింది": 4509,
      "మరాఠీ": 4510,
      "మినహాయ": 4511,
      "మాల్దీవులు": 4512,
      "మణిపురి": 4513,
      "మసాలాలు": 4514,
      "మద్రాసు": 4515,
      "మంజూరు": 4516,
      "యూదులు": 4517,
      "యమున": 4518,
      "యథాతథ": 4519,
      "రొట్టెల": 4520,
      "ర‌వాణా": 4521,
      "రాయల్": 4522,
      "రంగానికి": 4523,
      "రక్షణ": 4524,
      "రవీంద్రనాథ": 4525,
      "రాతియుగపు": 4526,
      "రతాయని": 4527,
      "లైనప్పటికీ": 4528,
      "లబైరెండుకో": 4529,
      "లభ్యమైన": 4530,
      "వూపింది": 4531,
      "వజ్రాలు": 4532,
      "వన్యప్రాణుల": 4533,
      "శక్తులు": 4534,
      "శిల్పకళ": 4535,
      "శక్తిగా": 4536,
      "సల్వార్": 4537,
      "సవాళ్లను": 4538,
      "సత్యజిత్": 4539,
      "హెబియస్": 4540,
      "హొలీ": 4541,
      "హిందువు": 4542,
      "హక్కులకు": 4543,
      "ోత్తరాలు": 4544,
      "లోన్లీ": 4545,
      "స్వేచ్ఛాయుత": 4546,
      "స్వరూపం": 4547,
      "స్టేటాయిడ్స్": 4548,
      "ప్రార్థనలలో": 4549,
      "ప్రమాణ": 4550,
      "ప్రయాణికుల": 4551,
      "ప్రఖ్యాతి": 4552,
      "ప్రణాళికలు": 4553,
      "ప్రగతిని": 4554,
      "దేశరాజకీయాల్లో": 4555,
      "దేశమంతటా": 4556,
      "దేశాధినేత": 4557,
      "ర్సింగ్": 4558,
      "కుమార్తె": 4559,
      "కుమారుడు": 4560,
      "కుడ్యచిత్రాలు": 4561,
      "కుదిర్చిన": 4562,
      "నివాసాలు": 4563,
      "నివారిస్తారు": 4564,
      "నియోలిథిక": 4565,
      "నిలిచింది": 4566,
      "నిలబెట్టుకు": 4567,
      "నిషేధం": 4568,
      "విడిపోయింది": 4569,
      "విధానాలతో": 4570,
      "వివరాలు": 4571,
      "విశాఖపట్నం": 4572,
      "వినాయక": 4573,
      "విజ్ఞాన": 4574,
      "విశిష్ట": 4575,
      "విభజితమై": 4576,
      "విశేషం": 4577,
      "రాణించలేదు": 4578,
      "రామాయణం": 4579,
      "ముందుగా": 4580,
      "ద్వైపాక్షిక": 4581,
      "తిరిగే": 4582,
      "రిట్లలో": 4583,
      "సంస్థలు": 4584,
      "సంక్రాంతి": 4585,
      "సందర్శించే": 4586,
      "పుష్పం": 4587,
      "పునర్వ్యవస్థీకరణ": 4588,
      "స్థాయిలో": 4589,
      "స్థూలాదాయంలో": 4590,
      "భావిస్తున్నది": 4591,
      "వాటిల్లింది": 4592,
      "సాఫ్ట్‌వేర్": 4593,
      "పాండిచ్చేరి": 4594,
      "ప్రాముఖ్యతను": 4595,
      "ప్రాసెస్": 4596,
      "ప్రాజాస్వామ్య": 4597,
      "ప్రాబల్యం": 4598,
      "రాజధానులు": 4599,
      "కోవారంటో": 4600,
      "కోవడంతో": 4601,
      "క్రైస్తవులు": 4602,
      "కావడం": 4603,
      "కాకుండా": 4604,
      "పేదరికం": 4605,
      "మామిడి": 4606,
      "యావత్‌": 4607,
      "వ్య‌వ‌స్థ‌": 4608,
      "సిద్ధించింది": 4609,
      "సిగ్నలు": 4610,
      "త్వరలోనే": 4611,
      "తరతరాలుగా": 4612,
      "గుతోంది": 4613,
      "గుప్తులకాల": 4614,
      "గుత్తాధిపత్యం": 4615,
      "కొంకణి": 4616,
      "కొనసాగుతోంది": 4617,
      "పాలకులనుండి": 4618,
      "కాలపరిమితికి": 4619,
      "చేసుకోవడంతో": 4620,
      "శాశ్వత": 4621,
      "దేశాల్లోనూ": 4622,
      "వ్యవహారాల": 4623,
      "వ్యవసాయం": 4624,
      "ఎన్నుకొనబడిన": 4625,
      "పారిశ్రామిక": 4626,
      "పంచుకుంటోంది": 4627,
      "పెట్రోలియం": 4628,
      "కృష్ణా": 4629,
      "తురుష్కుల": 4630,
      "దాటేసింది": 4631,
      "దక్షణాసియాలో": 4632,
      "పర్యాటక": 4633,
      "పరమోన్నత": 4634,
      "పరిధిలో": 4635,
      "పరిశోధనా": 4636,
      "పరిఢవిల్లాయి": 4637,
      "మేరోః": 4638,
      "మేళవింపబడి": 4639,
      "మధ్యవర్తిత్వం": 4640,
      "సుదీర్ఘ": 4641,
      "సుల్తానులు": 4642,
      "ప్రధానమంత్రికి": 4643,
      "భాషలలోను": 4644,
      "వర్గీకరణలో": 4645,
      "వర్ధిల్లిన": 4646,
      "మిగిలిన": 4647,
      "లాభదాయకమేననీ": 4648,
      "తాజ్‌మహల్": 4649,
      "పోటీలలో": 4650,
      "పోర్చుగల్": 4651,
      "మనోరమ": 4652,
      "అతిశీతల": 4653,
      "ఉత్సాహంగా": 4654,
      "ఉత్తరాదిన": 4655,
      "పట్టాలెక్కనుంది": 4656,
      "బ్రహ్మపుత్ర": 4657,
      "బ్రాడ్‌గేజి": 4658,
      "భాగస్వాములు": 4659,
      "కేంద్రీకృతమై": 4660,
      "ఎక్కువైపోతున్నప్పటికీ": 4661,
      "గోధుమ": 4662,
      "గోడుంబిళ్ళ": 4663,
      "బహిరంగంగా": 4664,
      "మంత్రులచే": 4665,
      "సాధించిపెట్టారు": 4666,
      "కాంగ్రెసేతర": 4667,
      "మొదటిసారిగా": 4668,
      "దక్షిణదిగ్భాగే": 4669,
      "ఉపయుక్త": 4670,
      "ఉపరాష్ట్రపతులు": 4671,
      "పంజాబీ": 4672,
      "మైథిలి": 4673,
      "మైదానంతో": 4674,
      "యునైటెడ్": 4675,
      "యోచనలో": 4676,
      "శ్లోకాలతో": 4677,
      "ప్రతినిధిచే": 4678,
      "ప్రాచుర్యము": 4679,
      "నెహ్రూ": 4680,
      "నెమలిపావో": 4681,
      "నెరవేరతాయని": 4682,
      "నెహ్వాల్": 4683,
      "మెట్రోపాలిటన్": 4684,
      "మెహర్గర్": 4685,
      "రహదారులను": 4686,
      "వైశాల్యంలో": 4687,
      "సమాచారం": 4688,
      "స్వాధీనం": 4689,
      "మొదలగువారు": 4690,
      "మంత్రివర్గం": 4691,
      "నడిపిస్తామని": 4692,
      "సౌకర్యవంతంగా": 4693,
      "అనుమతిని": 4694,
      "అనువైనది": 4695,
      "టెహ్రాన్": 4696,
      "టెక్నాలజీ": 4697,
      "పొడిగించుకోవచ్చని": 4698,
      "పద్ధతులున్నాయి": 4699,
      "వహిస్తాయి": 4700,
      "సమశీతోష్ణ": 4701,
      "సారవంతమైన": 4702,
      "సర్వసత్తాక": 4703,
      "అభిప్రాయపడుతున్నారు": 4704,
      "ఇవ్వబడిన": 4705,
      "ఇవికాక": 4706,
      "ఇవికూడా": 4707,
      "చిహ్నాలు": 4708,
      "దీపావళి": 4709,
      "సూచనలు": 4710,
      "నిర్మిస్తున్న": 4711,
      "సంఘర్షణలను": 4712,
      "పుట్టినిల్లయిన": 4713,
      "పుట్టుపూర్వోత్తరాలు": 4714,
      "కార్యనిర్వాహక": 4715,
      "అహ్మదీయులు": 4716,
      "అహమ్మదాబాదు": 4717,
      "ఆక్రమించుకున్నారు": 4718,
      "కూచిపూడి": 4719,
      "చిత్రమాలిక": 4720,
      "తెప్పించుకోవడానికి": 4721,
      "తేలికేననీ": 4722,
      "బిజినెస్": 4723,
      "మరెన్నో": 4724,
      "మర్రిచెట్టు": 4725,
      "మౌఖికమైనది": 4726,
      "లెజిస్లేచర్": 4727,
      "సహాయకారిగా": 4728,
      "ఒకేమాదిరిగా": 4729,
      "శ్రీశైలస్య": 4730,
      "శ్రీరామనవమి": 4731,
      "కలిసివస్తుందని": 4732,
      "సాధించగలిగినది": 4733,
      "జన్మదినాలకు": 4734,
      "జన్మనిచ్చింది": 4735,
      "అంటార్క్‌టికాలో": 4736,
      "అప్పిలేట్": 4737,
      "ఐక్యరాజ్యసమితి": 4738,
      "దర్శకుడైన": 4739,
      "దండయాత్రలతో": 4740,
      "నూటనలబైరెండుకో": 4741,
      "పల్లెల్లోని": 4742,
      "వంశంలోని": 4743,
      "వందేమాతరం": 4744,
      "శిలాగృహాలు": 4745,
      "సెర్టియోరారి": 4746,
      "విమానాశ్రయాలు": 4747,
      "విశ్వనాథన్": 4748,
      "క్రిస్టాటస్": 4749,
      "తమిళనాడుకు": 4750,
      "నిర్మించినందువల్ల": 4751,
      "అలీనోద్యమంలో": 4752,
      "ఆవిర్భవించింది": 4753,
      "ఆడుతున్నవార్లలో": 4754,
      "ఆధ్యాత్మికత": 4755,
      "ఇన్‌ఫర్మేషన్": 4756,
      "ఇముడ్చుకుంది": 4757,
      "ఇతిహాసాలపై": 4758,
      "ఇస్తాంబుల్": 4759,
      "ఎమర్జెన్సీ": 4760,
      "ఎదుర్కొంటున్నది": 4761,
      "ఒక్కొక్కటే": 4762,
      "ఔట్‌సొర్సింగ్": 4763,
      "కితాబునిస్తున్నారు": 4764,
      "చాళుక్యులు": 4765,
      "తారతమ్యాలున్నాయి": 4766,
      "ఫుట్‌బాల్‌": 4767,
      "బ్యాడ్మింటన్‌": 4768,
      "మినహాయించి": 4769,
      "రవీంద్రనాథ్": 4770,
      "హిందువులైనప్పటికీ": 4771,
      "నియోలిథిక్": 4772,
      "నిలబెట్టుకున్నాయి": 4773,
      "గుప్తులకాలం": 4774,
      "నూటనలబైరెండుకోట్లకు": 4775,
      "Mo": 4776,
      "Mugh": 4777,
      "Ne": 4778,
      "US": 4779,
      "ai": 4780,
      "bal": 4781,
      "bas": 4782,
      "krit": 4783,
      "mus": 4784,
      "mid": 4785,
      "milit": 4786,
      "ng": 4787,
      "no": 4788,
      "national": 4789,
      "nuclear": 4790,
      "pres": 4791,
      "ry": 4792,
      "so": 4793,
      "ंदि": 4794,
      "गंगा": 4795,
      "जब": 4796,
      "ण्या": 4797,
      "पं": 4798,
      "बे": 4799,
      "बो": 4800,
      "बां": 4801,
      "बदल": 4802,
      "भग": 4803,
      "भे": 4804,
      "रक्षा": 4805,
      "लर": 4806,
      "लु": 4807,
      "वली": 4808,
      "सक": 4809,
      "सण": 4810,
      "सित": 4811,
      "समुद्र": 4812,
      "ुनिक": 4813,
      "२०": 4814,
      "५०": 4815,
      "inter": 4816,
      "ree": 4817,
      "diversity": 4818,
      "sty": 4819,
      "state": 4820,
      "कां": 4821,
      "195": 4822,
      "प्रमाण": 4823,
      "ite": 4824,
      "ised": 4825,
      "सामा": 4826,
      "सेवा": 4827,
      "लाग": 4828,
      "संगी": 4829,
      "क्षण": 4830,
      "परमाण": 4831,
      "acy": 4832,
      "amil": 4833,
      "कार्य": 4834,
      "liament": 4835,
      "निर": 4836,
      "constitution": 4837,
      "develop": 4838,
      "शास्त्र": 4839,
      "वीं": 4840,
      "प्राप्त": 4841,
      "१९७": 4842,
      "ार्थ": 4843,
      "स्थित": 4844,
      "युक्त": 4845,
      "occ": 4846,
      "मोठ": 4847,
      "जनजाति": 4848,
      "ियों": 4849,
      "शासित": 4850,
      "general": 4851,
      "ign": 4852,
      "संस्कृत": 4853,
      "rule": 4854,
      "Chin": 4855,
      "mark": 4856,
      "ृत्य": 4857,
      "च्छ": 4858,
      "गणराज्य": 4859,
      "आधुनिक": 4860,
      "समाज": 4861,
      "parliament": 4862,
      "प्रधानमंत्री": 4863,
      "सर्वाधिक": 4864,
      "number": 4865,
      "न्याया": 4866,
      "work": 4867,
      "Indo": 4868,
      "ण्ड": 4869,
      "period": 4870,
      "species": 4871,
      "cient": 4872,
      "people": 4873,
      "सामाजिक": 4874,
      "परमाणु": 4875,
      "Beng": 4876,
      "East": 4877,
      "Mus": 4878,
      "Pun": 4879,
      "St": 4880,
      "Sans": 4881,
      "West": 4882,
      "cted": 4883,
      "country": 4884,
      "ev": 4885,
      "gi": 4886,
      "gre": 4887,
      "hm": 4888,
      "jab": 4889,
      "ned": 4890,
      "ograph": 4891,
      "te": 4892,
      "ya": 4893,
      "ंह": 4894,
      "ंतु": 4895,
      "अम": 4896,
      "अमे": 4897,
      "ईसा": 4898,
      "ओर": 4899,
      "गई": 4900,
      "गों": 4901,
      "जल": 4902,
      "जै": 4903,
      "डॉ": 4904,
      "पक्ष": 4905,
      "बार": 4906,
      "यं": 4907,
      "यात": 4908,
      "रिक": 4909,
      "लों": 4910,
      "व्": 4911,
      "शो": 4912,
      "शता": 4913,
      "शां": 4914,
      "शिय": 4915,
      "ूह": 4916,
      "through": 4917,
      "्यता": 4918,
      "ered": 4919,
      "enni": 4920,
      "ati": 4921,
      "Indu": 4922,
      "arm": 4923,
      "offic": 4924,
      "ाती": 4925,
      "प्रभा": 4926,
      "प्रति": 4927,
      "प्रां": 4928,
      "यास": 4929,
      "ities": 4930,
      "ाना": 4931,
      "साय": 4932,
      "साल": 4933,
      "विष": 4934,
      "विद्य": 4935,
      "वादी": 4936,
      "lead": 4937,
      "परंतु": 4938,
      "भाई": 4939,
      "भाष": 4940,
      "हाला": 4941,
      "ष्ण": 4942,
      "न्द्र": 4943,
      "न्तु": 4944,
      "emerg": 4945,
      "जातो": 4946,
      "river": 4947,
      "किल्": 4948,
      "ope": 4949,
      "ately": 4950,
      "लिये": 4951,
      "ains": 4952,
      "वेग": 4953,
      "sig": 4954,
      "असले": 4955,
      "असून": 4956,
      "युग": 4957,
      "येथ": 4958,
      "वर्षों": 4959,
      "ultan": 4960,
      "क्षेत्रीय": 4961,
      "जिसमें": 4962,
      "millenni": 4963,
      "काळात": 4964,
      "languages": 4965,
      "आधार": 4966,
      "धीरे": 4967,
      "religion": 4968,
      "forest": 4969,
      "served": 4970,
      "सर्वो": 4971,
      "ब्दी": 4972,
      "caused": 4973,
      "पहले": 4974,
      "social": 4975,
      "अरब": 4976,
      "पर्यंत": 4977,
      "इंग्र": 4978,
      "सिंधू": 4979,
      "भूमिका": 4980,
      "human": 4981,
      "Europe": 4982,
      "विकास": 4983,
      "नेतृत्व": 4984,
      "उदाहर": 4985,
      "Mughal": 4986,
      "military": 4987,
      "संगीत": 4988,
      "China": 4989,
      "Bengal": 4990,
      "Punjab": 4991,
      "Sanskrit": 4992,
      "शताब्दी": 4993,
      "millennium": 4994,
      "24": 4995,
      "Cent": 4996,
      "Himal": 4997,
      "Is": 4998,
      "Plate": 4999,
      "Si": 5000,
      "bi": 5001,
      "bir": 5002,
      "bill": 5003,
      "cy": 5004,
      "can": 5005,
      "col": 5006,
      "day": 5007,
      "fi": 5008,
      "great": 5009,
      "ide": 5010,
      "king": 5011,
      "ron": 5012,
      "rural": 5013,
      "ss": 5014,
      "sur": 5015,
      "some": 5016,
      "ually": 5017,
      "ving": 5018,
      "vement": 5019,
      "yan": 5020,
      "अथ": 5021,
      "आर": 5022,
      "आक्रम": 5023,
      "उद्योग": 5024,
      "एँ": 5025,
      "एवं": 5026,
      "कला": 5027,
      "खन": 5028,
      "गत": 5029,
      "गां": 5030,
      "द्या": 5031,
      "धि": 5032,
      "धार": 5033,
      "ध्या": 5034,
      "नदी": 5035,
      "पीय": 5036,
      "पहा": 5037,
      "बि": 5038,
      "मार्": 5039,
      "यी": 5040,
      "वृ": 5041,
      "वरी": 5042,
      "ारे": 5043,
      "theast": 5044,
      "dis": 5045,
      "dire": 5046,
      "ese": 5047,
      "esp": 5048,
      "सागर": 5049,
      "वायु": 5050,
      "करण": 5051,
      "करून": 5052,
      "परंप": 5053,
      "राजनी": 5054,
      "राज्यां": 5055,
      "हाँ": 5056,
      "तरी": 5057,
      "देशी": 5058,
      "owever": 5059,
      "हिंद": 5060,
      "wide": 5061,
      "ड़ी": 5062,
      "वर्ण": 5063,
      "unt": 5064,
      "who": 5065,
      "ange": 5066,
      "duced": 5067,
      "ared": 5068,
      "जिन": 5069,
      "प्ले": 5070,
      "जनसंख्या": 5071,
      "म्भ": 5072,
      "वरील": 5073,
      "ports": 5074,
      "ivil": 5075,
      "ident": 5076,
      "स्वरूप": 5077,
      "दोलन": 5078,
      "medi": 5079,
      "cook": 5080,
      "gener": 5081,
      "सदस": 5082,
      "सीमा": 5083,
      "संस्कृति": 5084,
      "लगभग": 5085,
      "high": 5086,
      "mathem": 5087,
      "अपने": 5088,
      "बंधन": 5089,
      "centuries": 5090,
      "कुछ": 5091,
      "कुल": 5092,
      "गुप्त": 5093,
      "religi": 5094,
      "polit": 5095,
      "majority": 5096,
      "cording": 5097,
      "अन्त": 5098,
      "culture": 5099,
      "दोनों": 5100,
      "पर्वत": 5101,
      "शहरी": 5102,
      "जगातील": 5103,
      "स्वतंत्रता": 5104,
      "न्हें": 5105,
      "music": 5106,
      "बांध": 5107,
      "Muslim": 5108,
      "Indus": 5109,
      "येथील": 5110,
      "सर्वोच्च": 5111,
      "Himalay": 5112,
      "billion": 5113,
      "गांधी": 5114,
      "परंपरा": 5115,
      ");": 5116,
      "13": 5117,
      "Ac": 5118,
      "Al": 5119,
      "Am": 5120,
      "Gand": 5121,
      "Jan": 5122,
      "Re": 5123,
      "aj": 5124,
      "air": 5125,
      "cre": 5126,
      "dy": 5127,
      "dle": 5128,
      "fin": 5129,
      "fed": 5130,
      "ib": 5131,
      "last": 5132,
      "loc": 5133,
      "lhi": 5134,
      "mi": 5135,
      "man": 5136,
      "made": 5137,
      "ob": 5138,
      "ood": 5139,
      "po": 5140,
      "pany": 5141,
      "sch": 5142,
      "vent": 5143,
      "wom": 5144,
      "ँकि": 5145,
      "ंशी": 5146,
      "अग": 5147,
      "अप्र": 5148,
      "अलग": 5149,
      "अतिश": 5150,
      "आले": 5151,
      "आदि": 5152,
      "आधिक": 5153,
      "आहार": 5154,
      "इम": 5155,
      "उस": 5156,
      "ऑफ": 5157,
      "ओळ": 5158,
      "घा": 5159,
      "चना": 5160,
      "ज्या": 5161,
      "जैन": 5162,
      "टन": 5163,
      "डे": 5164,
      "तमिळ": 5165,
      "तमिल": 5166,
      "थिय": 5167,
      "नै": 5168,
      "नृत्य": 5169,
      "पो": 5170,
      "पत्": 5171,
      "पड़": 5172,
      "बने": 5173,
      "बनी": 5174,
      "भि": 5175,
      "मसा": 5176,
      "यार": 5177,
      "रहे": 5178,
      "ळी": 5179,
      "वड": 5180,
      "वल": 5181,
      "शक्ति": 5182,
      "सत": 5183,
      "हथिय": 5184,
      "१५": 5185,
      "thir": 5186,
      "ann": 5187,
      "ants": 5188,
      "ances": 5189,
      "ारम्भ": 5190,
      "red": 5191,
      "ren": 5192,
      "केन्द्र": 5193,
      "ensu": 5194,
      "ata": 5195,
      "ative": 5196,
      "arn": 5197,
      "ories": 5198,
      "orig": 5199,
      "ातंत्र": 5200,
      "स्ति": 5201,
      "स्तर": 5202,
      "198": 5203,
      "प्रारम्भ": 5204,
      "ice": 5205,
      "राण": 5206,
      "सां": 5207,
      "नाड": 5208,
      "वाह": 5209,
      "संयुक्त": 5210,
      "करना": 5211,
      "तांशी": 5212,
      "ियाँ": 5213,
      "त्वा": 5214,
      "त्तर": 5215,
      "old": 5216,
      "ades": 5217,
      "trans": 5218,
      "निभाई": 5219,
      "निवड": 5220,
      "righ": 5221,
      "agric": 5222,
      "Indians": 5223,
      "किन": 5224,
      "cons": 5225,
      "territ": 5226,
      "dep": 5227,
      "वर्ग": 5228,
      "पुत्र": 5229,
      "areas": 5230,
      "दिव": 5231,
      "sive": 5232,
      "ments": 5233,
      "इसी": 5234,
      "१९८": 5235,
      "मोह": 5236,
      "वरून": 5237,
      "दक्षिणे": 5238,
      "early": 5239,
      "ives": 5240,
      "common": 5241,
      "सिद्ध": 5242,
      "सिंह": 5243,
      "स्वातंत्र": 5244,
      "वर्षां": 5245,
      "central": 5246,
      "बहुमत": 5247,
      "बहुतांशी": 5248,
      "राष्ट्रपती": 5249,
      "coal": 5250,
      "coast": 5251,
      "forms": 5252,
      "अधिकार": 5253,
      "party": 5254,
      "स्थापना": 5255,
      "अपनी": 5256,
      "feat": 5257,
      "रोपीय": 5258,
      "वंश": 5259,
      "include": 5260,
      "Hinduism": 5261,
      "गुज": 5262,
      "scri": 5263,
      "lands": 5264,
      "बड़ा": 5265,
      "शिष्ट": 5266,
      "ज़ी": 5267,
      "सर्वांत": 5268,
      "मूल": 5269,
      "गोल": 5270,
      "भरत": 5271,
      "control": 5272,
      "growth": 5273,
      "domin": 5274,
      "following": 5275,
      "पार्टी": 5276,
      "विकसित": 5277,
      "Delhi": 5278,
      "tech": 5279,
      "time": 5280,
      "गठबंधन": 5281,
      "Company": 5282,
      "भाजपा": 5283,
      "influen": 5284,
      "पंजा": 5285,
      "मोठ्या": 5286,
      "न्यायालय": 5287,
      "हालाँकि": 5288,
      "emerged": 5289,
      "ultanate": 5290,
      "उदाहरण": 5291,
      "Central": 5292,
      "Sikh": 5293,
      "अथवा": 5294,
      "प्लेट": 5295,
      "religious": 5296,
      "political": 5297,
      "Gandhi": 5298,
      "women": 5299,
      "अतिशय": 5300,
      "आधिकारिक": 5301,
      "इमारत": 5302,
      "ओळख": 5303,
      "हथियार": 5304,
      "third": 5305,
      "ensus": 5306,
      "agricult": 5307,
      "Act": 5308,
      "BJ": 5309,
      "Dem": 5310,
      "Eng": 5311,
      "Ganges": 5312,
      "Its": 5313,
      "Jain": 5314,
      "Sh": 5315,
      "au": 5316,
      "ath": 5317,
      "bre": 5318,
      "car": 5319,
      "cur": 5320,
      "coun": 5321,
      "cial": 5322,
      "cru": 5323,
      "census": 5324,
      "des": 5325,
      "dam": 5326,
      "ep": 5327,
      "eth": 5328,
      "edi": 5329,
      "ft": 5330,
      "far": 5331,
      "fast": 5332,
      "fig": 5333,
      "found": 5334,
      "ge": 5335,
      "gar": 5336,
      "hru": 5337,
      "hism": 5338,
      "ia": 5339,
      "ke": 5340,
      "kn": 5341,
      "line": 5342,
      "men": 5343,
      "mit": 5344,
      "pen": 5345,
      "pain": 5346,
      "rul": 5347,
      "rates": 5348,
      "sing": 5349,
      "sou": 5350,
      "secon": 5351,
      "tal": 5352,
      "tur": 5353,
      "vast": 5354,
      "wan": 5355,
      "ँच": 5356,
      "ंका": 5357,
      "अजून": 5358,
      "आढ": 5359,
      "आली": 5360,
      "इत्या": 5361,
      "उभ": 5362,
      "उष्ण": 5363,
      "ऊँ": 5364,
      "एं": 5365,
      "कह": 5366,
      "कू": 5367,
      "कटि": 5368,
      "ख्": 5369,
      "गए": 5370,
      "गति": 5371,
      "ग्रा": 5372,
      "घल": 5373,
      "जु": 5374,
      "डि": 5375,
      "ण्यां": 5376,
      "तः": 5377,
      "तयार": 5378,
      "ध्य": 5379,
      "धर्": 5380,
      "नौ": 5381,
      "पि": 5382,
      "पान": 5383,
      "फल": 5384,
      "फा": 5385,
      "बत": 5386,
      "बद": 5387,
      "बै": 5388,
      "मक": 5389,
      "मिक": 5390,
      "मरा": 5391,
      "मौर": 5392,
      "यक": 5393,
      "सात": 5394,
      "सभे": 5395,
      "सध्या": 5396,
      "ुसार": 5397,
      "्ट": 5398,
      "१०": 5399,
      "१७": 5400,
      "२६": 5401,
      "ank": 5402,
      "ancient": 5403,
      "ines": 5404,
      "indu": 5405,
      "they": 5406,
      "rel": 5407,
      "remain": 5408,
      "dif": 5409,
      "div": 5410,
      "alle": 5411,
      "ste": 5412,
      "states": 5413,
      "ats": 5414,
      "arch": 5415,
      "ors": 5416,
      "ात्": 5417,
      "प्रिय": 5418,
      "ess": 5419,
      "िकी": 5420,
      "विदेशी": 5421,
      "नावा": 5422,
      "लावा": 5423,
      "वाळ": 5424,
      "ecially": 5425,
      "माध्य": 5426,
      "करता": 5427,
      "राजा": 5428,
      "ild": 5429,
      "ष्क": 5430,
      "मुघल": 5431,
      "verse": 5432,
      "पालि": 5433,
      "ulpt": 5434,
      "देशा": 5435,
      "होत": 5436,
      "empl": 5437,
      "ago": 5438,
      "ages": 5439,
      "istic": 5440,
      "किन्तु": 5441,
      "2001": 5442,
      "माना": 5443,
      "वर्त": 5444,
      "und": 5445,
      "सम्रा": 5446,
      "movement": 5447,
      "पुरु": 5448,
      "श्च": 5449,
      "बाह": 5450,
      "सरे": 5451,
      "प्रामुख": 5452,
      "त्याचे": 5453,
      "१९६": 5454,
      "ocr": 5455,
      "मोठा": 5456,
      "भारताचे": 5457,
      "ety": 5458,
      "जनता": 5459,
      "मीर": 5460,
      "lower": 5461,
      "सदार": 5462,
      "सुरू": 5463,
      "सुरु": 5464,
      "भागात": 5465,
      "formed": 5466,
      "prov": 5467,
      "produ": 5468,
      "खास": 5469,
      "खासदार": 5470,
      "स्थानिक": 5471,
      "Hindi": 5472,
      "निर्मि": 5473,
      "marri": 5474,
      "जिसके": 5475,
      "महाद्वीप": 5476,
      "There": 5477,
      "गेट": 5478,
      "कडे": 5479,
      "cess": 5480,
      "regions": 5481,
      "sculpt": 5482,
      "बड़ी": 5483,
      "बड़े": 5484,
      "ंबे": 5485,
      "कर्ज": 5486,
      "शुरू": 5487,
      "शुष्क": 5488,
      "सहयोग": 5489,
      "United": 5490,
      "अंग्रेजी": 5491,
      "विस्तृत": 5492,
      "Constitution": 5493,
      "दृष्ट्या": 5494,
      "पृष्ठ": 5495,
      "ज्ञान": 5496,
      "पठार": 5497,
      "शैली": 5498,
      "literacy": 5499,
      "इस्लामी": 5500,
      "घोषणा": 5501,
      "Nehru": 5502,
      "based": 5503,
      "soon": 5504,
      "occup": 5505,
      "parliamentary": 5506,
      "grew": 5507,
      "डॉलर": 5508,
      "शांति": 5509,
      "किल्ला": 5510,
      "वेगळे": 5511,
      "religions": 5512,
      "European": 5513,
      "direct": 5514,
      "especially": 5515,
      "mathemat": 5516,
      "local": 5517,
      "origin": 5518,
      "depend": 5519,
      "पंजाब": 5520,
      "BJP": 5521,
      "English": 5522,
      "painting": 5523,
      "second": 5524,
      "धर्मा": 5525,
      "indust": 5526,
      "पालिका": 5527,
      "सम्राट": 5528,
      "प्रामुख्याने": 5529,
      "सुरुव": 5530,
      "%;": 5531,
      "28": 5532,
      "400": 5533,
      "55": 5534,
      "DP": 5535,
      "During": 5536,
      "Government": 5537,
      "GDP": 5538,
      "National": 5539,
      "Per": 5540,
      "Se": 5541,
      "Tamil": 5542,
      "ck": 5543,
      "cap": 5544,
      "cities": 5545,
      "dh": 5546,
      "dem": 5547,
      "ets": 5548,
      "fl": 5549,
      "five": 5550,
      "ga": 5551,
      "here": 5552,
      "ians": 5553,
      "kil": 5554,
      "ling": 5555,
      "lam": 5556,
      "nal": 5557,
      "ning": 5558,
      "oy": 5559,
      "prom": 5560,
      "spe": 5561,
      "sultanate": 5562,
      "ti": 5563,
      "ual": 5564,
      "use": 5565,
      "ven": 5566,
      "vol": 5567,
      "wa": 5568,
      "won": 5569,
      "ंक": 5570,
      "ंनी": 5571,
      "अब": 5572,
      "अभी": 5573,
      "अशी": 5574,
      "अफ्र": 5575,
      "अस्ति": 5576,
      "आग": 5577,
      "आन्": 5578,
      "ऋष": 5579,
      "ऋतु": 5580,
      "कम": 5581,
      "कमी": 5582,
      "खो": 5583,
      "खंड": 5584,
      "गंग": 5585,
      "चळ": 5586,
      "चो": 5587,
      "चला": 5588,
      "छो": 5589,
      "जवा": 5590,
      "जंग": 5591,
      "जलो": 5592,
      "जाने": 5593,
      "जयं": 5594,
      "जाना": 5595,
      "ठिका": 5596,
      "तत्": 5597,
      "दख्": 5598,
      "धो": 5599,
      "धार्": 5600,
      "नवी": 5601,
      "पंत": 5602,
      "फे": 5603,
      "फै": 5604,
      "बॉ": 5605,
      "भु": 5606,
      "भवन": 5607,
      "मंदि": 5608,
      "रण": 5609,
      "लू": 5610,
      "ळा": 5611,
      "वसाय": 5612,
      "शत": 5613,
      "सून": 5614,
      "सल्": 5615,
      "िम": 5616,
      "ीका": 5617,
      "ैल": 5618,
      "ोसी": 5619,
      "११": 5620,
      "१२": 5621,
      "१४": 5622,
      "१६": 5623,
      "४७": 5624,
      "indi": 5625,
      "ert": 5626,
      "republic": 5627,
      "disp": 5628,
      "केवल": 5629,
      "ens": 5630,
      "str": 5631,
      "stat": 5632,
      "educ": 5633,
      "ars": 5634,
      "भारताने": 5635,
      "र्त": 5636,
      "र्ष": 5637,
      "often": 5638,
      "ातून": 5639,
      "स्लि": 5640,
      "स्वी": 5641,
      "प्रचल": 5642,
      "प्रतिश": 5643,
      "प्रयास": 5644,
      "प्रसिद्ध": 5645,
      "ise": 5646,
      "नेह": 5647,
      "विभाग": 5648,
      "विवाद": 5649,
      "विभि": 5650,
      "oup": 5651,
      "ould": 5652,
      "omet": 5653,
      "नागर": 5654,
      "लां": 5655,
      "लाख": 5656,
      "वास": 5657,
      "वाली": 5658,
      "वापर": 5659,
      "वास्त": 5660,
      "ecut": 5661,
      "क्षर": 5662,
      "urther": 5663,
      "करतात": 5664,
      "करण्यात": 5665,
      "देव": 5666,
      "ियां": 5667,
      "ियान": 5668,
      "head": 5669,
      "तीन": 5670,
      "राज्या": 5671,
      "राजस्थान": 5672,
      "राजधान": 5673,
      "त्न": 5674,
      "ष्ठा": 5675,
      "amm": 5676,
      "amp": 5677,
      "मुस्लि": 5678,
      "पाद": 5679,
      "पाल": 5680,
      "निय": 5681,
      "ांच्या": 5682,
      "ांमध्ये": 5683,
      "tions": 5684,
      "ists": 5685,
      "sever": 5686,
      "sequ": 5687,
      "मिला": 5688,
      "term": 5689,
      "opp": 5690,
      "oper": 5691,
      "sum": 5692,
      "मान्य": 5693,
      "मानवी": 5694,
      "defin": 5695,
      "union": 5696,
      "समर्थ": 5697,
      "समूह": 5698,
      "whose": 5699,
      "राज्यसभा": 5700,
      "execut": 5701,
      "लियन": 5702,
      "श्मीर": 5703,
      "rock": 5704,
      "वेद": 5705,
      "ders": 5706,
      "प्राण्यां": 5707,
      "2013": 5708,
      "इसकी": 5709,
      "१९५०": 5710,
      "कृष": 5711,
      "उत्पाद": 5712,
      "body": 5713,
      "भारताची": 5714,
      "etic": 5715,
      "earli": 5716,
      "ported": 5717,
      "commer": 5718,
      "place": 5719,
      "जास्त": 5720,
      "भूमी": 5721,
      "व्यु": 5722,
      "endem": 5723,
      "well": 5724,
      "हिन्दू": 5725,
      "लोकसभा": 5726,
      "become": 5727,
      "osed": 5728,
      "०००": 5729,
      "alled": 5730,
      "स्थापत्य": 5731,
      "उपयोग": 5732,
      "साम्राज्या": 5733,
      "वैशिष्ट": 5734,
      "बनाने": 5735,
      "महासागर": 5736,
      "These": 5737,
      "गेली": 5738,
      "वंट": 5739,
      "कडील": 5740,
      "ministr": 5741,
      "इंडो": 5742,
      "व्यापार": 5743,
      "regional": 5744,
      "popular": 5745,
      "यांनी": 5746,
      "longer": 5747,
      "सोबत": 5748,
      "पूर्वीचे": 5749,
      "nific": 5750,
      "serv": 5751,
      "रिका": 5752,
      "histor": 5753,
      "history": 5754,
      "traditional": 5755,
      "म्हणून": 5756,
      "म्हणजे": 5757,
      "growing": 5758,
      "पेक्ष": 5759,
      "eastern": 5760,
      "viol": 5761,
      "अंग्रेज़ी": 5762,
      "पैकी": 5763,
      "विस्तार": 5764,
      "elections": 5765,
      "Buddhist": 5766,
      "Buddhism": 5767,
      "Andam": 5768,
      "पृष्ठा": 5769,
      "तनत": 5770,
      "यूरोपीय": 5771,
      "जबकि": 5772,
      "ण्यास": 5773,
      "styles": 5774,
      "1951": 5775,
      "निरपेक्ष": 5776,
      "ार्थ्यां": 5777,
      "States": 5778,
      "Western": 5779,
      "अमरी": 5780,
      "अमेरिका": 5781,
      "जलवायु": 5782,
      "व्हा": 5783,
      "official": 5784,
      "प्रभाव": 5785,
      "विद्यार्थ्यां": 5786,
      "आधारित": 5787,
      "इंग्रजी": 5788,
      "Islam": 5789,
      "birth": 5790,
      "fied": 5791,
      "धारण": 5792,
      "राजनीतिक": 5793,
      "हिंदू": 5794,
      "widely": 5795,
      "Himalayas": 5796,
      "According": 5797,
      "Among": 5798,
      "created": 5799,
      "federal": 5800,
      "अप्रैल": 5801,
      "तमिळनाड": 5802,
      "पड़ोसी": 5803,
      "दिवस": 5804,
      "गुजर": 5805,
      "technolog": 5806,
      "penins": 5807,
      "southern": 5808,
      "आढळ": 5809,
      "मौर्य": 5810,
      "alley": 5811,
      "माध्यम": 5812,
      "वर्तमान": 5813,
      "पुरुष": 5814,
      "निर्मिती": 5815,
      "Persi": 5816,
      "अफ्रीका": 5817,
      "आन्दोलन": 5818,
      "चळवळ": 5819,
      "जलोढ़": 5820,
      "जयंती": 5821,
      "धार्मिक": 5822,
      "पंतप्रधान": 5823,
      "सल्तनत": 5824,
      "education": 5825,
      "प्रतिशत": 5826,
      "विभिन्न": 5827,
      "राजधानी": 5828,
      "मुस्लिम": 5829,
      "sequent": 5830,
      "समर्थन": 5831,
      "nificant": 5832,
      "Andaman": 5833,
      "तमिळनाडू": 5834,
      "31": 5835,
      "35": 5836,
      "500": 5837,
      "64": 5838,
      "All": 5839,
      "Bh": 5840,
      "Bi": 5841,
      "Bra": 5842,
      "Bhar": 5843,
      "Des": 5844,
      "Kas": 5845,
      "Nor": 5846,
      "Raj": 5847,
      "Sou": 5848,
      "War": 5849,
      "aver": 5850,
      "bor": 5851,
      "bro": 5852,
      "bers": 5853,
      "cr": 5854,
      "cri": 5855,
      "civil": 5856,
      "dances": 5857,
      "elit": 5858,
      "fact": 5859,
      "four": 5860,
      "famil": 5861,
      "further": 5862,
      "gu": 5863,
      "glo": 5864,
      "hen": 5865,
      "hou": 5866,
      "hav": 5867,
      "however": 5868,
      "ip": 5869,
      "iz": 5870,
      "idi": 5871,
      "ibut": 5872,
      "jo": 5873,
      "lf": 5874,
      "mem": 5875,
      "mak": 5876,
      "mary": 5877,
      "ns": 5878,
      "nat": 5879,
      "now": 5880,
      "ool": 5881,
      "pay": 5882,
      "rich": 5883,
      "sm": 5884,
      "sec": 5885,
      "tt": 5886,
      "tle": 5887,
      "uj": 5888,
      "uary": 5889,
      "vo": 5890,
      "vill": 5891,
      "vari": 5892,
      "way": 5893,
      "ंच": 5894,
      "अं": 5895,
      "अति": 5896,
      "अधि": 5897,
      "अलावा": 5898,
      "आत": 5899,
      "आम": 5900,
      "आस": 5901,
      "आर्": 5902,
      "आकर्": 5903,
      "ईस्ट": 5904,
      "उद": 5905,
      "उठा": 5906,
      "उच्च": 5907,
      "एन": 5908,
      "कल": 5909,
      "कमा": 5910,
      "कंप": 5911,
      "घड": 5912,
      "छोड़": 5913,
      "जह": 5914,
      "जवळ": 5915,
      "जहाँ": 5916,
      "टर": 5917,
      "टना": 5918,
      "डिया": 5919,
      "णात": 5920,
      "तम": 5921,
      "तरा": 5922,
      "द्यां": 5923,
      "दारी": 5924,
      "नगर": 5925,
      "नदिया": 5926,
      "नद्यां": 5927,
      "पहु": 5928,
      "फि": 5929,
      "भील": 5930,
      "मौ": 5931,
      "महि": 5932,
      "यत": 5933,
      "रल": 5934,
      "रह": 5935,
      "रंग": 5936,
      "रही": 5937,
      "रचना": 5938,
      "लया": 5939,
      "वत": 5940,
      "वान": 5941,
      "वारी": 5942,
      "शहर": 5943,
      "शस्त्र": 5944,
      "सरा": 5945,
      "सन्": 5946,
      "सस्त": 5947,
      "सक्र": 5948,
      "सऱ्या": 5949,
      "सृष्ट": 5950,
      "हॉ": 5951,
      "ह्या": 5952,
      "ाम": 5953,
      "ाला": 5954,
      "ूण": 5955,
      "ेक्षा": 5956,
      "ैकी": 5957,
      "ौद्योग": 5958,
      "१३": 5959,
      "२४": 5960,
      "४०": 5961,
      "three": 5962,
      "independ": 5963,
      "ons": 5964,
      "reg": 5965,
      "read": 5966,
      "recor": 5967,
      "dist": 5968,
      "केला": 5969,
      "ale": 5970,
      "alth": 5971,
      "ales": 5972,
      "along": 5973,
      "enac": 5974,
      "stre": 5975,
      "stru": 5976,
      "ating": 5977,
      "around": 5978,
      "भारती": 5979,
      "off": 5980,
      "organ": 5981,
      "स्पती": 5982,
      "स्मार": 5983,
      "1980": 5984,
      "प्रग": 5985,
      "प्रणा": 5986,
      "प्रशासन": 5987,
      "प्रौद्योग": 5988,
      "साग": 5989,
      "साली": 5990,
      "नेमा": 5991,
      "विज": 5992,
      "वित": 5993,
      "विद्या": 5994,
      "वियत": 5995,
      "ouch": 5996,
      "क्ट": 5997,
      "वाघ": 5998,
      "left": 5999,
      "लेला": 6000,
      "त्री": 6001,
      "माल": 6002,
      "करते": 6003,
      "देखा": 6004,
      "परि": 6005,
      "परी": 6006,
      "परे": 6007,
      "held": 6008,
      "राजनै": 6009,
      "त्त": 6010,
      "त्त्वा": 6011,
      "हाल": 6012,
      "ility": 6013,
      "चीफ": 6014,
      "न्ध": 6015,
      "amas": 6016,
      "तरह": 6017,
      "administr": 6018,
      "tro": 6019,
      "कोई": 6020,
      "द्दल": 6021,
      "liber": 6022,
      "ीलंका": 6023,
      "emper": 6024,
      "empire": 6025,
      "char": 6026,
      "changes": 6027,
      "ांचा": 6028,
      "tional": 6029,
      "हिस्": 6030,
      "किये": 6031,
      "मिश्र": 6032,
      "मिलियन": 6033,
      "चाल": 6034,
      "2008": 6035,
      "condu": 6036,
      "consi": 6037,
      "estim": 6038,
      "estab": 6039,
      "पूर": 6040,
      "ternal": 6041,
      "resp": 6042,
      "resident": 6043,
      "मानव": 6044,
      "मानसून": 6045,
      "angered": 6046,
      "राज्ये": 6047,
      "import": 6048,
      "लिख": 6049,
      "पुर्त": 6050,
      "रूस": 6051,
      "1999": 6052,
      "ross": 6053,
      "वेष": 6054,
      "ंत्रिक": 6055,
      "utes": 6056,
      "त्यामुळे": 6057,
      "१९४७": 6058,
      "कृष्ट": 6059,
      "लोगों": 6060,
      "ल्प": 6061,
      "स्थि": 6062,
      "येतात": 6063,
      "1960": 6064,
      "group": 6065,
      "oci": 6066,
      "जीत": 6067,
      "जीवन": 6068,
      "भारताला": 6069,
      "जनवरी": 6070,
      "सिनेमा": 6071,
      "plain": 6072,
      "play": 6073,
      "ured": 6074,
      "वर्षात": 6075,
      "aksh": 6076,
      "णाऱ्या": 6077,
      "सरकारें": 6078,
      "स्कृतिक": 6079,
      "भाषाएँ": 6080,
      "gency": 6081,
      "सदन": 6082,
      "endangered": 6083,
      "spread": 6084,
      "लोकप्रिय": 6085,
      "प्रदेशात": 6086,
      "oss": 6087,
      "जिसका": 6088,
      "अपना": 6089,
      "उपमहाद्वीप": 6090,
      "वैविध": 6091,
      "प्रकारच्या": 6092,
      "subsequent": 6093,
      "This": 6094,
      "ंपैकी": 6095,
      "गेल्या": 6096,
      "वन्य": 6097,
      "वनस्पती": 6098,
      "decl": 6099,
      "व्यावसाय": 6100,
      "comple": 6101,
      "पश्चिमी": 6102,
      "समाप्त": 6103,
      "केंद्रशासित": 6104,
      "यांच्या": 6105,
      "कर्नाट": 6106,
      "पदवी": 6107,
      "सोयी": 6108,
      "बढ़कर": 6109,
      "शुरु": 6110,
      "संघीय": 6111,
      "संघर्ष": 6112,
      "traditions": 6113,
      "polic": 6114,
      "increasing": 6115,
      "worn": 6116,
      "अन्तर": 6117,
      "doms": 6118,
      "every": 6119,
      "soci": 6120,
      "पेक्षा": 6121,
      "बनाई": 6122,
      "thought": 6123,
      "पर्यटन": 6124,
      "Union": 6125,
      "इंग्": 6126,
      "ग्री": 6127,
      "पार्ट": 6128,
      "सूची": 6129,
      "supp": 6130,
      "मैदानी": 6131,
      "times": 6132,
      "दृष्टि": 6133,
      "पडले": 6134,
      "श्रीलंका": 6135,
      "नाटके": 6136,
      "बंगालच्या": 6137,
      "court": 6138,
      "courts": 6139,
      "ight": 6140,
      "rise": 6141,
      "अभियान": 6142,
      "legis": 6143,
      "हिंदी": 6144,
      "इस्लाम": 6145,
      "घोषित": 6146,
      "middle": 6147,
      "present": 6148,
      "style": 6149,
      "कांच्या": 6150,
      "developed": 6151,
      "market": 6152,
      "गोंड": 6153,
      "जैसे": 6154,
      "leading": 6155,
      "significant": 6156,
      "kingdoms": 6157,
      "surv": 6158,
      "until": 6159,
      "cooked": 6160,
      "Although": 6161,
      "January": 6162,
      "उसके": 6163,
      "सांस्कृतिक": 6164,
      "territories": 6165,
      "स्वातंत्र्य": 6166,
      "वर्षांपूर्वी": 6167,
      "coalition": 6168,
      "influenced": 6169,
      "Jainism": 6170,
      "curren": 6171,
      "edic": 6172,
      "figures": 6173,
      "known": 6174,
      "अजूनही": 6175,
      "इत्यादी": 6176,
      "कहते": 6177,
      "कटिबंध": 6178,
      "differ": 6179,
      "वाळवंट": 6180,
      "employ": 6181,
      "बाहरी": 6182,
      "sculpture": 6183,
      "industry": 6184,
      "ऋषभ": 6185,
      "गंगे": 6186,
      "छोटे": 6187,
      "तत्कालीन": 6188,
      "दख्खन": 6189,
      "नागरिक": 6190,
      "operation": 6191,
      "executive": 6192,
      "earliest": 6193,
      "गुजरात": 6194,
      "technology": 6195,
      "peninsular": 6196,
      "Persian": 6197,
      "Kashm": 6198,
      "Southeast": 6199,
      "families": 6200,
      "नदियाँ": 6201,
      "सस्तन": 6202,
      "प्रणाली": 6203,
      "प्रौद्योगिकी": 6204,
      "राजनैतिक": 6205,
      "consider": 6206,
      "establish": 6207,
      "पुर्तगा": 6208,
      "कर्नाटक": 6209,
      "11": 6210,
      "1200": 6211,
      "300": 6212,
      "As": 6213,
      "Ass": 6214,
      "Civil": 6215,
      "Dr": 6216,
      "Dec": 6217,
      "For": 6218,
      "Fore": 6219,
      "Gh": 6220,
      "Gup": 6221,
      "Gree": 6222,
      "Guj": 6223,
      "However": 6224,
      "Many": 6225,
      "Nuclear": 6226,
      "Pro": 6227,
      "Sing": 6228,
      "Valley": 6229,
      "bs": 6230,
      "bu": 6231,
      "bar": 6232,
      "band": 6233,
      "ble": 6234,
      "che": 6235,
      "creat": 6236,
      "called": 6237,
      "den": 6238,
      "dri": 6239,
      "down": 6240,
      "equ": 6241,
      "eograph": 6242,
      "ff": 6243,
      "fam": 6244,
      "fall": 6245,
      "fund": 6246,
      "ho": 6247,
      "hy": 6248,
      "his": 6249,
      "hab": 6250,
      "just": 6251,
      "ks": 6252,
      "lay": 6253,
      "mult": 6254,
      "mace": 6255,
      "nom": 6256,
      "oth": 6257,
      "odiversity": 6258,
      "pur": 6259,
      "pass": 6260,
      "phar": 6261,
      "sit": 6262,
      "sine": 6263,
      "saf": 6264,
      "sari": 6265,
      "tu": 6266,
      "tic": 6267,
      "tain": 6268,
      "tak": 6269,
      "ued": 6270,
      "ues": 6271,
      "win": 6272,
      "went": 6273,
      "wear": 6274,
      "writ": 6275,
      "wild": 6276,
      "xim": 6277,
      "ंवर": 6278,
      "अज": 6279,
      "अशिया": 6280,
      "अहिं": 6281,
      "अशो": 6282,
      "आय": 6283,
      "आला": 6284,
      "आंतर": 6285,
      "आयात": 6286,
      "इसे": 6287,
      "इंदि": 6288,
      "ईद": 6289,
      "उसे": 6290,
      "उन्हें": 6291,
      "एका": 6292,
      "ओडि": 6293,
      "कप": 6294,
      "कों": 6295,
      "कले": 6296,
      "क्यों": 6297,
      "कच्छ": 6298,
      "कश्मीर": 6299,
      "खु": 6300,
      "ख्य": 6301,
      "गम": 6302,
      "गि": 6303,
      "ग्": 6304,
      "ग्रे": 6305,
      "घर": 6306,
      "घात": 6307,
      "चर": 6308,
      "चली": 6309,
      "चित": 6310,
      "जट": 6311,
      "ज्य": 6312,
      "जार": 6313,
      "जरा": 6314,
      "जों": 6315,
      "जमा": 6316,
      "जां": 6317,
      "ट्ट": 6318,
      "णि": 6319,
      "णु": 6320,
      "णारे": 6321,
      "तट": 6322,
      "तान": 6323,
      "तनाव": 6324,
      "थार": 6325,
      "नर": 6326,
      "नद्या": 6327,
      "नुसार": 6328,
      "पर्": 6329,
      "पात": 6330,
      "पहि": 6331,
      "पद्ध": 6332,
      "पणे": 6333,
      "फु": 6334,
      "बरो": 6335,
      "बडी": 6336,
      "बजट": 6337,
      "भार": 6338,
      "भ्यता": 6339,
      "म्या": 6340,
      "मना": 6341,
      "मले": 6342,
      "मंचा": 6343,
      "यर": 6344,
      "यश": 6345,
      "यदा": 6346,
      "यहाँ": 6347,
      "रख": 6348,
      "रत": 6349,
      "रत्न": 6350,
      "लै": 6351,
      "लौ": 6352,
      "लिक": 6353,
      "लड़ा": 6354,
      "लंबे": 6355,
      "ळू": 6356,
      "ळूह": 6357,
      "वू": 6358,
      "वणात": 6359,
      "शिक": 6360,
      "शील": 6361,
      "श्रे": 6362,
      "षिक": 6363,
      "षित": 6364,
      "षणा": 6365,
      "सव": 6366,
      "स्र": 6367,
      "सत्": 6368,
      "सहा": 6369,
      "सफल": 6370,
      "सभ्यता": 6371,
      "हारा": 6372,
      "हळूह": 6373,
      "ाचा": 6374,
      "ृद्ध": 6375,
      "ेत": 6376,
      "्न": 6377,
      "२२": 6378,
      "२८": 6379,
      "३८": 6380,
      "५७": 6381,
      "====": 6382,
      "ani": 6383,
      "anim": 6384,
      "animal": 6385,
      "invol": 6386,
      "intro": 6387,
      "ones": 6388,
      "era": 6389,
      "reach": 6390,
      "renew": 6391,
      "reduced": 6392,
      "dish": 6393,
      "diverse": 6394,
      "केवळ": 6395,
      "ali": 6396,
      "ality": 6397,
      "्याद्र": 6398,
      "ara": 6399,
      "ard": 6400,
      "arr": 6401,
      "aries": 6402,
      "ातन": 6403,
      "ात्र": 6404,
      "स्कार": 6405,
      "प्रे": 6406,
      "प्रका": 6407,
      "प्रश्": 6408,
      "प्रसार": 6409,
      "प्रदान": 6410,
      "प्रभु": 6411,
      "ash": 6412,
      "itect": 6413,
      "ices": 6414,
      "राव": 6415,
      "iss": 6416,
      "साद": 6417,
      "नेट": 6418,
      "नेशिया": 6419,
      "विले": 6420,
      "विरो": 6421,
      "विशेष": 6422,
      "oul": 6423,
      "omy": 6424,
      "नाही": 6425,
      "नागा": 6426,
      "कीय": 6427,
      "took": 6428,
      "वाढ": 6429,
      "वाला": 6430,
      "वाटा": 6431,
      "लेय": 6432,
      "लेकर": 6433,
      "लेल्या": 6434,
      "लेणी": 6435,
      "त्रि": 6436,
      "लीवि": 6437,
      "ech": 6438,
      "करती": 6439,
      "करणे": 6440,
      "देवा": 6441,
      "परिक": 6442,
      "परिण": 6443,
      "भाव": 6444,
      "तीस": 6445,
      "राज्यात": 6446,
      "राजवंश": 6447,
      "त्त्व": 6448,
      "oli": 6449,
      "olid": 6450,
      "2020": 6451,
      "2026": 6452,
      "मुंब": 6453,
      "adv": 6454,
      "addi": 6455,
      "adually": 6456,
      "Their": 6457,
      "पाया": 6458,
      "पाँच": 6459,
      "tra": 6460,
      "tri": 6461,
      "trop": 6462,
      "कोटी": 6463,
      "liance": 6464,
      "होना": 6465,
      "होत्या": 6466,
      "change": 6467,
      "निम्": 6468,
      "निष्ठ": 6469,
      "निवेश": 6470,
      "निवास": 6471,
      "ांत": 6472,
      "ांस": 6473,
      "ांना": 6474,
      "ांची": 6475,
      "ांचे": 6476,
      "जातात": 6477,
      "again": 6478,
      "below": 6479,
      "before": 6480,
      "किए": 6481,
      "किसी": 6482,
      "astri": 6483,
      "पूरा": 6484,
      "पूरे": 6485,
      "ters": 6486,
      "result": 6487,
      "वर्षा": 6488,
      "शाली": 6489,
      "शाही": 6490,
      "शालेय": 6491,
      "une": 6492,
      "एकूण": 6493,
      "समझ": 6494,
      "समृद्ध": 6495,
      "when": 6496,
      "where": 6497,
      "द्रा": 6498,
      "द्रो": 6499,
      "within": 6500,
      "exts": 6501,
      "exports": 6502,
      "external": 6503,
      "लिवू": 6504,
      "पुन": 6505,
      "पुराण": 6506,
      "स्तरा": 6507,
      "ably": 6508,
      "about": 6509,
      "ability": 6510,
      "aren": 6511,
      "बांग": 6512,
      "दिला": 6513,
      "सरी": 6514,
      "प्राप्": 6515,
      "2010": 6516,
      "2012": 6517,
      "इसका": 6518,
      "इसमें": 6519,
      "uted": 6520,
      "utical": 6521,
      "त्यात": 6522,
      "धिकार": 6523,
      "असल्या": 6524,
      "लोग": 6525,
      "appro": 6526,
      "येते": 6527,
      "येथे": 6528,
      "inct": 6529,
      "1967": 6530,
      "उत्कृष्ट": 6531,
      "जिन्हें": 6532,
      "grand": 6533,
      "प्पा": 6534,
      "मोदी": 6535,
      "भारताचा": 6536,
      "etwork": 6537,
      "झाल्या": 6538,
      "ided": 6539,
      "plac": 6540,
      "plate": 6541,
      "meat": 6542,
      "show": 6543,
      "भूषा": 6544,
      "भूभाग": 6545,
      "धर्मीय": 6546,
      "सामरिक": 6547,
      "क्री": 6548,
      "भाषाएं": 6549,
      "genous": 6550,
      "तुल": 6551,
      "भागी": 6552,
      "ending": 6553,
      "associ": 6554,
      "avidi": 6555,
      "protec": 6556,
      "process": 6557,
      "weap": 6558,
      "खाली": 6559,
      "aff": 6560,
      "हिन्दु": 6561,
      "अधिकृत": 6562,
      "लगा": 6563,
      "उत्तरी": 6564,
      "उत्तरे": 6565,
      "ously": 6566,
      "नावाने": 6567,
      "Arab": 6568,
      "partition": 6569,
      "upper": 6570,
      "हरलाल": 6571,
      "स्थापन": 6572,
      "मंत्रिम": 6573,
      "महत्त्वा": 6574,
      "काळा": 6575,
      "काळातील": 6576,
      "ंपारिक": 6577,
      "गेले": 6578,
      "गणला": 6579,
      "Hindust": 6580,
      "decades": 6581,
      "quality": 6582,
      "मिळते": 6583,
      "मिळतात": 6584,
      "composed": 6585,
      "चित्रपटसृष्ट": 6586,
      "Asian": 6587,
      "elected": 6588,
      "शिक्षा": 6589,
      "शिक्षणा": 6590,
      "समावेश": 6591,
      "reasing": 6592,
      "मध्यप्रदेश": 6593,
      "शिख": 6594,
      "foreign": 6595,
      "पदव्यु": 6596,
      "सोवियत": 6597,
      "टेलीवि": 6598,
      "शेती": 6599,
      "continued": 6600,
      "monsoon": 6601,
      "बढ़ती": 6602,
      "extant": 6603,
      "traditionally": 6604,
      "numbers": 6605,
      "rica": 6606,
      "wars": 6607,
      "जेवणात": 6608,
      "पारंपारिक": 6609,
      "सह्याद्र": 6610,
      "contrib": 6611,
      "contribut": 6612,
      "म्हणतात": 6613,
      "Africa": 6614,
      "tax": 6615,
      "अरबी": 6616,
      "संसदीय": 6617,
      "युद्धात": 6618,
      "दर्श": 6619,
      "amental": 6620,
      "सिंधु": 6621,
      "Ancient": 6622,
      "Constit": 6623,
      "pract": 6624,
      "उनके": 6625,
      "उनकी": 6626,
      "डालर": 6627,
      "ergy": 6628,
      "संबंधों": 6629,
      "support": 6630,
      "पुरातन": 6631,
      "पुरस्कार": 6632,
      "१९९१": 6633,
      "Maur": 6634,
      "dramas": 6635,
      "अवशेष": 6636,
      "फ्रांस": 6637,
      "express": 6638,
      "२००४": 6639,
      "influence": 6640,
      "ण्याची": 6641,
      "प्रमाणात": 6642,
      "लागले": 6643,
      "क्षणिक": 6644,
      "कार्यकाल": 6645,
      "कार्यपालिका": 6646,
      "constitutional": 6647,
      "development": 6648,
      "शास्त्रीय": 6649,
      "ण्डल": 6650,
      "अमेरिक": 6651,
      "प्रांतात": 6652,
      "leader": 6653,
      "भाषी": 6654,
      "असलेली": 6655,
      "Plateau": 6656,
      "greater": 6657,
      "आक्रमण": 6658,
      "वृद्ध": 6659,
      "untouch": 6660,
      "जिनमें": 6661,
      "cooking": 6662,
      "सदस्य": 6663,
      "सदस्यों": 6664,
      "परंपरागत": 6665,
      "school": 6666,
      "vention": 6667,
      "oldest": 6668,
      "adesh": 6669,
      "right": 6670,
      "rights": 6671,
      "consolid": 6672,
      "१९८४": 6673,
      "मोहन": 6674,
      "commonly": 6675,
      "features": 6676,
      "ओळखले": 6677,
      "agriculture": 6678,
      "agricultural": 6679,
      "crust": 6680,
      "single": 6681,
      "turned": 6682,
      "ऊँची": 6683,
      "नौसेना": 6684,
      "relations": 6685,
      "architect": 6686,
      "ात्मक": 6687,
      "नावाचा": 6688,
      "ocratic": 6689,
      "directly": 6690,
      "mathematics": 6691,
      "सुरुवाती": 6692,
      "Sea": 6693,
      "capit": 6694,
      "speak": 6695,
      "waist": 6696,
      "अस्तित्त्व": 6697,
      "आगमन": 6698,
      "जवाहरलाल": 6699,
      "ठिकाणी": 6700,
      "फैली": 6701,
      "बॉलिवू": 6702,
      "मंदिरे": 6703,
      "indigenous": 6704,
      "प्रचलित": 6705,
      "नेहरू": 6706,
      "कृषि": 6707,
      "commercial": 6708,
      "वैशिष्ट्य": 6709,
      "इंडोनेशिया": 6710,
      "violence": 6711,
      "अमरीकी": 6712,
      "आढळतात": 6713,
      "चळवळी": 6714,
      "Brahm": 6715,
      "Bharat": 6716,
      "elites": 6717,
      "global": 6718,
      "house": 6719,
      "member": 6720,
      "small": 6721,
      "secular": 6722,
      "आकर्षित": 6723,
      "सक्रिय": 6724,
      "हॉकी": 6725,
      "ामस्वरूप": 6726,
      "recorded": 6727,
      "enacted": 6728,
      "परीक्षण": 6729,
      "conducted": 6730,
      "estimated": 6731,
      "important": 6732,
      "स्थिति": 6733,
      "व्यावसायिक": 6734,
      "शुरुआत": 6735,
      "legislat": 6736,
      "कटिबंधीय": 6737,
      "different": 6738,
      "Kashmir": 6739,
      "established": 6740,
      "Dravidi": 6741,
      "Ghats": 6742,
      "Singh": 6743,
      "fundamental": 6744,
      "maceutical": 6745,
      "pharmaceutical": 6746,
      "ximately": 6747,
      "अशियाई": 6748,
      "इंदिरा": 6749,
      "थारचे": 6750,
      "पद्धती": 6751,
      "बरोबर": 6752,
      "सहायक": 6753,
      "हळूहळू": 6754,
      "परिणामस्वरूप": 6755,
      "मुंबई": 6756,
      "tropical": 6757,
      "निम्न": 6758,
      "resulting": 6759,
      "approximately": 6760,
      "मंत्रिमण्डल": 6761,
      "पदव्युत्तर": 6762,
      "सह्याद्री": 6763,
      "contribution": 6764,
      "बॉलिवूड": 6765,
      "Dravidian": 6766,
      "42": 6767,
      "63": 6768,
      "74": 6769,
      "Ak": 6770,
      "At": 6771,
      "Ash": 6772,
      "Ba": 6773,
      "Bang": 6774,
      "Bay": 6775,
      "DA": 6776,
      "Dal": 6777,
      "Dance": 6778,
      "Ex": 6779,
      "Ear": 6780,
      "Econ": 6781,
      "Fron": 6782,
      "Geograph": 6783,
      "HO": 6784,
      "He": 6785,
      "Kal": 6786,
      "Lank": 6787,
      "Mal": 6788,
      "Mar": 6789,
      "Mid": 6790,
      "Myan": 6791,
      "Non": 6792,
      "Nic": 6793,
      "NDA": 6794,
      "Pol": 6795,
      "Pall": 6796,
      "She": 6797,
      "Sri": 6798,
      "Treat": 6799,
      "UPA": 6800,
      "Va": 6801,
      "Vi": 6802,
      "WHO": 6803,
      "aic": 6804,
      "aut": 6805,
      "bon": 6806,
      "bly": 6807,
      "bri": 6808,
      "cu": 6809,
      "cal": 6810,
      "cle": 6811,
      "cul": 6812,
      "cut": 6813,
      "crit": 6814,
      "cav": 6815,
      "came": 6816,
      "clim": 6817,
      "could": 6818,
      "dar": 6819,
      "dra": 6820,
      "ez": 6821,
      "ely": 6822,
      "eign": 6823,
      "fr": 6824,
      "fle": 6825,
      "fem": 6826,
      "gn": 6827,
      "gas": 6828,
      "gation": 6829,
      "gain": 6830,
      "get": 6831,
      "god": 6832,
      "good": 6833,
      "hu": 6834,
      "han": 6835,
      "hor": 6836,
      "hig": 6837,
      "ii": 6838,
      "ily": 6839,
      "ither": 6840,
      "ject": 6841,
      "ken": 6842,
      "ked": 6843,
      "ket": 6844,
      "kame": 6845,
      "la": 6846,
      "law": 6847,
      "loss": 6848,
      "ladesh": 6849,
      "mu": 6850,
      "mat": 6851,
      "mand": 6852,
      "marg": 6853,
      "mamm": 6854,
      "nam": 6855,
      "nation": 6856,
      "near": 6857,
      "name": 6858,
      "pat": 6859,
      "ped": 6860,
      "pul": 6861,
      "ption": 6862,
      "past": 6863,
      "pts": 6864,
      "pover": 6865,
      "ran": 6866,
      "ring": 6867,
      "round": 6868,
      "range": 6869,
      "sil": 6870,
      "sol": 6871,
      "sim": 6872,
      "sover": 6873,
      "slow": 6874,
      "sav": 6875,
      "sect": 6876,
      "somet": 6877,
      "tre": 6878,
      "test": 6879,
      "texts": 6880,
      "uent": 6881,
      "val": 6882,
      "vic": 6883,
      "vis": 6884,
      "varn": 6885,
      "would": 6886,
      "ze": 6887,
      "ंश": 6888,
      "ंस": 6889,
      "ंना": 6890,
      "ंच्या": 6891,
      "ंदी": 6892,
      "ंजन": 6893,
      "ंमध्ये": 6894,
      "ंदोलन": 6895,
      "ंपरिक": 6896,
      "अर्": 6897,
      "अरा": 6898,
      "अनि": 6899,
      "असम": 6900,
      "अल्": 6901,
      "अंद": 6902,
      "अच्छ": 6903,
      "अक्ट": 6904,
      "अणु": 6905,
      "आई": 6906,
      "आक": 6907,
      "आठ": 6908,
      "आव": 6909,
      "आकार": 6910,
      "आते": 6911,
      "आसाम": 6912,
      "आगे": 6913,
      "आंबे": 6914,
      "आहारा": 6915,
      "आंदोलन": 6916,
      "ईश": 6917,
      "उम": 6918,
      "उर्व": 6919,
      "ऊन": 6920,
      "ऊर्": 6921,
      "ऊपर": 6922,
      "एव": 6923,
      "एशन": 6924,
      "ऑपरे": 6925,
      "ओघात": 6926,
      "कथ": 6927,
      "खे": 6928,
      "गड": 6929,
      "गध": 6930,
      "गल": 6931,
      "गै": 6932,
      "गढ़": 6933,
      "चौ": 6934,
      "छह": 6935,
      "छा": 6936,
      "जू": 6937,
      "जान": 6938,
      "जन्": 6939,
      "जारी": 6940,
      "जंब": 6941,
      "झे": 6942,
      "झार": 6943,
      "टो": 6944,
      "ठक": 6945,
      "डकर": 6946,
      "ड्रा": 6947,
      "ढा": 6948,
      "णू": 6949,
      "तब": 6950,
      "तच्या": 6951,
      "थल": 6952,
      "थान": 6953,
      "दह": 6954,
      "धन": 6955,
      "धा": 6956,
      "नन": 6957,
      "नम": 6958,
      "नया": 6959,
      "नमु": 6960,
      "नदि": 6961,
      "नर्म": 6962,
      "नमू": 6963,
      "नमार": 6964,
      "पण": 6965,
      "पसं": 6966,
      "पत्र": 6967,
      "पमान": 6968,
      "पक्षा": 6969,
      "पड़ा": 6970,
      "पतन": 6971,
      "बल": 6972,
      "बळ": 6973,
      "बह": 6974,
      "बंद": 6975,
      "बियों": 6976,
      "बन्ध": 6977,
      "बद्दल": 6978,
      "भो": 6979,
      "भौ": 6980,
      "भरा": 6981,
      "मही": 6982,
      "मील": 6983,
      "मंड": 6984,
      "मृत्य": 6985,
      "मंच": 6986,
      "मगध": 6987,
      "यो": 6988,
      "यें": 6989,
      "यमु": 6990,
      "यद्य": 6991,
      "यपालिका": 6992,
      "रिया": 6993,
      "रणा": 6994,
      "रखा": 6995,
      "ळून": 6996,
      "व्र": 6997,
      "वार्": 6998,
      "वतात": 6999,
      "वटी": 7000,
      "वृत": 7001,
      "ववैविध": 7002,
      "शृ": 7003,
      "शतक": 7004,
      "शब्": 7005,
      "शक्त": 7006,
      "सै": 7007,
      "सॉ": 7008,
      "सौ": 7009,
      "सों": 7010,
      "सदे": 7011,
      "सिया": 7012,
      "सदी": 7013,
      "सभी": 7014,
      "सशस्त्र": 7015,
      "हम": 7016,
      "हरा": 7017,
      "हस्त": 7018,
      "हत्या": 7019,
      "हार्": 7020,
      "हारी": 7021,
      "हजह": 7022,
      "ाफ": 7023,
      "ाले": 7024,
      "िष्ठ": 7025,
      "िश्च": 7026,
      "ीण": 7027,
      "ीचे": 7028,
      "ुप": 7029,
      "ुव": 7030,
      "ूत": 7031,
      "ूबर": 7032,
      "ृह": 7033,
      "ोर": 7034,
      "ोत्तर": 7035,
      "्नि": 7036,
      "२३": 7037,
      "२९": 7038,
      "३७": 7039,
      "४३": 7040,
      "४५": 7041,
      "५२": 7042,
      "५००": 7043,
      "७९": 7044,
      "‍नी": 7045,
      "thor": 7046,
      "threat": 7047,
      "those": 7048,
      "ana": 7049,
      "anch": 7050,
      "anag": 7051,
      "anies": 7052,
      "anted": 7053,
      "anism": 7054,
      "anced": 7055,
      "another": 7056,
      "init": 7057,
      "ining": 7058,
      "inated": 7059,
      "institution": 7060,
      "then": 7061,
      "these": 7062,
      "ond": 7063,
      "only": 7064,
      "onial": 7065,
      "erial": 7066,
      "ergency": 7067,
      "rest": 7068,
      "recent": 7069,
      "reco": 7070,
      "refer": 7071,
      "reven": 7072,
      "dit": 7073,
      "dise": 7074,
      "diment": 7075,
      "discri": 7076,
      "ened": 7077,
      "ensive": 7078,
      "energy": 7079,
      "stand": 7080,
      "stri": 7081,
      "्याचे": 7082,
      "ature": 7083,
      "edul": 7084,
      "arts": 7085,
      "र्ज": 7086,
      "र्ट": 7087,
      "anding": 7088,
      "oro": 7089,
      "oral": 7090,
      "orial": 7091,
      "orally": 7092,
      "ातार": 7093,
      "ेंद्र": 7094,
      "Indira": 7095,
      "काज": 7096,
      "कान": 7097,
      "काने": 7098,
      "स्म": 7099,
      "स्वा": 7100,
      "स्ता": 7101,
      "19th": 7102,
      "1930": 7103,
      "1935": 7104,
      "प्रमा": 7105,
      "प्रवेश": 7106,
      "याब": 7107,
      "यामुळे": 7108,
      "ान्": 7109,
      "ानंतर": 7110,
      "राम": 7111,
      "राला": 7112,
      "isol": 7113,
      "साहे": 7114,
      "साक्षर": 7115,
      "सामान्य": 7116,
      "साधारण": 7117,
      "विमान": 7118,
      "विशा": 7119,
      "विरु": 7120,
      "विज्ञान": 7121,
      "विद्रो": 7122,
      "ents": 7123,
      "enter": 7124,
      "oming": 7125,
      "नां": 7126,
      "नाइ": 7127,
      "नाग": 7128,
      "नाऱ्या": 7129,
      "लाभ": 7130,
      "लाव": 7131,
      "लादेश": 7132,
      "ोंने": 7133,
      "tow": 7134,
      "today": 7135,
      "total": 7136,
      "वाज": 7137,
      "वाम": 7138,
      "level": 7139,
      "संर": 7140,
      "संलग": 7141,
      "संपूर्ण": 7142,
      "संबो": 7143,
      "संगम": 7144,
      "लेख": 7145,
      "लेली": 7146,
      "ected": 7147,
      "क्षणा": 7148,
      "urid": 7149,
      "urred": 7150,
      "करत": 7151,
      "करे": 7152,
      "करो": 7153,
      "ताज": 7154,
      "तांत्रिक": 7155,
      "तापमान": 7156,
      "तीसरी": 7157,
      "राजभाषा": 7158,
      "राजकीय": 7159,
      "त्‍": 7160,
      "त्वे": 7161,
      "त्पत्": 7162,
      "acter": 7163,
      "across": 7164,
      "ilway": 7165,
      "olved": 7166,
      "तिम": 7167,
      "तिसऱ्या": 7168,
      "20th": 7169,
      "2021": 7170,
      "2024": 7171,
      "न्स": 7172,
      "न्हे": 7173,
      "ams": 7174,
      "ample": 7175,
      "मुद्": 7176,
      "very": 7177,
      "ada": 7178,
      "adop": 7179,
      "added": 7180,
      "adher": 7181,
      "कारी": 7182,
      "कारभार": 7183,
      "पाई": 7184,
      "पाच": 7185,
      "पाठ": 7186,
      "पाव": 7187,
      "पावली": 7188,
      "trade": 7189,
      "lied": 7190,
      "lies": 7191,
      "lief": 7192,
      "like": 7193,
      "भारतीयों": 7194,
      "देशात": 7195,
      "होने": 7196,
      "होतो": 7197,
      "emple": 7198,
      "embly": 7199,
      "ched": 7200,
      "chos": 7201,
      "churid": 7202,
      "निर्म": 7203,
      "नियों": 7204,
      "ांवर": 7205,
      "जातीय": 7206,
      "rivers": 7207,
      "हिनी": 7208,
      "veget": 7209,
      "being": 7210,
      "belong": 7211,
      "bell": 7212,
      "belief": 7213,
      "seals": 7214,
      "separ": 7215,
      "self": 7216,
      "किनाऱ्या": 7217,
      "चाई": 7218,
      "2007": 7219,
      "2009": 7220,
      "conce": 7221,
      "estic": 7222,
      "cean": 7223,
      "reser": 7224,
      "दीव": 7225,
      "मानी": 7226,
      "मान्यता": 7227,
      "del": 7228,
      "devo": 7229,
      "ड़ियाँ": 7230,
      "वर्तन": 7231,
      "ira": 7232,
      "irt": 7233,
      "शाका": 7234,
      "शामिल": 7235,
      "शाहजह": 7236,
      "uni": 7237,
      "समी": 7238,
      "moist": 7239,
      "mother": 7240,
      "anged": 7241,
      "due": 7242,
      "राज्यसभे": 7243,
      "exchange": 7244,
      "example": 7245,
      "imes": 7246,
      "imper": 7247,
      "लिश": 7248,
      "लिस": 7249,
      "पुढ": 7250,
      "पुत": 7251,
      "पुरी": 7252,
      "पुड़ा": 7253,
      "पुलिस": 7254,
      "ables": 7255,
      "area": 7256,
      "नीति": 7257,
      "1990": 7258,
      "1998": 7259,
      "romise": 7260,
      "सरस्व": 7261,
      "six": 7262,
      "2018": 7263,
      "ush": 7264,
      "uscri": 7265,
      "रीबी": 7266,
      "त्याला": 7267,
      "त्यांची": 7268,
      "असली": 7269,
      "असतात": 7270,
      "असतो": 7271,
      "ल्स": 7272,
      "ल्ले": 7273,
      "ार्थी": 7274,
      "षाण": 7275,
      "स्थल": 7276,
      "income": 7277,
      "र्मण": 7278,
      "उत्तरा": 7279,
      "gration": 7280,
      "gradually": 7281,
      "जीव": 7282,
      "मोर्": 7283,
      "मोठी": 7284,
      "मोसमी": 7285,
      "ंडर": 7286,
      "मीण": 7287,
      "मीणा": 7288,
      "म्म": 7289,
      "म्बे": 7290,
      "वरिष्ठ": 7291,
      "ियो": 7292,
      "porter": 7293,
      "ivity": 7294,
      "comm": 7295,
      "idly": 7296,
      "plains": 7297,
      "pers": 7298,
      "्यांच्या": 7299,
      "्यांचे": 7300,
      "्यांमध्ये": 7301,
      "ulture": 7302,
      "oka": 7303,
      "sho": 7304,
      "shor": 7305,
      "share": 7306,
      "बहुमूल": 7307,
      "भूगोल": 7308,
      "सरकारों": 7309,
      "lows": 7310,
      "धर्मों": 7311,
      "धर्मनिरपेक्ष": 7312,
      "क्रय": 7313,
      "क्रि": 7314,
      "क्रमा": 7315,
      "क्रां": 7316,
      "gence": 7317,
      "ively": 7318,
      "क्षेत्रों": 7319,
      "रेशिय": 7320,
      "assert": 7321,
      "formal": 7322,
      "1950s": 7323,
      "wealth": 7324,
      "सारी": 7325,
      "सारख्या": 7326,
      "inequality": 7327,
      "हिन्द": 7328,
      "अधिकारी": 7329,
      "लगातार": 7330,
      "ources": 7331,
      "लोकसभे": 7332,
      "लोकतांत्रिक": 7333,
      "स्थानीय": 7334,
      "प्रदेशों": 7335,
      "निर्भर": 7336,
      "Aryan": 7337,
      "becoming": 7338,
      "osition": 7339,
      "partic": 7340,
      "anta": 7341,
      "जिसने": 7342,
      "जिसकी": 7343,
      "स्थापित": 7344,
      "अपेक्षा": 7345,
      "उपसाग": 7346,
      "गरजे": 7347,
      "मंत्रण": 7348,
      "contain": 7349,
      "contains": 7350,
      "प्राचीनतम": 7351,
      "बनने": 7352,
      "बनविले": 7353,
      "महात्": 7354,
      "रोजी": 7355,
      "प्रकारचे": 7356,
      "ometers": 7357,
      "व्यवस्थ": 7358,
      "व्यवसाय": 7359,
      "Thar": 7360,
      "latter": 7361,
      "rather": 7362,
      "railway": 7363,
      "ctive": 7364,
      "ctions": 7365,
      "governments": 7366,
      "कडा": 7367,
      "कडून": 7368,
      "गणतंत्र": 7369,
      "ministers": 7370,
      "decade": 7371,
      "primary": 7372,
      "गुट": 7373,
      "गुरू": 7374,
      "व्याप": 7375,
      "मिळाले": 7376,
      "मुख्यत्वे": 7377,
      "companies": 7378,
      "compromise": 7379,
      "populous": 7380,
      "पश्चिमे": 7381,
      "केंद्रीय": 7382,
      "यांना": 7383,
      "यांचे": 7384,
      "यांचा": 7385,
      "हिमालया": 7386,
      "मध्यम": 7387,
      "आणली": 7388,
      "चुकी": 7389,
      "शिवा": 7390,
      "ज़्या": 7391,
      "सेनाओं": 7392,
      "पूर्वीच्या": 7393,
      "द्वीपक": 7394,
      "द्वीपसमूह": 7395,
      "castes": 7396,
      "predomin": 7397,
      "parts": 7398,
      "मैल": 7399,
      "साम्राज्यों": 7400,
      "अर्थव्यवस्थ": 7401,
      "बढ़ा": 7402,
      "बढ़ने": 7403,
      "मूळ": 7404,
      "extensive": 7405,
      "झालेले": 7406,
      "numer": 7407,
      "ricket": 7408,
      "wards": 7409,
      "इतिहासा": 7410,
      "न्यायपालिका": 7411,
      "पारंपरिक": 7412,
      "मनमोहन": 7413,
      "स्ट्रे": 7414,
      "स्टाफ": 7415,
      "classes": 7416,
      "cause": 7417,
      "पहली": 7418,
      "पीठ": 7419,
      "तिशील": 7420,
      "हिमालयी": 7421,
      "cultural": 7422,
      "cultures": 7423,
      "eff": 7424,
      "बनाया": 7425,
      "सैनिक": 7426,
      "urbanisation": 7427,
      "folk": 7428,
      "loose": 7429,
      "less": 7430,
      "merch": 7431,
      "दर्भ": 7432,
      "दर्शन": 7433,
      "पैमान": 7434,
      "शहरा": 7435,
      "शहरे": 7436,
      "सूचना": 7437,
      "Indones": 7438,
      "शिक्षणपद्धती": 7439,
      "इतिहासकार": 7440,
      "Buddha": 7441,
      "उनका": 7442,
      "supported": 7443,
      "१९९०": 7444,
      "१९९८": 7445,
      "northwest": 7446,
      "Euras": 7447,
      "drain": 7448,
      "अवधि": 7449,
      "आपले": 7450,
      "घेत": 7451,
      "घेण्यास": 7452,
      "वारे": 7453,
      "setting": 7454,
      "सम्पूर्ण": 7455,
      "expans": 7456,
      "others": 7457,
      "rising": 7458,
      "अभि": 7459,
      "पठारा": 7460,
      "यनगर": 7461,
      "शैक्षणिक": 7462,
      "२००९": 7463,
      "कामकाज": 7464,
      "देखील": 7465,
      "न्होंने": 7466,
      "appear": 7467,
      "महाराष्ट्रातील": 7468,
      "Modern": 7469,
      "Mohen": 7470,
      "basin": 7471,
      "ngth": 7472,
      "president": 7473,
      "पंथी": 7474,
      "लुप्त": 7475,
      "सकल": 7476,
      "सकता": 7477,
      "सकते": 7478,
      "२०१४": 7479,
      "सेवाओं": 7480,
      "लागू": 7481,
      "१९७१": 7482,
      "मोठे": 7483,
      "marked": 7484,
      "eval": 7485,
      "ographics": 7486,
      "जैववैविध": 7487,
      "शोध": 7488,
      "armies": 7489,
      "office": 7490,
      "प्रभावित": 7491,
      "प्रांत": 7492,
      "विषय": 7493,
      "विद्यार्थी": 7494,
      "भाषे": 7495,
      "किल्ल्या": 7496,
      "signed": 7497,
      "forests": 7498,
      "इंग्रजां": 7499,
      "विकासशील": 7500,
      "Islands": 7501,
      "coll": 7502,
      "colonial": 7503,
      "आर्य": 7504,
      "आरक्षणा": 7505,
      "आक्रमणे": 7506,
      "पहाड़ी": 7507,
      "मार्ग": 7508,
      "राजनीति": 7509,
      "वर्णन": 7510,
      "mediately": 7511,
      "generally": 7512,
      "अन्तर्": 7513,
      "अन्ततः": 7514,
      "Himalayan": 7515,
      "13th": 7516,
      "Janata": 7517,
      "Republic": 7518,
      "manuscri": 7519,
      "obar": 7520,
      "poin": 7521,
      "schedul": 7522,
      "अगस्त": 7523,
      "अग्नि": 7524,
      "आलेल्या": 7525,
      "आहारात": 7526,
      "घाट": 7527,
      "घाटी": 7528,
      "ज्याचा": 7529,
      "पत्‍नी": 7530,
      "मसाले": 7531,
      "मसाल्या": 7532,
      "सतपुड़ा": 7533,
      "केन्द्रशासित": 7534,
      "1984": 7535,
      "प्रारम्भिक": 7536,
      "transmit": 7537,
      "निवडणू": 7538,
      "किनारे": 7539,
      "consists": 7540,
      "दक्षिणेकडील": 7541,
      "script": 7542,
      "गोलिक": 7543,
      "influences": 7544,
      "Sikhism": 7545,
      "Demographics": 7546,
      "breath": 7547,
      "crucial": 7548,
      "wana": 7549,
      "उभरा": 7550,
      "ऊँचाई": 7551,
      "ग्राम": 7552,
      "ग्रामीण": 7553,
      "फायदा": 7554,
      "बदलां": 7555,
      "बैठक": 7556,
      "मराठा": 7557,
      "मराठी": 7558,
      "्टवे": 7559,
      "related": 7560,
      "remaining": 7561,
      "ocracy": 7562,
      "provided": 7563,
      "produc": 7564,
      "marriages": 7565,
      "पृष्ठीय": 7566,
      "mathematical": 7567,
      "originally": 7568,
      "धर्माचा": 7569,
      "सुरुवात": 7570,
      "gave": 7571,
      "kilomet": 7572,
      "kilometers": 7573,
      "nings": 7574,
      "चोल": 7575,
      "चलाया": 7576,
      "जंगले": 7577,
      "जानेवारी": 7578,
      "शतका": 7579,
      "disputes": 7580,
      "strong": 7581,
      "status": 7582,
      "वास्तविक": 7583,
      "राज्यातील": 7584,
      "नियंत्र": 7585,
      "summer": 7586,
      "endemic": 7587,
      "प्रभावशाली": 7588,
      "Islamic": 7589,
      "पुरुषों": 7590,
      "Desert": 7591,
      "North": 7592,
      "average": 7593,
      "broad": 7594,
      "guard": 7595,
      "having": 7596,
      "makes": 7597,
      "natal": 7598,
      "village": 7599,
      "आमदार": 7600,
      "आसपास": 7601,
      "आर्द्र": 7602,
      "कमांडर": 7603,
      "कंपनी": 7604,
      "छोड़कर": 7605,
      "पहुँच": 7606,
      "रंगमंचा": 7607,
      "independence": 7608,
      "strength": 7609,
      "भारतीयांनी": 7610,
      "organisation": 7611,
      "स्मारका": 7612,
      "विजयनगर": 7613,
      "मालदीव": 7614,
      "administration": 7615,
      "liberal": 7616,
      "character": 7617,
      "हिस्सा": 7618,
      "respon": 7619,
      "residents": 7620,
      "लिखित": 7621,
      "वेषभूषा": 7622,
      "played": 7623,
      "policies": 7624,
      "increasingly": 7625,
      "society": 7626,
      "इंग्लिश": 7627,
      "पार्टियों": 7628,
      "currency": 7629,
      "employed": 7630,
      "गंगेच्या": 7631,
      "दख्खनच्या": 7632,
      "पुर्तगाली": 7633,
      "Assembly": 7634,
      "Civilisation": 7635,
      "Deccan": 7636,
      "Gupta": 7637,
      "Greek": 7638,
      "Gujar": 7639,
      "habit": 7640,
      "multi": 7641,
      "sites": 7642,
      "safe": 7643,
      "written": 7644,
      "wildlife": 7645,
      "आंतरिक": 7646,
      "नरेंद्र": 7647,
      "फुट": 7648,
      "म्यानमार": 7649,
      "यशस्वी": 7650,
      "सत्ता": 7651,
      "animals": 7652,
      "introduced": 7653,
      "reached": 7654,
      "dishes": 7655,
      "प्रकाश": 7656,
      "प्रश्न": 7657,
      "विरोध": 7658,
      "oulder": 7659,
      "tribal": 7660,
      "समझौ": 7661,
      "placed": 7662,
      "तुलना": 7663,
      "भागीदारी": 7664,
      "protected": 7665,
      "weapons": 7666,
      "हिन्दुस्तान": 7667,
      "Arabian": 7668,
      "काळाच्या": 7669,
      "Constituent": 7670,
      "practices": 7671,
      "Maurya": 7672,
      "वृद्धि": 7673,
      "schools": 7674,
      "architecture": 7675,
      "सुरुवातीला": 7676,
      "capita": 7677,
      "अस्तित्त्वात": 7678,
      "contributions": 7679,
      "Ashoka": 7680,
      "Bangladesh": 7681,
      "Early": 7682,
      "Front": 7683,
      "Middle": 7684,
      "Myanmar": 7685,
      "Nicobar": 7686,
      "Pallav": 7687,
      "Treaty": 7688,
      "daro": 7689,
      "eignty": 7690,
      "goods": 7691,
      "kameez": 7692,
      "laws": 7693,
      "much": 7694,
      "material": 7695,
      "margins": 7696,
      "mammals": 7697,
      "poverty": 7698,
      "sovereignty": 7699,
      "sector": 7700,
      "sometimes": 7701,
      "vict": 7702,
      "अरावली": 7703,
      "अक्टूबर": 7704,
      "आकर्मण": 7705,
      "आंबेडकर": 7706,
      "ईशान": 7707,
      "उर्वर": 7708,
      "ऑपरेशन": 7709,
      "गैर": 7710,
      "जंबू": 7711,
      "दहशत": 7712,
      "नमुने": 7713,
      "नदियों": 7714,
      "नर्मदा": 7715,
      "पक्षास": 7716,
      "भौगोलिक": 7717,
      "मृत्यु": 7718,
      "यमुना": 7719,
      "यद्यपि": 7720,
      "वार्षिक": 7721,
      "वृतीय": 7722,
      "शतकात": 7723,
      "शब्द": 7724,
      "सैनि": 7725,
      "सौहार्": 7726,
      "recogn": 7727,
      "revenues": 7728,
      "discrimin": 7729,
      "प्रमाणा": 7730,
      "साहेब": 7731,
      "साक्षरता": 7732,
      "साधारणपणे": 7733,
      "विशाल": 7734,
      "विरुद्ध": 7735,
      "विद्रोह": 7736,
      "संलग्न": 7737,
      "संबोध": 7738,
      "chosen": 7739,
      "churidars": 7740,
      "bellion": 7741,
      "शाहजहान": 7742,
      "imperial": 7743,
      "सरस्वती": 7744,
      "बहुमूल्य": 7745,
      "उपसागराला": 7746,
      "गरजेचे": 7747,
      "महात्मा": 7748,
      "Indonesia": 7749,
      "Mohenjo": 7750,
      "scheduled": 7751,
      "अग्निध": 7752,
      "transmitted": 7753,
      "kilometres": 7754,
      "materials": 7755,
      "सौहार्द": 7756,
      "\")": 7757,
      "(\"": 7758,
      ",\"": 7759,
      "./": 7760,
      "1st": 7761,
      "140": 7762,
      "27": 7763,
      "33": 7764,
      "34": 7765,
      "39": 7766,
      "41": 7767,
      "44": 7768,
      "45": 7769,
      "49": 7770,
      "53": 7771,
      "65": 7772,
      "6th": 7773,
      "600": 7774,
      "76": 7775,
      "7th": 7776,
      "700": 7777,
      "91": 7778,
      "94": 7779,
      "Aj": 7780,
      "Ap": 7781,
      "Ach": 7782,
      "Aust": 7783,
      "Agency": 7784,
      "Bal": 7785,
      "Bet": 7786,
      "CN": 7787,
      "Cl": 7788,
      "Cav": 7789,
      "Cup": 7790,
      "Clim": 7791,
      "Carn": 7792,
      "Culture": 7793,
      "Cricket": 7794,
      "Dis": 7795,
      "Dom": 7796,
      "Ele": 7797,
      "Ety": 7798,
      "Fol": 7799,
      "Gr": 7800,
      "Gen": 7801,
      "Gang": 7802,
      "Gond": 7803,
      "Hist": 7804,
      "II": 7805,
      "IU": 7806,
      "Im": 7807,
      "Jhar": 7808,
      "Jaw": 7809,
      "Jamm": 7810,
      "June": 7811,
      "Ko": 7812,
      "Keral": 7813,
      "Kaver": 7814,
      "Laksh": 7815,
      "Me": 7816,
      "Man": 7817,
      "Min": 7818,
      "Mum": 7819,
      "Ni": 7820,
      "No": 7821,
      "Nat": 7822,
      "Network": 7823,
      "Oc": 7824,
      "Or": 7825,
      "Over": 7826,
      "Old": 7827,
      "Ocean": 7828,
      "PP": 7829,
      "Pl": 7830,
      "Po": 7831,
      "Pu": 7832,
      "Pre": 7833,
      "Par": 7834,
      "Part": 7835,
      "President": 7836,
      "So": 7837,
      "Sin": 7838,
      "Sim": 7839,
      "Sab": 7840,
      "Sant": 7841,
      "Some": 7842,
      "Sever": 7843,
      "Sarn": 7844,
      "Sultanate": 7845,
      "Ti": 7846,
      "To": 7847,
      "Tr": 7848,
      "Ter": 7849,
      "Tri": 7850,
      "Tha": 7851,
      "Temple": 7852,
      "Ur": 7853,
      "Vis": 7854,
      "Vaj": 7855,
      "Vedic": 7856,
      "Wi": 7857,
      "Yaksh": 7858,
      "Zoro": 7859,
      "ah": 7860,
      "az": 7861,
      "aː": 7862,
      "aem": 7863,
      "ares": 7864,
      "aim": 7865,
      "aism": 7866,
      "ahar": 7867,
      "ba": 7868,
      "bes": 7869,
      "bul": 7870,
      "bour": 7871,
      "buc": 7872,
      "brough": 7873,
      "bai": 7874,
      "bron": 7875,
      "bably": 7876,
      "cin": 7877,
      "cat": 7878,
      "cit": 7879,
      "cil": 7880,
      "ctr": 7881,
      "cation": 7882,
      "care": 7883,
      "cro": 7884,
      "cover": 7885,
      "cere": 7886,
      "city": 7887,
      "cak": 7888,
      "cris": 7889,
      "cust": 7890,
      "cines": 7891,
      "creasing": 7892,
      "do": 7893,
      "dre": 7894,
      "dent": 7895,
      "dest": 7896,
      "doc": 7897,
      "dates": 7898,
      "data": 7899,
      "ee": 7900,
      "ew": 7901,
      "eigh": 7902,
      "eight": 7903,
      "eously": 7904,
      "either": 7905,
      "fo": 7906,
      "fac": 7907,
      "fil": 7908,
      "ful": 7909,
      "fest": 7910,
      "foun": 7911,
      "flow": 7912,
      "fav": 7913,
      "fish": 7914,
      "fused": 7915,
      "flo": 7916,
      "farm": 7917,
      "food": 7918,
      "flower": 7919,
      "fash": 7920,
      "gl": 7921,
      "gin": 7922,
      "gro": 7923,
      "give": 7924,
      "gig": 7925,
      "govern": 7926,
      "gadi": 7927,
      "hā": 7928,
      "hal": 7929,
      "hol": 7930,
      "ham": 7931,
      "hun": 7932,
      "hous": 7933,
      "hood": 7934,
      "if": 7935,
      "idu": 7936,
      "ief": 7937,
      "ified": 7938,
      "jur": 7939,
      "jay": 7940,
      "jack": 7941,
      "kk": 7942,
      "kur": 7943,
      "kill": 7944,
      "ls": 7945,
      "lin": 7946,
      "lal": 7947,
      "lic": 7948,
      "leng": 7949,
      "lines": 7950,
      "ms": 7951,
      "may": 7952,
      "mass": 7953,
      "molog": 7954,
      "mns": 7955,
      "males": 7956,
      "nd": 7957,
      "nin": 7958,
      "nic": 7959,
      "next": 7960,
      "narr": 7961,
      "network": 7962,
      "oin": 7963,
      "oor": 7964,
      "och": 7965,
      "ove": 7966,
      "osp": 7967,
      "ph": 7968,
      "pi": 7969,
      "pil": 7970,
      "phas": 7971,
      "pot": 7972,
      "pically": 7973,
      "pants": 7974,
      "ptions": 7975,
      "paren": 7976,
      "push": 7977,
      "rat": 7978,
      "rac": 7979,
      "rap": 7980,
      "ranges": 7981,
      "rati": 7982,
      "she": 7983,
      "sli": 7984,
      "smo": 7985,
      "sport": 7986,
      "saw": 7987,
      "sports": 7988,
      "tand": 7989,
      "tun": 7990,
      "ties": 7991,
      "treat": 7992,
      "text": 7993,
      "tled": 7994,
      "table": 7995,
      "templ": 7996,
      "temper": 7997,
      "usu": 7998,
      "ude": 7999,
      "ufact": 8000,
      "utra": 8001,
      "ves": 8002,
      "vas": 8003,
      "vary": 8004,
      "valley": 8005,
      "wing": 8006,
      "wet": 8007,
      "xed": 8008,
      "yal": 8009,
      "zes": 8010,
      "νδ": 8011,
      "ँचा": 8012,
      "ँग्रे": 8013,
      "ंट": 8014,
      "ंढ": 8015,
      "ंथ": 8016,
      "ंवा": 8017,
      "ंता": 8018,
      "ंकि": 8019,
      "ंजी": 8020,
      "ंठा": 8021,
      "ंकड": 8022,
      "ंचल": 8023,
      "ंतीस": 8024,
      "अख": 8025,
      "अध": 8026,
      "अफ": 8027,
      "अ‍": 8028,
      "असा": 8029,
      "असं": 8030,
      "अक्ष": 8031,
      "अंग": 8032,
      "अजि": 8033,
      "अरु": 8034,
      "अत्य": 8035,
      "अग्र": 8036,
      "अशांति": 8037,
      "अलिक": 8038,
      "अहम": 8039,
      "आए": 8040,
      "आया": 8041,
      "आने": 8042,
      "आता": 8043,
      "आद्र": 8044,
      "आकृ": 8045,
      "आल्या": 8046,
      "आपूर्": 8047,
      "आशिय": 8048,
      "आघा": 8049,
      "आदर्श": 8050,
      "इत": 8051,
      "इंद्र": 8052,
      "इच्छ": 8053,
      "इण्ड": 8054,
      "इव्": 8055,
      "इराण": 8056,
      "इलावा": 8057,
      "इजरा": 8058,
      "उल": 8059,
      "उद्": 8060,
      "उड़ी": 8061,
      "उन्होंने": 8062,
      "ऋत्य": 8063,
      "एड": 8064,
      "एफ": 8065,
      "एस": 8066,
      "एसो": 8067,
      "ऐसे": 8068,
      "ऐसी": 8069,
      "ऑग": 8070,
      "ऑस्": 8071,
      "ऑस्ट्रे": 8072,
      "ओण": 8073,
      "औद्योग": 8074,
      "औसत": 8075,
      "कट": 8076,
      "कॅ": 8077,
      "करा": 8078,
      "कथा": 8079,
      "कहीं": 8080,
      "कन्या": 8081,
      "कन्न": 8082,
      "काता": 8083,
      "कनिष्ठ": 8084,
      "कंकड": 8085,
      "खी": 8086,
      "खू": 8087,
      "ख्र": 8088,
      "खात": 8089,
      "खान": 8090,
      "खून": 8091,
      "ख्ये": 8092,
      "खण्ड": 8093,
      "ग़": 8094,
      "गू": 8095,
      "गार": 8096,
      "गान": 8097,
      "गये": 8098,
      "गडा": 8099,
      "गळी": 8100,
      "गव्हा": 8101,
      "गतिशील": 8102,
      "घट": 8103,
      "घु": 8104,
      "घू": 8105,
      "घरे": 8106,
      "घकाल": 8107,
      "घटन": 8108,
      "घटना": 8109,
      "घनिष्ठ": 8110,
      "चस्व": 8111,
      "चक्र": 8112,
      "चतु": 8113,
      "चंद्र": 8114,
      "छू": 8115,
      "जड": 8116,
      "जॉ": 8117,
      "जना": 8118,
      "जम्": 8119,
      "जगा": 8120,
      "झर्व": 8121,
      "टका": 8122,
      "टार्": 8123,
      "डच": 8124,
      "डर": 8125,
      "णय": 8126,
      "तल": 8127,
      "तन्": 8128,
      "तद्": 8129,
      "तज्ञ": 8130,
      "थम": 8131,
      "थंड": 8132,
      "दात": 8133,
      "दरा": 8134,
      "दली": 8135,
      "दमन": 8136,
      "दौर": 8137,
      "दगड": 8138,
      "दशहरा": 8139,
      "धड": 8140,
      "धर": 8141,
      "धम्म": 8142,
      "नई": 8143,
      "नव": 8144,
      "नृ": 8145,
      "न्य": 8146,
      "नष्ट": 8147,
      "नये": 8148,
      "नवर": 8149,
      "पथ": 8150,
      "परा": 8151,
      "पों": 8152,
      "पति": 8153,
      "पदा": 8154,
      "पब्": 8155,
      "पत्य": 8156,
      "पन्न": 8157,
      "पाती": 8158,
      "पसन्": 8159,
      "फळ": 8160,
      "फिक": 8161,
      "बई": 8162,
      "बट": 8163,
      "बु": 8164,
      "बती": 8165,
      "बहा": 8166,
      "बंग": 8167,
      "बरी": 8168,
      "ब्रे": 8169,
      "बलों": 8170,
      "भ्र": 8171,
      "भवर्ष": 8172,
      "भक्ति": 8173,
      "मर": 8174,
      "मल": 8175,
      "म्य": 8176,
      "मते": 8177,
      "मरी": 8178,
      "मारा": 8179,
      "ममाण": 8180,
      "मशी": 8181,
      "माता": 8182,
      "मजब": 8183,
      "मबे": 8184,
      "मपुत्र": 8185,
      "मणि": 8186,
      "मात्र": 8187,
      "यण": 8188,
      "यल": 8189,
      "यि": 8190,
      "यक्ष": 8191,
      "यहा": 8192,
      "यातील": 8193,
      "यद्वीप": 8194,
      "यिका": 8195,
      "यत्न": 8196,
      "रळ": 8197,
      "रै": 8198,
      "रका": 8199,
      "रसा": 8200,
      "रचा": 8201,
      "रंगा": 8202,
      "रवरी": 8203,
      "रडे": 8204,
      "रममाण": 8205,
      "ऱ्यां": 8206,
      "ऱ्यात": 8207,
      "लत": 8208,
      "लम": 8209,
      "ल्य": 8210,
      "लक्ष": 8211,
      "लंड": 8212,
      "लंब": 8213,
      "लब्": 8214,
      "लकाता": 8215,
      "ळची": 8216,
      "ळकार": 8217,
      "वट": 8218,
      "वने": 8219,
      "वला": 8220,
      "वस्त": 8221,
      "वाने": 8222,
      "वधान": 8223,
      "वक्त": 8224,
      "वजह": 8225,
      "शः": 8226,
      "श्य": 8227,
      "शतर": 8228,
      "ष्य": 8229,
      "सन": 8230,
      "सल": 8231,
      "सिक": 8232,
      "सक्ष": 8233,
      "सतर": 8234,
      "समान": 8235,
      "सवी": 8236,
      "सचि": 8237,
      "सार्": 8238,
      "सभाग": 8239,
      "सिक्": 8240,
      "हद": 8241,
      "हू": 8242,
      "ह्": 8243,
      "हवे": 8244,
      "हळे": 8245,
      "हंप": 8246,
      "हाता": 8247,
      "हजार": 8248,
      "हनन": 8249,
      "हस्ता": 8250,
      "ावर": 8251,
      "ामध्ये": 8252,
      "ासाठी": 8253,
      "ायिका": 8254,
      "िल": 8255,
      "िला": 8256,
      "िप्त": 8257,
      "ुक": 8258,
      "ुस्थान": 8259,
      "ुण्": 8260,
      "ूदी": 8261,
      "ेडे": 8262,
      "ॉक": 8263,
      "ोण": 8264,
      "ोत": 8265,
      "ोबार": 8266,
      "्लो": 8267,
      "्त्वा": 8268,
      "्लादेश": 8269,
      "१२०": 8270,
      "१०००": 8271,
      "२५": 8272,
      "३०": 8273,
      "३२": 8274,
      "३३": 8275,
      "४६": 8276,
      "४८": 8277,
      "५१": 8278,
      "५५": 8279,
      "५४५": 8280,
      "६६": 8281,
      "८५": 8282,
      "Ἰνδ": 8283,
      "thm": 8284,
      "thic": 8285,
      "anat": 8286,
      "aning": 8287,
      "inal": 8288,
      "ined": 8289,
      "inform": 8290,
      "inno": 8291,
      "instru": 8292,
      "्रम": 8293,
      "्रवा": 8294,
      "thes": 8295,
      "onic": 8296,
      "onome": 8297,
      "onset": 8298,
      "erc": 8299,
      "erly": 8300,
      "redi": 8301,
      "rece": 8302,
      "reme": 8303,
      "repe": 8304,
      "reform": 8305,
      "relat": 8306,
      "rept": 8307,
      "reement": 8308,
      "reforms": 8309,
      "represent": 8310,
      "returned": 8311,
      "refle": 8312,
      "rebellion": 8313,
      "did": 8314,
      "died": 8315,
      "diction": 8316,
      "केट": 8317,
      "केल्या": 8318,
      "केरळ": 8319,
      "ala": 8320,
      "aled": 8321,
      "alliance": 8322,
      "alwars": 8323,
      "ene": 8324,
      "enn": 8325,
      "ening": 8326,
      "enab": 8327,
      "ences": 8328,
      "enhouse": 8329,
      "sts": 8330,
      "stant": 8331,
      "stress": 8332,
      "stud": 8333,
      "stian": 8334,
      "्याच्या": 8335,
      "्यालय": 8336,
      "्याचल": 8337,
      "्यानंतर": 8338,
      "attr": 8339,
      "atist": 8340,
      "atts": 8341,
      "atory": 8342,
      "atives": 8343,
      "Inter": 8344,
      "Increasing": 8345,
      "aras": 8346,
      "aris": 8347,
      "arter": 8348,
      "ards": 8349,
      "ardis": 8350,
      "भारतवर्ष": 8351,
      "भारतभर": 8352,
      "र्ता": 8353,
      "र्घकाल": 8354,
      "andy": 8355,
      "ord": 8356,
      "oration": 8357,
      "orce": 8358,
      "ातकाल": 8359,
      "ेंच": 8360,
      "ेंजो": 8361,
      "कावे": 8362,
      "काबी": 8363,
      "काश्मीर": 8364,
      "कांपैकी": 8365,
      "काँग्रे": 8366,
      "स्वर": 8367,
      "स्फे": 8368,
      "मेंट": 8369,
      "1900": 8370,
      "1987": 8371,
      "प्रशास": 8372,
      "प्रगति": 8373,
      "प्रदर्शन": 8374,
      "प्रथम": 8375,
      "याच": 8376,
      "याचा": 8377,
      "यादी": 8378,
      "यानंतर": 8379,
      "यासाठी": 8380,
      "ase": 8381,
      "asi": 8382,
      "asures": 8383,
      "asions": 8384,
      "asured": 8385,
      "ital": 8386,
      "itary": 8387,
      "itics": 8388,
      "itude": 8389,
      "ानी": 8390,
      "ानों": 8391,
      "िकोण": 8392,
      "रामा": 8393,
      "राशि": 8394,
      "ises": 8395,
      "ision": 8396,
      "ising": 8397,
      "isans": 8398,
      "isine": 8399,
      "isions": 8400,
      "isdiction": 8401,
      "ings": 8402,
      "साचे": 8403,
      "साडी": 8404,
      "साचार": 8405,
      "सादर": 8406,
      "साफ़": 8407,
      "सावादी": 8408,
      "साजरा": 8409,
      "साझे": 8410,
      "नेता": 8411,
      "नेपाल": 8412,
      "विभा": 8413,
      "विंध": 8414,
      "विभाज": 8415,
      "विशिष्ट": 8416,
      "वित्त": 8417,
      "सेमी": 8418,
      "सेल्स": 8419,
      "ently": 8420,
      "ential": 8421,
      "entually": 8422,
      "oms": 8423,
      "omic": 8424,
      "नाथ": 8425,
      "नाभवर्ष": 8426,
      "लाइ": 8427,
      "क्स": 8428,
      "क्शन": 8429,
      "कीम": 8430,
      "कीर्": 8431,
      "top": 8432,
      "tober": 8433,
      "वाँ": 8434,
      "वाट": 8435,
      "वाय": 8436,
      "वाले": 8437,
      "वालय": 8438,
      "वालों": 8439,
      "वाणि": 8440,
      "संत": 8441,
      "संक्ष": 8442,
      "संस्था": 8443,
      "संसार": 8444,
      "संबर": 8445,
      "संगठ": 8446,
      "संचाल": 8447,
      "संख्य": 8448,
      "संसदे": 8449,
      "संदर्भ": 8450,
      "संशोध": 8451,
      "संग्राम": 8452,
      "संख्ये": 8453,
      "लेले": 8454,
      "लेशिय": 8455,
      "त्रता": 8456,
      "lying": 8457,
      "ection": 8458,
      "ections": 8459,
      "माग": 8460,
      "माला": 8461,
      "मामले": 8462,
      "uri": 8463,
      "करी": 8464,
      "करवाने": 8465,
      "थाई": 8466,
      "थांचा": 8467,
      "देता": 8468,
      "देते": 8469,
      "परन्तु": 8470,
      "ताचे": 8471,
      "तांद": 8472,
      "तासाठी": 8473,
      "भांग": 8474,
      "भाबर": 8475,
      "hest": 8476,
      "तीनंतर": 8477,
      "तीसरे": 8478,
      "तीव्र": 8479,
      "राजवट": 8480,
      "त्म": 8481,
      "action": 8482,
      "according": 8483,
      "accoun": 8484,
      "access": 8485,
      "ils": 8486,
      "ilar": 8487,
      "iland": 8488,
      "iles": 8489,
      "iling": 8490,
      "ilding": 8491,
      "olution": 8492,
      "ष्म": 8493,
      "ष्णा": 8494,
      "2019": 8495,
      "न्हा": 8496,
      "न्ही": 8497,
      "amy": 8498,
      "amed": 8499,
      "amend": 8500,
      "तरण": 8501,
      "मुम्": 8502,
      "मुक्त": 8503,
      "मुलगा": 8504,
      "adem": 8505,
      "adwe": 8506,
      "advent": 8507,
      "कार्रवा": 8508,
      "They": 8509,
      "पाक": 8510,
      "पाट": 8511,
      "पांड": 8512,
      "पाठी": 8513,
      "पाइन": 8514,
      "पांची": 8515,
      "पाषाण": 8516,
      "पांढ": 8517,
      "trad": 8518,
      "tries": 8519,
      "कोपे": 8520,
      "कोरडे": 8521,
      "कोलकाता": 8522,
      "ंगीण": 8523,
      "lig": 8524,
      "live": 8525,
      "ligion": 8526,
      "lived": 8527,
      "living": 8528,
      "देश्य": 8529,
      "देशातील": 8530,
      "देशांमध्ये": 8531,
      "होय": 8532,
      "होली": 8533,
      "emiss": 8534,
      "emphas": 8535,
      "तेज": 8536,
      "तेथे": 8537,
      "तेलु": 8538,
      "तेज़ी": 8539,
      "तेमाल": 8540,
      "chap": 8541,
      "chains": 8542,
      "child": 8543,
      "changed": 8544,
      "चेरी": 8545,
      "चेन्न": 8546,
      "नियु": 8547,
      "नियुक्त": 8548,
      "निमंत्रण": 8549,
      "ांसोबत": 8550,
      "ांविरुद्ध": 8551,
      "rial": 8552,
      "riya": 8553,
      "riors": 8554,
      "ristian": 8555,
      "agana": 8556,
      "agreement": 8557,
      "best": 8558,
      "begin": 8559,
      "isting": 8560,
      "isters": 8561,
      "sex": 8562,
      "seats": 8563,
      "sediment": 8564,
      "किंवा": 8565,
      "मियों": 8566,
      "चाह": 8567,
      "चांग": 8568,
      "चालु": 8569,
      "force": 8570,
      "forti": 8571,
      "fortable": 8572,
      "consum": 8573,
      "पूरी": 8574,
      "ceed": 8575,
      "resolved": 8576,
      "resources": 8577,
      "open": 8578,
      "opor": 8579,
      "suc": 8580,
      "super": 8581,
      "supre": 8582,
      "दीर्घकाल": 8583,
      "मधे": 8584,
      "मानला": 8585,
      "मानले": 8586,
      "dev": 8587,
      "defe": 8588,
      "deleg": 8589,
      "devast": 8590,
      "ड़े": 8591,
      "वर्तु": 8592,
      "वर्गी": 8593,
      "वर्चस्व": 8594,
      "iron": 8595,
      "शाखा": 8596,
      "ung": 8597,
      "united": 8598,
      "uncommon": 8599,
      "unitary": 8600,
      "unresolved": 8601,
      "एकच": 8602,
      "एकना": 8603,
      "समज": 8604,
      "समस": 8605,
      "समे": 8606,
      "model": 8607,
      "what": 8608,
      "angra": 8609,
      "duction": 8610,
      "राज्यकर्": 8611,
      "exported": 8612,
      "excav": 8613,
      "exporter": 8614,
      "exerc": 8615,
      "existing": 8616,
      "ime": 8617,
      "impro": 8618,
      "imple": 8619,
      "immediately": 8620,
      "लिही": 8621,
      "tside": 8622,
      "tspo": 8623,
      "पुरा": 8624,
      "पुर्व": 8625,
      "पुराव": 8626,
      "पुन्हा": 8627,
      "abad": 8628,
      "above": 8629,
      "रूपरे": 8630,
      "बाल": 8631,
      "बाबा": 8632,
      "बाढ़": 8633,
      "बायो": 8634,
      "बाबती": 8635,
      "्येकडील": 8636,
      "role": 8637,
      "दिए": 8638,
      "दिन": 8639,
      "दिवाली": 8640,
      "दिसंबर": 8641,
      "वेढ": 8642,
      "वेरू": 8643,
      "वेळा": 8644,
      "derived": 8645,
      "भीमबे": 8646,
      "सरपट": 8647,
      "sia": 8648,
      "side": 8649,
      "1949": 8650,
      "प्राणी": 8651,
      "प्रायद्वीप": 8652,
      "प्रावधान": 8653,
      "mental": 8654,
      "mented": 8655,
      "overran": 8656,
      "2017": 8657,
      "using": 8658,
      "इसने": 8659,
      "इसवी": 8660,
      "रीति": 8661,
      "द्धा": 8662,
      "ute": 8663,
      "त्याने": 8664,
      "त्याची": 8665,
      "त्यांचा": 8666,
      "त्यासाठी": 8667,
      "त्यांनी": 8668,
      "१९२०": 8669,
      "१९१३": 8670,
      "असत": 8671,
      "असला": 8672,
      "असैन": 8673,
      "असणे": 8674,
      "असफल": 8675,
      "कृत": 8676,
      "कृष्णा": 8677,
      "चिन": 8678,
      "ल्म": 8679,
      "ार्थांचा": 8680,
      "artic": 8681,
      "artistic": 8682,
      "artists": 8683,
      "artisans": 8684,
      "17th": 8685,
      "aps": 8686,
      "aped": 8687,
      "aputra": 8688,
      "युरोपीय": 8689,
      "येणारे": 8690,
      "inces": 8691,
      "र्मी": 8692,
      "1961": 8693,
      "1964": 8694,
      "1966": 8695,
      "मुखी": 8696,
      "10th": 8697,
      "उत्खन": 8698,
      "उत्थान": 8699,
      "जिसे": 8700,
      "जिन्हे": 8701,
      "जिमेंट": 8702,
      "स्थाई": 8703,
      "gradi": 8704,
      "bodi": 8705,
      "bott": 8706,
      "जीवा": 8707,
      "जीडी": 8708,
      "जीविका": 8709,
      "मोहिनी": 8710,
      "विधि": 8711,
      "विधायिका": 8712,
      "पूर्वे": 8713,
      "पूर्वोत्तर": 8714,
      "etah": 8715,
      "ंडी": 8716,
      "जनक": 8717,
      "मीटर": 8718,
      "ियस": 8719,
      "portion": 8720,
      "therers": 8721,
      "18th": 8722,
      "iva": 8723,
      "ival": 8724,
      "iving": 8725,
      "ाराचे": 8726,
      "commit": 8727,
      "comfortable": 8728,
      "सिख": 8729,
      "सिन्ध": 8730,
      "सिएशन": 8731,
      "idence": 8732,
      "plant": 8733,
      "planted": 8734,
      "स्वयं": 8735,
      "स्वतन्": 8736,
      "वर्षे": 8737,
      "centre": 8738,
      "centage": 8739,
      "percentage": 8740,
      "दोन्ही": 8741,
      "्यांची": 8742,
      "्यांचा": 8743,
      "megadi": 8744,
      "meaning": 8745,
      "shy": 8746,
      "shared": 8747,
      "ship": 8748,
      "shoulder": 8749,
      "जाऊ": 8750,
      "जापान": 8751,
      "णाचल": 8752,
      "दाख": 8753,
      "दावरी": 8754,
      "दादरा": 8755,
      "बहुपक्ष": 8756,
      "बहुसंख्य": 8757,
      "राष्ट्रों": 8758,
      "राष्ट्रपति": 8759,
      "codi": 8760,
      "cost": 8761,
      "cosine": 8762,
      "lution": 8763,
      "peace": 8764,
      "सरकारी": 8765,
      "lowed": 8766,
      "सामने": 8767,
      "सामना": 8768,
      "क्षेप": 8769,
      "व्यक्ति": 8770,
      "gender": 8771,
      "तुलन": 8772,
      "सदांना": 8773,
      "सुल": 8774,
      "सुरक्षा": 8775,
      "सुधार": 8776,
      "सुवर्ण": 8777,
      "सुधारण": 8778,
      "सुमारा": 8779,
      "सुद्धा": 8780,
      "भागवत": 8781,
      "क्षेत्रात": 8782,
      "क्षेत्रामध्ये": 8783,
      "iger": 8784,
      "रेजिमेंट": 8785,
      "ends": 8786,
      "ended": 8787,
      "atedly": 8788,
      "assical": 8789,
      "assass": 8790,
      "formally": 8791,
      "aval": 8792,
      "larger": 8793,
      "proj": 8794,
      "produced": 8795,
      "probably": 8796,
      "सीम": 8797,
      "welf": 8798,
      "affir": 8799,
      "spic": 8800,
      "spending": 8801,
      "टिळ": 8802,
      "रूपए": 8803,
      "mini": 8804,
      "minor": 8805,
      "ished": 8806,
      "Chand": 8807,
      "Chol": 8808,
      "Chha": 8809,
      "Chess": 8810,
      "Champ": 8811,
      "Chief": 8812,
      "Christian": 8813,
      "लगी": 8814,
      "ought": 8815,
      "उत्तरदा": 8816,
      "यहूदी": 8817,
      "oury": 8818,
      "ousand": 8819,
      "amework": 8820,
      "लोकशाही": 8821,
      "लोकनृ": 8822,
      "लोकसंख्ये": 8823,
      "स्थानों": 8824,
      "स्थानिक्": 8825,
      "ogamy": 8826,
      "धान्ये": 8827,
      "प्रदेशांत": 8828,
      "िक्ष": 8829,
      "निर्वाह": 8830,
      "Artic": 8831,
      "marry": 8832,
      "marshy": 8833,
      "osa": 8834,
      "osis": 8835,
      "osing": 8836,
      "parties": 8837,
      "partially": 8838,
      "जोर": 8839,
      "स्थापत्याचे": 8840,
      "economies": 8841,
      "उपप्रकार": 8842,
      "उपग्र": 8843,
      "उपसागर": 8844,
      "उपलब्": 8845,
      "पटल": 8846,
      "मंत्रा": 8847,
      "साम्राज्ये": 8848,
      "otech": 8849,
      "वैश्": 8850,
      "कुलीन": 8851,
      "दलों": 8852,
      "दलीय": 8853,
      "दलदली": 8854,
      "बनला": 8855,
      "बनली": 8856,
      "महान": 8857,
      "महत्व": 8858,
      "मह्त्वा": 8859,
      "रोवली": 8860,
      "रोखून": 8861,
      "stitutes": 8862,
      "प्रकारात": 8863,
      "प्रकारची": 8864,
      "Proli": 8865,
      "close": 8866,
      "cloth": 8867,
      "claim": 8868,
      "ब्रह्": 8869,
      "महाल": 8870,
      "महाभारत": 8871,
      "महाखंड": 8872,
      "महाविद्या": 8873,
      "नामों": 8874,
      "नामशेष": 8875,
      "substant": 8876,
      "1858": 8877,
      "bercul": 8878,
      "neigh": 8879,
      "ological": 8880,
      "ologically": 8881,
      "cture": 8882,
      "कडधान्ये": 8883,
      "गणित": 8884,
      "included": 8885,
      "includes": 8886,
      "अनुसूची": 8887,
      "Hindus": 8888,
      "decreasing": 8889,
      "decidu": 8890,
      "विविधता": 8891,
      "मिळाला": 8892,
      "मुख्यरूप": 8893,
      "मुख्यमंत्री": 8894,
      "company": 8895,
      "comprising": 8896,
      "चित्रपटाला": 8897,
      "चित्रपटांची": 8898,
      "Asians": 8899,
      "electr": 8900,
      "sci": 8901,
      "scale": 8902,
      "ackbuc": 8903,
      "मध्यकालीन": 8904,
      "साहित्या": 8905,
      "साहित्यात": 8906,
      "गाँ": 8907,
      "शिरका": 8908,
      "relief": 8909,
      "ब्रिटिशकालीन": 8910,
      "ब्रिटिशांविरुद्ध": 8911,
      "ganiz": 8912,
      "ंबद्दल": 8913,
      "कर्मियों": 8914,
      "ज़न": 8915,
      "तिकर्ता": 8916,
      "पदार्थ": 8917,
      "पदार्थांचा": 8918,
      "मंत्रीमंड": 8919,
      "systems": 8920,
      "niqu": 8921,
      "pread": 8922,
      "prevent": 8923,
      "ralian": 8924,
      "series": 8925,
      "serving": 8926,
      "असेही": 8927,
      "मतदान": 8928,
      "मतभे": 8929,
      "रिवाज": 8930,
      "रिझर्व": 8931,
      "शकतात": 8932,
      "सर्वात": 8933,
      "मिलित": 8934,
      "विधानसभा": 8935,
      "पाकिस्तानात": 8936,
      "Emergency": 8937,
      "blackbuc": 8938,
      "monwealth": 8939,
      "wood": 8940,
      "बढ़ो": 8941,
      "सभासदांना": 8942,
      "extinct": 8943,
      "extreme": 8944,
      "extends": 8945,
      "झालेला": 8946,
      "झालेली": 8947,
      "361": 8948,
      "pollution": 8949,
      "warriors": 8950,
      "गोड": 8951,
      "गोवा": 8952,
      "गोदावरी": 8953,
      "पारसी": 8954,
      "मनु": 8955,
      "मनोर": 8956,
      "सहित": 8957,
      "tail": 8958,
      "आजही": 8959,
      "चलने": 8960,
      "ज्वाला": 8961,
      "पहाता": 8962,
      "पीए": 8963,
      "योग्य": 8964,
      "itions": 8965,
      "ectively": 8966,
      "द्वारे": 8967,
      "limited": 8968,
      "संस्कृतीची": 8969,
      "domestic": 8970,
      "efly": 8971,
      "mainly": 8972,
      "maintain": 8973,
      "notable": 8974,
      "notably": 8975,
      "इनका": 8976,
      "त्यक्ष": 8977,
      "दुसऱ्या": 8978,
      "बनाए": 8979,
      "बंगाली": 8980,
      "युद्धों": 8981,
      "largely": 8982,
      "Unt": 8983,
      "followed": 8984,
      "puts": 8985,
      "vide": 8986,
      "viet": 8987,
      "view": 8988,
      "अंग्रेजों": 8989,
      "एशियाई": 8990,
      "ग्रंथ": 8991,
      "दर्जा": 8992,
      "दर्ज़": 8993,
      "पैंतीस": 8994,
      "पर्वता": 8995,
      "सूत्र": 8996,
      "दिल्लीतील": 8997,
      "इतिहासातील": 8998,
      "feration": 8999,
      "humans": 9000,
      "princes": 9001,
      "southwest": 9002,
      "इस्तेमाल": 9003,
      "विकि": 9004,
      "केलेल्या": 9005,
      "न्नति": 9006,
      "मुद्रा": 9007,
      "supplanted": 9008,
      "पुराने": 9009,
      "पुराना": 9010,
      "१९९६": 9011,
      "१९९९": 9012,
      "मैदानों": 9013,
      "Major": 9014,
      "dry": 9015,
      "kho": 9016,
      "khand": 9017,
      "अवसाद": 9018,
      "अवलंब": 9019,
      "आपके": 9020,
      "आपल्या": 9021,
      "आपातकाल": 9022,
      "गठित": 9023,
      "घेऊ": 9024,
      "घेण्यात": 9025,
      "जगह": 9026,
      "जगात": 9027,
      "दूर": 9028,
      "दूसरे": 9029,
      "निकोबार": 9030,
      "पडतो": 9031,
      "फ्रेंच": 9032,
      "वार्य": 9033,
      "श्री": 9034,
      "िकांश": 9035,
      "aticians": 9036,
      "नाट्य": 9037,
      "ilitated": 9038,
      "settle": 9039,
      "सम्प्रभु": 9040,
      "सम्मिलित": 9041,
      "expanding": 9042,
      "क्रमशः": 9043,
      "ज्ञात": 9044,
      "नेतृत्‍": 9045,
      "Commonwealth": 9046,
      "awatts": 9047,
      "course": 9048,
      "nonviol": 9049,
      "फ़ि": 9050,
      "फ़ेडे": 9051,
      "यूरेशिय": 9052,
      "यूपीए": 9053,
      "१८५७": 9054,
      "therefore": 9055,
      "thereafter": 9056,
      "कामयाब": 9057,
      "legal": 9058,
      "leges": 9059,
      "देखो": 9060,
      "देखने": 9061,
      "देखते": 9062,
      "भाज्या": 9063,
      "हिंसाचार": 9064,
      "apped": 9065,
      "applied": 9066,
      "appoin": 9067,
      "literary": 9068,
      "literature": 9069,
      "Modi": 9070,
      "Nep": 9071,
      "New": 9072,
      "aith": 9073,
      "nationalist": 9074,
      "presence": 9075,
      "sole": 9076,
      "बेटे": 9077,
      "बोला": 9078,
      "बोली": 9079,
      "समुद्रा": 9080,
      "२०११": 9081,
      "international": 9082,
      "intervention": 9083,
      "कांचे": 9084,
      "कांनी": 9085,
      "1958": 9086,
      "प्रमाणे": 9087,
      "सेवांचा": 9088,
      "लागते": 9089,
      "निर्यात": 9090,
      "शास्त्रातील": 9091,
      "१९७४": 9092,
      "१९७५": 9093,
      "१९७७": 9094,
      "occurred": 9095,
      "occasions": 9096,
      "markets": 9097,
      "न्यायाधिकार": 9098,
      "works": 9099,
      "Eastern": 9100,
      "Still": 9101,
      "eventually": 9102,
      "greenhouse": 9103,
      "teen": 9104,
      "ईसाई": 9105,
      "जैसी": 9106,
      "शांत": 9107,
      "arms": 9108,
      "प्रतिबंध": 9109,
      "प्रांताचे": 9110,
      "विषुव": 9111,
      "हालांकि": 9112,
      "वेगवेगळे": 9113,
      "असलेला": 9114,
      "असलेल्या": 9115,
      "युगातील": 9116,
      "ultaneously": 9117,
      "काळातच": 9118,
      "उदाहरणे": 9119,
      "Punjabi": 9120,
      "biodiversity": 9121,
      "biotech": 9122,
      "colleges": 9123,
      "ronic": 9124,
      "पहाड़ियाँ": 9125,
      "बिनेट": 9126,
      "मार्च": 9127,
      "वृक्ष": 9128,
      "espite": 9129,
      "वायुसेना": 9130,
      "राज्यांत": 9131,
      "राज्यांच्या": 9132,
      "राज्यांमध्ये": 9133,
      "हिंदुस्थान": 9134,
      "वर्णित": 9135,
      "जिनके": 9136,
      "स्वरूपात": 9137,
      "medieval": 9138,
      "generated": 9139,
      "highly": 9140,
      "mathematicians": 9141,
      "पर्वतश्रे": 9142,
      "पर्वतमाला": 9143,
      "शहरीकरण": 9144,
      "बांधले": 9145,
      "बांधली": 9146,
      "बांधून": 9147,
      "बांधणी": 9148,
      "Muslims": 9149,
      "Alliance": 9150,
      "Religion": 9151,
      "airs": 9152,
      "lasted": 9153,
      "migration": 9154,
      "manufact": 9155,
      "obstru": 9156,
      "तमिलनाड": 9157,
      "नैऋत्य": 9158,
      "नृत्यप्रकार": 9159,
      "पोर्ट": 9160,
      "बनीं": 9161,
      "मसाला": 9162,
      "शक्तियों": 9163,
      "सतों": 9164,
      "annually": 9165,
      "annual": 9166,
      "केन्द्रीय": 9167,
      "1985": 9168,
      "1989": 9169,
      "सांख्य": 9170,
      "transformed": 9171,
      "निवडले": 9172,
      "निवडतात": 9173,
      "किनारा": 9174,
      "territorial": 9175,
      "पुत्रा": 9176,
      "१९८०": 9177,
      "१९८९": 9178,
      "मोहेंजो": 9179,
      "दक्षिणेतील": 9180,
      "coasts": 9181,
      "coastal": 9182,
      "coastline": 9183,
      "feature": 9184,
      "गुजरा": 9185,
      "मूल्यों": 9186,
      "भरतनाट्य": 9187,
      "dominion": 9188,
      "dominance": 9189,
      "techniqu": 9190,
      "न्यायालयों": 9191,
      "Sikhs": 9192,
      "इमारती": 9193,
      "ओळखला": 9194,
      "Democratic": 9195,
      "Shastri": 9196,
      "Shiva": 9197,
      "bread": 9198,
      "break": 9199,
      "carved": 9200,
      "countries": 9201,
      "descri": 9202,
      "ethical": 9203,
      "ethnic": 9204,
      "fastest": 9205,
      "figure": 9206,
      "geograph": 9207,
      "garment": 9208,
      "garlic": 9209,
      "key": 9210,
      "knit": 9211,
      "mitt": 9212,
      "ruled": 9213,
      "ruling": 9214,
      "rulers": 9215,
      "turn": 9216,
      "wanted": 9217,
      "इत्यादि": 9218,
      "उभरी": 9219,
      "कूल": 9220,
      "कटिका": 9221,
      "जुन्या": 9222,
      "डिग्री": 9223,
      "पानगळी": 9224,
      "फाळ": 9225,
      "बैंक": 9226,
      "remained": 9227,
      "diffused": 9228,
      "divorce": 9229,
      "stead": 9230,
      "steamed": 9231,
      "archaic": 9232,
      "essential": 9233,
      "नावाची": 9234,
      "राजाओं": 9235,
      "देशाचे": 9236,
      "बाह्य": 9237,
      "१९६२": 9238,
      "१९६५": 9239,
      "जनतांत्रिक": 9240,
      "produce": 9241,
      "खासकर": 9242,
      "married": 9243,
      "महाद्वीपों": 9244,
      "गेटवे": 9245,
      "occupy": 9246,
      "occupation": 9247,
      "original": 9248,
      "dependent": 9249,
      "paintings": 9250,
      "industrial": 9251,
      "democratic": 9252,
      "democracy": 9253,
      "flour": 9254,
      "gatherers": 9255,
      "heredit": 9256,
      "promin": 9257,
      "volcan": 9258,
      "खोरे": 9259,
      "जंगलों": 9260,
      "धोरण": 9261,
      "नवीन": 9262,
      "फैला": 9263,
      "१६३८": 9264,
      "१६४८": 9265,
      "disputed": 9266,
      "स्वीकार": 9267,
      "प्रचलन": 9268,
      "नेहरु": 9269,
      "headed": 9270,
      "amphi": 9271,
      "several": 9272,
      "severely": 9273,
      "opped": 9274,
      "defined": 9275,
      "प्राण्यांच्या": 9276,
      "प्राण्यांमध्ये": 9277,
      "उत्पादन": 9278,
      "eticide": 9279,
      "commerce": 9280,
      "व्युत्पत्": 9281,
      "endemism": 9282,
      "स्थापत्यशास्त्रातील": 9283,
      "साम्राज्याची": 9284,
      "साम्राज्याच्या": 9285,
      "वैशिष्ट्ये": 9286,
      "service": 9287,
      "historical": 9288,
      "historically": 9289,
      "historians": 9290,
      "पृष्ठाचा": 9291,
      "अमरीका": 9292,
      "व्हावे": 9293,
      "विद्यार्थ्यांची": 9294,
      "births": 9295,
      "birthplace": 9296,
      "तमिळनाडूतील": 9297,
      "Bhangra": 9298,
      "Bihar": 9299,
      "Biodiversity": 9300,
      "Northeast": 9301,
      "Rajiv": 9302,
      "Rajputs": 9303,
      "borne": 9304,
      "borders": 9305,
      "civilian": 9306,
      "factor": 9307,
      "izens": 9308,
      "make": 9309,
      "payee": 9310,
      "voted": 9311,
      "villages": 9312,
      "various": 9313,
      "अंतिम": 9314,
      "अधिराज्य": 9315,
      "आर्क": 9316,
      "उदय": 9317,
      "उदयास": 9318,
      "उठाव": 9319,
      "उठाया": 9320,
      "एनएस": 9321,
      "कमाली": 9322,
      "कंपनियों": 9323,
      "घडल्या": 9324,
      "जवळपास": 9325,
      "तराई": 9326,
      "नद्यांमध्ये": 9327,
      "पहुँ": 9328,
      "फिर": 9329,
      "फिल्म": 9330,
      "मौसम": 9331,
      "महिन": 9332,
      "महिला": 9333,
      "वानंतर": 9334,
      "शहरों": 9335,
      "independent": 9336,
      "regul": 9337,
      "distinct": 9338,
      "organised": 9339,
      "स्मारक": 9340,
      "प्रगती": 9341,
      "प्रशासनिक": 9342,
      "विजय": 9343,
      "विद्यापीठ": 9344,
      "परिष": 9345,
      "emperor": 9346,
      "हिस्सों": 9347,
      "मिश्रित": 9348,
      "चालतो": 9349,
      "1960s": 9350,
      "groups": 9351,
      "spreading": 9352,
      "subsequently": 9353,
      "वन्यसं": 9354,
      "वन्यजीव": 9355,
      "declared": 9356,
      "complex": 9357,
      "यांच्यात": 9358,
      "policy": 9359,
      "everyday": 9360,
      "इंग्लंड": 9361,
      "ग्रीक": 9362,
      "पार्टियां": 9363,
      "अभियानों": 9364,
      "गोंडवन": 9365,
      "survives": 9366,
      "स्वातंत्र्यप्राप्": 9367,
      "current": 9368,
      "edicts": 9369,
      "ऋषभदेव": 9370,
      "ऋषभदेवा": 9371,
      "गंगेचे": 9372,
      "दख्खनचे": 9373,
      "नागरिकों": 9374,
      "पुर्तगाल": 9375,
      "Foreign": 9376,
      "building": 9377,
      "cheetah": 9378,
      "creating": 9379,
      "creativity": 9380,
      "dense": 9381,
      "family": 9382,
      "hotspo": 9383,
      "hymns": 9384,
      "layer": 9385,
      "nominal": 9386,
      "passing": 9387,
      "tubercul": 9388,
      "winds": 9389,
      "अजनाभवर्ष": 9390,
      "अहिंसावादी": 9391,
      "अशोक": 9392,
      "अशोकाने": 9393,
      "आयातक": 9394,
      "ओडिशा": 9395,
      "ओडिसी": 9396,
      "क्योंकि": 9397,
      "गिधा": 9398,
      "ग्वेद": 9399,
      "ग्लेशिय": 9400,
      "चरम": 9401,
      "तटों": 9402,
      "पर्जन": 9403,
      "पहिला": 9404,
      "मनाए": 9405,
      "रखने": 9406,
      "लैंड": 9407,
      "लौटना": 9408,
      "लड़ाकू": 9409,
      "शिकार": 9410,
      "शिकारी": 9411,
      "स्रोत": 9412,
      "ेतही": 9413,
      "involved": 9414,
      "involving": 9415,
      "renewable": 9416,
      "प्रेमक": 9417,
      "प्रसारण": 9418,
      "ission": 9419,
      "देवाच्या": 9420,
      "भावार्थ": 9421,
      "advanced": 9422,
      "additional": 9423,
      "against": 9424,
      "astrianism": 9425,
      "whereas": 9426,
      "स्तरावर": 9427,
      "बांग्लादेश": 9428,
      "प्राप्ति": 9429,
      "असल्याने": 9430,
      "असल्याची": 9431,
      "grandmother": 9432,
      "झाल्यानंतर": 9433,
      "associate": 9434,
      "associated": 9435,
      "affairs": 9436,
      "महत्त्वाच्या": 9437,
      "Hindustan": 9438,
      "Hindustani": 9439,
      "चित्रपटसृष्टी": 9440,
      "शिक्षणाच्या": 9441,
      "मध्यप्रदेशातील": 9442,
      "शिखर": 9443,
      "टेलीविजन": 9444,
      "टेलीविज़न": 9445,
      "contributed": 9446,
      "taxes": 9447,
      "expression": 9448,
      "अमेरिकन": 9449,
      "अमेरिकी": 9450,
      "untouchability": 9451,
      "speaking": 9452,
      "speakers": 9453,
      "Brahmaputra": 9454,
      "legislature": 9455,
      "निम्नवत": 9456,
      "Akbar": 9457,
      "Economy": 9458,
      "Geography": 9459,
      "Health": 9460,
      "Lankan": 9461,
      "Malay": 9462,
      "Marath": 9463,
      "Politics": 9464,
      "Vijay": 9465,
      "bonds": 9466,
      "briefly": 9467,
      "calend": 9468,
      "cleared": 9469,
      "climatic": 9470,
      "draw": 9471,
      "framework": 9472,
      "females": 9473,
      "gained": 9474,
      "gods": 9475,
      "hubs": 9476,
      "highest": 9477,
      "patron": 9478,
      "pastoral": 9479,
      "similar": 9480,
      "savoury": 9481,
      "varna": 9482,
      "अर्ध": 9483,
      "अनिवार्य": 9484,
      "अल्पाइन": 9485,
      "अंदमान": 9486,
      "आठवीं": 9487,
      "आवश्य": 9488,
      "उमट": 9489,
      "ऊर्जा": 9490,
      "एवम": 9491,
      "कथक": 9492,
      "छाऊ": 9493,
      "जन्म": 9494,
      "झारखंड": 9495,
      "ड्राइव्": 9496,
      "ढाँचा": 9497,
      "नमूद": 9498,
      "पसंती": 9499,
      "बहती": 9500,
      "बंदर": 9501,
      "महीने": 9502,
      "मंचों": 9503,
      "रियासतों": 9504,
      "सियाचिन": 9505,
      "हस्तक्षेप": 9506,
      "िश्चन": 9507,
      "thorn": 9508,
      "threatened": 9509,
      "anagara": 9510,
      "initi": 9511,
      "disease": 9512,
      "standardis": 9513,
      "1930s": 9514,
      "isolation": 9515,
      "नाइट": 9516,
      "नागपूर": 9517,
      "towns": 9518,
      "वामपंथी": 9519,
      "levels": 9520,
      "संरक्षण": 9521,
      "लेखक": 9522,
      "करेगी": 9523,
      "करोड": 9524,
      "ताजमहाल": 9525,
      "adopted": 9526,
      "निर्माता": 9527,
      "vegetari": 9528,
      "किनाऱ्यालग": 9529,
      "devotion": 9530,
      "शाकाहारी": 9531,
      "राज्यसभेतील": 9532,
      "पुढार": 9533,
      "पुतळा": 9534,
      "उत्तरांचल": 9535,
      "मोर्चा": 9536,
      "persist": 9537,
      "shores": 9538,
      "short": 9539,
      "क्रयशक्ति": 9540,
      "क्रिकेट": 9541,
      "क्रमांका": 9542,
      "particular": 9543,
      "railways": 9544,
      "गुरूकूल": 9545,
      "पश्चिमेकडे": 9546,
      "मध्यमवर्ग": 9547,
      "शिवाजी": 9548,
      "ज़्यादा": 9549,
      "द्वीपकल्प": 9550,
      "अर्थव्यवस्थेत": 9551,
      "extensively": 9552,
      "numerals": 9553,
      "हिमालयीन": 9554,
      "सैनिकों": 9555,
      "merchants": 9556,
      "पैमाने": 9557,
      "Eurasia": 9558,
      "expansion": 9559,
      "पठारावरील": 9560,
      "जैववैविध्य": 9561,
      "इंग्रजांनी": 9562,
      "आरक्षणामुळे": 9563,
      "अन्तर्गत": 9564,
      "manuscript": 9565,
      "points": 9566,
      "मसाल्यां": 9567,
      "निवडणूक": 9568,
      "breathing": 9569,
      "बदलांमुळे": 9570,
      "्टवेयर": 9571,
      "producer": 9572,
      "strongly": 9573,
      "नियंत्रण": 9574,
      "स्मारकावरून": 9575,
      "liberalisation": 9576,
      "characteristic": 9577,
      "response": 9578,
      "Gujarat": 9579,
      "habitat": 9580,
      "safeguard": 9581,
      "समझौते": 9582,
      "Pallavas": 9583,
      "victories": 9584,
      "ईशान्येकडील": 9585,
      "उर्वरित": 9586,
      "जंबूद्वीप": 9587,
      "दहशतवाद": 9588,
      "discriminatory": 9589,
      "संबोधित": 9590,
      "शाहजहानने": 9591,
      "अग्निध्रा": 9592,
      "सौहार्दपूर्ण": 9593,
      "Ajanta": 9594,
      "Achaem": 9595,
      "Australian": 9596,
      "Between": 9597,
      "Classical": 9598,
      "Caves": 9599,
      "Cups": 9600,
      "Climate": 9601,
      "Carnatic": 9602,
[...]
